#version: 0.2
Ġ t
h e
Ġ a
i n
Ġ s
Ġt he
Ġ w
r e
Ġ o
o u
n d
h a
e r
Ġ m
i t
Ġ b
i s
e n
Ġ c
e d
Ġ d
Ġ f
o n
Ġt o
Ġ l
Ġ p
Ġo f
e s
in g
a s
Ġa nd
o r
l l
a r
Ġ h
a n
Ġ he
Ġ n
Ġ in
Ġ ha
a t
o m
Ġ e
l e
ha t
Ġ g
Ġb e
i c
o t
Ġ I
u t
s e
i m
en t
Ġw as
v e
o w
Ġ re
i d
l d
Ġt h
Ġ y
s t
Ġt hat
Ġ u
c e
Ġo n
Ġw h
u r
l y
Ġ it
e t
i r
g h
it h
Ġy ou
v er
Ġd e
Ġw ith
i on
Ġh is
a d
q u
Ġha d
a y
a l
Ġf or
Ġ r
Ġa s
Ġw e
â Ģ
Ġn ot
Ġs t
a c
Ã ©
gh t
ou ld
Ġa t
Ġhe r
i l
Ġs e
a m
Ġm e
T he
Ġa n
a in
r i
âĢ Ļ
i ll
Ġm y
t er
he r
r o
Ġh im
Ġs a
Ġ v
ic h
Ġ is
re d
k e
Ġwh ich
Ġ M
o o
i f
Ġ qu
ou r
. "
Ġs o
u s
Ġl e
o re
Ġs he
a g
p e
Ġs u
a nd
c h
Ġha ve
an t
es s
l i
Ġf r
c t
ou s
ou t
Ġn e
Ġc on
Ġb y
Ġth is
re s
ar d
Ġc om
n e
Ġs h
Ġa ll
b le
i ght
a ll
Ġb ut
Ġu p
Ġ j
t e
Ġfr om
Ġe x
Ġ k
Ġwe re
t h
Ġsa id
a it
Ġl a
es t
l f
Ġ "
Ġwh o
o s
u l
Ġ C
Ġf e
' s
Ġthe y
p p
Ġw he
am e
i e
Ġw ould
, "
ver y
on g
as t
Ġn o
u st
Ġd o
er s
is t
Ġon e
Ġl i
e m
o l
Ġo r
ar t
Ġu n
Ġthe m
Ġ en
om e
ou nd
Ġp l
Ġa l
at ion
Ġm an
H e
u n
se lf
in d
Ġ P
u re
a p
? "
a k
Ġa b
ha n
Ġt r
as s
g e
oo d
u m
or t
Ġthe ir
Ġo ut
Ġc ould
on e
he d
e ll
Ġthe re
v en
Ġ S
c k
i g
Ġ A
Ġbe en
Ġw or
ic e
i re
id e
Ġa r
Ġw ill
Ġ B
at e
e l
Ġa g
a ce
Ġp r
! "
k ed
- -
Ġin t
Ġa re
Ġ L
Ġg o
in e
it t
Ġwhe n
Ġ F
a u
Ġt w
it e
ow n
n t
Ġp ro
re at
v ed
Ġ if
ou gh
Ġa m
i ve
Ġc o
a ble
Ġyou r
Ġ H
I t
Ġa f
Ġm ore
Ġe t
h ing
Ġw hat
en ce
Ġ Ã
Ġm o
t her
ac k
ur n
Ġ G
Ġg r
a b
Ġr o
Ġb r
Ġs p
Ġt im
a ke
Ġl o
Ġ J
a is
l o
Ġ very
p t
Ġthe n
Ġk n
ou ght
Ġs ome
t ain
Ġd is
ad e
Ġu s
Ġint o
Ġ im
Ġre p
an s
m ent
c c
m e
an ce
Ġd es
Ġp o
i le
it y
Ġag ain
u d
Ġd ay
nd er
ag e
B ut
Ġli ke
ĠÃ ł
Ġse e
Ġ R
Ġan y
Ġd id
f t
a v
res s
e p
r y
Ġs ha
a ve
f ore
Ġa d
Ġo ther
w ay
Ġup on
itt le
u e
n g
Ġtw o
Ġl ong
Ġo ver
Ġtim e
Ġha nd
Ġt han
a re
Ġto o
f e
Ġl ittle
is h
Ġc h
Ġsh ould
Ġ N
o p
re e
A nd
Ġb o
Ġl oo
Ġp er
Ġqu e
Ġc an
Ġon ly
Ġo ur
Ġs ay
Ġn ow
Ġkn ow
c he
Ġb l
at ed
ot her
Ġp ass
v ing
Ġcom p
Ġm ade
Ġp re
r a
p s
Ġab out
Ġp e
b er
Ġre m
w e
Ġc ha
ion s
Ġf o
Ġc l
ri ed
Ġ E
Ġbe fore
i es
on s
Ġg reat
i ous
Ġaf ter
ad y
k ing
T h
Ġd u
Ġth ought
Ġit s
Ġ '
o se
Ġhim self
Ġd own
Ġha s
Ġf ir
ri e
Ġe ven
at her
c o
Ġe y
Ġo b
Ġ D
Ġof f
Ġm ust
Ġs ur
Y ou
Ã© t
o d
Ġthe se
' t
Ġh ow
Ġg ood
Ġu nder
l es
Ġst r
Ġe very
Ġwith out
ar y
all y
ar s
ac h
ou nt
Ġre s
l ed
is e
u ch
w ard
or d
Ġa p
w n
Ġp art
ing s
an g
Ġ ;
Ġw ent
S he
Ġp ar
Ġfir st
n ess
Ġc r
Ġ il
Ġc ame
Ġcon t
Ġl es
s i
Ġb ack
Ġv o
Ġim p
if e
Ġqu i
u x
i ld
an c
Ġl et
in t
t y
Ġsu ch
Ġne ver
Ġ ent
Ġs pe
ac t
d e
Ġth r
â Ī
âĪ Ĵ
en ed
a red
Ġm uch
Ġbe t
Ġcom e
u ll
Ġex p
Ġbe g
Ġwe ll
f f
or n
Ã ¨
Ġ T
Ġw at
at h
is s
in k
Ġs c
Ġo p
Ġs er
ou se
Ġm ar
a i
W hat
f ul
Ġre t
i ed
ig n
Ġbe c
v es
on t
om ent
Ġw ay
i en
Ġm ight
Ġm oment
Ġl ast
r t
Ġse em
i er
ll ow
Ġs m
Ġwhe re
Ġj e
k s
ag n
Ġey es
Ġa cc
The re
Ġnot hing
a ut
li ed
Ġc e
Ġhe ad
Ġc ar
Ġst ill
i x
Ġa v
Ġh o
a ir
Ġw om
Th is
, '
c l
ll e
The y
Ġt urn
Ġf l
Ġm ake
Ġyou ng
Ġwor d
Ġf ound
Ġj ust
u li
ic k
Ġbe ing
Ġg l
Ġrep lied
I n
in ce
rie nd
qu e
ĠM r
Ġa way
i p
Ġu ne
m b
e ver
Ġf riend
l and
Ġsa w
Ġsha ll
pe ct
Ġo ld
l ess
Ġth ree
The n
g ed
Ġ .
Ġle ft
Ġap pe
m ed
Ġs on
Ġm on
Ġd ist
Ġs et
Ġe nd
l t
ak ing
W e
ill e
Ġ ke
or s
o nd
Ġcon s
u i
om et
is hed
th ing
i ly
Ġ Ã©t
Ġp res
Ġtoo k
A t
Ġp os
Ġt e
Ġp ut
i z
er tain
Ġa pp
Ġth ink
Ġy e
Ġd ans
re t
. '
uli en
Ġp our
p er
Ġc our
Ġw ind
d er
Ġt ake
en c
t re
Ġc ap
Ġth ose
en s
agn an
A rt
Art agnan
Ġn ight
Ġthr ough
t ed
Ġo wn
he n
Ġseem ed
ct ion
u ne
Ġm en
Ġ W
se l
re n
Ġa u
Ġm ay
Ġc he
Ġh our
Ġk ne
Ġhe re
Ġso on
Ġret urn
t ing
Ġpl ace
le as
Ġmy self
che s
Ġon ce
Ġg et
Ġmo st
u nd
b e
a il
Ã ª
li e
Ġwh ile
Ġwom an
ou b
Ġl ife
Ġh ouse
Ġd on
v ent
Ġas ked
au se
Ġt ell
Ġ V
Ġc all
Ġgo ing
Ġdo or
Ġha r
Ġp as
i v
Ġf ace
Ġat t
Ġc ried
Ġha pp
Ġl ui
Ġin st
as ter
ver s
Ġb ot
Ġhe ard
Ġhand s
Ġs ame
Ġlo ve
c i
Ġcom m
n er
Ġt er
Ġl ight
l ing
Ġs il
Ġhe art
N o
Ġw ant
m an
Ġar m
o st
Ġro om
i gh
c hed
way s
or m
c ed
Ġpo int
Ġha ving
Ġsu pp
g et
Ġs omet
Ġm in
it ion
p r
Ã© e
it her
Y es
ad ame
ain ed
Ġre g
th os
Ġloo ked
Ġagain st
ent ly
r u
ell e
Ġy et
Ġan s
Ġto ld
re w
ul t
ar k
g g
ward s
j e
Ġbeg an
Ġp leas
Ġan other
Ġc ount
Ġc ertain
Ġm at
ur s
Ġfo llow
Ġch ild
e red
ĠJ ulien
ro s
Ġw r
Ġt out
we en
Ġre st
si ble
o y
Ġp ers
Ġb re
Ġth ough
Ġwat er
Ġe ar
in ed
Ġc han
âĢ Ķ
Ġcha r
r ice
Ġf ind
pp ed
Ġa c
Ġfe lt
m er
Ġa ir
fe ct
Ġg ive
u res
ar r
Ġh or
Ġpl us
A s
Ġal ways
W h
Ġcont in
d en
Ġfor t
Ġbet ween
in s
Ġde v
t he
Ġe ver
Ġg i
i an
Ġd r
Ġwh om
Ġcon f
Ġf a
ation s
Ġha lf
Ã© s
ab rice
u p
O n
ic t
Ġher self
Ġfe w
ow s
as e
Ġin c
m en
Ġg u
ak en
Ġas s
or y
Ġs ent
Ġne ar
Ġse en
Ġse a
Ġre f
at ing
Ġv ous
Ġf ar
ent le
en e
Ġr ound
Ġ es
T hat
Ġf our
Ġad d
Ġm orn
et te
op le
ie ur
em ent
Ġt al
Ġs w
Ġs ide
ou d
M y
Ġkne w
Ġe ach
li ght
Ġmorn ing
in ess
ons ieur
lo ck
Ġop en
Ġr ight
Ġo cc
W ell
Ġd oub
Ġ !
Ġs at
Ġne w
Ġt re
Ġday s
Ġg ave
Ã© c
Ġwor k
ha ps
Ġvo ice
W hen
Ġm et
t en
Ġst re
u red
ce i
os ed
ĠP ar
i red
Ġman y
Ġeven ing
l ic
Ġg entle
Ġen ough
Ġfe el
Ġqu ite
ow ed
Ġun c
x t
Ġpass ed
Ġe m
s o
Ġm ind
sel ves
Ġbe lie
Ġd if
Ġn at
Ġc ur
Ġa ve
u ed
Ġloo k
Ġn or
n ing
Ġav ait
O h
Ġsu b
m ost
Ġpe ople
a le
u ck
o ve
er y
Ġ est
ter s
ĠM ar
oo l
Ġl ar
u b
v ant
Ġw al
Ġwho le
Ġd ire
Ġin f
is on
Ġen g
Ġc le
Ġ 1
Ġs l
Ġde p
ow er
Ġcomp an
Ġin s
ha r
Ġth ings
Ġs ince
Ġar ri
he s
Ġd one
Ġm other
Ġin ter
H ow
an k
a z
re nt
ros s
Ġn ame
ro ft
ai ent
Ġ :
je ct
c ess
te nd
âĢ ĵ
Ġpo or
ir l
p le
ud e
Ġg ot
ĠG r
Ġw ait
Ġin d
Ġf ather
Ġwor ld
is ed
Ġwho se
Ġdoub t
Ġo u
ĠF abrice
Ġco nd
an e
I f
ut e
enc roft
Ġave c
ar ing
ul ar
Ġword s
Ġ O
y ing
Ġf am
oo k
und red
Ġs ou
Ġh undred
ur ing
au ght
Ġth ing
Ġbr ought
Ġlong er
ĠÃ©t ait
he re
ent s
Ġturn ed
Ġb ro
Ġunder st
id es
al s
Ġsomet hing
Ġin de
ri ght
Ġv is
Ġm aster
Ġfe et
Ġal so
Ġs k
Ġ He
Ġs ix
Ġre ad
o ke
re ady
Ġf all
ress ed
ain t
Ġb ed
it s
Ġre c
Ġ ide
Ġf ull
Ġg irl
ate ly
ve red
et h
Ġj our
om p
Ġl ess
ĠM adame
Ġe lle
Ġye ars
Ġf ire
Ġto wards
s er
ce pt
Ġs ir
cei ved
Ġs ort
Ġm id
Ġg en
Ġc ol
Ġbe h
Ġt aken
Ġf in
Ġd ark
as on
Ġst e
Ġal ready
ou n
Ġc are
Ġle ast
Ġle ave
Ġcap tain
ra w
Ġbet ter
or r
Ġbec ause
Ġm a
u se
g er
Ġal one
ent y
Ġappe ared
ac hed
Ġal most
H is
d den
Ġbl ack
Ġtr ou
Ġhar d
Ġlar ge
Ġbot h
m es
ĠF r
ber t
Ġper haps
out h
Ġc lo
Ġk ind
Ã¨ re
ous and
Ġd it
Ġqu est
Ġspe ak
Ġpl ac
Ġs le
Ġst o
Ġh um
g u
Ġb ien
Ġsu dden
ĠL a
get her
y s
us ed
am p
Ġne xt
Ġcall ed
Ġth ousand
st er
Ã© r
ĠG od
Ġre co
Ġthem selves
ard ing
Ġt en
at er
an ge
n ot
Ã© p
d u
Ġde ar
f ort
Ġ ir
re st
im e
Ġany thing
ĠP encroft
Ġpers on
' ll
c es
Ġla u
Ġke ep
Ġbeh ind
o ir
Ġm is
Ġw all
t le
Ġd re
e b
te red
i ent
v al
o is
Ġf ive
c y
Ġh on
Ġg one
et s
Ġis land
d ay
ct ed
Ġinde ed
ent ion
Ġe as
Ġse c
Ġdis c
id ed
Ġm ais
Ġam ong
Ġ ve
Ġs i
Ġr ather
Ġs im
Ġsu re
Ġevery thing
b it
Ġl ad
Ġl ay
Ġunc le
Ġs ing
n ed
Ġbo at
Ġob ser
Ġsa il
te m
Ġaf f
Ġfriend s
Ġw ife
Ġr un
ow ing
Ġpro f
Ġhow ever
ĠA r
k en
Ġin te
Ġf ore
Ġgr and
ang er
ic al
S o
co nd
Ġ ?
om me
Ġor der
Ġal ong
Ġhe ar
Ġsu ff
l p
Ġw ar
Ġcount ry
Ġsur pr
ĠPar is
Ġc ette
b ed
g r
Ġto gether
Ġs ign
Ġc al
Ġf ur
Ġm ist
en se
Ġf ut
Ġp ri
Ġlet ter
Ã §
Ġd et
le t
Ġdo es
ĠH arding
Ġs we
i ble
is ter
im es
Ġsm all
Ġcontin ued
Ġv ie
y r
Ġ Â
ag es
Ġt em
Ġh us
u al
Ġpres ent
in al
Ġfe ll
Ġpr om
Ġab s
Ġlo st
Ġf ine
Ġl ist
Ġrem ained
ir c
Ġt ill
ĠA thos
Ġst ood
a im
Ġ ill
Ġse cond
Ġl and
Ġreturn ed
Ġbelie ve
0 0
Ġ K
Ġbe aut
Ġab ove
Ġm il
ce ed
ie ld
ĠJ e
Ġfe ar
l an
Ġen c
Ġ _
Ġu se
Ġex c
ap tain
t o
er ing
Ġad m
F or
Ġl ow
Ġtw enty
f ic
ro om
Ġa ble
ĠS t
T o
Ġh un
Ġh ome
ard s
c lock
Ġt able
Ġfor m
Ġarm s
Ġsu n
Ġhour s
Ġcom ing
Ġeng ine
! '
u is
ain s
Ġb ene
A h
A ll
Ġbe l
one y
Ġb ar
Ġne ed
Ġh igh
Ġst and
ĠE ng
f or
Ġth us
Ġde ath
Ġr ais
ĠM a
Ġs es
ut es
b our
Ã ¢
Ġe l
Ġ (
en g
Ġth ir
Ġde c
Ġm ot
Ġb ur
Ã¨ s
Ġ The
Ġt ou
Ġb est
Ġho pe
Ġke pt
Ġc irc
Ġco ld
Ġro ad
Ġdis p
Ġw ood
Ġide a
Ġa w
c ha
Ġsh ort
Ġgi ven
Ġk ing
Wh y
i ver
Ġfo ot
Ġmon th
ill ed
Ġinst ant
Ġs ound
Ġe le
Ġad v
? '
Ġwh ite
Ġex pect
Ġj o
b and
Ġ -
Ġp ol
anc es
L e
w er
Ġre d
Ġde ep
Ġde m
er t
Ġd Ã©
if ic
b ut
o le
Ã ´
Ġfollow ed
Ġst ep
Ġwind ow
Ġbr other
at s
Ġsay s
Ġbec ame
Ġloo king
Ġdu ches
Ġquest ion
et y
Ġv i
t hat
Ġa ct
Ġpos sible
Ġsh ore
Ġgr ound
Ġb us
ĠC har
Ġsil ence
ĠR o
Ġother s
Ġapp ro
ĠS p
m m
Ġc ou
ap pe
Ġp et
we red
Ġunderst and
Ġs ight
Ġm oney
Ġhus band
g n
Ġm ur
Ġans wered
Ġc ent
us hed
Ġter ri
i al
Ġre ason
il ady
Ġne cess
ull y
o ck
er bert
N ow
v id
Ġc ut
Ġd raw
Ġre pe
iz ed
li z
Ġpl ay
Ġcan not
Ġho ld
Ġtim es
Ġop ened
Ġes c
il us
f ter
i a
Ġm aking
aut ilus
Ġmin utes
Ġmat ter
i ence
Ġw ish
Ġc a
Ġduches se
Ġp ie
it ude
Ġof ten
Ġfe llow
Ġ ut
it ed
N ot
Q u
Ġhe lp
v ille
Ġf act
as h
Ġob li
Ġo pp
es ides
r ic
Ġex cl
âĪĴ âĪĴ
en al
ment s
Ġgen er
in c
Ġm er
Ġc ard
d y
Ġp h
on se
od y
Ġa ut
Ġd ro
Ġre l
E R
Ġun t
Ġrem em
Ġt ro
Ġro se
Ġengine er
Ġclo se
Ġr is
ĠM onsieur
Ġli ve
Ġb on
ĠÂ »
Ġse ver
ri age
Ġadd ed
h o
Ġp ay
Ġstr ange
Ġsh ip
Ġdif fic
m in
Â «
O ne
Ġde ad
Ġqu el
Ġcom me
Ġro ck
Ġappe ar
Ġcour se
Ġr an
f ully
Ġpro p
Ġt ri
ĠF o
Ġcomp le
Ġfam ily
t s
t on
ha m
Ġan im
ĠN autilus
av es
Ġtr ue
Ġp ower
Ġg re
Ġc or
ac es
Ġpr ison
Ã ł
I l
u it
b ody
ile t
Ġre ally
ant s
Ġp ort
il s
ab eth
ĠR enal
liz abeth
Ġsudden ly
Ġbene ath
Ġb u
Ġe ight
Ġex t
at es
ot e
Ġsle ep
id er
Ġme an
n es
Ġcon st
Ġd uring
Ġth in
c er
Ġe mb
Ġg all
Ġpro v
Ġin v
ĠM iss
ab ly
Ġ Ã©
ch ing
Ġbr ing
Ġp ur
Ġim ag
yr us
Ġsever al
Ġd in
u ally
Ġqu ar
Ġear th
D o
Ġc reat
Ġd ri
Ġcon v
ĠFo gg
i b
Ġunt il
Ġl ady
ĠS ir
r or
ĠC aptain
um p
r act
Ġas k
l s
Ġcar ried
Ġman ner
r om
Ġh ur
Ġe ither
av ing
ious ly
Ġent ered
ien ne
A fter
e c
nd ed
Ġre ady
ie ux
Ġwom en
o c
med i
Ġe ff
Ġr u
l er
Ġb reat
is f
v a
Ġc ross
Ġcon vers
Ġexp ress
Ġm ad
Ġf ait
Ġcard inal
o on
Ġs n
Ġey e
Ġchild ren
Ġn ous
qu is
Ġans wer
r it
ĠI t
Ġst art
Ġwhe ther
Ġsp oke
Ġcle ar
a pp
l ish
m ber
or thos
qu es
L a
Ġexp l
Ġvi ol
Ġbec ome
g ing
our s
. .
Ġs it
ist s
Ġa st
Ġnat ure
y ou
g s
Ġor d
Ġhor se
Ġt aking
Ġwith in
Ġdis co
Ġf if
Ġg ard
Ġstr ong
Ġwh y
Ġres ol
Ġsto pped
Ġre al
Ġfa ire
s h
ot h
Ġar r
aim ed
Ġf right
ĠH erbert
Ġc es
Ġdes p
Ġsee ing
Ġser vant
Ġc at
orr ow
Ġm outh
Ġc orn
ound ed
e a
u es
Ġimp os
M r
Ġres pect
Ġsat isf
Ġc ast
Ġme ans
ĠMr s
d le
ou v
at ter
Ġbeg in
Ġlau gh
Ġcom te
Ġpr ince
Ġsay ing
Ġacc ount
Ġl eng
Ġex am
Ġyour self
Ġhe ld
ĠC l
Ġreg ard
Ã »
ot s
' ve
Ã© n
Ġye ar
Ġgentle man
ilet t
ure nt
Ġfr ont
ĠC h
em o
Ġs us
a w
nd e
Ġc ase
ĠM ilady
Ġper fect
k et
Ġus ed
Ġc ry
-- "
ĠN emo
Ġwe e
p l
Ġm ain
Ġfor g
Ġmo ve
Ġgl ass
as se
ut ion
ne y
Ġim medi
Ġinte rest
c ri
Ġbre ak
W ith
Ġp ast
Ġkn own
a pe
b r
Ġtr ans
Ġcertain ly
gu er
Ġsec ret
Ġ ed
Ġpleas ure
Ġs ister
ag ed
Ġwant ed
Ã ®
Ġp ale
Ġm al
Ġit self
Ġan n
Ġb it
Ġd i
um e
Ġleng th
Ġhe av
c her
il ed
e nd
Ġsp r
Ġplac ed
Ġn um
ī t
Ġp ain
if ul
Ġso ld
guer ite
am is
Ġha ir
Ġsc ar
Ġre ceived
Ġthought s
h ile
or ter
Ġm ount
ri g
C H
Ġto wn
ad ed
anc s
īt ienne
Ġp al
Ġqu ick
res h
Ġdre am
le y
Ġthere fore
Ġhapp y
Ġr ap
Ġpre t
air s
en ing
Ã©t ait
Ġvo y
Ġd anger
Ġwor th
il ity
ru pt
ĠChar les
Ġli ps
ĠJ ane
i ers
Ġs ch
Ġj oy
tem pt
Ġexcl aimed
Ġconvers ation
b o
p ar
im ent
Ġt ried
Ġoff ic
Ġnat ur
z e
ie u
Ġsomet imes
Ġcompan ions
Ġre ached
Ġy es
Ġle ar
Ġset t
Ġtal k
Ġacc omp
Ġdist ance
Ġs al
ĠP orthos
Ġv en
Ġel se
o nder
Ġf ix
Ġst ay
Ġfr ancs
A n
ĠI s
He re
a x
Ġf at
on y
Ġv ol
Ġsu cc
os s
Ġmil es
Ġm ine
Ġocc as
Ġan x
Ġnecess ary
Ġf lo
on n
ie f
an ite
Ġha st
au x
Ġarri ved
g es
s ide
um ed
Ġsl ow
Ġf it
Ġcr ow
onse il
Ġme et
Ġpart ic
Ġbot t
a ven
ĠRo che
Ġ 2
ist ed
Ġdif fe
Ġvis it
in es
ak es
Ġbl ood
Ġem p
re ad
en n
Ġex tre
Ġref le
o ire
in ation
Ġp at
Ġw ished
Ġha t
Ġso l
Ġ There
it Ã©
ll ed
Ġne ither
Ġstr uck
Ġterri ble
Ġst ri
Ġe qu
id ent
fe red
er m
as ed
Ġqui et
m ing
Ġd est
Ġar t
el s
itt ed
Ġp ap
ĠB on
Ġcrow d
p ed
Ġbo dy
Ġte ars
Ġbus iness
tend ed
Ġcomple te
Ġimpos sible
Ġimmedi ately
Ġpos s
ot re
ĠL e
ĠL ord
Ġou ght
Ġde g
if f
Ġd aught
Ġde ux
Ġsh out
Ġli ved
Ġdis appe
Ġm us
Ġtre es
Ġast on
Ġb ad
Ġp it
Ġir on
er n
Ġf ig
ur ch
us s
Ġser v
Ġcons ider
Ãª me
Ġhum an
Ġs ad
Ġg az
in ter
it ies
Ġbo y
ĠAr amis
Ġpass ion
ĠMar guerite
Ġs qu
Ġre qu
Ġcar ry
ant e
ĠA l
Ġsail or
Ġar ound
i or
Ġt one
Ġh omme
Ġg lo
ret ched
p art
r ait
in ary
or te
ess or
itt ing
Ġreco gn
ĠSp ilett
o g
Ġgentle men
Ġbeaut iful
Ġcirc um
Ġf ast
Ġne igh
Ġar ch
ĠL ond
Ġsh ut
Ġeas y
Ġcal m
Ġfort une
e y
f fect
Ġw ild
Ġto r
Ġac qu
A P
e x
Ġf ree
Ġr Ã©p
J ulien
ou red
Ġocc up
a ire
Ġb ig
ĠE lizabeth
A l
Ġr Ã©
Ġst ud
Ġb all
te en
Ġgo ld
Ġbe ll
Ġdire ct
Ġf resh
Ġe at
Ġcon ce
Ġv ill
ter n
Ġle ad
Ġsou l
Ġrepe ated
Ġpret ty
m s
nd ing
Ġsp ir
ĠT re
u c
us h
Ġobser ved
Ġdem and
Ġsa v
t es
u g
Ġf re
Ġl ed
Ġobli ged
Ġrap id
Ġf av
Ã© es
ĠC yrus
ĠLond on
w here
Ġrep ly
F rom
T ER
e or
Ġb at
is hing
Ġwal ked
v ous
Ġsha d
Ġmonth s
Ġheav y
Ġf air
The se
Ġv es
ren ce
Ġd ou
Ġde al
ag er
Ġth ick
Ġsu per
Ġan g
Ġpro du
Ġinc re
Ġh op
Ġr iver
Ġli ving
H er
I s
J e
L et
Ġe ffect
Ġre v
ĠP ro
B y
re r
Ġd rew
ac ed
ĠH en
ra id
Ġsm ile
CH AP
Ġde light
Ġj ud
Ġimp ort
Ġr id
ĠH ouse
Ġsha r
o v
ar cy
ĠB ut
Ġpo st
ĠEng lish
Ã» t
Ġm onsieur
Ġfeel ing
Ġposs ess
f orm
ĠC onseil
Ġchan ce
Ġsim ple
Ġatt ention
Ġwait ing
Ġbel ong
ct or
Ġcont r
Ġhapp ened
Ġmid st
Ġves sel
Ġde l
Ġrais ed
w hat
Ġe vid
Ġpl ain
Ġco vered
Ġpre c
Ġpos ition
e ad
n ight
p he
u ge
Ġm ass
Ġb urn
Ġno ise
Ġob ject
Ġscar ce
in ct
Ġk iss
Ġbre ad
Ġcircum st
pe nd
ĠC o
Ġaf raid
ail s
Ġsil ent
Ġsur f
u gg
asse part
assepart out
o f
Ġ ver
Ġfor ward
Ġv ent
Ġco ast
ĠD arcy
Ãª tre
Ġbro ken
Ġt ous
Ġb ir
Ġin n
il ing
C ome
b re
Ġd ress
Ġha ng
Ġfor med
Ġremem ber
' m
Ġp a
Ġn arr
am es
Ġme re
u ff
Ġcomp l
Ġturn ing
ĠS he
ig ne
Ġcl osed
Ġs ans
ur y
Ġfor get
Ġcon se
ĠN eb
How ever
Ġpri est
Ġent ire
Ġbott om
o h
Ġf urn
ic i
Ã´ t
o es
ut h
Ġrem ain
Ġmur m
Ġpie ce
, âĪĴâĪĴ
Ġl ater
Ġh ors
ound s
Ġpro b
Ġbo ard
Ġchar ac
Ġstand ing
Ġs light
Ġd ie
ul nes
un t
Ġoccas ion
Ġch urch
' re
B e
Ġvie w
Ġp ress
ing ly
Ġin qu
Ġle aving
Ġtr ave
Ġpre vent
Ġlo ved
tain ed
ĠN ed
Ġstre ng
Ġmo i
Ġpres ence
mm a
Ġsucc ess
Ġc ab
Ġc ause
ust om
Ġc ro
ver n
un g
ĠA nd
ĠIs land
Ġf ight
Ġp ull
Ġp ub
Ġcar riage
Ġsub ject
Ġwal k
Ġpartic ular
Ġj am
p ort
Ġ Th
in ing
Ġcompan y
Ġsurpr ised
Ġthin king
Ġnatur al
on es
Ġsh op
ĠS aint
ren ch
Ġgard en
ea ulnes
ic es
ce ll
ĠP r
Ġwat ch
ceed ed
Ġdin ner
CHAP TER
ri es
and ide
ather ine
Ġw onder
al ed
Ġhapp iness
Ġwar m
Ġf ing
Ġac ross
Ġsurf ace
o ld
ac ieux
ag ue
Ġpre p
iss ion
Ġtrou ble
Ġsing le
Ġcreat ure
Ġ You
Ġex cept
Ġfe m
Ġsp ite
Ġforg ot
U n
âĢ ľ
Ġst ory
Ġdep th
Ġfix ed
Ġc aught
âĢ Ŀ
Ġdo ing
Ġdes ire
Ġdaught er
Ġst one
Ġpl an
Ġcl ot
o i
as k
Ġat tempt
in ion
Ġe vent
am ed
Ġstep s
Ġt u
Ġst ate
ap ed
Ġsurpr ise
H E
Ġd iv
Ġf anc
th ough
Ġspe aking
Ġtre mb
Ġwee k
ĠRoche ster
ou l
Ġb es
an y
ic ed
um b
N ever
p h
Ã ¹
Ġto p
ir t
ant ly
ive ly
ild e
Ġslow ly
o int
Ġne ck
ĠR e
Ġpe u
Ġac cept
oh n
Ġstreng th
d s
f in
Ġg rew
Ġtr uth
Ġtal king
Ġs ac
Ġcour age
Ġmid dle
Ġla id
ath ilde
iz e
Ġdiffe rent
u le
ent ed
Ġrun ning
Ġextre me
Ġ Y
ce ive
ri ll
Ġpass age
nd re
Ġm ort
us si
Ġsh ow
Ġcha ir
Ġswe et
eor ge
Ġg un
Ġsh owed
anc ed
om m
Ġre ach
Ġacc ord
Ġex act
ĠL and
li a
Ġsch ool
Ġf ool
ĠM ole
Ġex ist
ĠÃ ītienne
Ġnear ly
Ġf illed
ĠEng land
Ġ X
Ġper m
Ġdev il
b y
Ġa ux
Ġsu c
fe ction
Ġseem s
r on
Ġth rew
ĠBon acieux
ve l
Ġfor ce
ct ions
out e
Ġthir ty
Ġeff ort
Ġcharac ter
y ond
ĠM me
ous ly
Ġrep orter
Ġunderst ood
Ġjour ney
Ġa ge
Ġha bit
han t
ud ence
rt on
Ġconf ess
Ġarr ang
y rton
ou p
Ġl ine
Ġp i
Ġbe yond
us ion
Ġwind ows
Ġchan ge
Ġcond u
g y
Ġw on
Ġm agn
Ġl im
ci ally
p ter
Ġso ft
ĠG u
Ġem pt
Ġeas ily
Ġf er
Ġp en
ĠF rench
Ġgr ave
m orrow
Ġo Ã¹
at ure
ort un
Ġdes ce
ĠN e
Ġhead s
Ġfollow ing
Ġscarce ly
ĠM us
Ġshould ers
Ġpass ing
Ġrem ar
Ġgi ving
Ġwall s
Ġdraw ing
Ġrock s
Ġcorn er
Ġnum ber
C ha
Ġfor mer
Ġexp er
ĠTre ville
ing oire
Ġse nd
Ġme m
li ke
Ġbur st
Ġbegin ning
a h
Ġh ot
Ġafter wards
Ġres umed
Ġop inion
o pe
ll y
ĠH arr
Ġbl ue
si b
Ġbro ke
Ġdiffic ult
Ġs y
Ġs ens
lo y
Ġad vant
Ġhard ly
Ġc and
Ġsu m
est y
ĠÃ©t Ã©
Ġdark ness
ĠThere se
Ġto ward
ĠJ ohn
ĠK ing
Ġsit u
b s
Ġin cl
Ġr ich
Ġse ven
Ġse par
pe cially
Ġcom fort
Ġpe ut
ĠGr anite
Ġcond ition
Ġfig ure
Ġc et
Ġde cl
Ġle an
ail ed
Ġcomm on
Ġresol ved
S t
Ġu nd
Ġse ized
Ġget ting
Ġsupp ose
enn et
Ġdisappe ared
W here
Ġst ra
Ġwat ers
p ly
he ad
Ġpo ck
Ġlad ies
ĠMa he
Ġmot ion
Ġappear ance
ĠAl ice
Ġs ense
ac on
Ġnew s
ket e
r ay
Å ĵ
Ġf le
Ġmist ress
Ġbreat h
Ġesc ape
er able
Ġme ant
Ġper ceived
Ġlet ters
Ġfa ith
Ġserv ice
Ġjam ais
ĠMus kete
a f
o ly
w o
pp ing
ĠJe an
B esides
Ġ Qu
Ġw aves
it ation
Ġg Ã©n
Ġdep art
ard on
Ġla w
Ġcr u
ĠLa urent
Ġhors es
al th
Ġk ill
Ġdist ur
i res
Ġl ower
Ġy ell
ĠB ennet
Ġpre m
Ġgener al
Ġquar ter
Ġexpress ion
i que
Ġsp o
Ġmar ried
ois elle
Ġquick ly
E very
Ġf ro
Ġsp ot
Ġdire ction
Ġexpect ed
Ġdesp air
Ġb ook
Ġd ut
Ġv al
oo f
ĠC atherine
Ġsp read
de red
ier re
Ġfur ther
Ġdec ided
Ġpub lic
ce an
Ġbel ow
Ġneigh bour
l ers
Ġs li
Ġhe s
ot ion
ac hing
ĠC an
Wh o
Ġquel que
Ġr ain
Ġcon cer
au d
Ġdid n
Ġmoment s
Ġgl ad
Ġter ror
Ġes pecially
ĠFr ance
G ood
Ġb esides
ul ty
Ġhun g
Ġconse qu
Ġb ank
as c
ay s
are nt
Ġgl ance
Ġocc ur
Ġstra ight
Ġc el
Ġse ar
Ġso ci
Ġhor iz
Ġsw ord
Ġfut ure
k n
r ist
it er
Ġdo g
Ġstr ugg
f ast
Ġp ens
if t
ol mes
um ent
Ġhands ome
Ġperfect ly
w ell
Ġ id
Ġc orr
Ġl ie
Ġv ain
ĠM eaulnes
Ġknow s
Ġlist ened
Ġadm ir
Ġgre en
Ġb as
âĢ ¦
Ġse ated
Ġk illed
Ġmo ved
Ġfore st
h or
o b
ing ley
Ġus ual
Ġstre et
Ġcircumst ances
I I
c an
Ġ âĢľ
Ġp u
Ã© lia
Ġall ow
ab les
Ġ. ..
ash ion
o e
ic ked
Ġsa ve
Ġtr y
Ġspe c
Ã©c ri
on ed
Ġen j
Ġsk y
b b
re es
ha bit
Ġh ill
Ġn one
ad em
ide on
Ġris ing
Y our
ĠI n
i ps
ou ve
Ġm ention
st r
Ã© g
el ve
Ġenc ore
Ġall owed
el ton
Ġcha mber
Ġcl oud
rie f
fort un
Ġv an
Ġso le
Ġmar ry
men se
Ġc re
Ġc her
Ġwe ak
Ġst op
il t
Ġdr ag
Ġinter rupt
Ġco st
Ġaf fection
Ġwait ed
Ġdre ad
Ġanim al
Ġflo or
Ġclot hes
) ,
it ing
en ess
ac le
Ġcol on
Ġfin ished
Ġdiffic ulty
at ive
ol og
Ġwat ched
Ġcomm and
Ġemp loy
Ġbo x
Ġcl im
ĠD u
Ġvill age
h y
Ġde li
Ġcom es
Ġye ux
i Ã¨re
r Ã¨s
Ġp ict
Ġp ouv
ll ing
Ġre n
Ġpro per
act ion
Ġpleas e
Ġfif ty
Ġhe ight
che t
Ġser ious
o red
re l
Ġf ish
Ġp urs
Ġh id
Ġhe aven
Ġwh is
ad es
Ġr ing
li g
Ġtw elve
ĠÃ ª
Ġbelie ved
Ġenj oy
Ġb are
Ġex ec
ust ed
Ġent er
Ġnor th
Ġtro is
, --
ĠC andide
oun ced
Ġvoy age
f essor
ou is
Ġbe ast
Ġag o
Ġque en
Ġfo is
Ġtal ked
Ġpap er
Ġpr ay
Ġdes cri
Ġabs ol
s c
Ġl ate
ac ked
ĠM athilde
ĠB ar
ĠB ingley
ra wn
N e
Ġp uis
Ġte eth
Ġste am
p ic
Ġd ont
et r
Ġv ar
Ġsp ent
Ġim mense
Cha pter
Ġ 3
Ġoff er
Ġcomm un
Ġcount en
Ġopen ing
w ise
Ġb right
Ġd ressed
Ġf art
Ġg est
am ille
ish ment
Ġkne es
Ġfre qu
Ġentire ly
Ġof fered
Ġsa nd
Ġspe ed
Ġje une
Ġwal king
kn own
h ood
as es
Ġbe ar
Ġcon cl
Ġno ble
ĠJ im
Ġwr ong
Ġadvant age
Ġc ell
Ġd om
ll ig
Ġv ast
ĠM ont
ol es
Ġab be
Ġstr anger
Ġdon n
Ġinf l
Ġut ter
Ġnarr ow
Ġm Ãªme
Ġl atter
as te
Ġwe ather
il i
au v
ĠG eorge
Ġpe ace
Ġpleas ed
ĠMar quis
Ġfall en
Ġthir d
Ġopp os
Ġdisco vered
m p
Ġb ound
Ġp un
ic ally
Ġob st
Ã©r al
Ġhon our
Ġpur p
l in
Ġbe at
se mb
Ġbl ow
Ġm ed
Ġd en
Ġf ais
Ġen orm
itt en
Ġmar riage
Ġgu ard
M adame
i ves
w hile
Ġf ashion
Ġr oof
od o
Ġche st
s ed
Ġw it
Ġb le
at re
Ġout side
ĠA yrton
ha pp
Ġf ield
an qu
Ġap art
ĠT HE
Ġtout e
Ġchar ming
Ġstre am
P er
Ġ er
Ġo d
or ies
id ay
av ait
Ġspe ct
Ġwr ite
Ġdeg rees
it ated
Ġn om
ant ic
are r
Ġm es
al ity
Ġpro c
Ġshould er
the less
Ġpie ces
t is
Ġt reat
Ġse lf
Ġsu is
Ġimp at
Ġset tle
Ġpet it
Ġmove ment
Ġha ll
ĠP assepartout
ĠPar me
Ġhon est
Ġlear ned
cell ent
Ġcolon ists
F abrice
p se
z en
Ġ ign
Ġs outh
Ġf les
Ġe v
Ġfor ced
Ġst orm
ous es
Ġsh ook
ĠH olmes
Ġdou ble
Ġhoriz on
S ome
e z
Ġt all
Ġm adame
at itude
Ġe ars
Ġcl ass
Ġthr own
Ġreg ret
Ġdr ink
Ġfart her
al ous
Ġv ict
Ġdes er
V ery
f ied
g ar
Ġo cean
Ġst ro
est ed
ĠL y
ĠR ue
Ġjust ice
Ġinte llig
Ġbreak fast
u nder
Ġl ang
Ġpl ate
Ġal though
Ġbu ild
Ġt our
Ġp ist
Ġst ir
ac y
if ied
os ing
Ġen em
ak ed
Ġap rÃ¨s
Ġcr ime
Ġtem per
Ġpock et
Ġp ath
Ġpr ide
Ġco al
Ġknow ing
Ġte nder
ĠGr ingoire
Not hing
Ġord ers
is ing
Ġn er
Ġcounten ance
c ent
Ġw ide
Ġl oud
Ġn ine
Ġde lic
Ġag ree
he ur
in a
Ġb and
on ne
Ġp ity
Ġre lie
Ġab and
Ġbec om
Ġear ly
Ġcompan ion
Ġlist en
ĠCl Ã©lia
Ġpurp ose
Ġenorm ous
Ġc oun
as im
ve re
Ġmin ute
00 0
Ġsqu are
Ġspir it
Ġempt y
adem oiselle
c ome
Ġd Ã©s
id ence
Ġfor ty
Ġco lle
Ġent r
Ġinst ead
ĠMa j
Ġappro ached
Ġstart ed
Ġoffic er
Ġexist ence
ĠCan ad
E n
i ety
u ous
Ġm or
Ġtr ain
ress ion
Ġtout es
Ġpri v
Ġglo om
Ġforgot ten
Ġdut y
Ġam id
Ġcl er
Ġimp r
Ġav o
be red
ĠV er
Ġhor ri
Ġopp ortun
Ġsett led
Ġshar p
asim odo
Ġd rawn
om an
Ġbeaut y
Ġcou p
Ġconv ict
w ith
Ġs or
Ġs itting
Ġd ied
Ġr ushed
Ġrep ro
Ġfles h
r al
Ġa ussi
Ġs ong
Ġl ac
at or
ĠI nd
Ġth reat
Ġsu mm
ĠC amille
Ġsupp ort
Ġwr itten
ract ed
ĠPro fessor
i ant
Ġm ut
Ġd im
Ġle gs
ĠE mma
Ġvo ir
mb re
Ġdist ing
Ġpres er
vent ure
Ġs ous
ol n
Ġag re
pt ion
Ġour selves
inc oln
Ġviol ent
f er
Ġw ine
Ġb ent
Ġf aut
Ġv ague
oo ks
Ġfe ver
Ġli ked
Ġsc ene
ĠgÃ©n Ã©ral
C e
he ure
Ġb ill
Ġd ry
or k
Ġnot iced
Ġsh ot
os es
ĠC ha
Ġlo se
Ġfl ow
inc ip
ho ld
Ġanx ious
ĠCanad ian
Ġa im
Ġy ield
enc es
mer ic
Ġmurm ured
it ions
Ġl ying
us hing
Ġtr anqu
ĠA t
Ġco ll
Ġcontr ary
M ais
Ġf aces
Ã© d
Ġun known
Ġpl ant
ĠG ideon
Ġut tered
igne ur
A re
j o
m y
u f
Ġf ly
le ep
Ġme as
ĠL incoln
Ġmo on
Ġfl at
Ġide as
Ġsim ply
Ġincre ased
Ġpa id
. ,
A R
ic s
ide red
Ġlo d
ps y
Ġfall ing
Ġmem ory
Per haps
' d
J ust
Ġg y
ĠA meric
ĠR a
Ġpar l
Ġchan ged
Ġaff air
k es
it ure
led ge
Ġsm o
Ġfav our
o or
Ġs om
Ġm ill
Ġf et
Ġl amp
Ġp ill
Ġtr oub
Ġgr ow
Ġch o
Ġpart y
Ġgirl s
Ġesc aped
Ġsatisf ied
Ġspr ing
D id
f ield
is c
ve y
her n
Ġex cellent
Ġpr act
Ġend e
Ġpoint ed
Ġadd ress
c ious
i ans
Ġg ame
Ġwhat ever
Ġfo nd
Ġsur r
a ld
v Ã©
Ġw inter
Ġc ous
ill y
fe rence
Ġshout ed
Ġshad ow
Ġmagn ific
Ġopportun ity
Ġm ont
it able
Ġb an
Ġc ity
Ġd are
Ġin habit
ver ing
Ġsh ock
ĠS e
itt y
ĠF elton
Ġaf fect
Ġlo ck
ĠR ass
Ġpleas ant
Ġdet erm
Ġanim als
Ġoccur red
c ul
Ġm akes
Ġl it
Ġh uge
Ġe ager
Ġnot ice
Ġv otre
Ġso ir
Ġche e
Ġ1 8
Ġext ra
Ġcomplete ly
Ġfem me
Ġyell ow
H ave
M e
j ours
Ġle ur
ag ues
un k
ĠP l
Ġmo or
Ġbr an
Ġfeel ings
Ġprof ound
Ġlaugh ing
Ġmotion less
Ġdisting u
Ġende av
Ġs in
Ġc art
li ve
Ġkn ock
Ġho st
Ġune as
Ġpol ice
ov ary
it al
Ġtr a
Ġpr incip
Ġjour s
Ġdisc uss
Ġprom ised
t a
Ġl if
Ġp ardon
Ġre nd
Ġres ult
Ġav oir
Ġche val
Ġrec all
hile as
Ġburn ing
Ġ What
ar m
Ġpr on
Ġbl ind
Ġsm iled
Ãª te
Ġprom ise
Ġtou jours
Ġtro p
ĠÃª tre
Ġa ud
Ġen v
lan chet
Ġpol it
Ġquel ques
Ġabsol ute
e ch
i vers
Ġc ord
as hed
Ġbe ha
Ġdo ctor
Ġpr ote
de acon
Ġtou ched
Ġexact ly
Ġoppos ite
R E
b or
id s
Ġhis t
Ġfor th
os p
Ġpr oud
On ly
Ġbes ide
Ġsuc ceeded
I N
Ġhe at
Ġbe au
Ġas leep
Ġsa fe
ĠD e
eb us
Ġcross ed
Ġsus pic
Ġoccup ied
Ġsitu ation
D uring
g hed
Ġp ounds
Ġre lig
am b
ro y
Ġv oul
Ġbre ast
n est
Ġs en
es se
Ġme lan
ch ief
os ity
ĠB ovary
Ġgreat ly
Ġcour t
Ġgu ess
ho ebus
Ġfif teen
Ġbit ter
Ġsett lers
v ait
Ġ Ã©c
ot ed
se z
am ing
Ġsa ved
own ed
Ġlad der
Ġsoci ety
Ġlang u
z y
Ġl ors
im ents
ch oly
ol and
lo p
ang ers
Ġadv anced
Ġhold ing
Ġquiet ly
Ġextra ord
d ing
m ble
Ġw retched
is ion
Ġd am
Ġhe ures
ic ated
Ġan ger
Ġwor se
Ġgreat er
Ġca used
Ġprep ared
Ġign or
k er
Ġg ate
Ġst up
Ġst retched
ter day
ne l
ais s
Ġpet ite
Ġdepth s
Ġmelan choly
c han
Ġ They
in er
at he
Ġfe ared
Ġpr Ã©s
Ġdis ait
Ġch ose
Ġfir m
Ġsupp er
Ġcur rent
Ġinf orm
Ġemb r
G o
Ġw a
Ġto w
Ġh ouses
The ir
Ġqu and
Ġno body
Ġdo ors
M onsieur
l ished
Ġt ree
Ġb rill
Ġd ir
Ġp ow
Ġh ig
Ġr ise
Ġst ar
Ġlike ly
Ġpre v
Ġser ved
Ġbro ad
Ġsuff er
Ġarch deacon
ĠHarr is
h ow
h ouse
t res
Ġt ong
Ġres p
Ġpos sib
Ġtem ps
G r
g o
h ip
Ġw ounded
Ġm iss
Ġf un
ic ient
Ġst ones
Ġli ber
Ġmo nde
Ġquest ions
Ġgrand e
Ġfat ig
Ġfing ers
A r
W as
b ing
v ation
es p
ac he
am s
am ent
Ġv a
Ġle agues
Ġper i
Ġreg ular
Ġfind ing
Ġaut re
Ġworth y
Ġaston ished
O f
T wo
Ġs ides
Ġl ines
Ġde b
Ġwe ight
Ġat tend
il es
Ġse as
est s
Ġun happ
che n
pect ed
Ġdon ner
Ġatt ack
Ġass ist
Ġph il
Ġstri ke
Ġcorr al
S ir
Ġs ought
Ġw is
ro du
Ġwr ote
Ġmet ers
Ġtou ch
Ġagre ed
Q ue
c ing
is m
ur ope
Ġsu iv
Ġcom b
Ġno se
Ġtr ying
anc ing
Ġplac es
ĠNe w
Ġgy psy
o ver
Ġ vers
Ġw and
Ġp orte
Ġth ro
us es
ol s
Ġend ed
Ġatt ent
ĠFr iday
Ġhop ed
n ow
r ade
Ġg rief
qu ise
Ġst ation
Ġun fortun
ish op
Wh ile
Ġfa Ã§
Ġv irt
Ġpro s
Ġmo d
Ġmist aken
Ġele ct
Ġinterrupt ed
O ur
Ġb al
is es
Ġp ressed
ic ks
qu in
Ġst air
Ġse at
Ġex ha
Ġtw ice
Ġch ief
Ġgreat est
Ġtrans port
Ġpull ed
s he
Ġc it
Ġc amp
ut ed
ĠM ademoiselle
ĠL ouis
ĠF er
Ġput ting
Ġfa ult
Ġgall ery
Ġdi am
bo ard
ĠrÃ©p ond
ĠLy d
Ġa ction
Ġf ac
at ic
le ur
Ġg le
Ġu r
qu et
Ġk it
Ġun able
Ġpl at
Ġco ach
Ġmo ving
Ġgr ass
Ġbr id
Ġsil ver
Ġhor ror
Ġacqu aint
Ġang ry
Ġimport ant
Ġhorri ble
is ters
Ġd a
Ġg ar
Ġmy st
Ġcon n
Ġdes ign
Ġsing ular
Ġgaz ed
Ġsac ri
ĠMuskete ers
Ġc iv
Ġin j
Ġsu f
ĠA n
Ġar g
Ġthan k
Ġil s
Ġspe ech
Ġsm oke
Ġhon or
Ġexpl ain
Ã® tre
Ġaccomp an
Ġinfl u
a ff
v i
Ġt ired
ve t
st airs
os op
ĠB r
Ġint rodu
ĠÃ©t aient
Ġfort un
Ġcur i
ĠMar ch
Ġdin ing
Ġevid ently
Ġkit chen
D e
Ġd ying
Ġr ough
Ġj us
Ġed ge
Ġmount ain
Ġtremb ling
Ġsor ry
Ġmagnific ent
Ġh ide
Ġsh ud
ĠH is
Ġrem ark
rie res
ick ham
Ġarri val
Ġsk in
Ġuse less
Ġemb arr
Ġyes terday
Ġextreme ly
Ġsear ch
E lizabeth
Ġm ir
Ġd ared
or ous
Ġr ien
Ġbl ess
Ġcha mbre
Ġaccord ing
Ġcondu ct
Ġw id
Ġe ld
Ġre ceive
Ġse mb
ter ing
Ġgr owing
ud ed
ĠE urope
Ġhar m
ci ent
Ġsupp osed
Ġstre ets
uck ing
Ġread ing
Ġsatisf action
Ġbat tle
Ġavo id
Ġdeterm ined
O N
a ur
d o
Ġa live
Ġp ied
Ġn ouve
at ures
Ġle aves
Ġcon ne
um ents
one l
Ġim m
Ġav ant
Ġcons idered
Ġsent ence
Ġlau ghed
Ġservant s
Ġphil osop
i Ã©
l oo
w ed
in si
Ġre jo
Ġde f
us ing
Ġpl un
Ġlo ver
Ġje alous
Ġreturn ing
Ġdep uis
Ġpresent ed
Ġprop os
ĠVer rieres
Ġperi od
f ish
w h
Ġt aste
Ġm ess
Ġe ut
Ġe Ã»t
Ġas ce
Ġnot re
Ġan t
Ġam i
Ġbr ave
Ġpers u
Ġimag ine
Ġspo ken
C yrus
W ill
in ces
Ġf ill
Ġp ier
ll ins
Ġh y
Ġv ig
ĠS c
Ġremem bered
Ġpower ful
Ġfright ful
Ġanx iety
Ġprodu ced
Ġpen etr
Ġcel a
Ġc ustom
Ġyou th
qu er
ri er
Ġres ist
Ġref used
Ġtri ump
Ġdeg ree
Ġrapid ly
ĠCo llins
Ġdepart ure
Ġsuf fered
c ase
Ġt ide
in et
Ġp ure
Ġp ushed
Ġg ro
ac c
ĠM er
ĠC om
Ġint im
Ġdist ant
Ġcle an
Ġir rit
Ġcal cul
Ġbon heur
Ġaston ishment
Ġfanc y
ĠMaj esty
D on
E S
a ille
m a
Ġb rig
Ġc hat
Ġsu gg
Ġj ump
Ġpr ot
Ġpe as
Ġcare fully
Ġconce al
Ġconce aled
Ġparticular ly
P encroft
i um
Ġs ont
Ġf ier
as p
ĠM aster
Ġne g
ĠF ix
Ġmo ins
Ġbr ow
Ġadv ice
Y et
w ater
Ġa unt
in ced
Ġs ang
Ġto mb
Ġcould n
Ġgr ace
Ġabs ence
ĠHen ry
ustom ed
Ġsemb l
C aptain
Ġ ~
Ġw ha
Ġw ound
ou ver
Ġto rt
Ġhe aring
Ġr oute
Ġas king
Ġrem o
Ġthr ust
Ġsc r
Ġgl im
ĠW ickham
Ġinst r
Ġmis erable
Ġrequ ired
Ġbir ds
Ġdread ful
Ġunhapp y
A N
n ers
Ġr ub
Ġmy ster
ne ys
ĠC he
Ġpart s
Ġpres ently
pr it
Ġsuff icient
Ġrecogn ized
Ġgest ure
Ġelect ric
r ing
z z
Ġw ore
Ġc in
Ġde fe
Ġr a
Ġshe l
Ġen er
Ġpr Ã©
Ġro b
Ġche m
Ġtem p
Ġlist ening
Ġdri ven
Ġsn ow
Ġvol can
Ġrev ol
Ġcru el
Ġembarr ass
* *
Ġw est
ic he
ain ted
Ġle g
ul s
ĠC omp
au de
Ġthan ks
Ġfo ld
Ġafter n
Ġop er
Ġarrang ed
Ġextraord inary
Ġ We
he ld
Ġhe ure
at t
Ġe ase
ac hes
Ġli v
Ġtr ust
Ġet c
Ġdu ke
Ġfright ened
Ġwee ks
Ġjud ge
Ġprob ably
Ġcand le
Ġbecom ing
Ġhist ory
ucking ham
S e
Ġs ick
Ġb ord
Ġb ooks
Ġd Ã©c
ad ually
Ġpro ved
Ġch im
Ġbet ray
Ġapp re
ĠW inter
Ġem otion
Ġreco lle
nde ed
Åĵ ur
Ġcous in
Ġb ow
Ġp an
Ġg e
se t
Ġon es
our se
Ġco at
Ġdes ired
ud ent
iv al
Ġlight ed
Ġmin ist
Ġcur ious
Ġaut hor
ĠQu asimodo
E lle
Ġ ice
om ais
Ġsa ke
Ġshe ll
ag ement
ct ure
Ġor dered
Ġbr own
Ġthr ow
Ġear nest
Ġest ab
ĠRa quin
Ġinflu ence
M a
p ir
er c
Ġc ow
st and
pe red
Ġgo ver
Ġrep ort
Ġsha re
Ã¨ rent
Ġret reat
Ġconf idence
Ġcur tain
ĠK itty
Ġdisp os
Ġconsider able
Ġevent s
Ġplat form
H ad
a ly
m n
en er
an while
Ġhe alth
ac ha
Ġj et
Ġfe atures
Ġyour s
Ġloo ks
Th us
Ġres er
Ġcar p
cei ving
I S
i as
in y
Ġs out
Ġw ret
er ville
is ions
Ġst ore
Ġup per
ie ce
ĠP lanchet
ĠP hoebus
Ġam az
Ġaftern oon
Ã ītienne
Ġ 4
Ġf ood
Ġre ven
Ġnot e
th is
Ġli ves
Ġgo es
Ġsome what
ĠN ap
Ġbo ld
Ġdist ress
Ġinst inct
Ġchar ge
Ġsle pt
Ġsto ck
Ġobser ve
Ġgre y
Ġhur ried
ĠCh rist
Ġpal ais
Ġdirect ly
f ive
l ong
Ġa ur
Ġm ag
Ġl un
Ġp auv
Ġr age
ro se
ne ver
ong o
Ġen fin
Ġsee k
ĠT op
ign ed
Ġacc ustomed
Ġho llow
Ġins ide
Ġind if
Ġdisco ver
Ġart ic
Ġlangu age
S omet
Ġc as
Ġc ool
at ur
Ġr are
Ġv iv
ĠL ady
ĠN or
Ġunder t
Ġent end
Ġtell ing
Ġass ured
Ġswe ar
Ġsum mer
Ġapart ment
Me anwhile
B ec
I ndeed
s ou
Ġ Que
Ġb ag
ur st
Ġr ate
Ġrep res
Ġpo p
Ġmar quis
ai ly
Ġclo ak
Ġexpl ained
Ġcat ch
ex p
m ore
Ġc rew
Ġc Ã´t
ent h
Ġre ck
um n
Ġdis m
ĠR od
Ġany one
Ġmar ked
Ġmar quise
ci al
Ġass ure
Ġsuff ering
Ġmeet ing
Ġdel ay
Ġdistur bed
Ġintellig ence
ker chief
f l
Ġle vel
Ġun less
ree k
Ġcont ent
Ġche z
Ġimag ination
Ġconv inced
Ġstup id
Ġtong ue
O R
d om
r Ã©
Ġs igh
Ġm ing
Ġc ries
Ġd ust
Ġf ail
an Ã§
Ġre semb
ght er
Ġexp lan
Ġsm iling
Ġeng aged
Ġlau ghter
Ġdisp l
Ġequ al
Ġmere ly
U p
g ent
Ġ Z
Ġt on
Ġm our
Ġm ile
Ġm ud
it ary
Ġg ens
Ġwith d
Ġas sez
Ġwe ar
Ã© rie
ain e
ĠM ay
ĠM art
Ġso il
ul ous
ĠP ierre
ack s
ais e
Ġdis app
Ġsha me
be au
Ġfin ally
Ġele ven
Ġris k
Ġdest roy
Ġfing er
Ġlean ing
Ġjus qu
b l
e au
i o
an n
Ġan cient
Ġacc ident
Ġce ased
Ġchar m
Ġcreat ures
Ġviol ence
Ġexam ined
Ġstay ed
Ġrid ic
Ġpouv ait
Ġliber ty
ĠComp any
Bec ause
g in
Ġ z
Ġs isters
Ġw ond
re m
Ġb ree
Ġc red
Ġwh ist
Ġla ke
Ġcomp re
ĠV al
ru ction
Ġgu ide
ĠO F
Ġkeep ing
Ġmis ery
ĠSp an
Ġhur ry
Ġcarry ing
ĠMont sou
Ġentr ance
A m
g und
Ġd Ã©p
Ġf al
Ġl uck
ra i
Ġsupp ly
for med
Ġbur ied
Ġsold iers
Ġdanger ous
Ġspec ies
Ġcommun ic
Ġunfortun ate
L ook
g l
g ment
Ġ Then
Ġd well
Ġre ve
Ġmo is
Ġcall ing
Ġsub m
Ġinqu ir
Ġremar ked
Ġexper ien
ĠMahe u
Ġexec ution
Ġacquaint ance
Ġcuri osity
r is
Ġt ant
Ġb ou
Ġc av
ar se
Ġe ast
le nd
Ġbe held
Ġr Ã©s
ag ger
Ġal oud
Ġar rest
Ġpro ject
ĠG er
Ġgr anite
Ġpe nd
Ġdon c
Ġfur ious
Ġph r
Ġbelong ed
Ġstrugg le
Ġaccompan ied
w ill
Ġd ue
Ġl in
Ġp ot
Ġp air
Ġh om
Ġde af
ac her
Ġhand kerchief
Ġser ait
Ġcons ent
Ġapp ar
enc y
Ġsoon er
ĠÂ «
Ġpay s
Ġvent ured
Ġev il
Ġtra vers
M ilady
Ġ Un
Ġhe d
ĠC ar
ĠB uckingham
Ġpro ceed
ep ing
Ġpre fer
Ġvo ices
Ġimp ression
Ġwat ching
Ġter ms
Ġroom s
Ġsw ift
Ġinter v
Ġma j
Ġph ys
min ence
Ġfrequ ently
Ġstair case
c om
Ġb lock
ll es
Ġse vere
Ġv it
ke y
Ġsh oes
Ġla bour
Ġam b
Ġknow ledge
Ġob ey
Ġke y
Ġbot tle
Ġwr iting
Ġbre aking
Ġinf in
Ġcent re
Ġdro pped
Ġhop es
Ġhang ing
Ġsepar ated
l a
u ly
re ck
Ġb ore
Ġb orn
Ġf ille
Ġbe ach
ĠM y
ess ie
li es
ĠH ow
Ġsp ace
Ġsp lend
Ġfur y
Ġplay ing
Ġfav or
Ġgover ness
E x
b ar
ha nd
Ġd amp
Ġf u
at in
im s
al ais
Ġsa u
li er
Ġcon tain
pp er
art ed
Ġwor ked
Ġgo at
Ġbl ows
ĠE minence
Ġoff ice
Ġpar ler
Ġent h
Ġsc re
Ġdist inct
Ġcontin u
Ġconf used
Ġsign al
Ġinn oc
Never theless
Ġcloud s
Ġfais ait
Ġagree able
W ould
f fe
o ot
Ġt ur
re ct
Ġo rig
Ġc ra
ar ily
Ġin tended
Ġg ently
ĠM ary
Ġab rupt
ge on
ĠF air
Ġcond em
Ġma id
Ġtrou ver
Ġhun ger
Ġcou ple
Ġconst antly
Ġdri ve
Ġspr ang
Ġimport ance
Ġpossess ed
Ã©cri a
Ġpict ure
Ġsurr ounded
Ġabsolute ly
A thos
e en
n ce
w he
Ġa j
in king
Ġp le
Ġp ave
ll en
Ġn ames
Ġha m
Ġis n
Ġle nd
Ġsub st
Ġinter ior
Ġenc our
cha ir
Mr s
Ġsuper ior
C har
Ġa insi
Ġe mer
ac ious
Ġqu atre
Ġla iss
ĠP ac
Ġar med
Ġwill ing
Ġpro ceeded
Ġho le
Ã¢ te
Ġdeep ly
Ġsol id
Ġfast ened
Ġspir its
phe w
Ġenem y
Ġmyster ious
O U
n al
Ġc oo
ad ing
ĠP hileas
Ġmat ters
Ġexc han
Ġjo ined
Ġgener ally
ili ar
Ġfield s
c on
om b
ir st
Ġas ide
Ġv ing
Ġne arer
Ġne phew
Ġcon tem
ast ic
Ġen cl
ck now
Ġgr adually
Ġad venture
Ġadd ressed
Ġabs or
Ġaw are
Ġplay ed
Ġimag ined
ĠCl aude
Ġdelight ed
ĠDu ke
Ġwa ist
Ġpow der
Ġdiam ond
ĠLyd ia
A T
Ġa cknow
Ġs ank
it es
Ġe u
ot t
Ġde ck
Ġr ang
Ġst ern
Ġimp ro
Ġser iously
Ġway s
fort une
Ġord inary
sh ip
Ġsav age
Ġevid ent
Ġprob able
Ġdecl ared
Ġmention ed
Ġsettle ment
Ġflow ers
ĠPl ace
athe red
S ince
c a
it ive
Ġc lock
Ġc Åĵur
Ġf ailed
Ġth under
qu ette
Ġst ick
Ġse ule
ul ated
Ġlo g
ĠN o
Ġpe c
iz ing
ĠW est
Ġfort night
Ġread er
Ġinstant ly
Ġcent ury
Ġbring ing
Ġhast e
Ġgaz e
Ġpress ure
A b
as hing
ĠI ce
Ġst airs
ri a
ro ad
Ġsh ru
ĠC ol
ap er
Ġwor king
ĠH omais
Ġmo der
Ġgr own
Ġdu ll
Ġcont re
Ġent ertain
ien s
Ġaw ait
Ġappro aching
Ġdro ve
tes se
ug ust
ĠHen ne
Ġprem ier
Ġfatig ue
P assepartout
i us
Ġc ure
or se
Ġr ays
Ġse ason
Ġcon ven
ĠF or
Ġro lled
Ġpo et
ĠN otre
Ġper form
Ġappe ars
Ġhapp en
ian a
Ġsw all
Ġfam iliar
Ġele g
Ġbu ilt
pl ace
Ġpossess ion
Ġgun s
ĠMer cy
b ly
Ġb our
or med
Ġst at
Ġat m
ne m
Ġli qu
ĠA lt
Ġpo ison
ĠE t
Ġcr own
Ġcont ri
Ġke en
Ġche er
Ġdev ant
Ġdr owned
Ġdoubt less
Ġmis fortune
Ġfat al
Ġconsequ ence
Ġfet ch
Ġbran ches
ĠfaÃ§ on
L es
c oup
f ice
f ax
Ġ 5
ed y
Ġf aint
Ġp ick
Ġre nt
Ġwe ary
Ġqu oi
Ġun f
ĠE d
Ġent re
Ġinc ident
Ġcle ver
Ġvis ible
Ġprof ess
ĠJe han
Ġru in
Ġarch ite
Ġfle w
Ġhid den
Ġdisapp oint
r ane
ar ies
ĠI l
Ġr ig
pe l
Ġcon tempt
ĠS an
Ġwor ks
ĠB er
ĠB el
Ġgr oup
Ġbo d
the re
Ġes p
Ġfam ous
Ġel b
Ġclear ly
Ġlear n
Ġrefle cted
Ġconcer n
Ġpriv ate
Ġchee ks
ffe e
v Ãª
Ġm ix
Ġf ate
Ġde pend
Ġst am
Ġpr inces
Ġdis g
Ġcomp ass
Ġpre ndre
Ġob tain
Ġav aient
Ãª t
oud a
Ġaff airs
va que
Ġann oy
ĠFair fax
Ġd az
qu el
ke ep
os ure
em ain
ol phe
Ġpl ais
Ġsha pe
ĠD ongo
Ġevery body
Ġarri ve
Ġappro ach
Ġpain ful
ĠRass i
Ġvirt ue
Ġving t
C ertain
E t
E mma
f ord
w ork
Ġt ent
Ġl oss
Ġfe ars
ig hed
Ġwhen ce
Ġco ffee
Ġevery where
Ġspe nd
de le
Ġret ired
uli ar
Ġsou p
Ġdet e
Ġdoes n
Ġgall ant
La urent
Ġsold ier
Ġdispl ay
Ġlin en
ĠHenne beau
H erbert
Ġt a
Ġw et
Ġd aily
Ġl Ãł
Ġe tern
Ġg athered
ĠÃ ¢
Ġkn ife
Ġother wise
Ġpe ine
Ġte a
Ġcap able
Ġinf ormed
Ġexc use
Ġrepe at
Ġtremb led
Ġner vous
Ġbeau coup
Ġignor ant
Somet imes
Ġpec uliar
E N
e ur
g ain
m and
s u
Ġ U
Ġm Ã©
Ġb owed
Ġl est
Ġh ither
ac les
res p
ul ted
Ġdo zen
Ġli br
Ġor g
ge ance
Ġco ver
ĠR oland
si p
Ġexc ited
Ġlow ered
Ġdro p
ĠGu ards
ĠMahe ude
Ġfaith ful
Ġdeser ted
ĠMart in
Ġcred it
Ġexperien ced
M iss
h od
s ha
Ġ This
er a
Ġg ained
id ing
Ġse vent
ag ne
Ġfr ame
ĠP ort
ap s
Ġpro of
Ġgr atitude
Ġbo ys
Ġser ve
Ġrec omme
Ġjo in
Ġslight ly
ĠPr ince
Ġdelic ate
Ġconvict s
ĠCha val
Ġplun ged
Ġremo ved
Ġpave ment
C an
E ven
S uch
g ress
m Ãªme
p re
it ement
Ġb ull
Ġg end
ut ation
Ġst if
Ġst iff
ro ck
if y
Ġqu it
ĠA d
Ġrem ains
Ġsc ience
Ġapp oint
Ġapp arent
je ction
Ġsince re
Ġcol our
Ġfore head
Ġmur der
Ġport rait
Ġtor n
Ġadmir ation
Ġplate au
Ġgloom y
heure ux
Ġlif ted
Ġwis hes
M ore
_ ,
r ain
w as
en ch
Ġf en
Ġis let
ĠM ais
ie urs
um in
ĠA ugust
Ġint ense
ĠL ong
ĠG ard
Ġpass er
Ġrem ind
Ġfl ood
Ġref uge
Ġkind ness
Ġreco vered
Ġmist ake
Ġprison er
Ġmus ic
Ġstud y
Ġsole mn
Ġdrag ged
Ġaband oned
Ġcit ad
nd s
it ate
Ġl an
as ing
ac ity
am our
Ġqu ant
Ġex ceed
Ġpro ve
Ġbr ain
ĠR ou
ĠD ieu
Ġbeg un
Ġpers ons
ten ant
Ġneed ed
Ġrel ations
Ġprop osed
Ġhast ened
Ġsuc ceed
Ġimpat ience
Ġwid ow
ĠcÃ´t Ã©
Ġenth us
ĠPac ific
D ame
o cc
Ġw ed
ha l
is p
Ġg ig
Ġre du
Ġse am
Ġv ale
oo se
Ġle urs
ous ed
Ġsh ips
ĠC ape
Ġwor st
Ġexp ed
Ġexp ressed
Ġune x
Ġdire cted
Ġtrou va
Ġperson ne
Ġamong st
Ġve get
Ġprof ond
Ġrel ated
Ġven geance
Ġplain ly
ĠRe ed
Ġarrang ement
Ġdesce nded
Ġemploy ed
Ġvar ious
Ġcler k
Ġthro at
Ġgend ar
e f
i pped
v ol
Ġa rose
or ing
om in
ot te
Ġse ul
ag ing
ast ed
em ple
ĠS und
Ġpr Ã©c
Ġmon ster
enc ed
Ġmet hod
Ġdet ails
Ġsleep ing
Ġconst ant
Ġviol ently
Ġann ounced
Ġnatur ally
Ġsacri fice
wh ich
Ġhy p
Ġpauv re
f all
Ġs ize
Ġf ol
Ġf ired
Ġl am
ir a
ir gin
Ġst uff
Ġsa is
ĠM os
Ġshe d
Ġsh one
ĠB ishop
Ġsha de
Ġob tained
Ġcr ushed
Ġlet tre
Ġpres que
une gund
Ġcontin ue
Ġsent iment
Ġfull y
gr ound
gr ap
Ġland l
eng ers
aw s
Ġfurn ished
Ġlim bs
Ġexper ience
ĠMuskete er
Ġwit ness
Ġtroub led
Ġfal se
T is
l en
m on
o ff
p es
er ous
Ġc up
Ġp Ã¨re
or ation
ll er
Ġbe aring
st ers
ur d
Ġan ge
our ce
Ġex tended
Ġla va
Ġal ors
ĠP ier
ĠS tre
ĠJ ac
Ġent ering
Ġau c
Ġheart s
Ġru ined
Al as
Ġhot el
Ġval ue
Ġciv il
Ġcin q
Certain ly
Ġlibr ary
a Ã®tre
f ait
w oman
re z
re ur
Ġd ix
Ġf led
Ġp icked
as ons
as ped
Ġre ne
ir ard
Ġas pect
Ġwe ap
Ġme at
Ġman aged
me red
ress es
ai res
Ġfl ung
Ġset ting
Ġcap ital
Ġcut ting
Ġmean ing
Ġprov isions
Ġcry ing
Ġmount ains
Ġoffic ers
Ġkiss ed
Ġspect acle
Ġsen sible
Ġmyst ery
Ġliv res
b on
i et
i am
i est
es c
Ġha b
Ġy ards
Ġr ail
Ġst y
ac ing
ĠM il
Ġsu it
Ġpl ans
Ġpro cess
ĠH all
Ġcomp ar
Ġcl aim
Ġkne e
Ġ1 5
Ġsort s
Ġadm it
Ġbar on
ats on
Ġnecess ity
Ġhat red
ĠAmeric a
IN G
ĠprÃ©s ent
Ma he
f ois
g Ã©
k y
n o
Ġ #
ed s
Ġd Ã©t
Ġto ols
es e
Ġn on
Ġha lt
ĠI f
il ar
ĠM ou
ge ois
ĠJ up
lo pe
Ġcha s
Ġob sc
Ġrec onn
oun ce
Ġwood s
Ġbir d
Ġprevent ed
Ġfool ish
Ġeffort s
Ġsli pped
Ġsom bre
Ġminist re
w ing
Ġ 6
Ġt ask
Ġc ave
Ġp aces
im neys
Ġcom tesse
Ġun p
ĠB ask
ĠL atin
Ġgo vern
pt ed
Ġmat ch
Ġgi ves
Ġsw ell
Ġenc oun
Ġfellow s
Ġmount ed
ĠLe vaque
ĠPr udence
ĠHarr ison
Ġobst in
Ġble w
Ġpron ounced
Ġpros pect
stand ing
Ġexplan ation
rane an
Ġcitad elle
h omme
u ary
y re
he st
Ġm ast
on st
Ġto wer
Ġto ler
ing ing
Ġin vent
im aud
Ġr ou
Ġst ret
Ġfr ag
Ġsh owing
-- --
Ġsp ark
Ġthr owing
aut ion
ci ence
Ġpoint s
Ġprof essor
ĠdÃ© j
Ġmer c
Ġpur cha
Ġexam ple
ĠCh imneys
Ġrefle ction
Je an
Ġcab in
Ġfanc ied
Ġaccept ed
Ġformer ly
Ġdistur b
Ġbuild ing
Ġra ft
Ġcontem pl
ĠMos ca
I T
M ar
T han
c le
h i
Ġ ess
Ġt um
Ġf light
Ġp ant
es prit
Ġn amed
Ġg ain
ic y
ill er
li v
Ġcon tained
ul ate
ie re
Ġtr ade
um es
Ġar d
Ġam use
Ġtim id
Ġany body
Ġrem orse
ĠD r
ise ly
Ġmaster s
Ġvent ure
Ġpurs ued
Ġdom est
Ġexha usted
Ġpeas ant
n ier
Ġ ing
Ġ ici
Ġw icked
Ġh it
Ġn aked
Ġv ille
Ġex cess
Ġtr ace
Ġint ention
Ġgr im
Ġdes per
ud ov
che vÃª
Ġmar i
Ġcons ol
hen s
Ġdr unk
Ġgall op
Ġmad am
With out
Ġdress ing
Ġrelie f
Ġuneas y
Ġeld er
loo king
Ġpend ant
l ine
u pe
Ġt it
he m
re g
Ġd er
or ough
Ġn ort
im er
Ġre b
ir m
Ġr ace
Ġan ch
res se
Ġcom ment
ul es
Ġwor n
Ġpr Ã¨s
Ġsome one
ĠT ur
Ġatt ached
Ġatt ract
Ġwant s
Ġmin ers
Ġdev oted
Ġsch ol
Ġpress ing
Ġatm osp
udov ic
J ane
T ake
c ont
l Ã©
r am
Ġm it
Ġf rig
at tered
Ġr um
Ġr ib
Ġwe alth
ct ing
ct ive
Ġex erc
Ġun if
ap ing
It s
Ġsp are
Ġus ually
ud den
Ġgood s
Ġpar ce
There se
Ġ. .
ĠW atson
Ġadv ance
Ġterri fied
Ġhur t
Ġinqu ired
Ġdesce nd
Ġproc ur
Ġvict im
Ġsumm it
Ġchem ist
Ġaj out
h um
Ġt ail
Ġt akes
Ġw reck
Ġm ach
Ġd ern
ar med
ain te
pe nded
ist r
Ġman ners
Ġtr ait
Ġsha king
Ġad o
Ġbeg ged
ĠT hat
Ġmat in
Ġind ign
ĠFr anc
Ġshad ows
Ġknock ed
Ġpossib ly
ĠrÃ©pond it
Ġphilosop her
udden ly
c ut
Ġl oun
Ġp arent
Ġg al
ĠI N
Ġre asons
Ġat e
ĠM ort
ĠC unegund
ĠA s
Ġlo ft
Ġsha ft
Ġpe ar
Ġins p
Ġcirc le
Ġfurn iture
ĠX I
Ġdeli ver
Ġdir ty
ĠQue en
Ġloun ge
. âĢĿ
L E
l Ãł
in te
Ġs ire
it ating
en od
Ġe p
Ġhad n
Ġwe l
ro is
Ġshe et
Ġdo c
ist en
ĠP h
Ġab und
ven ir
Ġbr ut
Ġbo ots
Ġimp er
Ġfl ag
Ġwant ing
let on
Ġabs urd
Ġmil ieu
vid ence
Ġcor pse
Ġrefle ctions
Ġfre ed
Ġconcer ned
Ġfly ing
Ġrecall ed
Ġhig her
Ġpied s
Ġming led
Up on
Ġcav al
S uddenly
a ult
b les
d ig
f our
i qu
Ġp ack
Ġn av
at a
ke ys
Ġwho lly
Ġwhe never
ĠA b
Ġper ceive
Ġser a
aut re
Ġhar p
Ġmat es
ene ur
Ġcle ared
Ġfin ish
Ġexc itement
Ġshout ing
Ġlead ing
Ġclim bed
Ġbeast s
Ġpreser ved
Ġrend ered
Ġbrill iant
acha rie
Ġsplend id
Ġlend emain
Ġabsor bed
Ġprinces se
_ .
m ir
re ux
Ġh Ã©
Ġn i
Ġst ared
Ġme me
Ġv ap
ĠP irard
ak er
Ġover come
Ġcomp osed
Ġmar k
Ġmon se
Ġcons cience
urs ed
Ġfar m
Ġest ate
Ġuse ful
Ġmer cy
ĠLe on
Be fore
Ġwonder ful
Ġmeant ime
Every thing
Ġpict ures
Ġwhis pered
Ġsteam er
Ġinform ation
Ġbrid ge
Ġdwell ing
B on
Ġf ou
Ġth orough
Ġme chan
Ġfr uit
Ġgr ou
Ġbr and
Ġrep ent
Ġpass engers
Ġpoint ing
Ġforg ive
Ġbare ly
Ġcow ard
Ġbour geois
Ġmonse igneur
! --
P oor
g ged
p ent
Ġs ed
Ġp orter
Ġr av
ill es
Ġv Ã©r
Ġis s
ul ation
ĠC ont
Ġwhe el
Ġwould n
Ġco p
Ġday light
Ġlike wise
Ġch oses
Ġbo red
Ġvo is
Ġfl ame
Ġte nd
Ġgu ests
gu ish
Ġsec ure
Ġglo be
ĠCom te
Ġsout hern
Ġcompre he
ĠVal enod
Ġhom mes
Ġlan tern
Ġunex pected
C l
r ades
t ure
u v
Ġa id
Ġs orrow
Ġf is
Ġp ace
om en
ur se
Ġr asc
il st
ill a
ro l
lo ped
int s
Ġhouse hold
Ġdev oured
Ġass ass
Ġref use
Ġste ep
Ġunderstand ing
Ġresol ution
Ġoccas ions
Ġextre m
Ġpat ience
Ġrequ est
Ġhed ge
ĠIce land
Ġliqu id
ĠBask erville
A S
C ette
R e
u ce
Ġm ute
is te
Ġto t
Ġher o
il ty
Ġcon c
Ġsh own
ĠA ouda
ĠB our
Ġpr udence
ĠF ather
Ġover whe
Ġpre tended
Ġunder water
Ġcons cious
Ġind icated
Ġcond itions
Ġsk ill
Ġve x
Ġinv ited
Ġacqu ainted
ici ently
Ġtriump h
Char les
resp ond
Ġoverwhe l
, âĢĿ
t ic
Ġ Ã©p
Ġt Ãªte
Ġa ven
Ġn ation
Ġe ating
im p
Ġth ither
Ġy onder
Ġst upe
ĠA dele
ĠB e
ĠB essie
ĠL uc
Ġsp l
Ġlo c
Ġte ar
iz zy
urs day
Ã¢ t
ĠÂ» ,
Ġdisco very
Ġed uc
Ġgaz ing
Ġsav ages
Ġdiv ided
Ġenem ies
O r
P ierre
l aw
Ġl ord
om s
ut en
et er
Ġr ow
Ġan guish
Ġv ic
Ġj ou
te em
Ġen f
Ġpr it
Ġnever theless
ĠT r
Ġyoung er
Ġatt ach
pr Ã¨s
Ġchar ged
Ġgu ilty
Ġ1 7
Ġhigh ly
Ġbon ne
Ġcor respond
Ġprov ided
Ġinv ol
Ġbreat hing
Ġdisappe ar
Ġhang ed
Ġperm ission
Ġconsequ ently
Ġcel ui
Ġconcl uded
Ġaffect ed
Ġrelig ion
Ġlors que
Ġtow ers
Ġener gy
Ġinnoc ent
keep er
ĠMil an
G od
a res
e re
Ġ 7
on c
Ġre nder
Ġy ard
ell es
ĠA ust
Ġdes ert
Ġsee king
ĠE s
Ġinst ru
Ġtre as
Ġ1 6
Ġste ad
Ġsure ly
Ġrais ing
Ġdiffe rence
Ġcoun ter
Ġtranqu il
Ġdistingu ish
Ġsuspic ion
Ġbod ies
Ġsty le
Ġatmosp here
ĠFranc is
l oss
on ing
Ġp or
Ġp up
Ġin e
Ġe cc
Ġbe lle
ĠM ed
Ġqu al
Ġcon vey
Ġk il
Ġor n
ĠS ore
Ġpr udent
Ġpro gress
Ġlo aded
ĠJ an
Ġsome where
Ġpre ced
ĠE x
Ġevery one
less ly
Ġcons id
Ġass umed
Ġsuff iciently
Ġwood en
Ġmer cer
Ġsol itude
Ġincl ined
Ġstam mered
Ġorg an
ĠStre et
Ġunif orm
L ord
in ally
Ġb ay
Ġc age
Ġd ign
Ġd ancing
Ġl ieu
Ġr ad
Ġr ust
Ġv u
em ber
Ġpl ants
Ġal arm
ĠB es
Ġpro long
ĠJ es
ĠR ed
the y
On ce
ict ion
Ġave z
Ġtrou vait
Ġhum ble
ific ation
Ġpur se
Ġneigh bor
Ġcircumst ance
ĠTh ursday
by e
Ġdeli vered
Ġstir red
Ġsupport ed
Ġbetray ed
Ġbree ze
ĠGer man
Ġinfin ite
Ġarchite cture
ĠSund ay
i pp
w hen
w enty
ha ll
on cer
Ġl ack
Ġl atitude
Ġha te
Ġg ai
ĠC omm
ort ed
ĠH ans
Ġro pe
Ġdis h
Ġrep l
Ġsur t
be c
Ġpas se
Ġter re
lic ity
Ġcol umn
Ġsign s
ĠSt ap
Ġsus pect
Ġang le
Ġmurm ur
Ġhes itated
vi our
Ġshud der
Ġjealous y
Ġwret ch
Ġharp oon
c ast
Ġt y
Ġm ieux
Ġp ou
Ġn uit
Ġr ay
am m
ore ux
Ġup stairs
ie l
Ġpr is
ĠF l
ab bit
Ġcl iff
Ġcr ack
anc on
orn field
Ġmar ve
Ġce iling
ĠV oreux
Ġtro op
Ġext ent
Ġmain tenant
Ġtor rent
umb led
Ġsens ation
II I
uf act
Ġbeha viour
Ġjump ed
Ġcondem ned
Ġgig antic
ĠSore l
j et
n Ã©
s m
t ime
ou x
or al
Ġg ri
qu a
Ġcon vent
Ġla qu
em p
Ġman ufact
ĠG o
ĠG alais
ab or
Ġcl oth
Ġche ck
Ġmin er
Ġmat er
Ġmais on
Ġswe pt
Ġexpect ing
Ġport ion
Ġbu y
cri pt
Ġhast ily
Ġdemand ed
rer s
Ġcro y
St ill
Ġcorr id
Ġdistingu ished
ĠCol onel
Ġdaz z
chevÃª que
d ed
i Ã¨
l otte
t hen
Ġ âĢĻ
Ġt el
Ġb ought
ed ing
Ġe gg
Ġg ather
Ġre ver
Ġde ceived
Ġst ories
Ã© qu
Ġse m
Ġme al
ro g
Ġsh ining
ind re
ab ility
Ġloo se
Ġvo iture
anc y
Ġent reat
Ã¨ ve
ĠW ill
iv id
Ġconf usion
Ġass ur
Ġsix ty
Ġform s
Ġut most
Ġmove ments
Ġnum erous
Ġdream s
Ġflo ating
Ġeat en
Ġpist oles
Ġtemper ature
Ġeager ly
Ġprincip al
Ġsugg est
Ġglim pse
Ã¢te au
Ġvale t
Ġfol k
H arr
T out
c ade
g ly
k ward
p ast
r at
y er
Ġof fe
Ġin exp
at ors
ic king
ĠI ng
Ġre Ã§
qu Ã©
Ġher s
us se
Ġfr ank
Ġla b
ĠA ll
Ġpr ice
Ġgr ay
Ġgr ant
Ġro lling
av oir
Ġcan n
co at
Ġvis ion
ient Ã´t
Ġdisc ourse
Ġhun ting
Ġrepe ating
Ġquar ters
Ġpap ers
Ġdaught ers
Ġgold en
Ġweak ness
Ġtreat ed
Ġthreat ened
Ġinhabit ants
Ġfier ce
Ġvolcan o
Ġabrupt ly
Ġprocur ator
ĠBes ancon
Ġsurt out
h is
l is
n a
n et
y ard
Ġm ille
Ġb id
Ġf ils
ur ity
ad venture
Ġst raw
ac am
Ġse ll
Ġsa f
Ġv ag
Ġno on
ol ate
Ġtim ber
Ġdis ord
Ġrep utation
Ġad vent
ang loss
Ġmar ble
Ġce rem
Ġdev our
Ġsub l
Ġ1 4
ĠAr mand
Ġbene f
Ġsound ed
Ġprop ort
Ġinterest ing
Ġprodu ce
Ġjud gment
Ġfight ing
with standing
ĠInd ian
Ġban ks
Ġdisg ust
Ġloft y
" '
N eb
d ess
Ġf il
Ġl ot
Ġhe ll
Ġbe ating
Ġr ag
Ġst ars
Ġcom rades
ight s
el ess
Ġpro dig
Ġlo in
Ġch in
Ġfo lly
ĠE yre
Ġpar fait
Ġsc ru
Ġsc attered
Ġret our
Ġlast ed
Ġter min
pr il
Ġsto pping
to gether
Ġroad s
Ġaw kward
Ġpol ite
Ġdem on
Ġcor al
Ġeight y
Ġbad ly
Ġrecogn ised
ĠAt l
Ġhig hest
esp oir
Ġda wn
Ġchim ney
ĠGard iner
Ġdesper ate
' ;
A cc
b id
c ar
Ġo we
ar n
Ġn ice
Ġbe w
ic ha
Ġde ve
Ġr ank
Ġv all
Ġall ait
Ġj ack
os er
os en
ul se
ĠH er
Ġgr av
are st
Ġcr im
Ġexp ense
Ġsm ell
Ġsil k
âĢĶ "
Ġve l
Ġhelp ed
Ġext r
ĠTh ornfield
ĠJean lin
Ġvan ished
Ġrelie ved
Ġsmo oth
Ġinhabit ed
Ġoper ation
Ġwond ered
E ach
M ay
S pe
T ell
i ently
s es
Ġt aught
Ġw in
Ġw ise
Ġm ult
Ġb rief
Ġf ishing
Ġto day
Ġl ou
Ġp in
Ġp il
Ġhe nce
Ġg ay
se ver
Ġv ais
and er
ct o
ie z
Ġman age
Ġtr uly
um ber
Ġpo le
Ġcha que
Ġcr ater
Ġexp osed
Ġdist r
ĠV irgin
Ġcomm itted
Ġlar mes
Ġins ol
Ġind ic
Ġfin al
Ġcare ful
Ġaff ord
Ġprison nier
Ġquar rel
Ġaccomp lished
Ġven ait
Ġequ ally
Ġbir th
Ġsoft ly
Ġneighbour hood
Ġdescri be
ĠAmeric an
Ġuneas iness
Ġetern al
Ġquant ity
F irst
P ro
b ber
i ard
r ais
w or
Ġt ap
Ġw ings
it ution
Ġb os
Ġto morrow
Ġh ull
an ks
Ġn urse
ad s
Ġwe pt
ag on
ard e
Ġun us
ĠP i
Ġab omin
ĠA N
ĠL udovic
Ġam used
ab s
Ġpre tend
ĠD o
int ed
ens ity
Ġatt itude
Ġlight ning
Ġplus ieurs
Ġadd ition
Ġbeh old
let s
Ã¢ ce
Ġsound s
Ġbus y
Ġtri f
Ġprison ers
Ġstri king
Ġver t
gy pt
bb ing
Ġmut tered
Ġguess ed
Ġlors qu
Ġwha le
ĠAlt esse
Ġredu ced
Ġgrou ps
C andide
c ertain
u able
u its
v oir
or ne
Ġwh ilst
Ġr ush
Ġas semb
Ġst age
Ġqu art
Ġso it
ch Ã©
te ment
Ġal together
ĠA h
Ġag itated
Ġch oose
ang led
ful ness
Ġrest ed
ĠHe aven
Ġisland s
tem ps
Ġca vern
Ġclose ly
Ġris en
Ġconv uls
Ã® t
Ġprec ious
Ġkiss es
Ġincl ination
Ġhill s
Ġcho ice
Ġvoul ait
Ġassist ance
Ġremark able
ias m
Ġacknow led
Ġparent s
Ġsaf ety
P ar
y e
Ġc elle
Ġd ance
Ġf ant
Ġp ir
at ch
om ach
ot ted
Ġre ceiving
Ġth ou
Ġr ival
Ã© ment
Ġv ac
Ġbut ter
Ġla un
Ġab road
Ġtr aces
ĠB ou
Ġsp ort
are cha
Ġch osen
ĠE gypt
Ġpart i
Ġarm y
Ġdr inking
Ġsent iments
Ġmet tre
Ġsing ing
Ġland ed
Ġrais e
Ġact ually
Ġreal ity
Ġregard ed
Ġsitu ated
Ġhes itation
Ġspec im
Ġvan ity
Ġfever ish
ĠRass eneur
Ġinstr uments
Ġarrest ed
Ġtum ult
j our
j ust
x el
re ls
ha med
Ġf us
Ġn et
Ġre appe
id ents
ce mber
Ġv ou
Ġshe ep
Ġsh r
te enth
Ġtr ick
ĠA pril
ud es
Ġover t
Th ree
Ġvo ix
ĠV ous
Ġlove ly
Ġans w
Ġrest e
Ġrest ing
Ġdr ank
ĠGr Ã©g
Ġsim ilar
Ġboat s
Ġfriends hip
Ġsecond s
Ġadm ire
onse igneur
Ġfig ures
Ġball oon
Ġperm it
Ġcand les
Ġdescri bed
ĠBar on
Ġstro ke
Ġfortun ate
Ġsembl ait
Ġinstr ument
Ġcarp et
Ġwed ding
Ġexped ition
Ġhab its
Bon adventure
ĠCont i
ĠIng ram
A L
A u
M me
e u
h ic
w est
Ġt ied
Ġw ra
er ies
it iÃ©
Ġc ri
Ġf ought
Ġf ires
Ġl ux
ar ine
ar gent
Ġha ut
Ġre cl
Ġre aching
Ġth res
Ġst amp
Ã© m
Ã© v
Ġis ol
pe lled
Ġex agger
ĠC our
ound ing
Ġtr ack
ĠS i
Ġco arse
ĠH ot
ab b
Ġper d
Ġbl ame
Ġsc and
Ġturn s
Ġatt acked
Ġcomm ission
Ġunc ons
Ġind ivid
cept ion
Ġexc urs
Ġking dom
Ġcor ps
ract ion
Ġsus pected
Ġincre ase
ĠHen ri
Ġwhis per
Ġfrequ ent
Ġappre hens
ĠZ acharie
Ġprefer red
Ġinterv als
ĠMort imer
Ġnav ig
Ġlaqu elle
cto ber
: --
L isten
S i
i ques
Ġb ase
ic ian
Ġas hamed
ak s
hed ral
Ġmo y
Ġbr as
Ġlong ed
Ġbl owing
Th ose
od e
Ġcont ented
Ġinc ess
Ġobser vation
Ġadm itted
Ġjo ie
Ġdem i
Ġgener ous
Ġexpl os
ouv re
Ġdest ruction
pend ant
Ġadmir able
Ġtender ness
Ġdiscuss ion
Ġrelig ious
Ġintrodu ced
Ġresist ance
Ġfold ed
ĠSpan ish
Ab out
Ġeleg ant
Ġanch or
acam bo
Ġthres hold
E h
F inally
M aster
N ed
f r
n y
v is
v Ã©e
w ood
Ġs lope
Ġm ou
Ġm ission
Ġh uit
Ġe ch
Ġg own
Ġwh it
ir ing
Ġr appe
Ġas certain
Ġst aring
Ġst omach
ĠM ount
ne ur
Ġlo ves
fe rent
Ġpart ed
Ġlet ting
Ġacc used
Ġ. '
ĠV otre
entle men
ĠO ctober
Ġmid night
ĠAr onn
So on
bour n
Ġshore s
ĠChar lotte
ĠRo b
Ġaut res
Ġcross ing
An y
Ġdelight ful
Ġbelong ing
Ġmass es
ortun ately
Ġforest s
Ġpouv oir
Ġner ves
ĠRod olphe
Ġdestroy ed
Ġcommunic ation
Ġobey ed
ĠLong bourn
Ġgendar mes
Ġfreed om
ĠAronn ax
H aving
i ance
Ġ ----
in o
Ġw ake
Ġw ishing
ou que
Ġhe els
Ġg ent
Ġth read
st em
al es
ul gar
Ġfe ather
Ġno d
ak ened
Ġgr at
Ġsp ur
Ġlong temps
Ġbo ot
Ġpre y
Ġacc ent
Ġcount ed
Ġbed room
Ġaw oke
Ã´ te
Ġmer ry
Ġvoy ait
Ġincre asing
Ġslight est
umb ling
Ġlean ed
Ġchee k
ĠDe cember
aiss ance
Ġhide ous
Ġneg le
Ġtort ure
** *
Ġshell s
Ġfrig ate
Ġwel come
Ġvel vet
C om
G eorge
i ot
r id
r ir
u ine
y al
Ġ Ã©cri
Ġo ath
Ġd oute
Ġh osp
Ġg au
Ġg ouver
se e
se en
Ġme lt
her lock
oo p
Ġfe u
Ġno is
un es
ĠP angloss
ĠS o
ck s
Ġgr ate
Ġlo vers
Ġdis gr
ud ing
Ġpe ur
Ġsur vey
Ġmon str
ĠFr ank
Ġfear ful
Ġpay ing
ils on
Ġexam ine
Ġbott les
Ġfro zen
Ġid Ã©e
Ġyield ed
Ġmeas ure
atur al
Ġsubst ance
Harr is
b ac
c ol
g ue
Ġt ight
in ent
Ġm ant
Ġc ases
Ġf Ã»t
as ion
Ġha ven
Ġg ros
Ġnot withstanding
ĠM arecha
if ice
Ġsu ite
out s
Ġj u
Ġex ting
ĠC ham
ie w
Ġli es
Ġpass ions
Ġexp lo
Ġinc red
Ġtre mble
Ġmet res
Ġins ult
ĠGr imaud
Ġsle e
Ġmur de
Ġdream ed
Ġconsider ation
Ġfree ly
Ġcomfort able
Ġpu zz
Ġconcl usion
Ġur ged
Ġshud dered
Ġasce nded
Ġindif ference
Ġprofess ion
Ġexceed ingly
Ġenthus iasm
liv ier
Ġajout a
Ġdoc ument
Ġextrem ity
ĠHot el
F ortunately
h ire
r ained
v it
Ġt ables
Ġd ru
Ġd iver
Ġf ain
ar ch
at ched
id able
st ead
ur ies
Ã© ri
Ġab ys
ĠS ainte
Ġam ount
Ġro ll
Ġpre par
Ġdown stairs
ĠT emple
Ġfl ash
mb ers
Ġheart ily
ros pect
Ġcontin ually
Ġref us
Ġes teem
Ġdisc har
Ġmot s
Ġbon es
Ġdri ving
Ġexam ining
ilett i
Ġsac red
Ã©g rel
Ġren cont
Ġmill ions
Ġpract ice
Gr ingoire
Ġconne ction
Ġshel ter
Ġestab lish
Ġestab lished
Ġdispos ition
Ġindif ferent
Ġwithd rew
Ġlam ps
Ġthorough ly
Ġcorrid or
Ġmonstr ous
A d
P orthos
b ack
j ud
o il
p ers
z ed
Ġc ig
Ġd ig
Ġd aring
Ġp ages
Ġe c
Ġbe ard
st ep
Ġu gly
Ġnot ion
Ġla ce
Ġfe e
Ġdo gs
Ġpl enty
Ġmore over
ĠG ri
ab ond
Ġsome body
Ġper formed
Ġrem ove
Ġdu g
si x
omet er
Ġche v
Ġchan nel
Ġmind s
Ġkind ly
Ġreason able
Ġcomple x
Ġcast a
Ġpal ace
An other
Ġbell y
Ġprep aring
Ġpi pe
Ġsy stem
Ġsepar ate
Ġdonn Ã©
Ġimpat ient
Ġmor al
Ġrepro ach
Ġendeav our
Ġaud ience
ĠSc ot
Ġtemp est
ĠChrist ian
Ġridic ule
Ġamb ition
Ġham mer
Ġswall owed
ĠGo vern
Ġunus ual
H I
g en
k in
k ers
m ar
u ght
Ġ Oh
Ġm ent
en ois
Ġl osing
Ġp ause
le m
Ġwe aring
Ġst ol
Ġat ro
Ġle ather
Ġup right
Ġex isted
ĠC rois
Ġun s
um s
ĠL ouvre
ry more
Ġbl az
ĠE st
ai red
Ġend s
Ġtell ement
Ġinst ance
Ġreg ions
Ġsk iff
Ġcol or
Ġfact s
Ġgre et
Ġinterest ed
Ġrequ ire
ĠPro vidence
Ġpriest s
fin ite
Ġsy mp
Ġsens es
Ġenjoy ed
Ġer r
Ġtranqu ill
Ġembr aced
Ġpersu aded
Ġdefe nd
Ġembarrass ed
Ġcurtain s
Ġrepres ent
More over
mir al
Ġvag abond
Ġsubl ime
ĠCrois enois
E D
M athilde
T r
V ous
n Ã©e
o k
o in
p iece
r im
t wo
w ho
re use
Ġb ars
Ġb und
is is
en ger
Ġd il
Ġd ine
Ġg rie
Ġre se
Ġre ass
Ġst out
ro ll
Ġsh irt
Ġsh oot
ol t
Ġen ve
ĠS ea
el ing
ĠL izzy
ĠG asc
ab ord
Ġob jection
Ġfriend ly
Ġcons ult
Ġsupp lied
Ġsw im
Ġ1 0
Ġind ul
Ġsix teen
Ġste pped
eb ru
Ġobser v
Ġpri ze
Ġform idable
Ġsun k
Ġdisp leas
Ġcent ral
Ġcor rect
Ġbreat he
ĠIt al
Ġcorn ers
Ġglass es
Ġdi vers
Ġeffect s
Ġcompl iment
Ġwarm th
Ġprem iÃ¨re
Ġsli p
Ġer u
ĠInd ia
Ġthreat ening
Ġva ult
aille urs
Ġprot est
Ġphr ases
Ġswift ly
Ġdisappoint ment
ĠSan sever
ĠBel cher
ĠÃ¢ me
Ġapparent ly
ĠPier ron
ĠhÃ© ros
Ġoverwhel med
Ġproport ion
Ġbos om
Ġabomin able
Ġexting u
ĠSansever ina
d ers
Ġw ounds
Ġp hen
as per
Ġhe ap
Ġha ute
et e
Ġr ue
Ġv os
te xt
ast ro
ure l
um ps
ĠS em
ĠL oth
ĠG re
Ġdis d
ĠR oman
Ġcomp rom
Ġspe cial
ĠT our
iss ait
Ġmar ch
Ġret ire
Ġlight s
mer ald
Ġgu lf
Ġsing uli
lp h
Ġland ing
Ġlive ly
Ġcomple ted
Ġprov ost
Ġcast le
Ġsol itary
Ġsuper b
Ġvessel s
Ġval uable
Ġdom in
Ġod our
Ġaband on
Ġaddress ing
Ġirrit ated
Ġmix ed
Ġlandl ord
ĠJac ques
Ġeduc ation
ĠStap leton
Acc ord
bac co
ebru ary
ĠLoth ian
? --
C ould
he art
Ġa cted
Ġf i
Ġh ut
Ġwh ither
Ġme ad
ore s
res c
th y
os sip
Ġal armed
ĠP e
ure ly
ĠL et
Ġet re
ĠJ ust
Ġdis aster
Ġdes cent
av ais
Ġsha ken
Ġad vers
Ġcan v
Ġcomp agn
Ġstr angers
Ġres ign
Ġgl it
ĠW ilson
Ġsil ently
Ġrest ored
Ġfour th
Ġmet al
Ġsub s
ĠHe ights
Ġbed s
Ġsec ured
Ġsail s
Ġdisp osed
Ġact ive
Ġact ions
Ġdri ft
Ġstart ing
Ġsal t
Ġhuman ity
Ġinqu ire
Ġchair s
Ġneighbour s
Ġbas ket
Ne ar
Ne xt
Ġod d
Am ong
Ġseule ment
Ġdete ctive
Ġnort hern
Ġcomprehe nd
ĠJan uary
Ġchev aux
merald a
A yrton
P hileas
T ow
Ġ 8
Ġm ild
en z
Ġf an
Ġto s
Ġto bacco
Ġp red
Ġp all
or ious
le z
Ġwe ighed
Ġsu pre
ct s
Ġup set
ul a
ol Ã©
ĠP rospect
Ġhand ed
Ġbo is
Ã©t aient
Ġsc orn
Ġreg iment
Ġlar ger
Ġou v
Ġsou vent
Ġste el
Ġperson al
gr Ã©
Ġconst ru
Ġbreat hed
Ġsatisf y
Ġshar ply
Ġburn ed
Ġobst acle
Ġbeat en
Ġnouve au
asp ing
ĠMay or
Ġhither to
Ġsupre me
. )
P e
i ved
o ll
Ġs ink
re p
Ġm Ã¨re
Ġc u
Ġd ict
Ġf ow
Ġf are
Ġf lock
Ġl one
ll is
Ġhe l
Ġha z
at ory
om fort
ld om
ver se
Ġwe igh
Ġv ue
ant es
all ed
Ġj oke
Ġtr ous
ell y
Ġag itation
Ġbr uit
Ġdis s
ud ge
ĠN ove
Ġob v
Ġres c
Ġback s
Ġlet tres
ĠT abor
Ġwind s
Ġnight s
Ġconf ined
Ġinc on
Ġdep ri
ĠGr and
Ġeff et
Ġrespect able
Ġvol ume
Ġhung ry
Ġlac keys
Ġpreser ve
Ġami able
Ġreser ved
Ġrepres ented
Ġcra ft
Ġhyp oc
Ġange l
Mahe u
Ġschol ar
Ġexerc ise
uten ant
Ġadvent ures
ĠAtl antic
Ġphen omen
ĠNove mber
A gain
C onseil
E T
I m
M eaulnes
b ers
i als
k ind
r s
s ing
w el
y l
y our
Ġ On
Ġ icy
Ġa x
in st
Ġthe atre
Ġo il
Ġb ientÃ´t
en Ã§
Ġd ur
Ġd ate
Ġp ush
as hes
ll ers
Ġh oles
Ġha ught
Ġbe nding
Ġwas n
Ġr am
Ġnot es
Ġse ldom
Ġsu gar
Ġsh iver
Ġex asper
os ition
ul ations
Ġfe ast
ust ri
Ġtr unk
ĠA xel
Ġsha ke
Ġimp ert
Ġsc en
Ġte ach
Ġhar sh
Ġinf am
Ġread ily
Ġgen ius
Ġthousand s
Ġir res
Ġprom en
Ġbur nt
Qu asimodo
Ġaccomp any
Ġstud ied
Ġcompl aint
Ġremain ing
Ġview s
ĠY ork
Ġaccord ingly
Ġdescri ption
Ġbecom es
Ġamid st
Ġdim in
ĠSe ine
Ġwand ering
Se e
Ġphr ase
Ġelb ow
Ġsevent y
Ġrecomme nd
Ġstif led
Ġfen Ãªtre
Ġremind ed
occ up
Ġfee ble
Ġsymp ath
ĠSem inary
f ell
f ather
o grap
r as
Ġc ook
Ġf ins
Ġbe lt
Ġfor bid
ĠM icha
all s
ation al
ĠA m
ĠL i
ĠG iletti
Ġdis ag
ĠR oy
are t
Ġch Ã¢teau
Ġpass ait
Ġpass ages
ang le
Ġcr ou
Ġimp l
ien nes
Ġcomm enÃ§
gg ist
Wh ich
Ġins isted
Ġcol ony
Ġprom pt
Ã¢ me
Ġthir st
cha it
Ġred oub
Ġemb ro
app ro
Ġobject s
Ġimpr ison
Ġlac key
Ġmiss ed
Ġattent ively
Ġsugg ested
Ġamaz ement
Ġprocess ion
Ġmach ine
ĠEs meralda
ĠEx cell
Ġdisord er
Ġcerem ony
Ġwra pped
S hall
T HE
r ant
Ġt iny
Ġa i
it or
Ġb lo
Ġl ane
Ġh orn
an che
Ġe re
Ġg ates
et her
Ġr ud
Ġan c
Ġwhe els
ĠB ay
Ġad ress
Ġpre text
Th r
Ġcont act
Ġsc ient
ever al
ens ive
Ġhar ness
Ġarm chair
Ġcontin ent
Ġgentle woman
Ġest im
Ġve il
Ġfore ver
Ġhear th
Ġtem pt
room s
Ġaw ake
Ġtri al
Ġeight een
Ġru le
Ġcat astro
Ġed ifice
Ġpain ted
Ġven ir
Ġpassion ate
Ġtor ment
Ġball s
Ġfair ly
Ġcompl ain
Ġfem mes
Ġattempt ed
Ġheaven s
Ġcell ar
Ġlod ging
Ġbran ch
Ġwand ered
Ġvig orous
ener al
Ġaur ait
Ġorig in
ĠEd ie
Ġplais ir
ĠPh il
Ġpasse port
Ġdru ggist
) .
l eness
Ġ 9
Ġ âĢĶ
Ġt ale
Ġs che
Ġs illy
en b
Ġf asc
Ġp its
an ing
ir ts
ver t
il ight
il ies
ul ating
ĠC acambo
ĠC resc
ĠL ow
ĠF ebruary
Ġcr ust
Ġcons ul
Ġapp l
Ġinc ome
Ã©c ile
Ġgen us
Ġgen uine
Ġhum our
Ġperson age
Ġrais on
Ġremem br
Ġsold ats
Ġpat ron
Al ice
ĠEnglish man
Ġprec aution
Ġpa used
Ġtrave l
iter ranean
Ġcost ume
Ne ither
Ġutter ing
Ġden y
Ġcoun sel
Ġsin king
Ġembr ace
Ġdeb t
Ġintim ate
Ġmag istr
Ġdistinct ly
Ġcheer ful
ĠdÃ©j Ãł
hi bit
Ġstupe fied
Ġconsid ering
ĠWill iam
Ġbund le
enz i
ĠCresc enzi
B et
i ving
p ool
Ġt ard
Ġs ie
on ville
Ġl ust
Ġp ian
al t
Ġst uck
Ġse es
Ġv rai
Ġqu itted
us ions
Ġcom rade
ĠC ross
Ġman s
ĠP ont
ire nt
ĠN ether
Ġcan oe
Ġfo g
Ġser ge
Ġcar ri
Ġatt racted
Ġcomm ence
Ġwork ers
Ġve ux
Ġwar n
gr at
Ġdec ide
but ed
Ġmean while
Ġinv itation
ib ly
Ġsal on
Ġrecogn ize
Ġprec isely
Ġforget ting
Ġsuccess ion
ĠX X
Ġconfess ed
Ġpock ets
olog y
Ġcommand er
Ġgest ures
ĠdÃ©s espoir
Ġfirm ly
Ġresp ond
Ġpossib ility
Ġpropos al
Ġinquir y
Ġorig inal
ĠRou en
Ġing en
ĠMed iterranean
Ġegg s
Tow ards
ĠNether field
F ix
S everal
U ne
h onne
i pe
m et
m oi
v on
Ã ¦
Ġs ource
Ġc ared
Ġto re
Ġp age
Ġn ails
Ġn iece
at ured
ut ions
Ġst ove
Ġat tended
am a
Ġle is
Ġle quel
ist ing
un ted
ind er
ap an
ĠS herlock
Ġpr im
ĠF a
Ġtw ilight
Ġgr Ã¢ce
Ġthen ce
Ġque er
Ġbefore hand
ord s
Ġser ies
Ġmar ks
Ġmar Ã©c
Ġfl owing
Ġgl anced
Ġcap it
ens es
Ġinf er
Ġsou ver
Ġste al
Ġlay ing
Ġsign ed
Ġabs ent
Ġmil k
Ġadm ired
Ġaw akened
Ġstrong ly
sh ire
Ġevid ence
Ġcondu cted
Ġintellig ent
Ġpolit eness
Ġignor ance
Ġtravers ed
Ġexchan ge
Ġfis her
Ġassass in
Ġprolong ed
Ġcanv as
Ġlone ly
B oth
D ans
F elton
i ke
r ated
Ã ¯
Ġt in
Ġt ut
he aded
re bber
ou che
Ġb ail
Ġd ense
at ives
Ġon to
et re
Ġr ude
Ġr ushing
Ġqu elle
ard inal
Ġsh rie
ĠB rit
-- '
ĠL ied
Ġbr ist
Ġany where
Ġap er
Ġpar ish
ĠÃ©t r
Ġpour rait
Ġthrough out
ĠW h
Ġche min
Ġdev ait
Ġinc ap
Ġfour teen
Ġma Ã®
Ã©p ar
Ġwar ned
Ġdet ail
Ġdeep er
Ġdro ps
Ġimag in
Ġimmedi ate
Ġrefle ct
Ġclim b
Ġcoll ar
Ġwret ches
Ġamaz ed
atur day
Ġdism iss
Ġencl osure
Ġrig id
ĠAd miral
Ġappoint ed
ĠLuc as
honne ur
ĠmaÃ® tres
. âĢĶ
H ence
O M
h our
n atural
t r
t ant
Ġt est
Ġt un
Ġo ak
Ġo wed
it z
Ġb ench
is se
Ġp ains
Ġp oured
as y
Ġh ound
Ġin k
Ġde ven
Ġst able
Ġse nding
Ġv ive
Ġso bs
Ġshe ets
Ġex tend
ĠC han
Ġen l
Ġal t
Ġman if
ĠS outh
Ġro de
ĠJ ames
Ġrep rit
Ġbo il
Ġey el
Ġgood ness
Ġpar aly
Ġback ward
Ġav ons
Ġend less
Ġsent in
ĠGr ant
Ġhum ili
Ġobser ving
Ġgrand s
Ġmil itary
Ġexcl am
nde z
Ġmal heur
Ġheav ily
Ġdream ing
Ġart ist
Ġtrave lling
ĠBar rymore
Ġpeace ful
Ġroof s
Ġnom bre
lop in
Ġembarrass ment
Ġreven ge
ĠNor th
Mar guerite
Ġard ent
Ġinsp ired
dess us
Ġgrav ity
ĠFrank lin
Ġabys s
Ġstol en
enb rock
ĠLied enbrock
H ans
a ved
a wn
a pped
b es
i ven
v an
Ġm ains
Ġb out
Ġb orne
Ġd angers
Ġto ilet
Ġp ushing
ar i
Ġg or
ut ch
ir on
Ġr ows
Ġv int
ag g
and s
Ġcon grat
Ġj ur
Ġdo it
Ġdo ct
un s
ĠP er
ap t
ge llis
ĠB ra
Ġag ony
ĠH ope
Ġro ar
Ġlo ving
Ġinto x
Ġlong ue
Ġper f
ĠE h
Ġcr imes
Ġcap t
ren te
be ar
ĠV en
Ġdev otion
up on
Ġeng agement
Ġ1 3
az in
Ġsk ull
cept ible
Ġreco ver
Ġhus s
Ġill ness
Ġru ins
.. ..
Ġcat hedral
bo x
Ġsad ness
ĠTre gellis
Ġmem ories
Ġstrugg led
Ġbas in
olog ne
Ġproper ly
Ġpun ishment
ĠSe urel
ĠNap les
Ġartic les
anÃ§ ais
Ġresemb led
Ġ.. .'
Ġjack et
Ġpir ates
Ġscand al
Ã´te l
Ġgouver neur
Ġdisd ain
Ġtrous ers
Ġdisag ree
ĠmarÃ©c hal
H as
L ittle
a ul
n cy
o ard
in th
in aire
Ġs inc
Ġs Ã©rie
Ġo ars
ha b
Ġm ate
Ġd ip
or ously
Ġre ef
Ġr om
Ġr Ã©c
Ã© l
ag ers
Ġsu itable
ous s
Ġcon cent
Ġsh ill
Ġj aws
ĠC or
un ks
Ġtr ot
Ġtr Ã¨s
ĠL est
ĠF ouque
Ġmo ist
ĠJ une
Ġper se
ra ham
ĠD rebber
Ġres ume
anc er
ĠT o
Ġsm ith
Ġappe aring
Ġdist ri
ĠÃ©t onn
ail ing
iv ity
Ġcertain ty
Ġfollow s
Ġsw ore
Ġwork men
lic able
ĠO livier
gu es
Ġdisc our
Ġred d
Ġbrother s
va ques
Ġdesp ite
Ġmouth s
Ġmal heureux
Ġcrowd ed
ĠY onville
Ġcher cher
Ġhid ing
Ġloud ly
Ġconvict ion
Ġplant ation
ĠprÃ©s ence
Ġgle am
Ġeld est
Ġwha les
Ġreser ve
Ġartic le
Ġspecim ens
Ġech o
Ġextingu ished
Ġincap able
e ux
g ate
i ge
i ated
n ant
t able
Ġs lop
Ġthe e
Ġo x
Ġb atter
Ġc ad
Ġc ant
Ġf ists
Ġp iled
Ġin tend
Ġha ul
at us
Ġre ward
Ġon t
ir med
ous quet
Ġall er
Ġj ury
ul ars
Ġli bert
Ġun l
Ġun ivers
Ġen r
ĠS aturday
ĠB omb
Ġgo d
Ġtw isted
Ġco ff
Ġco vering
Ġmo de
ĠJ ack
ĠR os
Ġcan al
Ġcl ub
Ġafter ward
Ġpar ole
aut ions
Ġce pendant
Ġfl ut
Ġdif f
ĠGr ace
Ġvis ited
Ġjour nal
Ġplac ing
not hing
Ġwar ning
Ġcold ly
ole on
Ġpet its
Ġmer it
Ġgard ens
Ġstrong er
Ġsus pended
Ġpat ient
ĠBon nem
Ġdirect ions
Ġsav ait
Ġbat t
ĠIsland s
Ġprep are
Ġdiv ine
Ġgrave ly
Ġdifficult ies
Ġnews p
rist an
Ġutter ly
Ġvict ory
Ġmeas ured
Ġsmo king
Ġenv oy
Ġresp ons
ĠFer rier
Ġnouve lle
Ġawait ed
Ġauc une
Ġweap on
Than k
Ġpant ing
ĠvÃ©r itÃ©
Ġcrim inal
Ġacknowled ged
Ġexcurs ion
Ġmoy en
Ġirres ist
ĠFa ust
ĠBonnem ort
C atherine
L ys
O ut
g ne
h ost
r ows
u pp
Ġs orte
Ġd Ã¨s
Ġn ap
Ġin ex
ic ip
ot es
st one
ac re
ri ly
ro it
Ġv est
Ġv ient
if ying
Ġcon ject
all el
ĠA f
Ġaf ar
Ġdes ires
Ġsha w
Ġthr ong
Ġcar go
Ġgl ory
Ġapp et
leas e
Ġdoub ted
Ġsim p
Ġfur iously
ĠK ong
Ġstand s
bour g
ĠdÃ© f
Ġobli g
Ġanim ated
Ġinv est
Ġexam ination
Ġ2 0
Ġsav oir
eor g
ph y
Ġmort al
ĠGu lf
Ġcolle cted
Ġplant ed
Ġparl our
Ġprev ious
Ġprev ailed
Ġtransport s
Ġrejo ined
Ġpier ced
Ġearnest ly
Ġobstin ate
reg ular
Ġprodig ious
Ġreappe ared
Ġcomplex ion
Ġsouver ain
ousquet on
ĠBomb ay
G ive
G ideon
l us
n or
Ġt res
Ġs way
Ġs co
Ġw ax
ha d
er ity
Ġb ishop
en f
Ġc aut
Ġd ess
Ġf aded
on our
es tern
ar ri
ot hes
id Ã©e
Ġse ize
ĠC e
ĠC r
Ġal tered
ap es
Ġab oard
ass ed
Ġco pper
ĠJ apan
Ġad orn
Ġcha in
Ġcha mp
Ġpart ly
ink led
Ġmight y
Ġcar ved
Ġthink s
Ġget s
Ġdon ne
Ġcomm it
Ġgi ant
lic ation
Ġunc ertain
Ġbelie ving
Ġnat ive
Ġsle nder
Ġir regular
Ġfore ign
Ġbar bar
Ġdec ision
Ġrel ate
Ġcreat ed
Ġpartic ulars
uss it
Ġprec ip
Ġpull ing
Ġsear ched
Ġyield ing
Ġarg uments
Ġpenetr ated
Ġcalcul ated
Ġauthor ity
Ġreve aled
Ġexecution er
Ġphys ical
Ġemer ged
Ġannoy ed
Ġauc un
Ġhalt ed
Ġunp leas
Ġmari age
ĠAb raham
ĠAust ria
Ġqual ities
Ġmater ial
Ġuncons cious
ĠRob in
Ġhaught y
Ġpian o
ĠmaÃ®tres se
ĠFaust a
C E
U nder
m ol
m illy
o ci
r ot
r Ã©e
Ġt ub
Ġs ons
ou ille
Ġm art
Ġb ust
Ġl ing
as m
or able
Ġn est
Ġe ux
Ġbe ings
ic ular
ur g
ver ty
ay ed
Ġr oused
Ġwe ep
ri ar
ĠM on
Ġne at
ĠC al
ĠC ardinal
Ġman ager
ure r
Ġtr am
Ġtr av
um ing
Ġout l
ĠS on
ĠA von
Ġint r
ĠL u
Ġrep ose
Ġpo verty
ress ing
Ġbl ushed
Ġcomp te
ose milly
Ġstr ict
Ġvo il
Ġret r
Ġgl ances
Ġac id
Ġarri ving
Ġhun t
Ġform ing
Ġquestion ed
Ġmad ness
Ġcat ching
Ġmain tained
Ġinterest s
Ġpit ch
Ġfem ale
Ġplan ks
Ġstrugg ling
Ġmarry ing
Ġpray ers
Ġbuild ings
Ġmod est
Ġconne cted
Ġfier y
ĠChe lan
Ġrob ber
Ġbord er
Ġrecolle ction
Ġcool ness
Ġreck oned
Ġmoder n
umin ous
Ġweap ons
Ġgai ety
Ġassur ance
Ġvall ey
ĠMicha ud
ĠExcell ence
R oland
T I
e ys
o ch
he red
Ġw ave
Ġo ub
Ġb one
Ġb ab
en ard
Ġc ass
Ġc able
Ġc ott
Ġd ried
Ġl at
Ġl ift
Ġl ament
Ġp Ã¢
ar chevÃªque
Ġn ay
le x
Ġbe er
Ġwas hed
Ġr os
Ġle af
Ġen nem
ĠB et
ĠL heureux
ĠF leur
ive red
ĠH im
ab led
Ġsp ared
Ġim age
Ġpo ign
Ġover fl
Ġcha se
ons ense
Ġoff ering
Ã©t ais
iss ary
Ġser pent
Ġcar act
Ġho ly
Ġfl atter
Ġcons isted
Ġte le
ĠW hy
Ġpleas ures
Ġ1 2
Ġins pect
ĠO r
ĠHe len
Ġcol Ã¨re
gr am
Ġtou ching
Ġact ing
app ing
Ġtrans p
Ġblood y
Ġsad ly
Ġshut ters
Ġacqu ired
Al though
ĠrÃ© g
Ġhop ing
Ġcet ace
Ġhes itate
ĠDu ches
Ġproper ty
Ġfavour ite
Ġlock ed
Ġsuspic ions
Ġvolcan ic
Ġge Ã´
Ġdiamond s
Ġshru gged
ĠBer ks
rock le
Ġchas se
Ġbrut al
illa ume
Ġpou lt
Ġbew ild
ĠAN D
Ġincess antly
Ġpuzz led
Ġprepar ations
Ġec st
Ġeru ption
Thr ough
Ġdisagree able
ĠAf ric
eorg iana
. âĪĴâĪĴ
T op
W ait
c les
h urst
l ait
Ġ iv
Ġa y
Ġs an
Ġs ne
Ġw ire
Ġm auv
Ġc ards
Ġc reek
Ġl ent
ll us
Ġh ol
Ġn our
at tend
ic ing
Ġre ndez
qu enard
Ġnot ed
Ġse izing
Ġne arest
ĠC at
Ġno vel
Ġpl ates
ass es
ell ement
ĠB l
ĠB ank
ĠB rockle
el ic
Ġpr aise
Ġint ent
Ġbr ings
av ant
Ġcont rol
Ġent ra
Ã¨ res
ĠT O
Ġmar ine
There fore
Ġce le
Ġfl our
Ġdist racted
Ġapp lied
Ġcall s
Ġhapp ily
Ġcomm enced
Ġlight ly
Ġmin ister
Ġear lier
Ġgu ine
Ġass oci
har d
Ġarri ver
ĠO ne
Ġvis its
Ġfin est
Ġeas ier
Ġaff aire
Ġcou ps
Ġcent uries
Ġconst able
ĠCh urch
Ġmain tain
Ġanx iously
Ġcontr ast
ĠCo quenard
bre ak
Ġsweet heart
Ġadvant ages
Ġpist ols
Ġprote ction
Ġdam ned
Ġexha ust
ĠFer r
Ġpier cing
Ġshel tered
Ġinquir ies
Ġinterv iew
Ġconven ient
Ġdisplay ed
Ġobsc ure
Ġdeliver ance
Ġfus il
ĠCour t
Ġexplos ion
ĠMarecha le
ĠGasc on
Ġcatastro phe
Ġsie ge
Ġcarri ages
; "
C h
G entlemen
P r
S h
b res
d led
f a
m ond
n ation
o let
t u
v est
y es
y si
Ġt ast
Ġt ip
he arted
re et
re ne
Ġm ouve
Ġp ig
Ġp uff
ar ms
an i
Ġin her
om y
Ġg a
Ġg n
ĠI V
Ġwas te
Ġre ar
Ġde finite
Ġr ic
il ence
Ġv oud
ĠM ad
ĠM ill
ĠM ason
Ġqu ad
our ces
li que
Ġbut t
Ġla bor
ers on
Ġun b
Ġun ique
un ning
ĠS and
Ġar oused
ĠF lem
ĠH ong
Ġro be
Ġbr ick
Ġsp y
Ġdis gu
ft en
Ġlong itude
ĠN Ã©grel
ber g
Ġcha pe
Ġstr ata
Ġcr it
Ġimp ress
iss ant
Ġgl ided
enc hed
Ġ1 1
Ġfam ilies
Ġinde pend
Ġcol onel
ĠFr il
Ġsail ors
Ġsurpr ising
Ġenc han
Ġfoot step
Ġexpect ation
Ġrel ation
ĠÃ© cl
Do es
Ġarr ange
Ġaccount s
enn y
Ġbell s
Ġneighbour ing
olog ical
Ġpurs ue
Ġenjoy ment
Ġexec uted
Ġattent ions
Ġcoach man
Ġpersu ade
Ġpenetr ate
ma id
Ġheure ux
Ġcarp ent
Ġstat ue
Ġrene wed
Ġmerc hant
Ġconsol ation
Ġiss ue
Ġinvol unt
Ġstead ily
Ġkil omet
Ġrepl aced
Ġinexp licable
Ġdisgr ace
Ġremembr ance
Ġunpleas ant
A M
A prÃ¨s
H old
L L
O ther
P res
a id
b able
e ight
g re
n atured
v ice
Â °
Ġ ident
Ġt ig
Ġt rente
Ġm as
it ively
Ġl uminous
Ġp acked
Ġn os
Ġn inet
Ġin ward
Ġe rect
Ġg host
id ge
Ġr ive
Ġwe eping
ill art
Ġsa ving
ĠM al
Ġqu ality
ct ic
Ġex hibit
Ġun ited
ĠB ologne
Ġint ol
ĠF roll
Ġco ck
Ġro yal
Ġbr ide
Ġrep aired
Ġcomp ared
Ġdu el
ĠD el
ĠD iana
Ġpar allel
Ġimp ass
Ġmar ket
Ġmon ot
Ġend ure
Ġapp ly
Ġcap s
ĠW ell
Ġreg ards
Ġpers ist
Ġind isp
Ġsou ri
Ġfall s
Ġste ady
use ment
Ġprof it
ĠJe w
Ġact ual
Ġground s
Ġstrange ly
Ġprov in
Ġinv is
bo at
Ġequ ip
Ġtrave llers
Ġfool s
Ġconfess ion
Ġempt ied
Ġdepart ed
Ġsli pp
Ġconsequ ences
Ġid iot
Ġpray er
Ġ3 0
Ġcler gy
Ġavo ided
Ar amis
Ġattent ive
ĠNap oleon
Ġridic ulous
Ġcompass ion
Ġencoun ter
hem ian
ĠTur tle
Ġinstru ctions
Ġdign ity
ĠJes uit
Ġdazz ling
Ġeyel ids
ĠBrockle hurst
ĠFroll o
. âĢĻ
M any
N or
b oy
d on
f lo
g ot
l on
n ut
o ine
o ison
r ont
s p
u er
w hy
Ġt and
Ġt ire
Ġw ick
ha ve
er min
Ġm ap
Ġc ursed
Ġd umb
on ly
Ġn urs
le g
ic ious
Ġre ce
Ġth ief
et tre
Ġfor s
Ġr ot
Ġr if
am ents
Ġqu in
Ġsu st
li ers
ard es
Ġsh oe
Ġno bles
Ġtr ains
ĠA nt
Ġam is
ĠH atter
Ġmo llus
Ġdes k
Ġdes ir
ĠR ivers
Ġcha ise
Ġcl asped
Ġeven ings
Ġob ed
ĠD om
ord re
Ġcont racted
Ġimp ulse
Ã¨ se
Ġfl owed
Ġfl ames
ĠW hen
Ġter r
Ġround ed
Ġins ist
Ġsmall est
Ġbest owed
Ġadv ise
Ġprop ri
ouv arine
Ġmal grÃ©
Ġaccomp lish
Ġelse where
Ġvisit or
Ġvisit ors
Ġmus ket
Ġsad dle
Ġfle et
Ġdut ies
Ġclim bing
ĠMaj or
Ġpriv ile
Ġmeas ures
Ġsom mes
ĠÃ©c rit
Ġpros per
Ġant icip
Ġgrace ful
Ġdispos al
Ġpop ular
Ġreck oning
acks on
Ġappar atus
Ġexchan ged
Ġmoder ate
Ġcrown s
Ġrail way
Than ks
Ġdomest ic
Ġgal op
Ġpup il
Ġty pe
Ġmarve ll
Ã©qu illart
Ġoffe nded
Ġcann on
Ġmou st
Ġgrate ful
Ġobserv ations
Accord ingly
Ġphenomen on
ĠFril air
L ike
P re
T wenty
c ation
e Ã»t
o om
o ked
Ġt ones
Ġa head
Ġw ager
Ġm orrow
Ġb ast
Ġb ark
Ġd un
Ġp enc
ar l
an im
an co
Ġbe nd
Ġbe am
Ġwh ip
Ġas hes
Ġse mble
ter y
ĠC ity
Ġfe aring
Ġtr amp
ĠS ep
ĠB o
ĠL iver
ĠG reek
Ġro pes
ĠR Ã©quillart
Ġthan ked
Ġper ple
Ġrem pl
Ġcl ay
Ġcl ust
ose ph
Ġsur geon
Ġstr ing
Ġpart ing
Ġpar ut
Ġqui vering
ĠT H
ĠT om
Ġho arse
Ġgl ow
Ġapp are
Ġwind ing
ĠW ardes
arr ant
Ġsw orn
Ġcare less
Ġve ins
Ġlad ders
Ġswe at
Ġneed s
ĠRo bert
Ġtri p
Ġpur ple
Ġregard a
Ġlear ning
Ġserv ices
Ġtor ches
Ġfurn ish
Ġsens ations
Ġfle e
Ġlaw yer
Ġsword s
ĠÃª tes
Ġenter pr
Ġimpr udence
Ġvague ly
Ġpract ical
Ġresult s
Ġmir acle
Ġfold s
Ġlun ch
Ġwithd raw
Ġmaj esty
Ġentertain ed
ĠMou quette
Ġfrag ments
Ġmechan ically
Ġcroy ait
Ġindivid ual
Ġresign ation
ĠRoy al
Ġenl ar
Ġpoult ry
flo or
anco is
Ġperple x
" _
F r
G E
P our
R I
R O
T H
b ank
s is
~ ,
he ard
Ġs que
Ġs aint
Ġs ighed
Ġw arrant
ou reux
it ute
Ġb ows
Ġc ot
Ġp ont
an a
an ed
Ġhe ed
ot ions
Ġwas h
ver si
qu oi
ĠM ery
ĠM ock
Ġso ot
Ġsh y
ast on
Ġli b
Ġen su
Ġal ter
Ġtr iste
ĠB azin
av ag
Ġper ceiving
Ġcha pel
Ġfo li
Ġcl oser
ĠE n
Ġvo ici
Ġce ase
Ġmon sters
Ġcons ented
Ġcons ulted
Ġte acher
Ġcap oral
Ġche f
Ġinc idents
Ġgu ards
Ġrec onc
oun cing
Ġma Ã®tre
Ġaff irm
Ġrun s
Ġform al
Ġmot ive
Ġele p
Ġele ment
Ġdraw er
Ġph ysi
oc r
Ġru ff
Ġgard e
Ġsecret s
sib ility
Åĵ il
Ġkill ing
Ġspot ted
Ġdonn a
Ġguard ed
ĠRa versi
Ġcho ked
Ġsin ister
ĠFer vaques
Ġgar ments
Ġarg ument
pir ation
Ġmag ic
Ġpop ul
ĠrÃ©s ol
Ġencl osed
Ġacknow ledge
Ġelb ows
Ġgovern or
Ġpurcha se
Ġtit le
ember ley
Ġscru p
Ġfant astic
Ġscient ific
ĠLow ood
Ġleis ure
Ġinfer ior
Ġbail iff
mol ue
Ġcele br
ĠLiver pool
B r
F our
M ademoiselle
N ous
O ld
O ften
a ill
c r
c hant
r ons
u y
Ġ ze
in ence
Ġw ard
Ġw ool
Ġo s
Ġd arted
Ġf id
on ies
as min
ar a
om ed
le ment
Ġg as
Ġg ust
Ġg agn
ent ric
Ġth ie
al i
Ġfor ces
Ġr abbit
Ġse le
Ġse als
ro lled
Ġsa le
ĠM ousqueton
us hes
Ġsh rill
Ġex h
Ġex ter
ĠC lopin
ong e
Ġpl ains
un ken
ĠP emberley
ĠB Ã©
urn ed
ĠG ry
Ġgr asped
Ġbr is
Ġsp ots
Ġch ill
op s
Ġrem ote
Ġcl ung
ĠD erville
ĠD utch
Ã©t Ã©
Ġfl ushed
Ġgl orious
per or
Ãª ter
Ġhar bour
Ġrest less
Ġins en
Ġsou ls
Ġmid day
Ġdisc ip
Ġvie ille
Ġbur den
liz a
Ġbon net
quis ite
Ġexpl oration
Ġreal ized
erm ain
Ġlead er
Ġnarr ative
Ġcab inet
ph on
Ġdesce nding
Ġburst ing
fortun es
Ġdrag ging
Ġdelic ious
Ġshock ed
Ġsacri fic
Ġciv ility
Ġmess enger
Ġtriump hant
Ġpeas ants
ĠprÃ© tend
Ġbold ly
Ġimpro ve
Ġarrangement s
Ġbaron et
Ġsed u
Ġecc entric
Ġextr avag
Ġtranquill ity
Pe ople
Bet ween
Ġrespond ed
ĠBra z
ussit Ã´t
Ġinvis ible
ĠMery ton
? âĢĿ
C omme
I E
P lanchet
S ilence
a e
g est
l ance
n Ã¦
he ast
Ġo y
Ġm ood
Ġm ars
Ġc ough
Ġc ult
Ġf erm
Ġto i
Ġp ool
ll s
ve u
Ġre ject
Ġr ide
Ġst ater
Ġv ice
Ġv ulgar
Ġso b
Ġso lic
Ġso fa
Ġsu ck
Ġj est
ul in
Ġal tern
Ġtr unks
Ġar ches
Ġwill ingly
ĠB ast
Ġgr in
ab io
Ġbr ush
Ġbr icks
ĠJ oseph
Ġdes olate
Ġsha red
Ġcl osing
ĠD E
Ġres idence
Ġpart ies
Ġwhere ver
Ġdist ressed
ond ay
lie u
Ġhar vest
aster n
Ġsupp osing
Ġpleas ing
Ġdr unken
ene ulin
Ġinter val
Ġsou ff
Ġless ons
Ġtrou vÃ©
Ġmis fortunes
Ġsmall er
Ġthir teen
Ġfoot man
Qu and
Ġprov ide
Ġhur led
Ġexpl ore
oth ic
Ġcalm ly
Ġlead s
Ġbelong s
Ġdress es
Ġcompl iments
Ġremar ks
sib ly
Ġconcer ning
Ġer ror
Ġpist ol
Ġcolle ction
Ġaim able
Ġlod ged
Ġtroub les
Ġdiscuss ed
Ġsuffer ings
ĠLyd ie
Ġfill ing
iche lieu
Ġstock ings
more ncy
Ã©rie ur
Ġwond ers
Ġreve al
Ġbull et
Ġprofond e
Ġgovern ment
Ġtoler ably
Ġreb ell
Ġpictures que
Ġrepent ance
Ġrasc al
Ġenf ant
Ġdeve lop
Ġrecl use
Ġincon ven
inst ant
ĠLest rade
Ġirresist ible
Ġshaw l
ĠDuches s
Ġmarvell ous
Ġstater oom
F ive
R od
U R
c ur
h ors
u gn
Ġa light
Ġw ing
Ġo h
Ġb ite
Ġb uck
Ġc raw
Ġhe ir
Ġin ner
Ġe con
Ġg ild
Ġre cei
Ġwh ir
al f
Ġse ats
am ar
ter ranean
our d
ag u
Ġsu lph
Ġne veu
ĠC on
ĠC Ã©cile
ĠP ope
Ġab use
Ġint ensity
Ġgo ats
Ġpro pe
Ġam using
Ġgr ain
Ġsp urs
lo ved
Ġrep air
av re
Ġhand le
ĠN ow
Ġbo iling
Ġper pend
Ġpre jud
Ġpe up
Ġcl ut
Ġcl am
co vered
Ġstr ain
ount ed
Ġpart ner
Ġacc us
lle ct
ick en
In stead
que red
We re
ens ions
ins ula
Ġsent ences
Ġfeel s
ĠGr Ã¨ve
Ġind isc
Ġma x
tem ber
Ġsuff oc
Ġadm in
Le ave
Ġvi br
ial ity
Ġdraw ers
Ġca uses
Ġgall eries
Ġlady ship
Ġstart led
Ġlear nt
ĠRoche lle
Ġpost s
Ġcro ire
Ġwarm ly
Ġsweet ness
ĠX V
ĠX III
Ġmagn if
Ġfro ck
Ġemploy ment
Ġdonn ait
Ġimpat iently
Ġendeav oured
Ġprote cted
Ġcomb at
Ġfortun ately
Ġmess age
Ġvig orously
Ġpenetr ating
Ġundert ake
Ġproceed ing
Ġlog is
ĠFor ster
Ġsincere ly
Ġseam en
Ġado pt
Ġpear l
Cl Ã©lia
ĠComm ander
Ġparfait ement
Ġlou der
ĠGrÃ©g oire
olÃ© on
Ġmans ion
Ġinvest ig
Ġtand is
Ġpopul ace
ĠGry phon
Ġperpend icular
A D
U S
W he
h im
i ents
s ome
z ing
Ġa z
Ġw ip
Ġw aving
Ġw estern
er ie
Ġb en
Ġb ol
Ġd ashed
Ġf ame
Ġhe m
Ġn ail
Ġha ted
ic able
ot ic
Ġwas hing
Ġre ign
Ġth y
ad o
Ġst ool
ĠM an
if s
Ġqu ay
ĠC ount
Ġman or
Ġout r
ĠH ar
Ġmo ck
pt uous
me nd
ĠR iver
ue z
Ġper il
Ġcl enched
Th ough
Ġhas ard
Ġey eb
ĠD ans
Ġres ent
Ġres igned
Ġcr ushing
Ġcr isis
ont Ã©
Ġwhere as
aut res
Ġcour ty
ren ces
oub ted
Ġreg ion
Ġbre ach
Ġfind s
Ġdev oir
Ġconf id
Ġinc omp
Ġsw o
Ġsl ave
Ġins cri
Ġarri vÃ©
Ġinter p
Ġsort ir
Ġsto le
Ġve ut
Ġvie ux
Ġhun ter
Ġbar gain
ĠChar molue
ib ility
Ġexpress ions
Ġord res
Ġcast ing
Ġann ounce
Ġaston ishing
Ġoccup y
Ġrapid ity
Ġfurn ace
Ġexcept ion
Ġbes oin
omm od
Ġund one
Ġlaw s
Ġhes itating
Ġcommun icated
Ġden ied
Ġstream s
Ġpolit ics
Ġbitter ness
Ġintim acy
Ġrub bed
ĠChe val
Ġrevol t
Ġpot at
sha ped
ĠdÃ©t ails
Ġbrand y
Spe ak
Ġreass ured
Ġexasper ated
ustri ous
Ġsympath y
ĠLi ber
ĠRos ings
Ġappet ite
Ġadorn ed
ĠSep tember
Ġthie ves
ĠBast ille
C es
N one
S urely
c in
e w
e ut
l as
p et
p ri
u ve
u ct
w ind
z ire
Ġ &
Ġt am
Ġt ails
Ġa ver
in ction
it udes
Ġb ul
Ġc ake
Ġc unning
Ġd ined
Ġl iter
Ġp ile
Ġp ink
ar re
an ter
Ġe h
Ġbe ars
ent ered
Ġre tain
st e
ir d
Ġde ceive
qu est
Ġr ings
Ġr iche
Ġse al
Ġme nd
ĠM e
Ġsu p
all ing
Ġj er
ĠC reek
em ment
Ġun like
Ġag ent
ĠF ar
ĠF abio
ĠJ uly
lo qu
ĠR osemilly
Ġhand ful
Ġbl own
ĠE m
ĠD on
Ġpart ir
Ġcr acked
Ġbeg gar
Ġsc ore
Ġsc ul
Ġho isted
Ġold er
pr is
Ġrest rained
Ġconf ident
Ġgu ided
Ġwork man
Ġhundred s
Ġvis age
Ġrec ent
Ġrec omm
Ġhard ened
Ã©r aux
Ġperson n
Ġfore s
Ġill umin
Ġland s
Ġbar rel
ĠdÃ© v
Ġca resses
Ġprop ose
medi ately
Ġfait es
gs on
Ġregard ait
Ġsold at
Ġvill ain
Ġreply ing
Ġbat hed
Ġcontr ad
Ġdel ir
Ġprec autions
Ġcab les
Ġperm itted
Ġpi ke
Ġsear ching
Ġpurs uit
Ġpun ct
Ġble eding
Ġimpr udent
Ġbill et
Ġmoon light
Ġpill ow
Ġprote ct
aiss ait
Ġprev iously
Ġsuiv re
Ġcit iz
Ġfortun es
Ġbless ed
ĠEurope an
Ġasce nding
Ġpan es
Ġfu lf
Ġfu ite
Ġsau ver
Ġcontain s
Ġcontain ing
Ġawait ing
Ġdisappoint ed
Ġrene w
Mahe ude
Ġamuse ment
Ġexcess ive
Ġgrant ed
Ġsurvey ed
Ġadvers ary
Ġscen es
Ġtut or
ĠBrit ish
Ġbrist ling
Ġcaract Ã¨re
Ġfootstep s
Ġprope ller
Ġswo llen
B ah
H arding
P end
P ardon
a fter
d id
f o
n s
n ait
r ous
u gu
v oy
w are
Ġt ons
Ġa h
in i
in ity
Ġs ke
Ġs Ã»
Ġw oke
Ġb ade
Ġb ounded
Ġb ald
Ġc ents
Ġc ria
Ġc iel
Ġd ames
Ġd anced
Ġf ed
Ġf ath
Ġf und
Ġf oss
Ġf itted
Ġl ately
Ġp Ã©n
an era
Ġin val
Ġha ts
ic ine
ent end
id ian
Ġth igh
Ġse x
Ġse rene
Ġme mbers
ri ers
Ġsa vant
Ġle ague
Ġsu jet
li est
Ġcom pelled
Ġsh o
Ġall owing
Ġex ert
art s
Ġen s
Ġpl a
Ġab st
ĠB lan
Ġpr int
Ġpro ble
Ġco ats
ĠH igh
ĠG reat
ĠG aston
ĠG othic
Ġbr ass
Ġlo ad
ud arde
Ġday break
ĠR ome
Ġlong ing
ĠN on
ĠN ot
ĠN ature
Ġour s
Ġcomp lic
Ġpre occup
ĠD an
Ġres isted
Ġcr ims
Ġcont ents
Ġimp ressed
Ġce ux
Ġfl ower
ip es
Ġappe al
Ġmon ter
ĠW HI
Ġhapp ens
Ġchan ging
Ġcontin ual
Ġass ume
Ġtre mend
Ġsub terranean
Ġdoubt s
Ġless on
Ġsec urity
Ã§ a
Ã§ ut
Ġswe ep
Ġhun ters
Ġshort ly
Ġadv ised
Ã´ me
ĠSp ain
Ġobli ging
ĠÃ© le
Ġoffic ial
Ġshout s
Al ready
Ġstud s
Ġdemand a
Ġang rily
Ġlim p
Ġcre ep
Ġbox es
etr anera
Ġpetit es
Ġregret ted
Ġsumm oned
angers on
Ġinj ust
Ġintrodu ce
ĠMarch iennes
Ġasce nd
Ġener get
Ġrevol ution
Ġwhist ling
Ġluck y
Ġlaiss er
Ġta vern
Ġrecomme nded
Ġlandl ady
Ġstret ch
iÃ¨ me
Ġassemb led
Ġansw ering
Ġstamp ed
Ġexagger ated
Ġcasta ways
Ġfare well
Ġhaz ard
Ġinfam ous
Ġfasc in
Ġprovin cial
Ġquin ze
D own
P hoebus
k ins
l iness
m ons
o ham
t wenty
u ing
Ġt ick
Ġt ete
in ations
in iÃ¨re
Ġm uff
Ġb arr
is hes
Ġf ist
Ġf ave
Ġf ainted
Ġl ouis
Ġp ag
Ġp aint
es ce
an ch
at tle
Ġe lles
Ġbe aux
Ġbe loved
Ġth Ã©
ur a
et ery
qu ait
al og
Ġas cent
ro p
Ġsa it
Ġfr app
ous in
Ġcon e
Ġcon j
ne ment
th ree
Ġno ir
em etery
Ġen abled
Ġab b
Ġout b
ate ur
Ġpr ow
Ġpro vid
ĠH ume
ĠG eorgiana
Ġgr asp
Ġrep ast
ĠR ussi
op en
Ġcha ins
Ġthought ful
Ġsur v
Ġpart ie
ang ed
land ers
Ġpres ents
Ġreg ained
Ġpers isted
Ġref res
Ġadd ing
Ġbelie f
Ġwal ks
Ġ1 9
Ġdep os
Ġkeep s
Ġinte llect
Ġcal mer
Ġdet ermin
ĠSt angerson
for th
Ġaw ful
Qu ite
Ġresol ute
sh ine
Ġaccomp l
Ġstay ing
Ġpap ier
Ġmus k
Ġdemand er
Ġjud ges
Ġrid ge
Ġhabit ation
ĠFrench man
Ġsy ll
Ġdecl are
Ġpens ion
Ġlie utenant
AR D
Ġparl ait
Ġpill ars
Ġenv ir
Ġcurrent s
Ġfac ile
Ġcin qu
Ġappre ci
Ġentend re
ann ah
Ġwhist le
Ġmaj est
Ġcoo lly
ĠBel g
Ġencoun tered
Ġstret ching
Ġdern ier
Ġindign ation
Ġpear ls
Ġtreas ure
Ġmult ip
ĠPi etranera
Ġisol ated
Ġmagistr ate
Ġsimp licity
Ġsco ld
Ġcott age
ĠAfric a
Ġrendez vous
Ġintol erable
Ġfoli age
Ġcult iv
Pend ant
ĠWHI CH
H olmes
T w
_ "
h ist
l ant
m em
m aster
t ait
Ã ¤
Ġ Yes
Ġt anks
ou ter
Ġm ale
it ious
en ole
Ġd orm
Ġf est
Ġp ious
or a
Ġn onsense
Ġin ches
Ġre ndre
ad ise
Ġas h
il ities
ĠM onseigneur
ĠM onday
ch ie
Ġk ings
os sible
ĠC onst
pp enole
Ġno str
ol ves
Ġun just
ap sed
Ġtr aced
ĠS uez
Ġint rig
ĠH Ã´tel
Ġgr acious
Ġro aring
Ġdis like
ĠR ich
ĠR abbit
Ġpass Ã©
Ġpre l
ra ire
Ġcl ad
Ġsur m
ars on
Ġsc ull
Ġser ai
Ġsm iles
Ġpos itive
Ġcap ric
Ġau prÃ¨s
Ġcomm is
Ġreg ain
Ġcount ing
Ġrest rain
Ġchan ges
Ġsub d
Ġtem pted
Ġsun shine
Ġbar king
Ġdec or
Ġadv ancing
Ġpol ished
Ġexcl aim
Ġaut umn
Ġrel ative
Ġtri b
Ġhorse back
Ġimpos ing
Ġtown s
Ġpal m
Ġ2 5
Ġdest ined
Ġglo ves
Ġrecogn ise
Ġoccup ation
ĠrÃ© f
Ġstud ies
Ġver d
Ġremar qua
Ġsy m
Ġsepar ation
Ġsoci al
Ġvar iety
Ġobst acles
Ġbill s
Ġcous ins
Ġaud ible
Ġsuspic ious
Ġvoul u
Ġpow ers
Ar ri
Ġmod esty
ĠAn ne
Ġaur a
gl ass
Ġmaj or
Ġeleg ance
Ġcup board
Ġrou ge
ĠdÃ©j a
Ġado pted
Ġabund ance
Ġiss ued
Ġtot al
Ġattach ment
Ġpup ils
Ġharpoon er
Ġdevour ing
Ġdistr ict
Ġvac ant
Ġapprehens ions
Ġgau che
ĠGri vet
ĠGovern or
Ġatro cious
Ġresc ue
Ġcrou ching
Ġcourty ard
S ur
T E
T en
b orn
e lf
i ast
m pe
n usse
o ise
p an
u ish
w ould
y m
~ !
Ġo wing
ou er
ha st
Ġm oss
it a
Ġb ure
Ġc ats
Ġc aution
Ġf its
Ġto mber
Ġp ad
Ġh ier
Ġh ired
Ġn a
Ġn ations
at r
Ġg ut
Ġg ossip
Ġbe ef
ent e
ent ial
Ġr Ã´
Ġr ash
Ġr att
ĠM orm
Ġle aped
Ġsu ited
ant z
Ġsh ows
Ġli kes
Ġun m
Ġun re
ak nusse
Ġtr ag
ĠS aknusse
ĠB ible
ĠF itz
ĠF landers
Ġam our
Ġco in
Ġmo b
ĠJ ackson
Ġdis hes
ra h
ĠE liza
Ġcr owned
Ġexp enses
ĠT ristan
Ġpos itively
Ġcour tis
Ġche ese
Ġchild hood
Ġass isted
Ġsent ait
Ġtal ent
Ġsat in
Ġsou venir
Ġcare er
ĠFr antz
Ġspeak s
Ġplac id
Ã©r Ã©n
Ġve hic
Ġgrand es
Ã§ on
Ġtem ple
Ġcold ness
Ġbus hes
Ġesc ort
Ġmer idian
Ġext inct
ĠÃ© vid
.. .
Ġarr Ãªt
Ġcry st
Ġtrans formed
cher s
Ġscar let
Ġsal uted
Ġrid ing
Ġbread th
Ġremain der
Ġprob ability
Ġcharac ters
oly te
Ġhoriz ont
Ġdeser ved
Ġsong s
Ġeager ness
Ġvoul ut
Ġregular ly
Ġbal ust
Ġrob bed
Ġresemb lance
Ġmour n
Ġmour ning
Ġencour aged
Ġunf old
iet ta
Ġrasc als
Ġconscious ness
Ġpreced ing
wor thy
Ġdischar ge
Ġmead ow
Ġcant iniÃ¨re
ĠBet ty
Ġsan ct
nÃ¦ fell
Rod olphe
ĠCheval ier
Ġcrims on
ĠSaknusse mm
H app
J im
S E
b one
g one
h ind
i astic
m ind
er v
Ġc ess
on ce
Ġl ur
Ġl ull
Ġl ugg
Ġp Ã©r
ar w
Ġn ut
ir ds
qu ently
Ġr ange
ĠM in
oo ped
Ġso bbing
Ġsu its
and ed
Ġfr Ã¨re
Ġcon quered
ne ls
Ġex quisite
Ġ" '
Ġli vid
Ġun will
ĠS w
ĠA c
ĠA mb
Ġar cade
Ġint ri
Ġam oureux
ĠH ert
ĠG aut
ĠG ates
Ġro ots
Ġbr on
Ġbr av
Ġbl ank
Ġpar oles
Ġcr av
Ġmar vel
What ever
Ġdist raction
ens ion
Ġtell s
Ġcomm issary
Ġcount ries
Ġref rain
Ġsw am
Ġsub tle
ĠO cean
right on
Ġide al
Ġjour nÃ©e
Ġclo ister
Ġfore seen
Ġbeaut Ã©
ĠSt rait
Ġneed le
Ġpol ic
Ġcou ch
Qu el
Ġconst ruction
Ġgall ows
Ġhur ric
ues day
Ġregard er
Ġnum bers
Ġhast en
Ġ2 1
Ġmus cles
Ġcalm ness
Ġstud ying
Ġoccasion ally
Ġcro is
Ġbes ie
ĠGu illaume
Ġlower ing
Ġquelque fois
Ġpens ive
Ġaffection ate
Ġdeli ber
Ġring ing
Ġpun ished
Ġspect ators
En fin
Ġrepro aches
Ġmut ual
Ġmill ion
Ġendeav ored
Ġprincip les
Ġwretched ness
Ġmiss ing
Ġelectric ity
Ġjet a
Ġsubm it
Ġappar ition
ĠUn ion
ĠCar n
Ab ove
Ġperform ance
ford shire
Ġveget ation
Ġbored om
bec ause
Ġcolumn s
Ġbenef it
Ġpil ot
Ġlaun ched
Ġnois y
Ġincred ible
Ġmurde rers
ĠItal ian
Ġsche me
Ġappl aud
Ġsinc erity
Ġros y
Ġmouve ment
Ġensu ite
Ġscul pt
Ġfave ur
ĠGates head
G reat
H alf
L ast
P uis
a ign
c un
e xt
g ings
m ith
m ission
p ow
r ow
r ine
z o
Ġt asted
Ġthe ory
Ġw ages
Ġm ould
Ġb ind
Ġb its
Ġb isc
Ġc ach
Ġc ured
Ġd ame
Ġf ab
Ġf Ãªte
Ġp hant
Ġin se
at ively
om er
im port
Ġre tained
Ġr app
Ġr ivers
Ã© ch
Ġan te
ill s
ill on
ĠM id
Ġqu itt
em oiselle
Ġun ion
Ġun acc
Ġen able
un can
Ġab ode
Ġtr ap
um erable
Ġwor ry
ĠB righton
Ġyour selves
Ġlo com
lo ign
ĠR ichelieu
ave z
Ġcomp r
Ġcomp osure
Ġrem edy
ount able
act ory
ff erson
Ã¨ ne
Ġsc aff
Ġhead ing
Ġfl ashed
Ġfound ation
Ġcons ist
Ġatt ri
Ġchild ish
ĠMar ietta
ub lic
Ġcle aring
Ġsl umber
Ġinter rog
Ġfall ait
Ġfin ishing
Ġdear ly
Ġmis chief
Ġcirc ular
Ġaw aken
Ġjo b
Ġdem ain
Ġact ivity
Ġesc aping
Ġquel qu
ĠÃ© m
Ġfait e
sh ot
Ġvoy ant
Ġjoy ous
Ġflo ated
Ġdest in
Ġdest iny
uss ent
Ġwild ly
Ġrev ived
CHAP IT
Ġshar ks
Ġkiss ing
Ġtrave ller
Ġpi qu
Ġincl uding
Ġpens a
Ġpun ish
Ġself ish
Ġband s
Ġfet ched
Ġpill ory
Ġprincip le
Ġmod el
Ġbal ance
Ġbrid ges
Ġthank ful
Ġirrit ation
ring er
ĠNap olÃ©on
Ġviv id
ĠNor bert
Ġentend u
ĠSpan iard
ĠdÃ©p art
Ġsevere ly
Ġwaist coat
Ġcontri ved
Ġannoy ance
ĠmÃ© pris
Ġappoint ment
Ġpurcha sed
Ġvex ed
tic o
Ġconvey ed
Ġneighbor hood
ipp olyte
Ġrag s
Ġtap est
Ġfeather s
Ġnegle cted
col oured
Ġcompagn on
Ġconstru cted
Ġdepri ved
Im mediately
Ġtempt ation
Ġox y
Ġunl uck
Ġunivers al
Ġmart yr
Ġsulph ur
Ġoutb urst
Ġmusk ets
Ġscaff old
CHAPIT RE
" ~
. --
C ar
M onseigneur
b ation
f oot
o ons
u ously
Ġs hat
Ġm orte
Ġc urs
Ġc emetery
Ġd ain
Ġf aster
Ġp yr
ll ement
an ine
Ġha w
Ġe loqu
Ġbe ck
Ġre igned
ur red
Ġde fect
ad le
al ier
Ġst icks
Ġse min
ri fied
ill ar
Ġso ber
Ġcon ceived
ard in
Ġall a
Ġla v
Ġfe ed
ast ing
Ġal as
Ġman us
ĠP re
Ġab hor
ĠS nÃ¦fell
ig rat
ĠB all
Ġag es
ĠL ake
ĠG eneral
Ġro ared
lo se
Ġdis e
Ġrep ugn
Ġper ish
Ġper pet
Ġpass es
Ġpre ference
ra ven
ra ient
Ġrem p
Ġcha gr
Ġcl inging
ĠD uc
Ġap olog
Ġbeg ins
ĠT uesday
ien ces
Ġacc ess
Ġfl u
ret ion
Ġcap rice
Ġown er
Ġkne lt
Ġlight ing
Ġchan ces
mer ing
Ġgi bb
Ġconf irmed
Ġass ert
Ġref er
Ġdoub led
lic ted
Ġ1 00
Ġsl id
ĠO ak
Ġperson ages
Ġsuff iced
Ġland sc
ific ant
Ġmur dered
Ġreason ing
Ġobli gÃ©
Ġconst itution
Ġord re
Ġreal ised
Ġann Ã©es
Ġvol umes
Ġobject ions
ĠCo ppenole
Ġinn umerable
Ġtrave lled
Ġsubject s
ĠY ok
Ġlim it
Ġsoft ened
Ġfro st
Ġid le
Ġfais ant
Ġdouble t
Ġdeser ve
Ġstro ll
Ġpolit ical
Ġdam age
Ġdeb ts
Ġbal c
Ġtransport ed
Ġcamp aign
Ġrub bing
Ġundert aking
Ġdism al
Ġdelay ed
Ġwear iness
Ġbree ches
Ġphys ician
Ġquoi que
Ġfears ome
ĠRou ault
Ġveget able
Ġcompar ison
Ġspark ling
Ġgrim ace
inte rest
Ġabund ant
Ġloc al
Ġpreced ed
Ġtroop s
Ġvert ical
Ġansw ers
Ġenve loped
Ġswim ming
Ġtos sed
Ġredoub led
Ġimagin able
bear able
Ġmauv ais
ĠDel ouche
ĠBÃ© bert
Ġgild ed
Ġeyeb rows
Ġtremend ous
oham a
ĠHert fordshire
Ġdain ty
ĠYok ohama
5 00
D uncan
N autilus
O ver
P l
S ire
f rom
l ow
m other
p or
r ound
s ince
z es
Ġt ante
Ġthe r
Ġw olves
Ġm are
is ive
Ġc rest
Ġc ush
Ġf oul
ll a
ar ks
at en
Ġg ift
Ġbe ams
ic ted
ot to
Ġre ception
ur ches
et Ã©
Ġde pended
ad is
al ie
Ġst ake
Ġst ables
Ġst oop
Ã© ne
Ã© rer
Ġv in
Ġv ile
us ive
Ġle ant
Ġle ct
Ġsh ower
Ġup ro
Ġex emple
ul Ã©
ul sed
ĠC Ã´me
ĠC ousin
Ġfe licity
ist ic
Ġtr aged
Ġtr ah
Ġtr ades
Ġout line
ĠB oy
ĠF arn
ĠF riar
Ġbr ains
Ġbr Ã»
Ġsp it
Ġpo ly
av y
Ġad ored
Ġbo ards
Ġpass a
we re
Ġfo x
co pe
Ġstr ang
Ġap res
Ġpar k
Ġcont ract
act ly
Ġexp ose
Ġret orted
agn es
Ġdist inction
Ġcour ant
Ġcour tes
Ġau gment
Ãª tres
arr ag
ement s
Ġopen ly
Ġsub mer
ĠO udarde
Ġsk ins
ĠHe re
Ġdre aded
Ġill ustrious
ĠSt one
Ġdisp ute
Ġinstant s
Ġplay ground
Ġaut our
Ġdro ite
Ġdro op
Ġbu zz
Ġrespect ed
Ġspr ings
Be hind
Ġclot hed
oi res
Ġexper iment
Ġcommon place
Ġspread ing
Ġproc ure
Ġstorm s
Ġstro kes
Ġdelic acy
Ġcoun c
Ġspring ing
Ġsoir Ã©e
Ġlif ting
Ġunfortun ately
Ġgle amed
Ġimm ob
ĠdÃ©c ouver
Ġrecolle ctions
Ġz oo
Ġblock s
Ġswell ed
Ġtoler able
Ġdisturb ance
hum an
ĠFl ore
Ġinsol ent
Ġtrif le
Ġmant el
ĠCham p
Ġslee ves
Ġvagabond s
Ġshiver ing
Ġimprison ed
Ġexclam ation
Ġlibert Ã©
Ġvoil Ãł
elic ite
Ġcarpent er
Ġmonot on
Ġpeup le
Ġnostr ils
Ġoxy gen
Ġbalc ony
ĠFarn Ã¨se
A nt
E st
I R
I ON
M on
O W
V E
b ons
b ook
e ff
h ouses
i able
l om
m as
n is
p it
p ro
r Ã©s
r omp
t ur
z a
~ .
Ġw ench
ha le
Ġc ul
Ġd art
Ġd ial
Ġf ai
or ial
Ġh ood
le v
Ġg ang
Ġbe llow
Ġbe fall
ic o
ĠI I
Ġde uce
Ġr iant
Ġst ained
il ess
Ġsa ut
if ted
Ġsh rew
Ġj aw
ĠC raven
Ġdo ll
Ġun bearable
ĠP it
ap ers
Ġtr ad
ge ons
ĠS am
Ġar chevÃªque
ĠB ur
ĠB ob
urn ing
ĠG ood
ĠJ ock
Ġbl ade
Ġbl ushing
Ġcl asping
Ġcl apped
ĠE l
Ġcr ut
Ġsc or
Ġser mon
ign ant
Ġfl ush
Ġpres ume
Ġapp lication
Ġnight fall
ĠW ho
Ġhouse keeper
Ġmin es
Ġrest ore
Ġchar med
ict ier
Ġ! âĢ¦
lic es
Ġem otions
Ġnat ives
Ġste ward
Ġtrou ve
Ġkind s
Ġreco vering
Ġdisc ours
Ġaff l
Ġdet ained
ĠJe fferson
cha mber
ĠdÃ© cl
ific es
Ġran ks
Ġprov inces
Ġdri ver
Ã® ner
Ġpal is
Ġvol u
Ġhast y
ern al
Ġconsider ably
ĠrÃ©p li
Ġdemand e
Ġrapid ement
Ġshad es
Ġfair y
Ġdou ze
Ġdecided ly
Ġenjoy ing
Ġvar ied
vere nd
Ġcler ks
Ġlod ge
Ġfavour able
Ġ18 6
Ġcheval ier
Ġfun ny
Ġinj ury
Ġprot ested
Ġscr ut
Ġrecolle ct
Ġentend it
cut ta
Ġcaval ier
Ġcop y
ĠBour gh
sm ith
Ġmanufact ure
ĠreÃ§ u
lis a
Ġperd re
Ġmelt ed
Ġment al
Ġgreet ed
Ġembro idered
Ġdismiss ed
Ġtun nel
Ġdip lom
Ġecst asy
Ġay ant
Ġintent ions
ĠFerr ante
ĠFlem ish
Ġenchan ted
Ġelep hant
oubted ly
Ġpotat oes
Ġbure au
ĠAc adem
ĠGaut ier
Ġmanus cript
! âĪĴâĪĴ
A y
G et
H all
M ad
P ray
a ime
a ert
d oor
j ali
o a
o gn
r ation
t ree
u a
v il
x ter
Ġt ar
Ġt ack
Ġs ack
Ġm Ã©c
Ġb un
Ġc li
Ġc ert
Ġd us
on zo
Ġp av
Ġp ump
Ġh int
Ġg id
Ġg ames
Ġwh irl
et ers
Ġde xter
Ġr ules
Ġat tain
Ġse ed
am ira
Ġan ony
Ġv ine
Ġv ra
ĠM ir
if ully
ant a
li Ã¨re
li ament
Ġfr ail
Ġfr amed
ne ath
te z
ĠC ay
ie use
Ġno b
un ition
un ned
ĠP o
Ġtr im
Ġout er
ĠA bb
el t
ĠF arrag
It alie
ĠG len
ab outs
Ġbr ute
Ġlo af
ĠJ asmin
Ġus ing
Ġch oc
Ġfo i
Ġhas n
Ġob ten
ĠD orm
Ġback wards
Ġsc ent
Ġje unes
Ġacc ur
cl ass
Ġapp art
hen sible
Ġtell e
ĠV and
Ġheart y
Ġwr ath
Ġair s
Ġdr aught
Ġsea floor
Ġtal es
Ġunc omfort
uck ed
ub en
vant age
Ġarri v
Ġfire place
ater nal
Ġprof ile
ĠMa hi
Ġele ments
Ġappro ved
Ġpet tico
Ġterri bly
Ġrel atives
Ġris es
Ġcor rupt
Ġext ract
ĠÃ© g
Ġsatisf actory
Ġshut ter
Ġball ast
Ġbell ringer
Ġimport un
Ġwonder ing
ĠNe uf
Ġsy mb
St op
ĠgÃ©n Ã©
Ġcru elly
Ġlie ues
Ġheight s
Ġconcl ude
Ġchest s
Ġtreat ment
Ġtender ly
Ġsurr ounding
Ġdeterm ine
Ġbeha ved
Ġcomb ined
Ġfault s
Ġjump ing
Ġtemp les
Ġviv re
Ġhed ges
Ġfavor able
Ex actly
Ġencour aging
Ġpoet ry
ĠprÃ©c ip
Ġstuff ed
Ġswell ing
Ġmast s
Ġrou g
Ġep och
Re ally
Ġecc les
iÃ¨ res
Ġinexp ress
ĠVirgin ia
Ġlux ury
Ġnod ded
vit ably
ĠGre gson
Ġobv ious
Ġhypoc ris
Ġserge ants
Ġparaly sed
Ġslop es
ĠCal cutta
Ġbewild ered
Ġtast es
Ġbast ion
Ġbris k
Ġwip ed
Ġtam bour
Ġenerget ic
Ġdetermin ation
Ġsym pt
mind ed
Ġther m
ĠFarrag ut
ĠMahi ette
" âĢĻ
5 0
I mp
L ady
O S
R em
S on
T om
i ally
i eth
i ards
i pping
m ous
m unition
r aint
s en
s uch
Ġt ed
Ġt id
Ġt yr
Ġt ax
Ġw o
re land
Ġo m
Ġm Ã©r
it aire
Ġb owing
Ġd agger
Ġf ert
Ġp ots
Ġp iles
ar c
ar te
ar ante
Ġn Ã©c
Ġin it
Ġin quis
at isf
om Ã©ne
Ġg aping
ic ation
ĠI reland
ld er
et ta
qu ar
Ġfor te
Ġr ac
Ġr acon
Ġnot ions
Ġst ooped
ain es
pe ak
Ġsh ove
Ġsh ift
Ġall ez
ul ent
ie nd
Ġal ert
ap orte
um ption
Ġag ents
Ġam orous
Ġam munition
ĠH onour
Ġbr ows
Ġlo ge
Ġim bec
Ġch urches
Ġbl uish
we ed
Ġcha rt
ĠE ast
Ġhow ling
Ġback ground
Ã¨ le
Ġje wel
Ġacc ommod
Ġgl owing
Ġcons ole
.' "
Ġpour tant
Ġpour quoi
Ġcour ts
ĠW ith
sel s
Ġau g
Ġmay be
Ġkne eling
No body
gg ing
Ġear n
Ġchan ced
Ġref resh
Ġes prit
Ġstre wn
Ġeng age
Ġsl ate
Ġsl ack
az e
az ed
Ġsk et
Ġread iness
Ġrec ently
Ġgen re
use um
Ġtrou v
Ġgrand father
Ġdisp ar
Ġdisp ose
Ġele v
Ġobli ge
Ġdead ly
Ġearth qu
Ġconv ince
Ġdesp ise
Ġcat tle
Ġdi ving
Ġsal ary
Ġ2 3
ĠrÃ© ellement
Ġeffect ually
Ġwonder fully
ĠRe form
Ġpi Ã¨
Ġfer oc
Ġbreath less
Ġid Ã©es
fortun ately
Ġcre pt
Ġinterrupt ion
Ġsong e
ĠInd ians
Ġflat tered
AR T
Ġlod gings
Ġsmo ked
Gr imaud
Ġattack s
aur ais
Ġphilosop h
Ġchat ting
Ġbord ered
Ġpan els
Ġstore s
ĠEt ats
Ġpick ax
EN T
Ġquit ter
Ġschol ars
Ġrib s
Ġlantern s
Ġspl it
Ġtreas ures
Ġine vitably
Ġmult itude
Pro fessor
ĠGrÃ©g oires
Ġmant le
Ġmurde rer
Ġblaz ing
ĠPhil ip
ĠWh ite
Ġalt ar
Ġshill ings
Ġtransp arent
Ġcetace an
Ġguine as
Pres ently
Ġninet een
Ġrive ted
Ġclergy man
Ã¤ uben
Ġlocom ot
Ġmonoton ous
Ġshrew d
ĠnÃ©c ess
" ;
N ay
R IS
a Ã®t
c roft
d les
f aced
j ets
u ity
w reck
Ġt ame
Ġa ust
Ġa che
Ġa ussitÃ´t
Ġs omme
Ġw oo
Ġw its
Ġo re
er o
er ation
Ġm u
Ġb ri
Ġb ounds
Ġp ed
Ġp ense
Ġp Ã»t
Ġp ouss
ar van
an ne
Ġn u
at hed
om as
ic ar
ut ing
se ven
Ġwas ted
ve ls
Ġy awn
Ġu mbre
ir ty
qu els
ac it
ri al
ill Ã©
Ġv iz
ĠM ess
Ġqu itting
Ġso d
Ġso vere
ag ged
Ġsu llen
li ver
Ġcon quer
ne cess
Ġall e
Ġall ey
Ġla zy
ĠC es
Ġwhe at
ie res
Ġli p
ol ic
Ġun in
Ġman agement
Ġman kind
ĠP al
ass ad
ĠB ill
Ġag round
Ġam ie
ĠH are
Ġmo indre
ĠG onzo
Ġgr ating
Ġbr u
Ġdis sip
Ġch ron
Ġpass port
Ġpe ep
ĠE lisa
ons ign
Ġfir ing
ĠD eneulin
Ġoff ers
Ġunder neath
Ġimp re
Ġimp et
Ã¨ te
ĠT or
ign ait
Ġseem ing
Ġcons pir
Ġte ndre
iz ation
per haps
Ġau quel
Ãª cher
Ġcomm enc
Ġchar ity
Ġdr own
Ġtre m
Ġcur t
Ġcur led
Ġins ign
Ġins uff
ĠO N
ĠO ui
aught er
Ġcol oured
Ġdisc ern
Ġdisc omfort
Ġswe aring
Ġswe eping
Ġpresent ing
Ã¢ che
Ġpet rified
Ġcent er
Ġnecess arily
Ġca using
Ġprov ision
Ġmad emoiselle
Ġfif teenth
Ġfright en
Ã©n ore
Ġtrans l
Ġmal heure
Ġpain fully
Ġsett ling
Ġvol unt
ĠRoche fort
els on
ĠrÃ© ve
Ġsuper natural
Ġver se
Ġattempt ing
Ġhabit ual
Ġdecl aring
ĠIn ch
Ġwhis kers
ĠMont morency
Ġwit ch
Ġcoll iers
Ġpill ar
amb led
Ġstar ving
Ġchief ly
Ġda res
ĠBr ulÃ©
Ġcuri os
Ġrough ly
loo ked
Ġcruel ty
Ġchim neys
Ġreport s
Ġcommunic ate
will iam
ĠUn ivers
Ġdisg usted
Ġbull ets
Ġveget ables
ĠprÃ©c is
Ġhyp othes
ĠJup iter
Ġobsc urity
Ġcontempl ation
Ġinsp ire
ĠAb be
Ġcoward ly
Ġorn ament
Ġgather ing
Ġwhit eness
Ġhosp ital
Ġdil ig
Ġrese mble
Ġobv iously
Ġax e
Ġcomplaint s
Ġingen ious
Ġfisher men
ĠVen ice
Ġredd ish
Ġenr aged
Ġkilomet res
Ġenterpr ise
Ġcot ton
Ġze al
Ġcomplic ated
Ġintrig ue
ĠFitz william
Ġlugg age
Ġunwill ing
Ġrapp ort
Ġupro ar
ĠGlen arvan
ĠDorm ouse
Ġhypocris y
A U
D E
D r
G H
I L
N ight
S a
S ix
a j
c iously
e ar
e ches
e enth
g iving
l or
p han
s on
t les
u il
v re
Ġt Ã©m
Ġa pt
er ait
Ġb er
Ġc ages
Ġf urent
Ġl ion
es cri
or ic
ll ies
Ġn ets
Ġha l
le ver
Ġbe acon
ot ing
ve ux
ve lled
Ġth rill
Ġde ce
Ġr aven
Ġat te
il ion
Ġse aled
oo s
Ġso re
Ġle ge
and om
ous se
Ġcon ver
Ġbut cher
ĠC ome
em b
art hen
ĠP orte
ap h
ass ass
ĠS ur
ĠS out
ĠS ouvarine
ide l
ĠB at
ĠB esides
ĠB inet
Ġare n
Ġam ple
ĠH ors
ĠH oly
ĠH urst
Ġpo nd
Ġch ois
Ġper man
Ġbl ast
Ġpe ak
Ġres ounded
Ġpar adise
Ġimp art
Ġent rer
Ġav ail
cl osed
Ġfl aming
land s
Ġson orous
ĠÃ©t ab
Ġput ter
ret Ã©
tre es
ren ched
Ġche ap
Ãª tes
Ãª ta
ĠV oil
ci ble
Ġpleas es
Ġear ned
Ġac ute
Ġcontin uous
Ġdr am
Ġright s
Ġsk irt
Ġrec ord
Ġcol ours
Ġcaptain s
Ġma ids
amp les
Ġdre ary
Ġlad en
Ġprom ont
Ġill usion
ĠMa igrat
ĠThe se
cha nd
ific ations
Ġterri f
Ġopp ressed
Ġaut ant
Ġdro it
Ġship wreck
cer ine
Ġinv ari
Ġregard ant
Ġforg iven
Ġsecret ary
Ġed ifices
Ġvisit ing
Ġemp oison
Ġdou ce
Ġsuper st
Ġmurm uring
Ġattempt s
Ġfer a
Ġcomfort ably
ĠMahe us
Ġdespair ing
hor se
Ġstir ring
Ġagre ement
Ġcho king
Ġlock s
Ġblind ed
Ġbitter ly
aff aire
Ġintrodu ction
Ġmir ac
acc a
Ġtort ured
Ġones elf
Ġretreat ed
Ġlun gs
Ġrare ly
Ġexplan ations
Ġcontinu ing
ĠAlt amira
ĠEd ward
ĠAugust in
Ġgendar me
Ġobstin acy
Ġspark led
Ġrib bons
ĠXI V
ĠvÃ©r itable
ĠAust ral
Ġrad iant
Ġcheck ed
Ġsuggest ion
Ġdeve loped
Ġinsol ence
Ġvou lez
Ġhosp it
Ġslee ve
Ġfain ting
Ġestablish ment
Ġhaute ur
Ġfi acre
Ġglit tering
Ġpromen ade
ĠcommenÃ§ ait
Ġprompt ly
Ġprim itive
Ġmanif est
Ġintox icated
Ġcoff in
Ġcass ock
Ġric hes
Ġdisgu ise
Ġindisp ens
Ġphysi ogn
IE U
Ġaver age
mem e
Ġshat tered
Ġzoo phy
ĠCay lus
ĠUnivers ity
A g
D ep
F ar
h il
h ole
i ation
k or
l est
m ell
m ment
p ower
r ate
u ated
u cha
w ick
Ġ --
en ir
Ġc y
ed nes
Ġf iss
Ġl ime
Ġp ipes
an se
Ġha unted
Ġth ri
Ġwh ims
Ġde gr
qu ins
ay ing
Ġr oses
Ġr andom
Ġst akes
Ġher d
il ful
ri um
Ġv as
Ġv ite
ĠM other
ĠM lle
if ting
Ġso aked
ard ed
Ġall ons
Ġj adis
ĠC ast
ĠC el
ĠC ath
Ġdo is
Ġun necess
Ġpl ut
Ġman eu
ind ers
ĠP en
ĠP oint
Ġtr usted
Ġtr icks
um ble
Ġout cast
ĠS av
Ġtw ink
Ġpro str
urn s
Ġsp in
Ġsome how
Ġover board
Ġbo nd
Ġnow here
Ġpass ers
Ġcomp et
Ġcha p
Ġcl atter
Ġcl ums
co ats
ĠD ame
Ġcr ush
Ġacc um
Ġacc use
lle y
less ness
ĠW ood
ĠV ern
Ġinst alled
Ġter m
Ġter rest
Ġwr it
Ġrest ait
Ġwater ways
Ġconf ounded
ict ions
ĠMar quise
Ġinter nal
ane ously
Ġread ers
Ġrec ru
Ġcol oss
Ġcare lessly
ĠLa pp
Ġten ir
Ġsail ed
Ġsail ing
Ġwar med
Ġprom ising
Ġlow est
Ġsun light
Ġjo kes
Le on
Ġgener osity
Ġris ked
Ġsever ity
Ġprov ince
Ġeff aced
Ġarr ows
Ġdesp ised
Ġsal oon
Ġfix ing
ĠLe fr
Ġstud ent
Ġconce ive
Ġpost e
Ġprec ise
Ġsuccess ful
Ġgarden er
Ġtu Ã©
Ġtu ft
rill o
Ġschool room
ob in
Ã©g l
Ġsettle ments
onne ment
Ġhorri bly
Ġparl Ã©
isc al
Ġsen ior
Ġwis dom
Ġvirt uous
Ġinj ured
De ar
Ġmir ror
Ġharm ony
Ġdef ence
AN D
Ġhurried ly
ĠRod dy
Ġproject s
Ġtur tle
Ġswall ow
Ġmethod s
Ġwitness ed
Ġess ence
Ġtimid ly
Ġtrait s
ĠPh ill
Ġhero ic
Ġconc ert
Ġaven ge
Ġcorrespond ence
Ġdazz led
Ġscru ple
Ġafford ed
Ġsport s
Ġexplo red
ĠGri anta
Ġforbid den
ĠsÃ©rie ux
ĠJapan ese
Ġexhaust ion
Ġinher it
Ġdesir ous
Ġdun geon
Ġenlar ged
Ġresent ment
ĠEm peror
Ġvehic le
Ġbalust rade
Ġsubmer ged
Ġpalis ade
Ġlocomot ive
ednes day
) ;
B art
C et
F o
M other
O L
O b
b ute
c ote
d es
d own
e ast
f action
g ro
g ence
n ent
p en
p oint
r ite
r nest
v ance
re hensible
Ġo w
Ġo ven
Ġo ise
er ted
Ġm amm
Ġb orr
Ġf ence
Ġf ile
Ġf iscal
Ġl ic
Ġp el
ll or
ar ation
ar ling
ar ming
Ġh oof
Ġg ale
Ġg hast
Ġre leas
Ġde fic
qu al
Ġr aw
âĢ ĺ
Ġme als
Ġsa ge
Ġfr ing
Ġfr own
Ġfr anÃ§ais
Ġne uf
Ġall usion
Ġbut ton
ĠC a
ie ces
Ġen light
Ġpl aster
ĠP ole
ĠP Ã´
ĠP alais
Ġtr ail
Ġtheir s
ĠB y
Ġpr in
Ġpr ais
Ġpr inted
ĠL Ã©nore
Ġco quet
Ġaf resh
Ġch ien
ĠN elson
op h
Ġbo ast
ps ies
Ġfo lie
Ġfir s
Ġsur re
Ã©t r
od a
Ġstr ained
Ġres ources
ang es
Ġimp ot
Ġspe nding
Ġsc ales
Ġyoung est
Ġcap acity
ĠW ednesday
oub t
Ġsupp osition
Ġcount y
Ġmat t
Ġconf ided
Ġref using
Ġtre acher
lic it
ale ment
Ġcond am
Ġcond uis
ĠO liver
Ġcol ors
Ġtrou pe
Ã©r Ã©
Ġten ait
Ġhon esty
Ġdisc reet
Ġlad s
gr ams
Ġmist s
Ġdet ached
Ġbar ren
Ã¢ tre
Ġdec ent
gn es
Ġhold s
Ġport al
Ġemb ar
Ġinv aded
ec ided
Ġru es
Ġsn are
Ġresol utions
oss ess
Ġsqu ares
ĠrÃ©p onse
Ġdirect ors
Ġshad ed
Ġsuper in
Je han
Ġpost ure
Ġoccasion al
Ġsuccess ive
Un fortunately
Ġlim its
Ġgrave l
Åĵ urs
âĢ¦ .
Ġcommand ed
ĠDu val
Ġspect re
Ġcolle ct
Ġfaut eu
Ġbeha lf
chan ts
Ġtong ues
Ġattend ing
ĠNew gate
Ġstation ed
Ġfac ult
Ġgle ams
Ġur gent
Ġmess ieurs
ĠCom ment
Ġcalcul ation
Ġreven ir
Ġinstinct s
ĠcÃ´t Ã©s
Ġmud dy
Ġhurry ing
ĠGer v
Ġdeaf ening
ĠHow ever
Ġscre aming
Ġsuperior ity
Ġstat ues
Ġenthus iastic
occ asion
Ġdisappear ance
ĠreÃ§ ut
Ġtermin ated
Ġpolite ly
Ġhence forth
Ġcasta way
ĠScot ch
ĠGovern ment
ĠEst elle
Ġsinguli er
ĠJust ice
Ġimpert inent
Ġcommence ment
Ġnewsp aper
Ġrespons ibility
ĠLu cy
Ġoub li
Ġbab y
Ġennem is
Ġexhibit ed
Ġnurs ery
Ġprivile ge
Ġcelebr ated
Ġward ro
ĠBraz ils
Ġmagnif ique
Ġillumin ated
Ġinjust ice
Ġsyll able
Ġcinqu ante
Ġash ore
Ġtrib un
ĠrÃ´ le
Ġpolic em
Ġhurric ane
Ġunluck y
Ġsemin ar
Ġgibb et
Ġlandsc ape
Ġted ious
Ġmalheure use
Ġindispens able
ĠLefr ancois
Ã©gl ise
, âĢĻ
3 0
B el
C amille
D ieu
E C
I V
S T
T ime
a ith
b u
b ur
c hard
d ened
h ot
l ais
l ings
l ook
o ici
r d
t te
t ies
u el
u ced
v reuse
w els
Ġs Ã©par
Ġw aking
Ġb ons
is Ã©
en etr
Ġc acher
Ġd ancer
Ġf ren
on or
Ġl Ã©
Ġl ame
Ġl ump
Ġp are
Ġp enny
es te
Ġh ust
Ġh Ã¢
Ġh ips
Ġn arw
Ġin ch
Ġha th
Ġg am
ĠI II
se mble
ent ine
Ġre vel
Ġde ed
al ted
Ġr iv
Ġr owing
il itÃ©
am ps
Ġme ille
Ġme mber
Ġsa b
Ġv irgin
ĠM o
ĠM or
ag o
all er
Ġli re
Ġab re
ĠF al
au g
Ġam itiÃ©
ĠH ay
urn al
Ġgr apes
Ġsp asm
av o
Ġover heard
che on
Ġbl iss
Ġpre nd
Ġpe re
Ġcha mbers
Ġfo llies
ĠD um
ĠD own
Ġres s
Ġvo id
Ġimp osed
Ġexp anse
ĠT own
ĠT wo
Ġfound ed
Ġjust ified
Ġcons Ã©qu
Ġte aring
Ġput s
Ġpour s
Ġcour ut
Ġown ed
Ġche veux
ĠV olt
Ġhar der
Ġhapp ening
Ġhapp iest
Ġmin i
Ġchar ms
Ġdev ils
Ġconf l
Ġgu est
Ġcur se
Ġcur ls
Ġarri va
Ġdoubt ful
ĠO ld
Ġbro od
ĠFr anÃ§ais
Ġmis car
Ġsec re
Ġaff aires
Ã§ ait
Ġsecond e
Ġbur y
Ġjo ining
ĠdÃ© gu
ĠdÃ© mar
Ġvi olet
ĠRo ad
Ġcent imes
Ġca f
Ġut ens
Not re
Ġopp osed
Ġclose t
Ġport ait
Ġquar re
sh ton
Ġrespect s
Ġrespect ful
ĠCl ub
ĠCh ines
Ġtrans form
Ġmal ad
Ġmal ade
Ġdi able
Ġpain ting
Ġpal p
Ġpret t
Ġsal vation
Ġflo at
Ġ2 2
Ġrefle cting
Ġstri pped
uss ac
ĠAl zire
Ġrev int
Ġrev oir
Ġmass ive
Ġcompl ained
Ġfurn aces
Ġcro p
Ġsubject ed
Ġtu er
Ġschool boy
Ġpen it
Ġdesce ndre
Ġdecl ined
Ġspo iled
Ġsli pping
Ġsole ly
Ġcher chait
Ġpray ed
Ġabsol ument
Ġpuis que
Ġsand y
Ġmed ical
ĠVer gy
Ġdim ensions
Ġmeas uring
Ġtroub ling
Ġmont agnes
Ġdiscuss ing
Ġaud acity
Ġwa ved
Ġgrande ur
Ġwand er
Ġconn ais
Ġdef y
ĠChe vreuse
Ġstupid ity
Ġproject ed
Ġcondem n
Ġmix ture
Ġdete cted
Ġgallant ry
Ġstif ling
Ġfalse hood
Ġinvent ed
Ġgain ing
Ġparce l
hum oured
Ġvap our
Ġaven ue
Ġfrank ness
Ġbenef act
Ġdemon str
Ġlaun ch
Ġlux ur
Ġnegle ct
*** ,
Ġtight ly
Ġesteem ed
Ad ieu
Ġcig ar
ĠScot land
ĠPierron ne
Ġrud der
Ġtest im
Ġreef s
Ġhaul ed
enf ant
Ġcaut ious
Pr udence
Ġindepend ent
Ġinvolunt ary
Ġmoust ache
Ġexh ib
Ġaz ure
ĠDans aert
Ġfores aw
ĠsÃ» r
Ġinval id
Ġhorizont al
Ġunacc ountable
Ġrepugn ance
ĠVand ame
Ġuncomfort able
Ġsymb ol
Ġtherm ometer
Ġsovere ign
onsign ore
ĠHors croft
ucha rt
ĠPhill ips
Ġghast ly
ĠChines e
! âĢĿ
A Y
B ar
D oubt
J ohn
S ay
S upp
a ver
c our
c use
f ound
i ate
l ain
r ors
t han
u lf
u als
v ie
v ial
v onne
w ife
Ġa qu
Ġa like
Ġs Ã©
Ġs igne
Ġo live
Ġm Ãª
Ġm ask
Ġm ama
Ġb ath
en ait
Ġf ri
es que
or us
Ġh ind
Ġhe aped
Ġhe aved
Ġn in
Ġn it
Ġn ave
Ġha ine
Ġg ir
Ġg ait
Ġg ross
ir ait
Ġde em
Ġr ational
Ġnot icing
Ġst ature
Ġan aly
ke red
ĠM and
oo le
Ġso in
us er
ag it
Ġcon ster
Ġj un
Ġj ug
Ġex alted
Ġk id
Ġk ick
os ph
ul ously
Ġno vice
Ġdo ck
ers ed
Ġor chard
Ġpl ed
Ġpl ot
ĠP res
ĠP ap
ĠP aul
ĠP oole
ure z
Ġab du
Ġtr act
ĠS T
ĠS mith
ĠS acca
ig o
ĠB ulgar
ĠL is
Ġam bit
ab ble
Ġbr az
lo red
Ġper ished
Ġper ched
ra ft
Ġfo lle
Ġdu c
ĠD id
Ġunder go
ach t
Ġpar le
Ġvo it
Ġvo cation
Ã¨ ge
Ġsc ound
Ġsc rew
Ġsm ashed
Ġje wels
Ġmon ument
Ġset s
Ġend ured
Ġend owed
Ġte xt
Ġapp le
Ġcour s
ĠW here
ĠV ict
Ġdoor way
Ġatt ic
Ġrest er
fect ly
Ġcontin ents
the se
cess ion
ĠGr Ã¤uben
Ġind uce
Ġjour n
ser vant
Ġten ant
ater p
Ġbar red
Ã¢ mes
Ġjo lie
Ġjo lly
Ġduches s
Ġca ressing
Ġmer chants
Ġrel ax
Ġdiffic ile
Ġbu ff
Ġmad man
Ġsn ails
ĠIt aly
Ġrequ ested
ey ed
Ġthick ness
Ġpost ed
ĠCo ictier
Ġvent uring
Ġtu be
Ġfer me
Ġund ressed
Ġprem iers
Ġsave z
Ġcher ished
Ġmed icine
Ġod ds
Ġclass room
Ġrelie ve
Ġrepro ached
Ġbill iard
Ġparl ant
Ġshock s
Ġ18 1
Ġprofound ly
Ġknock ing
Ġtrop ical
Ġenv y
Ġpolit ique
Ġhist or
Ġfatig ued
Ġur ch
Ġgar n
Ġsingular ly
Ġnouve lles
acc ord
Ġbow els
Ġminist Ã¨re
ĠRod ney
Ġresemb ling
Ġcontinu a
Ġinnoc ence
Ġple in
Ġencour age
Ġcoo ked
Ġesp Ã©r
Ġdaz ed
Ġsevent een
Ġfen Ãªtres
Ġprofond Ã©ment
ĠMou que
Jean lin
Ġcontempl ated
Ġelder ly
Ġwealth y
Ġindign ant
Ġvap or
ĠBe auv
ĠFrancis co
Ġpor ch
Ġlack ing
Ġshudder ing
Ġfrank ly
Ġtimber ing
Spe edy
Ġshr oud
Ġwhisper ing
Ġapprehens ion
Ġgent leness
Ġoath s
Ġerr and
Tr ue
Ġweigh ing
Ġimpl ac
Ġtorment ed
Ġconsul ting
Ġdeven u
Ġconcent rated
Ġperse c
ĠÃ©tonn Ã©
Ġdess ert
Ġoutl ined
Ġpoign ard
Ġimpress ions
Ġsouri re
Ġwick et
Ġobed ience
Ġoy ster
Ġproble m
Ġabb ess
Ġaccompl ice
Tw ice
ĠRich mond
Ġsubd ued
Ġtrag ic
Ġintri gues
Ġante chamber
Ġpyr am
ĠBall oon
Ġcush ion
Ġtraged y
ĠBur gund
ĠrÃ©pli qua
Ġanony mous
Ġinexpress ible
Tom orrow
Ġearthqu ake
Ġterrest rial
Ġabre ast
A ouda
G u
H ush
L ouis
M ost
T ill
b ish
d re
e k
f ou
f ig
f old
g own
g ive
g ement
i pt
l it
l Ã©e
m at
o que
t led
u art
u per
v iz
Ġ 0
Ġt ab
Ġt ips
Ġt umbled
in qu
Ġs Ã©v
Ġthe ories
Ġw ives
Ġm ason
it ors
Ġb other
Ġb ask
Ġc Ã©
Ġd Ã®ner
Ġl ined
ing le
ing ton
Ġn im
at ers
om be
Ġg room
se y
Ġre cess
st on
Ġon ze
ir ation
Ġr ire
Ġst unned
Ã© ter
Ġse ren
am itiÃ©
Ġan ec
ill ot
ĠM ade
ĠM ars
us age
Ġle e
Ġle ap
ore sc
and y
ant h
Ġfr antic
Ġj ardin
Ġex em
os ier
Ġor phan
Ġun worthy
Ġpl um
ak ers
ell ed
ĠA ges
Ġwor ried
Ġpr Ã©par
Ġare a
ĠL ea
ĠL aporte
ĠF OR
Ġpro se
Ġco cher
ĠH annah
ĠH ippolyte
ĠG rillo
Ġsp oon
Ġsp arks
lo c
Ġkn otted
Ġch oir
Ġbo iled
Ġcan oes
Ġcha st
Ġcl aimed
Ġcl aws
ĠD ep
Ġent iÃ¨re
Ġbeg g
Ġbeg ging
Ġser ais
ign Ã©
Ġsm art
Ġgl ac
Ġgl are
Ġhapp ier
Ġcomm er
As s
Ġdev ice
Ġdev int
Ġround s
Ġsw ung
Ġsw inging
Ġ! '
ĠPar see
Ġunc omm
Ġcur ve
ale en
Ġdep ression
Ġou ver
Ġfam ille
Ġvis ite
Ġsix teenth
Ġplac Ã©
amp ed
Ġir re
Ġsuff ice
Ġmist r
Ġexc iting
Ġel apsed
Ġmot ives
Ġappro pri
âĪĴâĪĴ "
Ġrel ating
Ġconst it
Ġquar rels
Ġresol ve
sh ould
ouv rir
ĠCl aw
Ġtrans m
Ġdi pped
Ġmount ing
Ġpat iently
Ġdest ro
Ġpit ied
Ġrequ ires
Ġshut ting
ey e
,âĪĴâĪĴ "
Ġsuccess ively
Ġfanc ies
Ġneck s
ĠGu ard
ĠNe gro
St ay
Ġpens Ã©es
Ġvan itÃ©
Ġcre ate
Ġsteam ers
Ġfrequ ented
Ġchest nut
Ġproc ured
Ġhonest ly
Ġclass es
Ġaim ed
Ġparl a
Ġbeha ve
Ġattend ant
Ġvers es
ĠfaÃ§ ade
Ġcamp agne
Ġacquaint ances
Ġjus que
Ġbless ing
Ġgro an
Ġgrace fully
Ġdefe nded
iche l
Ġinstinct ively
Ġlun cheon
Somet hing
Ġmour ir
Ġbou che
Ġfu el
Ġpoison ed
Ġarchite ct
Ġdepend s
Ġsoup Ã§
ĠmÃ© de
Ġstiff ened
isp here
off ic
Ġess ay
Ġder ived
Ġrib bon
Ġdern iÃ¨re
Ġcoward ice
ĠIceland ic
Ġrepl ace
Ġmanufact ured
eless ly
Ġdistr ust
Ġindic ate
Ġassemb ly
col ored
Ġgros se
Ġdug ong
Ġmead ows
ĠJust in
Ġcu ps
Ġserge ant
Ġsentin el
ĠCor inth
Ġnewsp apers
Ġsway ed
Ġlat est
ĠpÃ¢ le
ĠgeÃ´ lier
Sh ould
Ġequip ment
Ġslipp ers
Ġsust ained
Ġexter ior
Ġimprove ment
Ġpreoccup ied
Ġexclaim ing
atr ick
ĠCarn atic
ĠMid dle
Ġtapest ry
ĠChamp ion
Ġdus k
Ġfert ile
Ġforte resse
Ġunnecess ary
Ġfauteu il
aterp illar
Ġanec d
' ,
. _
C ons
D esp
H um
H omais
L Y
L ong
O RE
Q ui
R ight
R ass
T ous
a very
b bed
d ire
e very
e ep
f ashion
m ark
w ent
~ !"
Ġt int
in ions
Ġw agon
er b
er al
Ġm Ã©t
is ait
Ġc ash
Ġf ont
on ner
Ġto ps
Ġto oth
Ġp ha
Ġp ound
Ġp umps
or me
ar g
Ġh osier
Ġhe el
Ġn omm
Ġha y
Ġha un
Ġha gg
Ġe got
Ġe astern
Ġg out
ic a
ic ide
ot he
ve z
Ġu lt
ly ing
et tes
ir g
Ġde eds
Ġfor ge
Ġr ice
Ġr ipp
Ġst ag
Ġst ab
Ġse igneur
am ented
Ġv ul
ĠM ouse
ĠM ongo
ĠM iller
Ġle va
and ing
li o
out el
Ġcon val
Ġcom edy
Ġsh ine
Ġsh ield
Ġsh ots
Ġsh ivered
Ġj ol
Ġla wn
os a
ĠC raw
Ġno ises
ust ible
em s
Ġor b
Ġman quer
ap rÃ¨s
Ġtr out
Ġtr ump
ort able
Ġout st
ĠS er
Ġar ist
ĠB ri
ĠB ert
ĠL ie
ĠF our
Ġpro ves
ĠH IS
ĠG l
ĠG en
Ġgr ows
Ġgr otes
Ġgr otto
ais on
av aient
Ġad ieu
Ġad jo
Ġper du
Ġbl ush
Ġcha llen
ĠE nd
ĠE shton
ĠD ent
ĠD ess
Ġsur p
Ġunder ground
Ġres ource
Ġpar ap
Ġcr ash
Ġimp enetr
Ġspe ll
Ġwat ches
iss ime
Ġser ving
Ġmar ched
Ġacc ost
Ġacc ents
Ġacc ursed
Ġjust ly
Ġgl ancing
ĠÃ©t age
iz es
Ġpour ing
Ġcap ture
Ġreturn s
ĠV I
Ġsupp le
Ġpers piration
Ġchar gÃ©
Ġdev out
Ġdev ast
ĠMar ia
Ġins ulted
Ġins upp
Ġind escri
ute ur
Ġdit es
Ã©r able
Ġmis under
Ġdisc ont
Ġdisc retion
Ġve nd
Ġve ille
ĠAr ab
Ġvie ill
Ġill usions
to i
ĠSt ates
Ġbar rier
Ġbar rels
Ġcirc onst
Ġjo king
Ġpol icy
ĠdÃ© fe
Ġappro ve
Ġcent im
Ġobli que
Ġbon y
Ġprop re
Ġanim ation
Ġearth ly
Ġconvers ations
Ġsn uff
sh op
ea us
Ġbit ing
Ġspr ung
Ġven u
Ġpat ches
Ġpat ients
Ġpit iÃ©
og ue
Al ors
ĠrÃ© vol
Ġbell ies
ug al
Ġdou leur
Ġcoast s
Ġtrave led
Ġtrave lers
Ġdiv ide
Ġaccept ing
Ġperm et
Cha val
Ġcomfort ed
Ġfaith fully
Ġadmir ing
Ġpu iss
ĠIn quis
Ġren voy
Ġ3 00
ĠLy ons
Ġsurr ound
Ġcord e
ĠrÃ©pond re
Ġphilosop hy
Ġcalcul ations
Ġbrig ade
Ġsembl aient
Ġsick ly
Ġpauv res
Ġpop ulation
Ġcharm ante
ĠSpan iards
Ġamb assad
Ġfavor ite
Ġcoo king
omb ard
Ġperform ing
Ġconcern s
Ġinvent ion
Ġvois in
uv ache
Ġneighbor ing
Ġinfinite ly
Ġgri p
Ġminer al
Ġaddition al
abb Ã©
Ġwhit ish
Ġdiver t
Ġdischar ged
Ġdispleas ure
Ġfow l
Ġhel m
ĠPhil omÃ©ne
Ġfisher man
ĠÃ©tr ange
Out side
Ġpenc il
Fr iday
Ġcraw ling
Ġmax im
Ġenvir ons
Ġunfold ed
Happ ily
Ġchagr in
Ġmantel piece
Ġvolu ptuous
Ġnob ility
Imp ossible
ĠCes are
Ġbru ised
Ġcoloss al
Ġsuperin tend
Ġwardro be
Ġpours ui
ĠVolt aire
Ġsecre cy
Ġutens ils
ĠLis bon
ĠMongo lia
outel oup
ĠCraw ley
" --
A dele
M art
M uch
N D
O G
P ut
R o
U L
c s
c ap
d ress
e al
h ill
h ui
i k
m ont
o king
r ich
r Ã©t
t ened
v itable
w ar
Ġt ie
in ement
Ġw are
re ation
ha s
er re
er ve
Ġm ouse
it he
it Ã©s
Ġb iz
Ġd ash
Ġf ount
Ġf ib
Ġto ken
Ġp ang
es cope
or as
Ġn aught
at ri
Ġe arthen
Ġg in
Ġg ilt
Ġg amb
ic ism
ĠI r
im ag
Ġre ins
Ġre lease
ur al
Ġde w
Ġde me
qu ets
Ġr ip
Ġr ails
Ġr hy
Ġst al
Ġst are
Ġst icking
Ġse pt
ain tenant
ro ken
ĠM oor
Ġqu ivered
pe nding
ch ool
ess art
Ġsh irts
Ġup wards
Ġex ac
Ġk et
Ġno ct
ol er
Ġpl ank
ap arte
Ġab used
ass er
Ġout let
Ġthere abouts
ven ed
ĠA re
ĠA ng
Ġpr air
ĠF ort
ĠF elicite
ĠÃ §
ab out
Ġro ast
Ġbr ace
Ġkn ot
Ġrep lies
av our
Ġover th
ĠN ever
ĠN anine
ber ge
Ġcha sed
Ġcha cun
ĠE very
Ġoff ence
Ġhow l
Ġcont raire
Ġent it
ĠT uvache
Ġsc ant
Ġsc ale
Ġop inions
ign er
Ġacc idents
Ġcar bon
Ġfl int
Ġfl ashing
Ġfl ashes
mb res
Ġdist ract
Ġmen ace
Ġsupp lic
ru ly
Ġwr inkled
Ġrest aur
Ġchan ger
Ġdev iner
Ġconf ide
ene z
Ġtal ents
Ġnew ly
Ġsl ant
Ġinter romp
Ġcond esce
Ġsk ies
Ġsk irts
Ġfire arms
Ġgen oux
orr ows
Ġlay er
Ġaff reux
Ġfore see
Ġbeaut ies
Ġenc hant
ĠSt uart
Ġhun ch
uis se
Ġbar que
Ġbar ley
Ġstand ard
Ġrais onn
ĠdÃ© n
ĠdÃ© lic
Ġpet ty
Ġopp on
Ġph osph
Ġexpress ing
Ġsn atched
Ġsus p
Ġpal er
Ġvoy ez
Ġemp lo
Ġstri kes
Al most
Ġstud io
Ġvill ages
Ġprodu cing
Ġjud ged
Ġshop s
Ġfixed ly
ĠY our
Ġpassage way
Ġpi geons
Ġmagn et
Ġremar qu
Ġincl uded
Ġdistur bing
Ġspo il
Ġglad ly
Ġpens Ã©e
Ġvain ly
Ġdread fully
Ġnorth west
Ġbright ly
Ġoppos ition
Ġhonour able
Ġmed ium
Ġsouth west
Ġner ve
Ġmor ce
Ġcoll ision
AR RIS
Ġaffect ation
Ġsafe ly
roy able
chan ce
Gr adually
Ġconn aÃ®tre
Ġdesign ed
Ġspeech less
aur ai
Ġconne ctions
Ġplun ge
Ġpropos ition
Ġneg ro
Ġthrust ing
Ġrub bish
Ġhollow ed
Ġdust y
Ġsubm ers
com ing
Ġscre amed
Ġtur b
Ã¢te let
Ġshru gging
ĠPort ugu
Ġreconn aÃ®tre
Ġess ential
Ġtend ency
uv re
Ġine vitable
Ġorn amented
Ġtel escope
Ġbutter f
jour d
Ġstamp ing
Any how
Ġinsult s
Ġgrie ved
Ġindul gence
Ġdivers ion
Ġrom antic
ĠrÃ©c it
Ã©l Ã¨
Ġdistri buted
Ġconject ure
Ġoblig ation
Ġuncertain ty
Ġtele grap
ĠBl ack
ĠMill cote
Ġrif le
Ġprosper ity
ĠBo hemian
Ġperplex ed
Ġalight ed
Ġadmin istr
Ġincomp rehensible
Ġdelir ium
Ġthigh s
Ġrefres hed
Ġcapric ious
ĠÃ©vid emment
Ġbron ze
Ġeloqu ence
Ġscrut in
Ġchoc olate
Ġracon ter
ĠprÃ©cis Ã©ment
Ag athe
ĠCath olic
Ġplut Ã´t
Ġclums y
Ġfacult ies
Ġnarw hale
Doubt less
Ġgrotes que
ĠDess essart
ĠPortugu ese
. ;
D es
M ary
O ff
R ead
S ure
b ors
c ame
c ourse
e ven
i ac
k o
m ade
m are
m aker
p ha
p her
u z
v res
y d
Ġt acit
Ġa ime
ha ustible
Ġm ien
Ġb ough
Ġb aleen
en is
Ġc akes
Ġc ities
Ġd int
Ġl ug
Ġp ulse
Ġp arson
Ġp aternal
ll ais
Ġh oney
Ġhe ated
Ġn ests
at cher
Ġre ared
id ity
Ġy acht
st ones
Ġwh ore
Ġwh ipped
ur able
Ġfor wards
Ġr Ãª
Ġnot ary
Ġst alls
ac iously
Ġat tained
Ġme ur
Ġme lo
ri ent
ri Ã¨re
Ġsa bre
Ġshe pher
Ġcon verse
Ġup ward
Ġj uge
est one
os ait
ĠC aterpillar
Ġfe ature
Ġli que
Ġor ange
Ġun rolled
ĠP ic
ĠP et
han g
Ġtr ist
um er
um bered
ĠA si
ĠB ath
ĠB ois
Ġpr at
Ġint ently
nt il
Ġam ant
Ġam end
Ġco als
Ġaf in
Ġet es
Ġgr ad
Ġlo b
ĠJ o
Ġkn ave
Ġpo nder
ud ently
Ġsha ped
Ġad ore
Ġloo s
Ġcan e
Ġcomp are
Ġstr ait
Ġstr ings
ord e
Ġap ost
Ġap ron
Ġpar aÃ®tre
Ġcr abs
de ck
Ġthr one
orn s
ĠT ha
ink s
Ġret rait
ien cy
Ġlast ly
Ġacc out
Ġce as
Ġav ouer
Ġfl ing
uli er
Ġmon arch
Ġend ing
Ġapp rit
Ġcour ir
Ġcour te
ens er
Ġnight mare
ĠV inc
Ġhar bor
Ġcertain ement
Ġrest Ã©
Ġac ce
arr Ãªta
Ġhor reur
Ġinc ons
Ġass ault
Ã©c ut
Ġcur ate
Ġcur ric
Ġinf ant
Ġarri vant
Ġmother s
ject ed
Ġsou v
Ġsix th
Ġbed side
Ġma res
ĠFr om
Ġspeak er
ater n
Ġhon oured
Ġsim ult
Ġsim pl
ĠParis ian
let ons
Ġform ation
Ġsun ny
Ġbar ometer
Ġdeep est
Ġph ot
ho g
Ġprov oked
ĠÃ© nor
Ġru g
Ġreal ize
Ġtrans fer
Ã® nÃ©
Ġven erable
onn Ã©
ĠRoche llais
Ġ2 4
Ġ2 6
Ġmus ical
ey ond
Ġbig ger
Ġbat aille
Ġdeal t
Ġsimple ment
phe res
Ġnatural ist
Ġclot hing
Ġpeu vent
Ġdevil fish
Ġcondu ctor
Ġfle x
Ġwhis pers
Ġtrois iÃ¨me
Ġpray ing
Ġspeed ily
Ġnoble man
Ġpeace fully
Ġmed itating
Ġtoute fois
Ġod ious
Ġspect acles
Ġtour n
Ġcolle ge
Ġsor ce
Ġdim ly
Ġshock ing
Ġaffect ions
Ġlit ter
Ġfun eral
Ġbrid le
Ġremo ving
Ġglim ps
Ġrob es
Ġchem ise
ĠChrist mas
Ġdiscover ies
Ġming ling
ĠVal entine
Ġhandkerchief s
Ġple aded
Ġencour agement
Ġemer ging
OU R
Ġworks h
ĠU s
Ġportrait s
Ġseam an
iet ies
Ġfrag ment
Ġdomest iques
Ġwicked ness
Ġnort heast
Ġreb u
Ġattract ion
Ġvap ours
Ġvex ation
Ġloc ality
Ġkil o
Ġrad ius
Ġrever ie
Ġparfait e
Ġcrim in
May be
Ġpretend ing
Ġcri pp
Ġcorps es
Ġju ges
Ġdig ging
Ġendeavour ing
Ġrecommend ation
ograp h
Ġadress er
ĠXX X
Ġhuss ards
Ġdiscour aged
Ġbatt les
Ġinex haustible
Ġcaut iously
Ġbarbar ous
ouille fou
Ġgn aw
Ġteacher s
Ġrebell ion
ĠHar vey
ĠLiber al
ĠBlan Ã¨s
Ġdepos ited
Ġunre ason
Ġcourtis ans
Ġfab ric
Ġdial ogue
Ġsympt oms
Ġwo lf
atisf ied
quar ters
Ġimbec ile
Ġaust ere
ĠtÃ©m o
assass in
ĠVoil Ãł
Dep uis
oph ie
ĠGerv aise
Ġsab ots
Ġmini ature
Ġconster nation
Ġimplac able
Ġbask ets
oresc ent
Ġbegg ars
fashion ed
Ġimpenetr able
eaus ire
uz anne
ĠÃ©nor me
1 00
B l
B essie
B LE
B eyond
E mpe
F if
I GH
J up
M ake
O T
S ans
b as
c ot
d ling
g ie
j on
m ast
n ay
n ous
r ical
w ain
Ġt act
Ġt ipt
Ġa chie
Ġs orrows
Ġm am
it an
Ġb ait
is sez
Ġc yl
Ġd wel
Ġd arling
Ġf ag
Ġf ure
Ġf aced
Ġl ain
Ġl Ã©g
Ġp ud
Ġp icking
ar ches
Ġh ue
Ġhe ath
Ġn ull
at ching
Ġg arr
Ġbe ak
Ġbe arer
ut y
se ment
id ays
st re
ir ai
Ġde arest
ad j
al a
Ġst umbled
ac r
Ġher met
il ot
Ġan ew
Ġv Åĵ
Ġshe er
Ġsu icide
ous ias
all e
Ġj ail
ist inct
Ġli very
ol a
Ġun w
Ġun kind
Ġen n
He aven
ĠP RO
ass ing
um Ã©e
ort ing
ĠS te
ĠS Ã©rÃ©n
ĠA fter
ĠB urns
ĠF irst
Ġpro vidence
ĠG ermain
Ġgr ains
ab at
Ġsp ire
Ġsp onge
lo ve
lo ir
Ġus age
fe re
ĠN orm
Ġbo hemian
Ġfo am
Th ink
You ng
Ġstr ides
Ġpart it
Ġpar ch
Ġpar venir
Ġimp arted
ĠT ell
Ġsc our
Ġmar ches
Ġhead ed
Ġav ar
cl oth
Ġfl an
Ġson n
Ġmon k
ĠÃ©t at
Ġpres ident
ens ed
Ġhere after
iv able
Ġatt ire
Ġpers pect
Ġhor rid
Ġdr ap
Ġgu erre
Ġside board
oud re
Ġtre ad
Ġcur ved
Ġgot ten
Ġind istinct
Ġfin er
Ġste er
Ġma ig
Ġcal med
Ġdet est
Ġprom ises
Ġexc used
ĠSt ras
Ġcirc les
Ġsound ing
Ġadv ances
Ġpol es
vid ently
Ġca pe
Ġca res
Ġca ress
Ġca fe
Ġhelp ing
Ġext racted
ĠÃ© l
Ġimag inary
Ġeff ray
Ġconvers ing
Ġmad ly
Ġfif th
Ġgard er
Ġarr Ãªter
Ġfright ed
ĠCh ina
Ġsecret ly
Ġed ges
Ġmal icious
Ġspr ay
Ġven ger
Ġ2 7
Ġhat ch
Ġequ ipped
Ġdest itute
Ġfast en
Ġneigh bors
Ġfresh ness
tern ational
Ġang les
Ġconse il
ici ans
Be ing
Ġview ed
ĠY vonne
Ġlim b
Ġlim ited
Ġfer ait
Ġsens itive
Ġrain y
Ġhandsome ly
Ġadmir ably
ĠIn ternational
ouve z
Ġexec ute
Ġmed itation
Ġfashion able
alous ie
Ġstro lling
Ġtemper ament
Ġmor ality
Ġaim Ã©
Ġgrow led
Ġtra verse
Ġcord ial
Ġprote ctor
ĠÃ©c us
Ġbrill i
Ġsuiv ant
De ux
Ġant iqu
Ġcustom ers
Ġcalcul ate
Ġrevol ver
Ġoper ations
Ġrecolle cted
Ġauthor ities
Ġreck on
fl Ã©ch
Ġsigh s
Ġappar tement
ĠUn ited
ĠCar ol
Ġscre en
Ġham per
Ġlaiss Ã©
Ġ5 00
Ġdisplay ing
Ġetern ity
Ġfol ks
Ġsentiment al
esc orte
Ġprospect s
Ġard our
Ġder riÃ¨re
Ġabund antly
Ġunexpected ly
Ġjou er
ĠTr ouillefou
Ġgai etÃ©
Ġtrif ling
Ġuncons ciously
Ġincess ant
Ġascertain ed
ĠCham ps
Ġrefus al
Ġshoot ing
Ġprotest ations
Ġcomprom ise
Ġsinguli Ã¨re
Ġdiss ol
yl um
appro cha
Ġimprison ment
Ġanc est
Ġappl ause
Ġshrie ked
isse ment
Ġextend ing
Ġgor ge
Ġperf ume
Ġshill ing
Ġflut tered
ĠCr ab
Ġtrav ail
Ġhol iday
Ġchape lle
Ġcrit ical
Ġtig er
Ġtire r
Ġfors aken
Ġmollus ks
Ġterr ace
Ġsque ez
Ġdiscip line
Ġextravag ant
Ġecon om
Ġoutr age
cin q
ARD IEU
Ġmultip lied
iast ical
ĠarrÃªt Ã©
ĠSw iss
ĠAmb rose
Ġbesie ged
Ġapplaud ed
ĠPre fect
Ġdise ase
Ġperpet ual
Ġstoop ing
Ġaffl iction
Rem ember
Ġrac ont
Ġelev ated
Ġumbre lla
Ġunin habit
Ġdares ay
Ġpromont ory
Ġinvari ably
Ġzoophy tes
Ġborr owed
Ġreleas ed
Ġimpot ent
Ġnin ety
Ġambit ious
Ġadjo ining
Ġinsupp ortable
Ġbiz arre
Ġsubmers ible
Ġretrait e
Ġcurric le
Empe reur
Ġdwel t
ousias me
ĠSÃ©rÃ©n issime
! âĢĻ
; --
A ye
C K
C on
C ol
C el
F ine
F ather
G eneral
I C
L udovic
P lease
b led
b ted
c une
d est
f ro
f ight
m ill
m ouille
o lets
p res
p hab
u en
he nt
Ġa le
Ġa pe
in ous
Ġs our
Ġw an
Ġw ipe
Ġm useum
it ations
Ġb olt
is her
Ġc inders
Ġc Ã©lÃ¨
Ġd igne
Ġd urst
Ġl um
Ġp ell
Ġp ine
Ġp ane
or ado
Ġhe ars
Ġin ert
Ġha il
om ie
le e
hat e
ot hed
ĠI S
Ġre li
Ġth umb
ce voir
et ies
ir ond
Ġde venir
ad er
Ġfor cing
Ġr ul
Ġas p
Ġst ain
Ġst ated
Ã© ress
am ment
Ġan k
Ġsa ur
Ġv il
ĠM as
oo red
Ġqu aint
Ġso ap
Ġle ver
Ġle cture
ant ime
Ġcom pt
all ic
Ġj agu
Ġj alousie
ul p
ĠC ON
Ġno vels
Ġli ver
Ġli king
ol as
art ment
Ġun natural
Ġpl ague
Ġal co
He lp
un esse
ĠP ur
Ġwor m
Ġar ise
Ġar rog
ĠB ern
el ed
ĠL ille
Ġpro jet
ĠH ad
ĠH ug
Ġmo an
Ġsp ong
Ġsp ider
Ġsp erm
ĠJ ussac
ais ance
lo gne
Ġkn itting
ĠR ym
Ġlong boat
Ġbo nds
Ġper fection
Ġpass enger
Ġcomp rit
Ġpre uve
Ġpre nait
ra pe
Ġpe bb
Ġcha pter
Ġdu ck
Ġdown s
Ġsur ve
Ġsur ly
Ã©t at
Ġpar isis
Ġcr ag
Ġqui ver
ĠT e
ĠT ours
Ġje unesse
Ġav is
Ġmon keys
Ġte aching
per a
Ġown ers
ĠW arr
Ġau par
Ġhouse maid
Ġmin uit
Ġcertain e
Ġdr ows
Ġsent it
Ġsw ing
ĠPar liament
Ġem inence
ool s
Ġinf ernal
Ġeng ulf
Ġdep ressed
Ġinter fere
Ġname ly
ĠO ur
Ġinde bted
Ġrec reation
Ġdit ch
Ġhum ming
Ã©r Ãªt
Ġlay ers
tem pered
Ġhun ted
Ġengine ers
Ġhope less
Ġfoot pr
Ġdem ol
Ġquestion ing
Ġrel uct
Il s
Ġinv iting
ĠÃ© pr
ĠÃ© vÃ©
Ġhorse men
Ġstrong est
Ġmal ice
Ġsol ution
Ġdisappe aring
Ġsqu at
Ġwild er
Ġtor ch
Ġoccup ations
ĠTre mouille
Ġdemand s
Ġdeal ing
Ġthick et
Ġinn keeper
Ġoccasion ed
Ġtrave ling
Ġcro it
vern oy
ĠRe ims
Ġperm is
Ġpen insula
Ġsend s
Ġdecl ine
Ġund oubtedly
Ġyell ed
Ġspo ilt
Ġpublic ly
Ġcher cha
ĠDu vernoy
Ġpurs uing
Ġbear ings
Ġvast ly
Ġabbe y
Ġstream ing
Ġpath s
Ġsumm its
Ġtranqu illy
Ġgy psies
Ġbreast s
ĠÃ©c happ
Ġstup or
Ġva ulted
Ġassist ant
Ġcomb ien
Ġthro ats
Ġfac ing
Ġgle e
Ġgle aming
Ġconn aiss
Ġdesign s
Ġinj ure
Ġmir th
Ġharm on
Ġrejo in
Ġcustom ary
Ġgro ve
ES S
Ġneg ative
Ġshel ves
Ġheure use
ĠdÃ©c id
Ġge omet
Ġhealth y
Ġfail ing
ĠZ eal
Ġz one
Ġinquir ing
Ġlabour s
Ġsau ce
Ġemer ge
Ġdeck ed
Ġimpro ved
Ġliqu or
Ġrig ging
ĠGuards men
ĠPort sm
ĠSund ays
ĠMou quet
Ġattract ive
Ġdevoted ness
Ġrum m
Ġrum our
Ġflag s
Ġtot ally
Ġenf ants
ĠJes us
Ġcrack ing
Ġmater ials
Ġconvuls ive
Ġconvuls ions
ĠEgypt ian
Ġspecim en
Ġgrat ified
Com ment
ĠÃ©cri re
ĠÃ©cri vit
Ġcig aret
Ġrese arches
ĠItal ie
Ġpall or
Ġhorn s
Ġharness ed
Ġaper Ã§
ĠChan te
Ġexclam ations
uns ford
Ġredd ened
Ġbatter y
Ġcad avre
Ġoverfl ow
Ġinvolunt arily
Other s
gre en
Ġslipp ery
sp read
Ġgagn er
Ġwhir ling
Whe ther
Ġbol ts
Ġconfid ences
Ġinscri ption
Ġmend ic
Ġpersonn age
ĠdÃ©v ou
Ġcitiz en
Ġfath oms
Ġpag oda
Ġsurv iv
Ġverd ure
Ġmourn ful
Ġbisc uits
Ġbeck oned
interest ed
Ġbuzz ing
ĠAcadem ician
Ġvra iment
Ġpettico at
Ġshove l
Ġhospit ality
Ġphysiogn omy
ĠPen insula
Ġoise aux
Ġprin cess
Ġmatt ress
Ġembar ked
Ġconfl ict
Ġseren ity
Ġmistr ust
Desp ite
Ġhagg ard
Ġvul g
Ġoutst retched
Ġindescri bable
ĠIr ish
Ġnoct urnal
Ġfure ur
Ġperspect ive
Ġaupar avant
ĠZeal and
ĠPortsm outh
' .
, _"
- "
A ng
A insi
B ene
D ay
E d
E ight
G ermain
I nt
K eep
L yd
N Ã©grel
O O
Q U
U ntil
Z acharie
a way
a que
b red
b ell
c reat
e urs
f if
f ire
f leur
g age
h m
m ust
n n
o x
o id
o ved
p ut
p pe
r ise
w s
Ġ âĢĵ
Ġt ank
he ment
Ġa it
Ġa ided
Ġs ow
Ġs han
Ġs ledge
Ġw reat
Ġw itty
ou e
ou ette
Ġm ire
Ġm oored
Ġb ud
Ġb oss
Ġb aff
Ġc amar
Ġd ashing
Ġf ug
Ġf lies
Ġl ut
Ġl ids
Ġl att
Ġp atter
or ce
or itÃ©
ar ctic
Ġh ing
Ġh ud
Ġn oses
Ġha ck
at ches
le ct
Ġbe ads
im ate
Ġre pt
Ġre lic
st ru
Ġwh im
Ġhis sing
qu iet
Ġr Ã¨
Ġr umbling
Ġas ylum
Ġst im
Ã© le
Ã© ro
Ġse p
Ġsa g
Ġv ow
if fe
if ts
Ġqu ays
li ant
ne lle
Ġsh ifting
Ġj ars
Ġex ile
Ġwho ever
os Ã©
ĠC as
Ġfe eb
Ġli ken
em bar
Ġun covered
Ġen vers
Ġman oe
ĠP as
Ġtr ailing
Ġout f
ĠS ub
ĠS cript
ĠA u
ĠB outeloup
Ġag gr
Ġpr Ã©d
ĠL es
ĠL ade
Ġco d
Ġco vers
ĠH ave
ĠH avre
ĠG ond
ĠG ib
ĠG entlemen
Ġro cher
ĠJ em
ĠJ ans
ĠJ uli
tain e
Ġdis he
Ġrep ulsed
Ġpo pe
ĠR ic
Ġsha llow
Ġlong ues
Ġch illy
Ġbl ot
Ġbl amed
Ġbl ades
Ġcl asp
ĠE mp
rie re
ĠD jali
ĠD erb
Ġstr angled
ord in
Ġap ert
ang ar
ang ling
Ġcr is
Ġcr uis
Ġcr umb
Ġvo liÃ¨re
Ġimp ed
Ġent angled
ĠT ost
Ġsc ri
Ġmar che
Ġacc l
cl othes
ip her
Ġcons umed
ĠW ater
ci ation
Ġter rit
ru ped
gg er
Ġrest raint
Ġchan oine
Ġchar itable
Ġever l
Ġdr um
Ġgu Ã¨re
Ġopen ings
ĠPar vis
Ġcur Ã©
Ġins ul
Ġarri vÃ©e
Ġinter min
Ġvis ibly
ys hire
Ġreco iled
Ġhon n
ĠAr ch
Ġfur t
Ġdet ain
Ġpresent iment
Ġbene vol
ĠdÃ© je
Ġplay ers
Ġtri omp
Ġpower less
Ġport ant
Ġsleep y
Ġdri pping
ib les
Ġord inaire
Ġrespect ing
ĠCh Ã¢teau
Ġdi et
Ġemp ha
Ġstri kers
Ġcircum ference
ex c
ex am
ĠrÃ©p Ã©tait
ĠrÃ© flÃ©ch
Ġbell es
Ġvill ains
Ġremember ing
Ġcab aret
Ġcro ix
Ġjam bes
ĠTh omas
ĠPr ussi
Ġdiv ision
ĠX ury
Ġarrang ing
Ġcondu ite
Ġfer ment
Ġfer ai
Ġsens ual
ĠgÃ©n Ã©raux
Ġfro id
Ġstrugg les
Ġgreen ish
Ġmention ing
Ġclim ate
Ġpuis se
Ġcounten ances
Ġutter ance
Ġfais aient
Ġguard ian
Ġev ap
with out
Ġlod ger
Ġpract icable
Ġmont re
ĠPl uchart
Ġlif eless
Ġenv ied
amb urg
Ġdeb au
Ġsuiv i
Ġvirt ues
Ġdiam ants
Ġconn aissance
Ġarg ue
Ġarg ued
Ġexplain ing
Ġbless Ã©
Ġant ip
Ġpier ce
Ġvig il
ma ha
Ġsembl a
Ġrob ust
Ġtemp or
Ġbord ers
Ġreport ed
Ġundert ook
exp ression
Ġton ight
ĠMart ha
Ġz ones
Ġwhist led
Ġcompre ndre
Ġsubm itted
Ġswift ness
aper Ã§ut
Ġentertain ment
Ġrelations hip
Ġsucceed ing
Ġwitness es
Ġcompar atively
Ġreconn aissance
Mar ie
Ġexcess ively
Ġconsol ed
Ġgallop ed
reg ation
Ġparce ls
ĠMort on
Ġimper ceptible
Ġcaval ry
Ġcaval iers
iqu ement
imp en
Ġloc ated
Ġtorrent s
Ġentreat ed
Ġlab yr
Ġrag ged
Ġvall eys
Ġextr Ãªme
ĠBou logne
Ġexcurs ions
ĠHenri etta
Ġnavig ating
ĠMarecha l
Ġju ger
Ġgreet ing
Ġglit tered
Ġdrift ed
Ġcu ir
Ġscen ery
Ġdimin ished
Ġestim ate
Ġsteal ing
Ġvive ment
Ġintox ication
Ġhuss ard
Ġpig s
Ġrece voir
Ġsele cted
Ġinsen sible
Ġsacrific ed
Ġdevelop ment
Ġinconven ience
Ġecon omy
Ġclut ched
Ġben ches
Ġannounce ment
anter ie
Ġcontrad ict
Ġmuff led
ĠRussi an
Ġscold ed
Ġna Ã¯
ĠMorm ons
ĠMin ister
pow ered
Ġawaken ing
nis ien
Mad am
Ġpav ilion
Ġgid dy
Ġtambour ine
Ġwoo llen
Ġinsign ificant
Ġlege nd
ĠSout hern
Ġtwink ling
Fo llow
ĠBeauv ois
ĠBurgund y
Ġtrump et
Ġchallen ge
ĠStras bourg
Ġliken ess
ĠJans en
ĠDerb yshire
ĠTost es
) :
D u
D iana
E ither
E vidently
H ur
H irond
K itty
L ors
L ater
M ust
N E
P art
P ier
S p
T u
T ruly
U r
a ie
b ooks
c isely
d ies
f ing
g ers
g ies
h ol
h oles
l k
p ing
p ans
p ossess
s hed
t Ã©
x te
Ġ 000
Ġt ing
Ġt ir
Ġt ires
Ġt aille
Ġa ide
in arily
Ġs Åĵur
Ġw rest
Ġw oe
Ġw isely
Ġo st
ou ise
Ġm ule
Ġm onsignore
it ch
Ġb ub
is ation
is ons
is ms
Ġd ed
Ġd ensity
Ġp on
Ġp ony
Ġp ierre
es teem
or ney
ar th
Ġh ook
Ġn aissance
at ig
Ġre le
Ġon agers
Ġit al
Ġhis to
Ġr out
Ġr ained
Ġr ats
Ġr abble
Ġas ks
Ġas under
Ġst ur
Ã© tend
Ġat h
il ib
Ġse ction
ri ani
Ġsa lle
Ġv om
Ġshe lf
li p
Ġfr act
Ġcon tend
res pect
Ġcom ic
Ġcom Ã©d
Ġj al
Ġex amples
Ġwere n
th m
os pheres
ist ence
Ġli ed
ol ence
Ġor ang
Ġpl aint
Ġal phab
Ġman iere
han ce
Ġtr ay
Ġtr omp
ge red
ig s
Ġar ts
ĠB E
ĠB en
ĠB ald
ĠF ah
ive t
Ġco adj
ĠH ill
ĠH unsford
ĠÃ ´
Ġmo itiÃ©
ĠG ossip
Ġgr ind
Ġgr umbled
Ġbr ushed
Ġsp ade
Ġlo yal
lo at
Ġdis ad
Ġdis interested
Ġpo che
av ons
av anÃ§
Ġsha m
fore seen
Ġover all
Ġover looked
Ġover came
Ġch uck
Ġch orus
ĠN ous
op ened
che st
Ġpass ive
Ġrem ettre
Ġfo aming
Ġcl amour
ĠE lle
ĠD ie
ĠD ub
Ġpart is
Ġpar v
Ġpar aÃ®t
Ġcr aint
Ġvo c
Ġspe eches
Ġexp li
Ġexp ert
ien nent
Ġgl ist
Ġgl iding
Ġune qual
Ġmon key
Ġcons cient
Ġpos itions
Ġau ght
Ġpas te
ci a
Ġcomm otion
Ġter mes
Ġsupp ed
arr Ãªter
Ġgu illot
Ġass id
Ġcle f
Ġins ane
Ġinter se
ĠGr impen
Ġind ust
Ġfather s
ĠO pera
ĠO maha
Ġfam ine
Ġsk ilful
Ġrec her
Ġsort it
Ġmid i
Ã©r itÃ©
Ġve in
Ġve hement
tem per
Ġfore cast
Ġcountry side
ĠK ent
Ġexc uses
For ward
ĠMa h
Ġdec isive
Ġdisp ersed
Ġadv is
Ġpol ar
ĠdÃ© mission
Ġbus ied
Ġsight s
Ġca ressed
Qu ant
ER S
Ġpay ment
Ġext ric
Ġinv ite
ĠÃ© n
Ġimag ining
Ġquar ante
oc ate
Ġcross es
Ġleng then
br idge
Ġscar f
Ġjoy s
bo ats
Ġsal ut
Ġven aient
Ġ2 8
Ġpat ch
Ġpit ched
Ġpit iful
Ġrecogn izing
Al ways
ĠrÃ© un
ĠrÃ© gn
tern al
Ġthick ets
Is n
ĠPro ctor
ĠCan ivet
rist ol
Ġallow ance
Ã©cri re
Ġren ounce
Ġnorth ward
ĠBar bone
Ġgest ic
Ġtreat ing
Ġtall er
Ġplant ations
Ġflat tened
Ġmagnific ence
Ġpron ounce
Ġblind s
Ġdir ai
Ġresp onse
Ġsuiv ait
Ġfac il
Ġthank fulness
aur ier
Ġrejo iced
Ġplun ging
Ġbrave ly
Ġchat ter
Ġconceal ing
Ġmyster ies
Ġdefe at
Ġoper a
Ġcas ket
Ġviv and
Ġwithd rawn
agger ing
Ġpays ans
com ed
Ex cuse
bar a
Ġtur ret
whe ther
Ġatm ospheres
Ġkeen ly
Ġta pped
ĠÃ¢ ge
Ġstif le
Ġsolemn ly
Ġexceed ing
Ġange ls
Ġrail ing
Ġ15 0
Ġajout ait
Ġnation al
Ġstupe faction
Ġlord s
Ġvic ious
Ġty p
Ġtrif les
Ġisol ation
Ġmoy ens
Ġcomprom ising
Ġhut s
Near ly
Ġfan atic
Ġpall id
Ġdict ated
Ġfow ls
ĠAm iens
Ġblo om
Ġfasc ination
Ġmanif ested
Ġdoct ors
ĠPer haps
Ġperse cut
Ġslop ing
Ġdiff Ã©
Ġtub bing
Ġling ered
ĠrÃ©g iment
Ġiv ory
Ġhol idays
Ġrot ten
Ġappare nce
Ġlib Ã©raux
Ġscrup les
Ġreject ed
Ġexplore rs
Ġinterp ret
Ġcitiz ens
Ġexert ion
Ġfest ival
ĠrÃ©f lex
ext r
Ġinse cts
Ġdart ing
Ġbefall en
ĠAbb ot
Ġferoc ious
idel ity
Ġmirac ulous
Ġinherit ance
Ġfren zy
ĠlÃ© ger
Supp ose
Ġarist ocr
Ġket tle
Ġentit led
Ġnegro es
Ġloos ened
Ġsimult aneously
ĠUs her
Ġtipt oe
ĠvÅĵ u
fro id
Bene ath
ĠWater loo
Ġintermin able
ĠdÃ©je un
Ġlabyr inth
Hirond elle
A ve
A pp
B ingley
B ientÃ´t
D Ã¨s
H o
I D
J ac
M en
S it
T oute
_ ."
b et
c ould
d oes
g ood
g irl
i Ã©t
i pel
l ad
l orable
m i
r ange
u an
u ir
u cture
u yer
v ided
Ġ `
Ġt es
Ġa er
Ġa li
Ġa lder
Ġs ly
Ġs ite
Ġw ont
re nding
ou ill
Ġb ague
is me
Ġc ub
Ġd y
Ġd irt
Ġf res
Ġf ret
Ġl ass
Ġl ions
Ġh inder
an es
Ġn ic
Ġin m
Ġin ac
at an
Ġbe lf
ot est
se es
ent re
Ġre de
Ġre action
st ill
Ġde ign
ion ed
ad ress
ad ier
al ter
Ġr at
Ġr anc
Ã© loign
Ġher oes
Ġse rez
am inet
Ġme ek
Ġan ne
ter min
Ġsa p
Ġv aut
ĠM M
ĠM end
Ġso ins
Ġso ls
ous ing
ard ly
Ġbut ler
Ġj ac
Ġex ists
Ġk angar
th s
th ose
Ġla z
Ġ" _
Ġwho les
Ġdo ig
Ġli gne
em br
Ġun ce
Ġun foreseen
Ġpl ump
un ity
um bed
ĠS pe
ĠS ome
ig rade
ĠA y
Ġar chers
ĠB eth
ĠB ristol
el aurier
Ġag ric
Ġgo ds
ĠF ont
own ess
Ġpro cl
Ġam ph
ĠH amburg
ĠG E
ĠG ree
Ġro i
Ġro bb
Ġro gue
Ġbr uis
Ġsp at
Ġim pelled
Ġrep ar
ud ule
ĠR ep
ĠR ang
av ance
Ġad ul
Ġad roit
are well
Ġch illed
Ġbo ating
Ġbl anc
Ġcomp ose
ra ved
Ġpe eping
Ġpe aks
Ġrem ords
Ġcha m
Ġcha os
Ġcl apping
Ġstr ay
Ġstr ucture
Ġap ology
Ġpar aissait
Ġent our
Ġexp anded
iss ors
Ġop ens
Ġje u
Ġacc using
Ġce ci
Ġcar ving
Ġcar ries
Ġfl ick
Ġjust ify
Ġgl ut
ĠW as
Ġau jourd
Ġmay or
vent h
Ġsil h
Ġmat ches
Ġmat hem
Ġwr ites
Ġdev ote
the m
Ġsat ur
Ġmet ric
lic ting
Ġlar gest
ub ri
Ġsl ice
Ġsl aves
Ġsl aughter
cess ible
Ġind ustri
ĠO x
Ġfire nt
Ġdark ened
Ġste ered
Ġhum ility
Ġkeep er
oir s
Ġmis eries
Ġaff irmed
Ġdet ested
Ġvie nd
Ġprom pted
irc le
lan co
Ġexc ite
Ġjo int
Ġact s
Ġcou ver
Ġmer its
Ġph leg
onse quently
Ġtri vial
Ġinv in
Ġsn oring
sh ore
Ġarr ow
Ġmouth ful
Ġrespect fully
Ġann Ã©e
Ġann ouncing
ume ur
bo ards
Ġequ ilib
ĠrÃ©p and
Ġbig gest
ĠrÃ© vÃ©
Ġdemand ait
Ġbat tre
Ġsuper human
Ġshar k
Ġpossess es
Ġchance llor
Ġhang ings
Ġstreng then
ĠTh unes
Ġfanc ying
Ġcourage ous
ĠLand riani
Ġcondu ire
Ġcand id
Ġsepar ating
Ġpens er
Ġid leness
âĢ¦ ,
âĢ¦ âĢ¦
ob li
Ġsole il
Ġweak ened
Ġdrag on
Ġdom ain
Ġinfl amed
ili ation
Ġod or
Ġproc Ã©d
Ġaband oning
Ġmor sel
Ġtrain ing
Ġrepro du
Ġsupport ing
Ġmut tering
Ġfaut e
Ġmont rer
Ġ18 2
Me antime
Ġpron ouncing
Ġcord es
RE T
Ġproud ly
Ġsen sibility
Ġextraord inaire
Ġstar ve
Ar ound
Ġautre ment
Ġsuiv it
Ġdiam eter
Ġwid th
Ġant agon
Ġhy d
ĠSc atcher
Ġpure ly
Ġirrit ating
Ġchat ted
Ġchat tering
Ġprot r
Ġglim mer
ĠprÃ© f
att ention
pir ing
Ġcow ards
Ġinstinct ive
Ġviv acity
Ġstupid ly
Ġfail ure
anÃ§ ois
Ġshame ful
gl ise
Ġsubm ission
ĠrÃ©s er
Ġblock ed
Ġsubst ances
OU T
Ġprobable ment
Ġfamiliar ly
Ġcontri buted
Ġcheer fully
Ġrent rer
Ġprofess ed
ĠBer wick
Ġesp oir
Ġstam mering
ĠmÃ© lanco
ĠGuards man
esc alier
ĠprÃ©sent er
ĠTur k
Ġfrig id
Ġmach in
Ġtrait or
Ġwel comed
Ġcop ies
Ġassass ins
Ġextrem ities
Ġeduc ated
Ġ17 9
Ġassur ances
Ġcann ib
Ġwin ning
Ġpin ched
Ġvou ch
fr anc
Ġthread s
Ġspur red
Ġgau ge
Ġdispleas ed
Accord ing
Ġdrift ing
Ġtos sing
Ġfow ling
Ġresc ued
Ġinfam y
Ġcrou ched
ĠcommenÃ§ a
Ġthirst y
Ġere cted
Ġhumili ation
Ġconject ures
ĠLu z
Ġcetace ans
Ġchasse ur
Ġnovel ty
Ġquad ruped
Ġinward ly
ĠAnt arctic
Ġpropri et
Ġanticip ated
Ġlib Ã©ral
Ġexter min
Ġcough ing
Ġfame ux
Ġmock ing
Ġpersonn ages
Ġpunct ual
Ġens ued
Ġcreep ers
Ġfascin ating
Ġbarr ic
Ġcultiv ated
Ġratt ling
Ġmarvel ous
Quel ques
Last ly
Ġphant om
import ant
Ġstrang est
Ġcourtes y
Ġcounc ill
ĠFlore nce
Ġpickax e
Ġvolunt arily
Ġhypothes is
ĠAustral ia
Ġgir dle
Ġbraz en
Ġexem pl
Ġprose c
Ġdestro ying
offic ier
ĠmÃ©t ier
Ġnomm Ã©
Ġparap et
Ġphosph orescent
ĠPet it
Ġkilo grams
ĠHug o
Ġpebb les
Ġwilder ness
ĠChante fleur
Ġmendic ant
stru ck
ĠGond elaurier
ĠEmp ire
Ġapert ure
Ur ville
Ġvivand iÃ¨re
extr Ãªme
Ġinac cessible
Ġagric ult
Ġrobb ers
ĠRang oon
Ġmathem at
ĠScatcher d
ĠChantefleur ie
# ,
' "
A IN
B uckingham
C ont
C onsequently
H a
M al
R et
T e
_ ;
b ling
c ons
i av
j k
k ar
p ieces
r um
r ance
r owed
t ures
w art
w rit
Ġt iles
Ġa is
Ġa ching
Ġs ut
Ġs own
Ġs arc
Ġw ider
Ġo ar
ha nded
it ter
it ory
Ġb red
Ġb Ã¢t
is tered
en ant
Ġd ice
Ġd Ã©r
Ġd Ã»
on Ã§a
Ġl u
Ġl ashed
Ġp enn
Ġp aced
Ġh inted
Ġn ig
Ġin und
Ġe ag
Ġg ue
im o
ent rÃ©e
Ġy el
Ġu gl
ce lain
ur ance
ith ing
Ġde leg
ion ess
al m
Ġfor b
Ġr i
Ġr omp
Ġr ains
Ġr attle
Ġwe eds
Ġst er
Ġst ing
ac qu
ill ery
Ġmy ri
Ġv ont
Ġso y
Ġle aping
Ġsu ng
Ġsu lp
Ġfr uits
Ġj elly
te xte
Ġex cell
th ings
Ġla ud
Ġla pse
ist re
ol k
ol aine
Ġen le
Ġen semble
Ġpl ong
Ġpl ough
Ġman que
Ġman ger
ĠP ark
ĠP oor
ĠS ol
ĠS ophie
ĠS uzanne
ig z
ĠA T
Ġwor ship
Ġar bres
ĠB al
ĠB os
ĠB aker
Ġag rÃ©
ĠL ombard
ĠF ools
Ġam us
able ment
ĠH E
ĠH ARRIS
ĠG ir
Ġgr Ã¢
Ġgr aves
Ġgr asping
Ġsp acious
ĠJ oe
Ġdis ant
Ġim ages
Ġpo it
Ġpo ets
Ġpo inte
ud i
Ġday time
ĠR om
ĠR ow
ĠR ead
Ġsha pes
ĠN ort
Ġcan on
Ġbl oss
ving ts
Ġcomp act
Ġcl in
Ġcl ing
Ġdown ward
ĠD ire
Ġoff ensive
Ġmust n
Ġcr ainte
Ġcont est
Ġimp unity
anc Ã©e
Ġent ry
Ġexp ans
ĠT u
ign y
ign it
Ġmoment ary
Ġwhere in
Ġcar c
Ġfl inging
Ġfl anks
Ġyoung sters
Ġappe ase
Ġappe ased
Ġson net
Ġapp alling
Ġcap y
Ġche es
Ġche ered
Ġmost ly
ĠV II
ru ct
Ġpleas antly
Ġgi psy
Ġconf irm
Ġfa im
Ġgu ilt
Ġgu arante
Ġref ined
Ġfar mer
Ġtal ks
lock ed
Ġstre aks
Ġunc oncer
Ġnat ures
ĠMar ie
Ġinf irm
az ine
Ġworld s
Ġinde c
Ġinde finite
Ġrec ourse
Ġrec onst
Ġblack ened
ĠFr anÃ§ois
Ġplac er
Ġhum or
Ġsi Ã¨
Ġaff licted
Ġsurpr is
Ġfur ieux
Ġexc av
Ġele vation
Ġjo li
ĠdÃ© termin
Ġcou vent
Ġcent igrade
Ġnecess aries
ock s
Qu ick
Ġopp ress
Ġcard board
Ġappear ances
Ġprop he
Ġtri angle
Ġgall ey
Ġprov oking
ĠÃ© tend
ump h
Ġdisco vering
ĠCh Ã¢telet
Ġsus ceptible
pl ain
Ġmal ady
Ġmal ignant
Ġann oncer
Ġrap ture
Ġpret ence
Ġsal ons
Ġvol ontÃ©
Ġsucc Ã¨s
Ġemp hat
enn ui
Ġhat ches
Ġart ific
Ġfig ured
ĠrÃ©p Ã©ter
Ġstud ents
Ġgold smith
Ġdirect ing
Ġshar ing
ĠEnglish men
Ġcontr asted
Ġsuccess fully
Ġpub lished
Ġplan king
ĠRe verend
ĠRe jk
Ġperm ettre
Ġlim estone
Ġrich ly
Ġund ulating
Ġsense less
Ġmistress es
ĠJean ne
Every one
Ġpens ait
Ġlie ue
Ġbas alt
ob ser
Ġinterrupt ing
Ġcost s
Ġren te
Ġren vers
Ġserious ness
Ġinfl amm
Ġbound ing
Ġapart ments
Ġev ils
Ġpist olet
ĠInd ies
Ġsumm ons
ĠCha s
Ġgrow ling
Ġban ished
Ġrend ait
Ġsen sibly
Ġstar ved
Ġstar board
Ġconn u
Ġimm ov
Ġbrig ands
Ġtomb a
Ġscr atch
zz le
ĠprÃ© texte
Ġbow l
acha ble
Ġjet er
Ġbag gage
ĠUn cle
Ġproceed ings
com er
Ġsplend our
Ġscre am
Ġtur f
Ġexchan ging
Ġrang ed
ĠBer the
Ġobtain ing
Ġdete ct
ĠStre am
esc ence
Ġclaim s
Ġchas ing
Ġindign antly
Ġfou le
Ġmechan ism
Ġfruit less
Ġcomprehe nded
ĠBour nisien
Ġstead fast
Ġpor celain
Ġorn aments
Ġbay on
Ġrust ling
Ġsuspect ing
Ġgri pped
Ġsem aines
Ġlab ou
Ġdawn ed
Ġquart s
Ġconvuls ion
Ġreappe ar
Ġvou loir
Ġovert urned
Ġboats wain
Ġmission ary
Ġboot y
Ġmelt ing
Ġprofession al
Ġprepar ation
Ġrepresent ing
Ġdomin oes
Ġhypoc rit
Ġdur ation
See ing
Ġimpl ore
Ġembro id
Ġrud dy
Ġanc ien
Ġsche mes
Ġcapit aine
Ġboil er
Ġcongrat ulated
Ġmoist ure
Ġdiscour agement
Ġbatter ies
ĠCr us
Ġflatter ing
Ġtele gram
Ġsne er
Ġnour ishment
Ġguine a
ĠMill ie
Ġtig ers
Ġrif les
Ġdesir able
Ġmoust aches
Pre cisely
Ġtramp led
ĠrÃ©sol ution
Ġfid Ã¨le
Ġgust s
Ġrecei pt
Ġwhir led
Ġprejud ice
Ġsuffoc ated
Ġliter ature
Ġfoss il
ĠNot hing
Ġlimp id
ĠthÃ© Ã¢tre
Ġmajest ic
ĠrÃ©f ug
Arri ved
Ġmajor ity
Ġcrav at
Ġflu id
Ġdroop ing
Ant in
Ġfai bles
Ġbellow s
Ġeccles iastical
Ġinquis itive
ĠMess ire
Ġcurios itÃ©
Ġperman ent
Ġoutcast s
Ġaccum ulated
Ġsurre nder
Ġtreacher y
ĠhÃ¢ ta
Ġtestim ony
Ġdock yard
Ġurch ins
ĠLea h
ĠBert aux
ĠLie utenant
ĠInquis itor
Mart in
oras off
ĠÃ§ a
Ġsusp ense
Ġadministr ation
ĠAsi a
Ġflex ible
Ġsorce ress
Ġunreason able
Ġparch ment
Ġsqueez ed
ĠcÃ©lÃ¨ bre
Ġaggr av
ĠBeauvois is
Hur rah
Ġtires ome
Ġcoadj uteur
Jac ques
ĠBeth une
Ġphleg m
Ġinvin cible
ĠgrÃ¢ ces
D am
D ead
F aith
F arewell
I M
L ife
M aintenant
S ouvarine
T oo
U M
a ide
b ot
b ow
b ag
c ross
c omp
h umeur
i ary
i oc
j or
j ah
l aient
o za
p id
p ath
r own
u Ã©
v o
z er
Ġt une
Ġt angled
re ndre
Ġo val
er ved
Ġm ol
Ġm un
Ġm ail
Ġm Ã©d
it ched
Ġb oring
Ġb ontÃ©
is quette
Ġc os
ed ay
Ġd ais
Ġf itting
Ġf ading
on ation
Ġp ard
Ġp omp
Ġp ouvez
es cent
as ingly
or ian
or ia
ll i
Ġh ints
Ġhe aps
Ġn ick
Ġn uis
Ġn ailed
Ġin ut
Ġha mm
Ġha ze
Ġg aily
Ġre fe
Ġre ctor
id ri
id ated
ur b
ly cerine
Ġde fer
Ġde ference
Ġde jection
Ġfor me
Ġr aces
Ġr iot
Ġst ately
Ġse lling
am us
Ġan ci
her ly
Ġv ary
ĠM all
oo by
Ġqu oted
ag rÃ©
and e
ant ed
ant Ã©
li ps
Ġfr ying
Ġfr atern
ous er
Ġcon ference
Ġj a
Ġj ar
Ġex ult
Ġk icked
ĠC re
ĠC OM
Ġfe eding
ust ache
art ic
Ġun aw
Ġen li
Ġpl ume
Ġal ms
un ting
ĠP all
ĠP HI
ĠP ilot
ak kar
han ge
Ġtr ac
Ġtr ained
ort une
Ġout ward
ĠS E
ĠA st
ĠA pp
ĠA lp
ĠB ab
ĠB oul
ĠB eau
ĠB uns
au ph
au berge
Ġpro gram
Ġco ve
ĠH or
Ġaf loat
ack ing
Ġbr im
Ġsp out
Ġsp ouse
Ġsp here
pt ions
Ġkn ots
Ġdis quiet
ade re
Ġrep uls
Ġdes iring
Ġpo em
ĠR E
Ġover head
Ġhand led
fe it
Ġch icken
ĠN E
che ts
Ġbl anche
Ġpe op
Ġrem it
Ġrem on
Ġcl ump
Ġthought fully
ĠD orado
Ġstr at
Ġcr adle
Ġles quels
Ġimp udence
Ġspe ck
Ġbet ting
Ã¨ de
ĠT ank
iss aient
Ġsc Ã¨ne
Ġmar ching
Ġmar cher
ks sen
Ġstill ness
ix ed
Ġav ent
Ġho ist
Ġjust e
Ġgl ide
Ġappe ler
Ġappe aled
Ġcons ists
ĠW or
ĠV ieux
ĠV icar
ci bly
Ġter reur
Ġarm or
Ġreg arding
Ġreg ister
ru cted
Ġwr ought
Ġwr ithing
Ġrest a
Ġgi ants
Ġinc onn
Ġgu id
Ġass uming
Ġsw oon
Ġtre ading
Ġwork er
Ġbelie ves
ĠMar ini
Ġinf licted
Ġcompan ies
Ġins in
Ġinter lo
Ġinter ference
az ing
ple nd
ple te
Ġind uced
Ġfam ished
Ġbro ok
Ġblack ish
ĠFr idri
Ġkind led
Ġten ants
ange au
Ã©p Ã©e
Ġperson nes
Ġmis er
Ġdisc er
Ġaff right
ĠAr cade
Ġsign es
Ġsign als
Ġsign ify
Ġhus hed
Ġsun set
Ã¢ cher
Ġmot to
Ġbest ow
Ġsound ly
Ġadv ocate
Ġexpect ations
Ġappro bation
Ġsight ed
Ġplay s
Qu elle
Qu oi
Ġhelp less
Ġtro d
Ġext ensive
Ġemb ark
ĠÃ© loign
ib oud
Ġru gged
Ġsn ap
sh ips
Ġces se
ĠCl iffe
cri bed
Ġbreak s
Ġvoy ages
Ġjoy ful
Ġhast ening
Ġhat chet
Ġsol ace
Ġpap a
ĠBon aparte
ĠLe g
Ġmus mons
Ġaston ish
ĠLond res
Ġfree zing
Ġlead ers
Ġdemand Ã©
Ġbat hing
Ġprodu ctions
Ġplain e
Ġvent il
Ġpa wn
Ġprevent ing
Un less
Ġdiv an
ĠFrench men
Ġremar quÃ©
Ġprem iere
Ġpu pp
Ġvan ish
Ġcre ak
Ġcre eping
Ġpict ured
Ġbright ness
Ġmed dle
Per fectly
Ġmes se
Ġmes ure
Ġhall uc
Ġstorm y
Ġclass ified
Ġregret s
ĠLy nn
Ġcoup able
Ġsong Ã©
Ġsumm on
Ġpreser ving
Ġbill ows
Ġsom eday
Ġfet e
Ġpill age
field s
Ġyellow ish
Ġrecall ing
Ġembr acing
Ġthro bbing
ĠfaÃ§ ons
Ġfac ial
Ġgar ret
Ġhonor able
Ġaccompan ying
Ġremark ably
Ġavoid ing
Ġrejo indre
Ġvolcan oes
Se ven
Ġjet Ã©
Ġundert one
Ġbag s
Ġcrew men
OR GE
Ġdisapp ro
bl ood
Am id
ĠrÃ©s ult
Ġpays an
Ġphys ion
la id
Ġconfused ly
Ġcra zy
AT ION
Ġlog ic
Ġbod ily
keep ers
Ġcredit ors
ĠprÃ©sent e
Ġobstin ately
LE AS
_. âĢĶ
Ġfarm ers
Ġskill ful
Ġspl ash
Ġinvol ved
onc Ã©
Ġrender ing
ĠJan et
Ġrust y
Ġdish onour
cript ions
Ġoffe nd
Ġbid ding
Ġbrief ly
ĠPi olaine
abs ence
Ġvert u
Ġshr ank
Ġexagger ate
Ġgown s
Ġrappe ler
Ġgrat ification
Ġfeu ille
Ġdiver ted
Ġrencont re
Ġbeard ed
ĠEst aminet
rim ony
ĠTour angeau
ograp hy
Ġcounsel s
Ġaper Ã§ut
Ġboil ers
iven ess
Ġengagement s
Ġcoff er
Ġinspect ion
Ġinher ited
Ġdisgu ised
Ġcrit ic
Ġindepend ence
ĠÃ©cl at
Ġimpass ive
Ġobed ient
Pre fect
Ġalter ation
Ġoy sters
Ġaltern ately
Ġindisc reet
Whe never
Ġinscri bed
ĠLiber als
Ġdelir ious
Ġpike men
fo oted
Ġprint ing
ĠHigh ness
ĠDan ish
Ġfascin ated
Ġappreci ate
ĠMorm on
Ġimmob ility
ĠdÃ©couver te
lev ard
Ġscor ched
Ġcert ific
Ġrefresh ment
ĠpiÃ¨ ce
ĠPal ace
Ġinsuff icient
ĠBat aille
Ġenlight ened
Ġpolicem an
Ġpenit ent
Ġbenefact or
ĠMand ible
Ġpled ge
Ġplum age
Rass eneur
Ġaccost ed
Ġexac tement
Ġtacit urn
Ġamend s
IGH T
Ġengulf ed
creat ures
Ġhing es
Ġhud dled
Ġfeeb ly
Ġeverl asting
ĠChÃ¢teau pers
Ġdisad vantage
Ġwholes ome
ĠSpe edy
ubri ous
ĠOx ford
Ġequilib rium
iav ik
Ġsulp hate
Ġpoit rine
ĠRead ing
ĠRejk iavik
Ġanci ents
ĠTank adere
ĠFridri kssen
! )
? âĢĻ
A ut
A ussi
C o
C or
E ly
J une
M ont
P os
P ol
Y ours
a illes
b ury
b irds
c op
c ount
d r
d og
f irst
g le
i hil
j ou
l ace
m ay
m ers
p ence
p ost
p ock
t ings
Ġ *
he rent
Ġa in
Ġs loped
Ġs ources
Ġw ag
re au
ha i
ha ired
Ġb ais
Ġb asse
Ġc ows
Ġc oute
Ġc ache
Ġd ated
Ġd ances
Ġf aud
Ġf idelity
Ġto es
Ġp ite
Ġp amp
Ġp icks
Ġp leur
as ks
Ġn aming
Ġin co
Ġin sip
at i
at ters
le urs
Ġg ap
Ġg ifts
Ġbe et
Ġre ly
Ġre aches
Ġre entered
ce ly
ur ous
ad a
ad resse
qu ement
al us
Ġfor bear
Ġr ans
Ġr aging
Ġr ipe
Ġst ages
Ġst ony
Ġse quins
am er
Ġv ases
Ġv iens
ke ley
ĠM ag
." '
Ġso les
pe ople
ant in
ant on
ess es
Ġcon quest
Ġcon cession
ard y
ard er
ne ments
Ġall ows
Ġj ure
Ġj agged
Ġex ternal
est ab
os itions
ul ity
ĠC le
ĠC her
ĠC ap
ĠC hes
ame l
Ġdo ve
ist ics
em bourg
Ġen ig
Ġal b
Ġman ia
Ġman quait
un te
ĠP at
ĠP ers
ĠP Ã©r
ĠS U
ĠS uch
ĠS OU
ĠS uisse
ĠA g
Ġar ched
ĠB eausire
ĠL anc
ĠF OG
Ġam en
Ġam iss
ĠH ind
ĠH oll
ĠH ugu
ĠG uten
ĠG isquette
Ġtim ide
Ġlo ading
Ġdis embar
Ġany how
av is
av or
Ġad j
Ġlong est
Ġover powered
Ġch oo
Ġper ceptible
Ġpass ant
Ġcomp let
Ġpre f
Ġpre fect
Ġcha ff
ĠE aster
Ġdu pe
co al
ĠD akkar
Ġmust ache
Ġstr agg
Ġpart ners
Ġpar mi
si zed
Ġimp uls
Ġimp lored
Ġbet rot
Ġsc issors
Ġsm elt
Ġcar av
Ġmon uments
ĠÃ©t ant
Ġapp ort
Ġapp ris
ren ait
Ġche ering
und ered
be it
vers ion
Ġcomm itting
Ġsil ken
Ġsupp ressed
ru p
Ġwr ists
Ġwr ung
Ġwater y
Ġchar coal
Ġhor rors
Wh om
the ir
Ġconf orm
ows ko
Ġinc om
Ġass ail
Ġsent ir
Ġmet allic
Ġstre amed
Ġcle ft
Ġdep lorable
har m
Ġarri vait
Ġcond uit
ane ous
Ġrec ital
Ġfin i
Ġste ering
Ġste alth
Ġhum bly
Ġfore most
Ġalong side
Ã§ ant
ĠK orasoff
Ġbeaut ifully
Ġadm ission
uis hing
Ġbar ked
for ward
Ġbur ying
Ġcirc uit
Ġjo ked
Ġjo ints
ĠdÃ© ch
Ġbus h
Ġbus he
ĠChar pent
Ġut ile
Ġobli v
Ġopp ose
Ġdro pping
Ġbon nes
min ine
Ġtri be
Ġgre ed
Ġport ray
ĠMiss is
ib ule
Ġconvers ed
Ġexpress ive
Ġsn ug
Ġast ounded
Ġast ray
Ġresol ving
Ġdesp aired
pl ars
Ġed ible
Ġdi agon
Ġhair s
Ġsch oon
Ġoffic ie
Ġsal ts
Ġsucc essor
aven ir
Ġ2 9
Ġ2 00
Ġhat chets
Ġstri pes
Ġequ ino
Ġdest ination
Ġposs Ã©d
Ġmus ing
Ġpit iless
Ġsqu ad
Ġspir al
Ġdemand ai
Ġeffect ed
Ġrev iew
Ġprec ision
Ġobject ed
Ġver itable
Ġinn s
Ġpa ved
Ġcompl ac
Ġcab b
ĠPr otest
Ġdiv orce
oul in
Ġsweet est
Ġfer vent
Ġburst s
Ġcand lest
Ġund ulations
head s
Ġyell ing
Every body
Ġbas al
Ã©cri ait
Ġcre ation
Ġcommand s
Ġcommand ing
Ġcommun ity
Ġdonn ant
Ġmed itated
Ġden iers
Ġwit ches
Ġentr usted
Ġcoup les
Ġmut il
Ġtranqu ille
Ġshadow y
Ġmont agne
Ġcart s
arm Ã©e
Ġpron oncer
Ġcord s
Ġfirm ness
Ġtow ing
Ġprev ail
Ġattack ing
Ġgar Ã§on
Ġdef iance
ĠSc ott
Ġcustom s
Ġchat eau
Ġscr atched
ĠprÃ© v
Ġsnow y
Ġbetray ing
Ġappre he
Ġpan el
Ġge olog
Ġsout heast
Ġstore y
Ġundert aken
Ã©rie ure
Ġz igz
Ġbou quet
essie urs
Ex cellent
Ġtur tles
OU S
Ġshru g
Ġfaint ly
Ġrent ra
Ġclever ly
Ġtent acles
Ġsevent h
Ġproof s
Ġfen etre
vol ution
Ġfrag ile
Ġdomest ique
Ġgallop ing
Ġphilosopher s
Ġshaft s
Ġimper ious
Ġmechan ical
pent ine
Cl aude
Ġoverwhel ming
Ġvic ar
Ġattach Ã©
Ġpor ters
ĠJes uits
Ġdish on
Ġcliff s
Ġcrack ling
Ġsem ic
Ġsem aine
Ġjack ets
Ġindic ation
Com te
Ġerr ors
Ġenve lope
ĠGre en
Ġcomprom ised
olÃ© ons
Ġphenomen a
Ġax es
Ġestim ated
Ġlust re
ĠChan nel
Ġartist ic
.... ....
Ġtrot ting
Ġenvoy Ã©
Ġnap olÃ©ons
Ġvest ibule
Ġoutl ines
Ġstrict ly
Ġoub lier
Ġennem i
ĠCat hedral
Ġdefinite ly
Ġvoud rais
Ġninet eenth
ĠJew s
Ġidiot ic
Ġrempl ac
Ġclust ers
Ġreconc iled
Ġaffirm ative
Ġextravag ance
Ġaccus ation
Ġsuffoc ating
Ġperil ous
Ġunlike ly
Ġfulf il
Ġfath om
ĠpÃ©n Ã©t
Ġserene ly
ĠBlan che
Ġintellect ual
Ġdecor ated
import ance
Ġcurs ing
Ġdoll ars
Ġobten ir
ĠprÃ©cip ita
Ġbrisk ly
ĠnÃ©cess aire
Ġimpre gn
Ġdilig ence
Ġterrif ying
Ġthri lled
ĠVern on
Ġow es
Ġhoof s
Ġtribun al
Bel ow
ĠDum ont
ĠdÃ©mar che
Ġaqu atic
Ġdeem ed
Ġpyram id
Ġuncomm on
Ġstag gered
ĠdÃ©fe nd
Ġcentim eters
Ġware house
Ġscant y
Ġslant ing
Ġhunch back
Ġoppon ent
Ġmorce au
Ġbutterf lies
Ġshepher d
hang hai
Ġmam ma
Ġuninhabit ed
Col onel
Ġfootpr ints
Ġvulg aire
Lyd ia
Ġfug it
Ġsep ul
Ġoutf it
Pier ron
Ġindust ry
ĠMend oza
Ġkangar oos
ĠFont ana
ĠGE ORGE
Ġindustri al
Ġpropriet or
Ġcouncill or
Ġugl iness
ĠNort hern
Ġchees es
Ġartific ial
Ġimmov able
ĠHor ace
ĠFOG G
ĠHugu en
ĠCharpent ier
' _
8 2
A B
A VE
D om
E rnest
L ove
N on
P as
P ART
S car
T ry
U T
V al
a quette
b ound
b rew
e us
g Ã©e
h s
h ier
p ot
t ent
t reat
u ie
w in
Ã ī
Ġ [
Ġ zen
Ġt an
Ġt ies
Ġt iss
Ġa we
in ers
Ġs Ã©rÃ©n
Ġo o
ou vel
ha ble
Ġb acked
is ement
Ġc ask
Ġc asc
Ġc aste
Ġd otted
Ġd renched
on imo
Ġp om
Ġp ion
Ġp ous
Ġp out
Ġp enal
Ġp aws
Ġp acing
Ġp harm
es ter
as ies
as pect
ar ian
Ġh ire
an ity
Ġhe aled
Ġn un
Ġha iled
Ġha zy
Ġe el
Ġe bb
le ine
Ġbe f
ot hered
im ity
im eter
ve co
id ores
ce ivable
ly mpe
ir ate
Ġde igned
Ġde jected
qu ent
qu Ã©e
qu elles
ay e
al cul
Ġst aff
ac te
am ond
ro lling
Ġv if
Ġv ows
Ġv owed
ĠM ass
Ġso ck
ag ent
ag ain
and a
Ġall Ã©
all ied
te ll
Ġex alt
Ġk en
Ġla p
ĠC ler
ong regation
Ġli aison
em isphere
Ġun be
Ġal beit
un a
ĠP oland
Ġab ated
Ġab using
Ġtr ams
Ġtr aps
ĠS qu
ĠS ax
ĠS hanghai
ĠA unt
ĠA lex
ĠA gnes
ire r
Ġag ility
ace y
Ġpr Ãªt
Ġint ime
Ġint Ã©ress
ĠL ang
ĠL ux
ine a
au le
Ġtw isting
Ġco aches
ĠH emisphere
Ġmo idores
Ġgr ouse
ab be
Ġro d
Ġro aming
Ġro gues
Ġbr us
Ġbr utes
Ġsp ies
Ġlo is
lo ise
Ġdis fig
Ġdis temper
Ġus her
ĠR u
Ġhand ling
are ts
Ġch ick
Ġch iff
Ġch rist
Ġbl ed
Ġbl unt
Ġbl under
Ġpre n
Ġpre nant
Ġpe al
Ġcha ri
Ġcha Ã®
Ġcl ang
Th irty
co lle
Ġob e
Ġob Ã©
ĠD Ã©s
Ġsur pl
ord inaire
Ġpart ition
Ġpart ial
Ġvo lley
int Ã©rieur
Ġent rait
Ġexp Ã©d
ĠT out
Ġsc ared
Ġmoment arily
Ġje ering
Ġav ow
Ġfl am
Ġfl ank
Ġfl ora
Ġgl azed
Ġput ters
ret te
Ġcour ses
Ġmen acing
Ãª che
lie ve
Ġatt a
Ġatt itudes
Yes terday
Ġwr ist
oy ed
Ġbre ed
Ġear liest
Ġchan gÃ©
Ġchar ges
Ġass igned
Ġsw arm
Ġem peror
Ġest ates
Ġcle arer
Ġwait er
Ġworld ly
Ġcond esc
Ġsou liers
Ġsk im
Ġsk ir
ĠHe brew
Ġrec urred
omp ierre
Ġste w
raw ling
Ġma hog
Ġclo cher
Ġreco very
Ġperson ally
ois se
Ġsec ours
Ġdisc oncer
Ġve iled
Ġboat man
Ġorder ing
Ġsign ific
Ġsign ature
Ġfur rowed
Ġmist y
Ġprom is
aim er
Ġill um
Ġsecond ly
Ġenc amp
to ld
ĠSt ar
ĠSt an
Ġbene fic
Ġneed les
Ġneed less
Ġhigh way
for ce
Ġel astic
Ġdec omp
ĠdÃ© liv
Ġdraw s
ash ions
Ġgener ations
Ġaut rich
Ġrel ish
Ġtri gger
ĠFo x
Ġgre ase
Ġport es
Ġconst rained
Ġthin ner
Ġeff usion
Ġru ining
Ġexpress ly
Ġsn atch
Ġfright fully
Ġdesp ot
ouv Ã©
Ã©n arde
cri ption
With in
Ġdi ab
Ġstri p
Ġpap iers
Ġdeg ener
Ġmus lin
Ġserv ir
Ġpassion ately
Ġacqu ire
Ġrepeated ly
Ġjud ging
Ġpost p
ĠCo ombe
Ġplan ning
Ġtop ic
ĠRe volution
Ġsoft ness
Ġempt ying
Ġfer ais
Ġdecl aration
Ġbook se
Ġval ued
Ġoccur rence
Ġsoci Ã©tÃ©
habit ude
Ġpouv aient
Ġheight ened
Ġdonn Ã©e
Ġsouth ward
Ġvict ims
Ġdeser ves
ĠdÃ©s ir
ĠdÃ©s ert
Ġcolle cting
Ġentr Ã©e
Ġsharp ened
Ġaim ait
isc ara
Ġmont a
Ġprincip ally
Ġcord on
esse ur
Go ing
Ġautre fois
Ġdeb out
ĠLouis a
Ġur ging
Ġgar ment
ĠBr idge
aur ait
Ġrejo icing
Ġant ique
Ġpersu asion
Ġvig our
Ġresist ing
Ġgro aning
Ġremo val
Ġscr aped
Ġscr ambled
Ġra jah
Ġwest ward
ĠdÃ©c ider
Ġ4 0
Ġreven ant
ĠChrist ians
Ġartic ul
Ġming le
anÃ§ ay
bl ack
Ġsubm arine
Ġborn es
Ġcontem por
Ġwaist coats
Ġcontri vance
Ġkeen est
Ġdepend ent
Ġorg ans
Ġflood ed
Ġexped ient
ĠJac obin
Ġcivil ized
Ġrene wing
Ġcontempl ate
Ġcontempl ating
Ġanch ored
Ġbrut ality
Ġpack ing
Ġpack et
Ġsorrow ful
ĠIceland er
ĠBour bon
Ġvic inity
ĠTr acey
Ġinstru ct
amm ers
Ġconvent ion
Ġsem i
Ġdisord ered
Ġindic ations
wor ks
ĠDo ctor
Ġstomach s
Ġnod ding
Ġnois elessly
Ġrencont rer
Ġreass ure
ĠRoman esque
Ġdisaster s
Ġflock s
Ġincon ceivable
Ġimpert inence
Ġdisdain ful
Ġflut ter
Ġflut tering
arri ver
arri vÃ©e
Ġbust le
Ġvoil a
Ġrobber y
Ġlament able
ĠgeÃ´ liers
Ġiv y
ĠFerr are
ani kor
Ġga oler
Ġbutt ons
Ġunb roken
ĠFlem ings
Ġchape au
ĠÃ©cl air
Ġkilomet ers
ĠMal ay
Ġmollus k
Ġsele ct
Ġsacrific es
Ġsob bed
Ġgrin ning
Ġinterp osed
ĠMe ung
Ġske leton
ĠÃ©le vÃ©e
Ġprovid ent
Ġrefres hing
Ġresolute ly
Ġmajest ically
hist oire
Ġprel im
Ġratt led
Ġcryst al
Ġsanct uary
Ġlull ed
pow der
Ġcach Ã©
Ġcompr omet
Ġattri buted
Ġsulphur ic
Ġlav ished
Ġabhor rence
Ġremp lie
ĠdÃ©couver t
ĠFlore nt
ĠmÃ©r ite
Ġinit ials
Ġsod ium
Ġchron ometer
Ġpeep ed
Ġconspir acy
aj oux
Ġ-- -
Ġfiss ure
ĠCast aned
ĠDown s
Ġcaf Ã©
Ġscound rel
Ġpersec uted
Ġrecess es
Ġcommer ce
ĠmÃ©de cin
Ġanecd otes
Ġconval escence
ĠSer pentine
Ġfount ain
Ġoverth rown
Ġrestaur ant
orde aux
ĠTha mes
Ġworksh ops
Ġachie ve
ĠNorm andy
Ġdrows iness
Ġbaff led
possess ion
Ġhisto ire
Ġjal oux
ĠdÃ©jeun er
Ġaer ial
Ġali en
Ġsilh ouette
writ ing
Ġeag le
Ġdeleg ates
Ġsoy ez
ĠPHI LEAS
Ġdiscer ned
Ġcoute au
Ġpamp h
Ġinsip id
ĠPÃ©r ouse
ĠGuten berg
Scar cely
Ġzen ith
veco eur
ĠLux embourg
ĠDÃ©s ir
Ġcondesc ension
Ġmahog any
Ġdisconcer ted
anikor o
2 00
4 0
; âĪĴâĪĴ
B es
B read
B ring
C all
D ecided
F ire
G ri
M an
O livier
S es
S ave
V ict
V oil
W E
b al
c re
c or
c ous
c ations
f ed
g ency
g ae
i ations
i quer
i pper
l ui
m it
m ist
m eter
m akers
o pp
p ain
r ide
s k
t ake
v able
w it
x y
z ard
Ġ ."
Ġt rench
Ġt arn
Ġt umbling
he tic
Ġa Ã®nÃ©
in Ã©
Ġs ins
Ġs antÃ©
Ġw ars
re ak
Ġo mn
ou ces
nd ered
ha lf
Ġm ic
Ġm urs
Ġm used
Ġm Ã©n
Ġb ass
Ġb ower
Ġb amb
Ġb ourse
Ġb aker
Ġc ider
Ġc amb
Ġd ange
Ġf ashions
Ġl ance
Ġl acked
Ġl amb
Ġp aw
es ar
ll ic
Ġh oo
Ġh ug
an o
at te
at ience
om on
om es
om bre
Ġe ve
Ġe ussent
ic ily
ĠI X
ĠI ts
ut able
Ġre ct
Ġre eds
Ġth ong
st ood
Ġon ward
ly ph
Ġde formed
ad ays
ay ant
al is
Ġfor k
Ġfor cibly
Ġr abb
Ġwe b
Ġwe ars
Ġst all
Ġst aggering
Ã© lÃ©
Ġher bs
Ġse uls
Ġse wing
her ic
Ġv or
Ġv Ãªt
ĠM ON
if ies
us ac
Ġle apt
Ġfr ay
Ġcon g
Ġcon gÃ©
Ġby e
res cent
ne w
Ġsh red
Ġk icking
Ġ" ~
ĠC reat
ĠC ey
Ġfe minine
Ġdo lph
Ġdo omed
Ġli bre
Ġun h
Ġun anim
Ġpl ent
Ġpl ucked
Ġal gae
un ic
un less
ĠP our
ĠP ol
ĠP itt
Ġab at
Ġab ate
han ts
Ġtr acks
ass Ã©
ell ing
Ġthere by
ĠS H
ĠS alt
ig r
ĠA vantage
Ġwor ries
ĠB ass
ĠB ray
ĠB ordeaux
Ġag ed
Ġag on
Ġpr udently
Ġgo Ã»t
ĠF au
ĠF alls
Ġpro ver
Ġpro lo
Ġpro ving
Ġpro jection
Ġpro jets
Ġam ours
Ġco inc
Ġco ax
ĠH omer
Ġmo ld
Ġmo ves
ĠG al
ĠG hent
Ġro ot
Ġsp itting
Ġsp ires
pt on
Ġkn itted
Ġdis li
Ġus es
Ġrep os
ud al
ĠR en
ish ly
Ġch lor
Ġshould n
Ġbo asted
Ġper chance
Ġcomp ens
Ġpe cc
Ġpe ering
Ġpe ndre
ĠE ustache
Ġob long
ĠD un
ĠD AY
Ġsur vi
Ġstr angle
Ġstr icken
Ġstr anded
Ġres ulted
Ġres plend
ang les
Ġpar ade
Ġcr ay
Ġcr umbling
Ġvo ie
Ġimp udent
anc Ã©
int ention
int Ã©rÃªt
ĠT er
ath s
iss ac
ink le
Ġsc abb
Ġop ium
Ġser p
Ġret iring
Ġsm othered
Ġce asing
Ġhead ache
Ġcar ing
Ġcar ap
Ġho gs
cl oud
Ġgl owed
In st
Ġke el
Ġke ys
Ġcons isting
Ġapp rent
Ġpour rais
Ġcour rier
enc ies
ĠW E
ĠW H
ĠW hile
vent ion
ĠV ol
ĠV III
Ġheart rending
Ġarm es
orm es
pr ing
gg y
As k
Ġconf ine
up id
Ġass is
Ġsea weed
ene vi
Ġfour s
ette z
Ġright ly
ured ly
Ġcur ling
Ġeng ines
Ġeng raved
Ġsl ap
Ġsl oop
Ġsl avery
Ġinter cept
Ġind iqu
Ġrec omp
Ġjour neys
Ġgen ial
ĠFr ancois
Ġhum eur
Ġmis chie
Ġhon te
Ġhon neur
Ġaff ront
Ġprof ited
gr own
Ġcal me
Ġdet ach
let tes
Ġprom inent
Ġill ust
Ġmil itaire
Ġenc irc
Ġsun rise
Ġdec re
cha ise
ĠdÃ© l
Ġbus hy
Ġappro val
Ġcou per
Ġpet ition
Ġreason ed
Ġcut tings
ash ire
Ġexcl usive
Ġtro dden
Ġcomme nd
Ġrock y
Ġprison n
Ġport ions
Ġbu ying
Ġemb ers
Ġpur ity
Ġhur rah
Ġsn ares
Ġexpl ains
Ġreal ise
ots am
cri be
br id
Ġann ihil
Ġlength s
Ġspr inkled
Ġnum bered
Ġpal ms
Ġdream y
Ġsal ad
ĠIs le
onn a
Ġequ ality
Ġiron ical
Ġoccup Ã©
Ġoccup ying
Ġdemand ing
Ġthick ly
Ġprodu ces
Ġrev ive
ĠPro ven
Ġdelight s
Ġjud ic
Ġmass acre
Ġver ily
Be ware
Ġshop keeper
Ġgun powder
ĠGu inea
Ġfer v
ĠNe pt
ah usac
Ġhot els
Ġsum ptuous
ĠKing ston
St ap
Ġwaters p
Ġval ves
Ġrain ing
Ġadmir al
Ġvan qu
Ġcre am
Ġcost umes
Ġdeli vering
pic uous
Ġvar ieties
Ġ3 2
Ġfart hest
Ġadvantage ous
Ġcell s
Ġcell es
Ġinfl ict
Ġproc Ã¨s
Ġhall oo
Ġdrink s
Ġstro lled
Ġintellig ible
Ġdelic ately
Ġcompanion way
Ġcoun se
Ġcoun ters
Ġopportun ities
Ġsong er
Ġplant ing
Ġgrow th
Ġendeav or
Ġdiscuss ions
Ġaud acious
RE S
ĠDe ux
Ġlangu id
chan ge
Ġresp iration
esp Ã©r
Ġregular ity
Ġtransport ation
Ġconduct ing
Ġimm oral
Ġfill es
Ġgro aned
Ġclean ed
Ġcalcul ating
ES T
Ġneg ot
Ġtomb e
ĠChe ster
Ġdefe nding
Ġleg al
Ġfold ing
Ġliv re
Ġcas ement
ĠNor man
Ġwear ied
Ġcommunic ating
Ġcav ity
Ġproject ing
ĠGer onimo
Ġsau v
Ġscre ening
chair s
Ġlaiss a
Ġlaiss ait
Ġshru bs
Ġconven ience
Ġstat ement
ĠBer keley
Ġplais ant
su pp
Ġislet s
Ġquant itÃ©
Ġlam pe
ĠPier rot
ĠprÃ©sent a
Ġreconn ut
Ġbrut ish
Ġbrut ally
Ġvap ors
Ġrav i
Ġwheel ed
Ġcop ied
Ġtend resse
Ġsteep le
Ġorgan ized
Ġdign ified
ĠGerman y
ĠFl otsam
Ġgri lle
Ġcorrid ors
Ġrever ber
Ġentreat ies
Ġlab ors
Ġproport ions
Ġfil th
Ġpin ch
Ġfires ide
Ġscand alous
Ġmou ch
Ġech oes
ĠÃ©cri vait
Ġgros si
Ġincred ulous
Ġblaz e
Ġindul ge
Ġindul ged
Ġouv riers
Ġdiss atisfied
Ġexasper ation
ĠLi Ã©narde
Ġcomplain ing
Ġshrie k
Ġhumili ating
Ġdoct rine
Ġcapt iv
Ġskull s
Ġrom ance
Ġecho ed
Ġsway ing
Ġchamp agne
Ġlament ations
Ġmauv aise
Ġlent ement
attend re
avant age
ĠMad one
Ġcarpent ers
Ġident ity
Ġimpass able
Ġsouri ant
Ġnobles se
Ġprosper ous
Ġperplex ity
Ġshy ness
Ġsedu ced
ĠBraz il
Ġdrunken ness
Ġprejud ices
Ġinvestig ation
Ġinvestig ations
Ġbul k
Ġpunct ually
ĠpÃ©n ible
Ġpaint ings
Ġprovid ing
Ġfacile ment
hist oric
Ġpad dle
Ġgut ter
Ġcourtis an
Ġlur king
Ġpiqu ed
Ġscaffold ing
Ġremp li
Ġrefer red
Ġlect ures
Ġtrades men
Ġfox es
Ġcourtes an
Ġtrad ition
Ġwhirl wind
Ġdexter ity
Ġvine gar
Ġslack ened
Ġphilosoph ical
ĠPhilip pe
Ġped est
Ġsod a
ĠAbbe y
Ġavail able
Ġempoison nÃ©
ĠSav ille
Ġwrit hed
Ġtuft s
Ġmamm als
Ġfrown ing
Ġprais ed
Ġoubli Ã©
Ġseminar ist
bur gh
Ġrevel ation
Ġmeille ur
ĠconsÃ©qu ence
Ġfri vol
ĠBulgar ians
Ġmason ry
Ġnim ble
ĠMade leine
Ġconstit uted
ĠsoupÃ§ ons
Ġmaxim um
Ġbough s
ĠrÃª ver
Ġceas eless
Ġdrap ery
Ġmaig re
ĠCarol ine
Ġancest ors
Ġjagu ar
Ġcigaret te
OO K
Ġdishe velled
Ġaccl am
Ġempha sis
Ave c
Ġrede em
Ġsatur ated
Ġgue re
Ġmyri ads
ĠLombard ie
ĠsiÃ¨ cle
Ġembroid ery
bot tle
Ġinut ile
Ġguid ance
Ġinsin u
Ġphysion omie
Ely sees
ĠLanc ashire
Ġassail ants
Ġzigz ag
Ġtiss ue
Decided ly
Gri vet
Ġcamb ric
Ġmischie vous
' --
A G
A K
A f
A llow
C omp
C acambo
D in
E ng
F F
F e
F riend
F UL
H en
H ardly
I X
L D
L izzy
M ight
N anÃ§ay
R AN
S im
S aint
S ource
U nd
V I
V otre
V oici
X X
a Ã®
a ffect
a hab
b ra
c hat
c ry
c ery
c ases
d iness
d ressed
f atig
g les
g ments
g ival
h Ã´tel
i ots
m ight
m uch
o che
o bs
p ound
p ane
r ou
r atitude
t was
u let
w right
x ious
Ã ¶
Ġt ha
Ġt us
Ġt ough
Ġt ira
Ġa ster
in burgh
Ġs Ã©p
Ġs omm
Ġthe ology
Ġm all
Ġm um
it o
it ching
Ġb ump
Ġb orrow
Ġb aked
is it
is las
en vie
Ġc out
Ġc ade
Ġc ens
Ġc ipher
Ġd ies
on taine
Ġto ast
Ġto ol
Ġl is
Ġl ining
Ġl ashes
Ġp us
Ġp rie
Ġp ounding
Ġn ause
Ġn ook
Ġin fect
om n
Ġe b
le gged
Ġg erm
Ġg ables
Ġg asped
Ġbe aming
Ġbe adle
ut s
Ġre in
Ġre vers
id ious
st able
Ġu nde
Ġde ceiving
Ġde pending
Ġwith held
Ġfor c
Ġr ation
Ġr appro
Ġr ushes
Ġr allied
Ġst em
Ġst ump
il ious
Ġse cl
am ais
am ford
ill iers
ro b
ro ix
Ġv ase
Ġv ote
Ġv aste
ĠM E
ĠM oir
ĠM oin
oo king
Ġle vant
ag Ã©
ant ial
li hood
Ġfr ames
Ġfr aÃ®
Ġcom ed
Ġsh orter
Ġup br
th ought
Ġla kes
Ġla isse
est ial
os pel
ĠC rom
ie uses
ast res
Ġdo ings
ist le
ol ent
ol ute
art y
Ġun gr
Ġun iver
Ġun fast
Ġun seen
Ġun iquement
Ġen umer
Ġpl uck
Ġal mond
Ġal arming
ĠP uis
ĠP AS
Ġab ility
Ġtr om
um Ã©
Ġthere upon
ĠS h
ĠS ar
ĠS usse
ĠA ch
Ġar ouse
Ġar bour
Ġar ising
ĠB arr
ĠB uen
ate urs
Ġpr ime
Ġpr Ãªtre
ĠL od
ĠL issac
ĠH am
ĠH onor
Ġmo le
Ġmo ors
ĠG i
ĠG old
Ġgr udge
Ġsp aring
pt ure
pt ile
Ġkn ives
Ġdis cl
Ġim itation
Ġrep ented
Ġpo plars
ĠR h
ĠR ail
ĠR ousse
ĠR iscara
ry man
ue ur
Ġch Ã¢
Ġch ina
ĠN avy
Ġbo ar
Ġpre historic
ra le
Ġrem erc
Ġcl aire
ĠD ay
ĠD oub
Ġoff rir
od es
Ġhow led
Ġstr and
Ġap es
Ġap ople
Ġpart iality
Ġpar rot
Ġcr am
Ã¨ ce
ĠT an
ĠT art
ath y
Ġmar king
Ġmar chand
Ġsm ash
Ġacc Ã¨s
cl ad
Ġfl apping
Ġfl avor
Ġgl ade
Ġcons er
Ġcons umption
Ġwind ings
Ġmen er
Ġmen aced
ĠW ashing
Ġau ction
ĠV oici
ĠV anikoro
Ġatt orney
Ġinst all
aster ly
Ġsil enced
Ġsupp lies
Ġsupp liant
Ġreg iments
Ġwr iter
Ġchan nels
Ġdr aped
Ġdr ums
Ġconf inement
Ġinc royable
Ġass ign
Ġref orm
Ġadd s
Ġsw arming
light ed
Ġdoub ly
Ġdoub ting
Ġtre ize
Ġmet t
Ġmet er
xt on
Ġem inent
Ġcur ly
Ġcur ves
Ġcur iously
Ġsub se
Ġsub ordin
ĠMar se
Ġeng aging
Ġsl im
Ġsl ab
Ġsl ugg
Ġsl abs
Ġins piration
ĠO f
ĠO rient
Ġsk irm
Ġsk ipper
Ġsort i
Ġfin it
Ġdark er
orr aine
Ġhard ness
Ġclo gs
Ġhum ain
Ġwall ed
Ġsing er
Ġprof its
Ġsurpr ises
Ġsign ificant
Ġpri x
Ġpri zes
Ġhus h
!' "
Ġrais ins
bour ne
Ġdisp utes
Ġwood ed
Ġwood work
Le vaque
ĠdÃ© b
Ġact ors
Ġbus ily
Ġcou ghed
inc ing
Ġaut om
Ġpay er
Ġrock ed
Ġgre asy
Ġcor re
Ġport s
Ġconv ulsed
After wards
Ġmain land
Ġed dy
Ġed dies
Ġpain ter
Ġvol er
Ġvol unte
Ġemp ire
Ġextre mes
Ġpat ri
Ġpat hetic
Ġequ ator
Ġmus h
Ġmus cle
Ġpassion nÃ©
Ġsqu id
og lyph
ĠrÃ©p Ã©t
Al zire
Ġlead en
uc us
Ġfav oured
Ġfav ored
Ġdeal er
Ġcompl aisance
ĠAnd ry
Ġnatural ists
ĠYou ng
Ġdiv iding
Ġaccept able
ĠY et
Ġaccord ance
Ġconfess ing
Ġpi quÃ©
St range
Ġund ecided
Ġdepart ing
Ġcru elle
Ġprem ature
Ġfro ze
Ġid ol
ob ins
Ġpu issant
Ġcre aked
Ġcher che
Ġweak er
Ġstop s
Ġemploy er
Ġble nded
Ġspect ator
Ġvict ime
Ġstro ve
Ġstro de
Ġlisten er
Ġmor als
Ġthreat s
Ġmut iny
Ġpreser vation
Ce pendant
ĠAmeric ans
Ġgrow l
Ġaffect ing
Ġsoir Ã©es
Ġmoor land
Ġendeav ours
Ġcart il
Ġpardon ner
Ġrend u
Ġcord iality
Ġstup Ã©
Ġtow ed
Ġdir ig
Ġpow dered
go ing
Ġliber al
Ġattend ait
Ġseas he
Ġwis er
Ġcomb ination
ĠrÃ©pond ait
Ġur ge
Ġconn aissait
Ġharm less
Ġbattle ments
do zen
Ġpropos als
Ġtriump hed
acc omp
ĠprÃ© l
Ġleg acy
Ġsick ness
Ġpan ic
aly pt
Ġjet ty
Ġdistress ing
Ġlun atic
Ġhollow s
Ġcloak s
Ġdism ay
Ġresemb les
bl est
ann y
Ġsubm iss
Ġeast ward
Ġproject ions
Ġham let
Ġemer ald
Ġimpro bable
Ġswall owing
ĠEd inburgh
vÃª que
sha ll
Ġintense ly
Ġlan es
Ġredu ce
Ġsais it
Ġsais ir
Ġshed ding
mon th
ĠJac amar
Ġaspect s
Ġcompar ative
Ġrou ges
IT H
Ġtimid ity
chevÃª chÃ©
Ġtit les
Ġexerc ises
hum our
Bon acieux
Ġvois ine
Ġsouthern most
Ġvic aire
Ġqual itÃ©
Ġrad iance
Ġrust ic
Ġcrack led
Ġmarve ls
emp loy
Tout es
Ġcann ons
Ġfierce ly
Ġawkward ly
Par is
Ġpir ate
ĠBou gival
Ġparti ally
Ġovert ake
ĠSi oux
Ġindivid uals
Ġexplos ions
ĠMount ains
ĠFrank land
Ġroll s
Ġrencont rÃ©
Ġatro ce
Ġuns peak
Ġblaz ed
Ġprotest ing
Ġprovost ship
Ġabandon ment
Ġadvers aries
Ġcompagn ie
Ġcompagn ons
Ġsubs ided
Ġpall et
Ġdiss im
Ġdepri ve
Ġdur a
Ġblo nd
Bet ter
Ġshrie ks
OM E
Ġextend s
Ġcongrat ulate
Ġcongrat ulations
Ġcapt ivity
Ġsmith y
Ġintend ing
Ġunl im
Ġrespons ible
Ġchamp ion
Ġlat itudes
Ġoverfl owing
Ġbewild er
Ġassoci ation
Ġlabor atory
Ġdisgrace ful
Ġmas ked
Ġsaving s
Ġequip age
.âĢĻ "
Ġpropri ety
Ġaccomplish ments
ĠTH AT
Ġsaint s
Ġsoot hing
Ġreconc ile
Br avo
Ġsedu ction
Ġbrush wood
ĠCon te
Ġvibr ation
Ġperpendicular ly
Ġaz otic
Ġriche st
Ġjer k
Ġfulf illed
Ġbald ric
Ġfoss Ã©
ĠRussi a
ĠBelg irate
ĠConst antin
Ġhier oglyph
Ġunm oved
Ġnut s
Ġbisc uit
Ġdestin Ã©e
Ġmartyr dom
Car ried
Ġcurs es
Ġlect eur
Ġimmob ile
Ant oine
Ġfai ble
Ġtack le
Ġaccur ate
Ġaug ust
Ġsket ch
Ġsonge ait
Ġsomme il
Ġmu zzle
Ġimpet uous
Ġtrem ulous
Ġconver ted
emb arr
kor ff
Ġprostr ate
Ġspin ning
Ġrecru it
Ġconduis ait
Ġseminar ists
Ġhust ling
ĠVict oire
Ġjourn aux
ĠMars h
anth rop
ĠDep artment
Ass uredly
Ġouver te
ĠCorinth ians
Ġegot ism
ĠGl ouces
Ġambassad ors
Ġraisonn able
Ġemplo ying
Ġlug ubrious
Ġlique ur
Ġtrist esse
Ġcourte ous
Ġantiqu ity
Ġank les
ĠMas lon
Ġalco ve
Ġharmon ious
hm korff
Ġrept iles
Ġcuir ass
ĠJansen ist
Lors que
Ġadvis able
Ġbelf ry
Ġadul tery
Ġmachin ery
Mal grÃ©
ĠSol omon
ĠDire ctor
Ġexult ation
Ġprogram me
ĠrÃ©sult at
ĠHoll and
Ġdisembar ked
ĠpossÃ©d ait
Ġbasal tic
Ġsepul ch
Ġpion e
ĠRu hmkorff
Ġchick ens
Ġencamp ment
ĠStan islas
Ġdiab ol
ĠFlorent in
ĠCastaned e
Vict or
Ġrabb its
ĠCreat or
ĠCey lon
Ġprolo gue
Ġserp ents
enevi Ã¨ve
Ġencirc led
Ġprisonn iers
Stap leton
ahab ad
ĠMoir od
ĠBuen os
ĠRousse au
ĠDoub s
ĠWashing ton
ĠConstantin ople
6 0
A xel
C ent
C our
C omm
D arcy
D eneulin
D enis
F er
F ouque
G eneviÃ¨ve
H ole
L ion
M Y
M em
M ichel
P E
S how
S herlock
T ut
V ers
_ .'
c lo
e rer
g am
h Ã´
i quette
j ac
l ir
l ons
l ined
l ifted
o li
o ft
p ass
p hes
r and
r ings
s kin
t ry
t ish
v ons
v iously
v oc
w al
w ord
Ġ i
Ġ Åĵil
Ġt art
Ġt ides
Ġt Ã´t
Ġt ints
he urs
Ġa vert
Ġa version
in isc
Ġs ot
Ġs ine
Ġs cept
Ġw itt
Ġw ither
Ġo ui
ou ble
er ated
Ġm ac
Ġm ull
it ait
it ime
Ġb ould
Ġb ate
Ġb Ã¢
Ġb ung
en a
en u
en ches
Ġc ust
Ġc ate
Ġc ars
Ġc uis
Ġc aves
Ġd ow
Ġd out
Ġd iction
Ġd raft
Ġf ished
Ġf use
Ġf uss
Ġf umes
Ġl atin
Ġl umber
Ġl arder
Ġp est
Ġp orr
Ġp inc
Ġp airs
as ible
or ated
ar chevÃªchÃ©
Ġh itting
an um
an ches
Ġhe i
Ġe jac
Ġg ull
Ġg oose
Ġg este
Ġbe es
ent ieth
Ġre ference
Ġre verend
id ow
id ers
st ained
Ġon wards
ur ious
ver tis
Ġde form
qu atre
al ph
Ġr us
Ġr ipped
Ġst ile
Ġst owed
Ġst ub
ac ies
Ã© cl
Ã© lan
Ã© chÃ©
Ġme ag
ri pit
ill ing
ro ps
Ġv ir
ĠM Y
ĠM ex
ĠM OR
if ier
Ġqu ot
us ively
ag an
ag ine
ag inous
Ġsu nd
Ġsu jets
ch ild
Ġcom ble
ne z
Ġsh im
te e
Ġex it
Ġex ig
th ird
th irty
est ion
os ite
os ures
ĠC H
ĠC ad
ĠC rÃ©
ĠC ahusac
Ġfe rez
Ġfe udal
Ġpl ane
Ġpl aire
Ġal oft
Ġman e
un o
ind s
ĠP arson
ĠP atrick
Ġab l
Ġab ounded
Ġtr ammers
ass y
ig ate
ĠA insi
ĠA mand
ire ct
Ġar bre
ĠB or
ĠB ooby
ate red
Ġag ile
Ġpr ouver
Ġint ens
Ġint rep
ĠL orraine
ĠF ive
ĠF oss
au gh
Ġtw ist
Ġtw entieth
ite ur
Ġam ateur
Ġco ars
ĠH int
Ġmo aning
Ġgr azed
ab ri
Ġbr a
Ġbr aw
ĠJ ud
ais se
Ġkn ight
Ġim itate
Ġrep ay
Ġrep airs
Ġrep rÃ©s
cc ess
ĠR at
ĠR em
ĠR ey
ave c
Ġad or
Ġad ap
Ġad vert
Ġad orable
Ġlong s
Ġhand y
Ġhand writing
Ġch is
ĠN ile
Ġbo arding
Ġper v
Ġcan ons
Ġbl as
Ġcomp li
Ġcomp aring
Ġcomp osition
Ġpe ctor
ber ry
ber ries
Ġrem inisc
ĠE N
ĠE rnest
Ġgreat ness
Ġ' _
rie z
ĠD anton
od ay
Ġunder gone
Ġpart out
Ġpar as
Ġcr ab
Ġthr ashing
Ġexp ired
ff ic
ĠT imes
iss on
iss ent
ink les
Ġsc atter
Ġsc rape
Ġser mons
Ġmar bre
Ġret enir
ign or
aut ant
Ġav ais
Ġho b
Ġgl iss
Ġcons picuous
Ġpres umption
Ġte nded
Ġpour rai
ĠW ar
ĠW ales
Ġdon jon
ĠV au
ĠV ille
ĠV irg
Ġdoor step
Ġhar ang
iv a
Ġinst ruction
Ġlight er
Ġsil enc
Ġmin or
gg s
Ġmat rimony
Ġrest s
Ġbre eding
Ġchar ging
arr anged
Ġcontin ues
Ġfort ifications
Ġconf er
Ġass uring
Ġsea f
Ġfour n
Ġmorn ings
Ġmet tait
ĠMar owsko
Ġwal nut
Ġinter m
Ġinter vention
ĠO b
Ġinde fatig
Ġrec ur
Ġrec ounted
Ġste pping
Ġtrou vant
Ġhard y
Ġhard ships
Ġhum p
gu ard
Ġir ons
ois m
Ġhon ored
day s
Ġeas ed
Ġmais ons
Ġsing ers
Ġaff reuse
Ġrun g
Ġcal ico
Ġpri a
Ġswe ets
Ġenc ro
Ġenc umbered
Ġhome ward
Ġbar n
Ġbur gl
Ġcirc ulated
Ġcold er
Ġshort est
iver t
Ġfoot ing
but ion
but ter
Ġaut hors
Ġrel inqu
Ġris ks
Ġbon fire
Ġcor on
Ġsleep less
ĠÃ© v
ib us
Ġru pture
Ġsn ail
Ġstart ling
ĠCh ris
Ġbreak ers
Ġrap tures
Ġvoy agers
Ġoffic es
Ġven eration
Ġpartic ulier
Ġdiffe rences
Ġserv i
Ġsqu alls
ĠAl as
Ġfast ening
Ġarch ipel
Ġvill a
uc alypt
Ġsav ais
Ġbat he
ĠPro ject
Ġver re
ĠTh ree
ĠSaint s
Ġdiv inity
umb ent
ĠRe ptile
Ġmort ally
Ġmort ification
Ġchair man
Ġschool s
Ġschool master
Ġcharacter istic
Ġpi ety
Åĵ uf
Åĵ uvre
Ġbreath s
ĠQu elle
ĠQu atre
Ġlaw ful
iter ated
hor reur
ob Ã©
ĠIn n
Ġcloud ed
Ġcre aking
Ġcher ry
Ġdread ing
Ġdescri bing
Ġbright ened
Ġsand s
ĠMont m
Ġpun ch
Ġpurp oses
happ y
Ġproc uring
Ġfles hy
Some one
Ġlang age
Ġspirit ual
Ġthreat en
Ġmut ton
Ġaim er
Ã©d it
Ġmont ra
Ġendeav oring
Ġsin ner
Ġhost ess
aiss ant
Ġstar vation
Ar mand
Ġattend re
Ġseas ons
Ġwis est
Ġda igne
Ġmyst ere
ĠAn n
Ġarg ent
Ġimm ort
Ġimm ensity
Ġrejo ice
Ġdef ined
ĠSc ala
Ġyouth ful
Ġgro ans
Ġgro cer
ĠMer ripit
Ġbrig and
Ġbrig adier
Ġneg lig
Ġtomb s
Ġtort oise
Ġscr atching
Ġener gies
ĠdÃ©c ouvrir
Ġge ological
Ġauthor ized
Ġshell fish
Ġretreat ing
Ġcarp ets
Ġamaz ing
Ġbold ness
Ġaur aient
Ġcas ks
Ġcas ual
ĠNor way
Ġsigh ing
bl ue
Ġcharm ant
Ġbou quets
Ġamb ush
Ġsau vÃ©
Ġcontinu ously
Ġple be
Ġlaiss ant
ĠPac quette
Ġabsor bing
Ġstern ly
Ġprofess ions
Ġplais anterie
Ġetern ally
ĠPort ugal
ĠAugust us
Ġflood s
Ġsolemn ity
Ġcup boards
ĠPier rat
Ġhab ile
Ġchas s
Ġstret ches
IT Y
Ġdescend it
Ġtail or
Ġwreck ed
Ġdern iere
Ġtrait ors
Ġgrou ped
Ġbrand ed
Ġfis hes
Ġskill fully
ĠLuc ie
ĠFl amel
emp oison
emp Ãªcher
Ġminer alog
Ġrever se
gly cerine
ĠAll ahabad
Ġnice ly
ĠHer ald
Ġpin n
Ġfant ast
Ġ---- ,
rid ge
Ġnois ily
ĠScot ia
Ġdil ated
Ġdomin ated
ĠPe arl
rep ro
Ġhel ms
Ġhypoc rite
Ġcrust ace
Ġleis urely
Ġassassin ated
Ġdeven ue
Ġalt itude
Ġhumili ated
Ġlongue ur
Ġperf umed
ĠdÃ©f aut
Ġoblig Ã©e
Ġintr ud
Ġpoign ant
Ġinspect or
Ġflour ishing
Ġassoci ated
Ġsweetheart s
Ch ild
AM E
Ġsust ain
Ġpopular ity
Ġclust er
Ġos a
Ġinsen sibility
Ġinconven ient
Ġwing ed
Ġclam or
ĠXV I
quest ion
Ġrecomm enced
Ġlands lip
Ġvillain y
entend re
Ġpla Ã§a
Ġprel ate
Ġscull s
Ġna ive
Ġdeliber ate
Ġdeliber ately
Ġbind ing
Ġcompr ised
Ġtrah ir
ĠdÃ©cl ar
Ġdiplom at
Hall o
Ġbun ch
Ġbun ches
ĠMir acles
Ġtrim med
Ġtid ings
ĠpiÃ¨ ces
Ġpickax es
Ġimpre cations
Ġdrown ing
Ġforgiven ess
Ġfring e
Ġcondam nÃ©
Ġpare ille
Ġmiscar ried
Ġtransform ation
Ġexhib ition
Ġexhib its
ĠmÃª mes
Ġnit ro
Ġabdu cted
ĠespÃ©r ait
Gu illaume
Ġlee ward
Cons ider
ĠBri xton
Ġvieill ard
Ġrhy thm
Ġprair ie
Ġgrad ual
Ġcripp le
ĠtÃ©mo ins
BLE U
Fif ty
Ġgarr ison
Ġavar ice
ĠÃ©l Ã©g
Ġbrilli ancy
isher s
ĠBern ajoux
ĠÃ©chapp er
Ġrumm aging
fif th
Ġboss es
Ġterrit ory
Ġinsul ting
Ġhonn Ãªte
Ġpon iard
ĠBald i
Ġlengthen ed
Ġfacil itate
iÃ©t ude
Ġcub ic
Ġlaz iness
Ġunce asingly
ĠAy res
Ġcham ps
Ġantagon ist
Ġlaud anum
Ġguarante e
Ġfaibles se
Ġaggrav ated
Ġphlegm atic
Ġnuis ance
ĠBuns by
ĠWor ld
Ġinconn u
Ġinterlo cut
iboud ois
ĠLeg ion
Mont morency
Pos sibly
Ġbushe ls
Ġschoon er
Ġobe ying
Ġmic ros
ĠBass ompierre
Ġsurvi ved
Ġvanqu ished
ĠMoin el
Ġsubmiss ive
Ġunspeak able
Ġunlim ited
Ġbewilder ment
ĠGlouces ter
Ġmeag re
ĠParson age
ĠAmand a
ĠHint on
1 8
2 0
2 5
: "
; âĢĿ
A C
B our
B RET
C lopin
D jali
E re
E ver
E nt
F ort
F air
H on
H aut
I LL
L uck
M er
M id
M agg
O D
P aul
S end
T aking
T ristan
V EN
W ork
W omen
a fe
a iller
c ies
c ular
c omm
d el
e ed
e aten
f ounded
g an
g led
h on
h uit
i ore
i ors
i kin
l Ã©s
m o
m aking
m oney
n ic
n Ã©s
o it
o ken
p us
r usted
t ah
t enth
t rois
v ised
v ices
~ ."
Ġt il
Ġt resses
Ġa ig
in f
in cl
in ently
in aires
Ġs ord
Ġs ash
Ġs lices
Ġthe at
Ġthe sis
Ġw age
Ġw enches
Ġw atered
re ment
re quently
Ġo pt
Ġo me
ha g
Ġm ens
Ġm irent
Ġm aze
it Ã©e
Ġb rew
Ġb acon
Ġb icy
Ġb anged
en nem
Ġc ore
Ġc ale
Ġd or
Ġd ure
Ġd angling
Ġf Ã©
Ġf asse
Ġf aux
Ġf enced
Ġf ussent
on aut
Ġto il
Ġto ys
Ġl id
Ġl uc
Ġl oses
Ġl atch
Ġp es
Ġp iste
es le
es ques
Ġh Ã©s
Ġh ides
Ġh Ã©r
Ġh ues
Ġh ooks
Ġhe al
Ġn ord
Ġn Ã©g
Ġn aÃ®tre
Ġn ursed
Ġin ve
Ġin iqu
at oire
om ing
om est
Ġg ains
Ġg ases
Ġg asp
ĠI ls
ut ter
se a
ow l
Ġre very
Ġth ud
ir ming
Ġde hors
Ġhis s
ad m
ad mir
qu ate
qu ite
al on
al ways
Ġfor l
Ġr owed
Ġr amp
Ġas si
Ġwe lf
Ġst ark
Ġst ates
il fully
Ġse xt
Ġse eds
Ġme nded
Ġme mbres
ri lle
ro ot
ro lo
Ġv ind
Ġv ices
Ġv irg
ĠM ire
ĠM AN
ĠM ere
ĠM oll
ĠM aug
ĠM oulin
Ġso iled
Ġso llic
ant is
Ġfr anch
Ġne z
Ġne ut
Ġcon qu
ne lles
Ġsh un
Ġsh ipped
Ġall uded
ble u
Ġup lifted
th irds
ĠC hat
ĠC alais
Ġfe igned
Ġfe asible
pp ers
pp osite
ist ry
em pe
Ġun gu
Ġun well
Ġun heard
Ġen ric
Ġpl under
Ġal acr
Ġman ip
He len
ĠP ousse
ĠP aquette
ap se
ass o
um m
Ġthere in
ĠS atan
ĠA lley
Ġar c
Ġar ab
Ġwill ow
ĠB O
ĠB uck
Ġpr icked
ĠL im
ĠL ane
ĠL ook
ĠL ock
ĠL loy
ĠL ouise
itt ent
Ġpro g
hing s
ĠG ue
ĠG udule
Ġgr is
Ġgr ated
Ġro y
Ġbr aves
Ġsp ine
Ġtim bers
ĠJ er
ĠJ ove
ĠJ oiselle
ĠJ uan
pt ive
Ġdis se
Ġdis ent
Ġdis su
Ġrep et
Ġrep osed
ment ieres
ĠR alph
Ġad resse
Ġover r
Ġover looking
Ġover cast
Ġover spread
Ġch ute
Ġch Ã¨re
ĠN ic
Ġper for
ra el
Ġpe pper
Ġcl ap
Ġcl air
Ġcl umps
ons es
Th ou
Ġdu b
co cur
Ġob l
ĠD i
ĠD es
ĠD IS
Ġmust ard
od ore
Ġstr ayed
ang ular
Ġpar cour
Ġcr acks
Ġcr amped
Ġcont rolled
Ġimp ract
Ã¨ me
ĠT y
iss ance
Ġsc are
Ġsc ree
Ġsc aled
Ġop aque
Ġmar que
Ġmar cha
ign a
aut oritÃ©
Ġhead long
ix t
ix ante
Ġfl amed
Ġfound ations
Then ce
Ġmon ks
Ġmon aster
Ġdist orted
ret ty
enc er
ĠW ould
ren ant
Ġche ers
Ġche ated
Ãª ts
Ãª nes
ĠV ier
ĠV isc
Ġhands omer
Ġhands omest
ci pe
Ġarm orial
pr im
Ġreg ulate
Ġcount s
Ġchild like
ros se
Ġwr inging
oy eurs
Ġbre vi
Ġwater fall
Ġchar ger
Ġac res
arr ow
Ġfort ress
Ġfort ification
Ġdev rais
Ġdev oid
Ġinc alcul
Ġinc umbent
Ġfar ms
Ġsw ine
ĠMar low
Ġinf all
Ġinf lex
Ġeng ross
Ġsl ay
Ġins pir
Ġpoor ly
Ġgot hic
Ġind o
Ġind ig
Ġvis ions
cept ions
Ġmid wife
Ġcol onn
Ġfin es
Ġdark est
oun ces
Ġblack ness
Ġhard est
Ġplac ard
Ġsto red
Ã©r ation
Ġhon ours
Ġsec uring
Ġsec rÃ©t
Ġobser ver
ĠAr ctic
Ġfore told
Ġsuff it
Ġcountry man
Ġsign ified
Ġmist akes
let te
Ġpresent iments
Ġprom ener
ĠSt ate
ĠSt reat
ĠSt amford
Ġneed ful
Ġrais ons
Ġrais onne
Ġmot ions
ĠThe ir
Ġtou ches
Ġroad side
Ġaw aking
Ġfoot men
Ġjo lies
Ġdem ie
Ġvi a
Ġact ress
appe lle
Ġhusband s
Ġrepe lled
Qu arante
Ġgener ation
Ġgener ously
Ġmer rily
Ġrel ates
Ġris king
min ent
min ster
Ġprop itious
Ġtri als
Ġgre edy
Ġbu oy
Ġprov oke
Ġinv ested
Ġdin ners
Ġconv ain
Ġeff ic
Ġsn apped
app ar
Ġexpl oring
Ġnature l
Ġimpos sibility
Ġfront iÃ¨re
ĠCh ic
Ġsus pend
Ġpast ry
Ġtrans ition
Ã® mes
Ġaccomp agn
ĠIs rael
Ġsol ar
Ġposs essor
ĠLord ship
Ġsad dled
Ġpassion nÃ©e
Ġwild est
Ġtor por
ĠrÃ©p utation
ĠrÃ©p onses
Al so
ĠrÃ© du
Ġball et
Ġang lais
Ġrev iving
Ġsimple ton
ugg ing
Ġver ge
Ġmurm urs
Be gone
ĠAnd rew
ĠTh us
ĠTh ib
Ġplan ned
Ġdiv in
Ġdiv ined
Ġneck lace
ĠY OU
Ġpi geon
Ġmagn itude
Ġsepar ately
Ġsepar ates
Ġund o
Ġund ress
Ġfle urs
ĠQu and
ĠQu el
ĠgÃ©n ie
Ġspo ons
Ġsli ps
Ġrain bow
Ġsoci eties
Ġpens ais
str ong
Ġcher ish
Ġaffection ately
Ġcommand ant
Ġpouv ais
Ġren se
Ġproper ties
Ġcommun ion
Ġbright est
Ġspeed y
Ġconcl usions
Ġbound less
arer s
Ġmes hes
Ġvict uals
Ġtour na
Ġwide ly
Ġband age
Ġentr ant
Ġrepro aching
Ġmut ually
Ġdry ing
Ġaim ing
Ġflat te
Ġpract ition
Ġmont rant
Ġban ish
Ġsoir s
Ġ18 4
Ġ18 5
Ġpardon ed
Ġblind ly
Ġaud itor
Ġenv iron
RE AT
Ġforth with
ĠDe vons
amb ling
Ġdam n
Ġdam ask
Ġdir ige
Ġattend ance
Ġunhapp iness
Ġbal con
Ġconn ue
ĠAn ge
ĠMarch ioness
Ġwid ened
wh ite
Ġfill s
Ġcustom er
Ġconceal ment
Ġtomb eau
Ġrub ble
Se ated
Ġbord ering
Ġearnest ness
Ġgover ned
enth ousiasme
Ġtant Ã´t
Ġcav ities
ĠrÃ©s ister
ĠCar ib
Ġvit als
Ġdamp ness
Ġinnoc ently
Ġcra ignait
Ġmaid en
Ġaj ar
Ġple ine
Ġpave ments
Ġcoo ling
ĠWest minster
Ġworking s
ĠFor ges
Ġcheer fulness
Ġannoy ing
Et at
Ġtent ative
Ġpeculiar ly
sha w
Ġremind ing
Ġredu ction
ĠprÃ©c autions
Ġstuff s
Ġcompar able
Ġreconn u
Ġtum ble
Ġing ratitude
Ġgrim aces
Ġtit re
Ġattract ions
Ġexerc ised
Ġdern iers
inte llig
Ġimper fect
Ġsecure ly
Ġassass ination
Ġaven ged
Ġaven ging
ĠLuc ases
ĠStap letons
Ġdisgust ing
dess ous
Ġretour na
umber land
Ġbehold ing
Ġtumult uous
Ġnavig ation
Ġgent ry
ĠCham ber
Ġincred ulity
Ġfain ter
Ã©ri ence
Ã©ri que
Ġabys ses
Ġrepresent ation
Ġdil ap
Ġgrie vous
Ġextingu ish
Ġscorn ed
Ġouv r
Im agine
Ġram ble
Ġsentin elles
Ġgor ged
Ġdoct eur
Ġcapt ured
Ġreward ed
Ġclub s
ĠdÃ©f il
Ġoblig ations
Ġbishop s
Ġdonne z
Ġprecip ice
Ġretr aced
Ġoverfl owed
Ġtransp are
Ġmouve ments
Ġric her
Ġapply ing
Ġterr ors
Ġanticip ation
Ġanticip ate
Ġappare mment
Ġflee ing
Ġelep hants
ĠrÃ©sol u
uy ait
ĠDE AR
Ġstool s
Ġretain ing
Ġabst racted
Ġabst raction
Ġhazard ous
Ġmale vol
Ġsurm ounted
Ġregain ing
Ġsouvenir s
Ġcryst als
Ġquitt Ã©
Ġconsist ent
Ġhaw k
Ġabhor red
Ġcounc il
Ġsaut a
Hall oa
Ġgid diness
ĠMir ou
ĠPo cocur
icar at
Ġconquer or
Ġdissip ated
Ġtrem or
Ġvolunt ary
Ġhypothes es
Ġraven s
Ġfiss ures
Ġwhims ical
ĠCel ine
Ġmaneu ver
ĠCa esar
Ġhust led
Ġmalad ie
Ġpalp itating
Ġluxur iant
ĠPres ident
ĠBulgar ian
ĠsÃ©v Ã¨re
mark et
Ġstab bed
Ġsurp assed
Ġmisunder stand
Ġoblique ly
Ġsuperintend ent
Ġgamb ling
Ġsupplic ating
Ġlob sters
Ġacce ler
Ġtransfer red
Ġglimps ed
Ġgnaw ed
Ġhermet ically
Ġflan ked
Cel a
Ġarrog ance
Ġspong es
Ġreluct ance
Ġgeomet rical
Ġcamar ades
Ġlatt iced
ĠCas al
ĠScript ure
Ġcrumb s
Ġfurt ively
Ġevap oration
Ġtempor ary
fing er
Ġital ien
Ġstur dy
ĠcomÃ©d ie
ĠÃ©n ormes
Ġgestic ulating
ĠdiffÃ© rent
ĠrÃ©flex ions
Ġalder men
Ġanne au
Ġdoig t
Ġamph ib
ĠGree ce
Ġglut ton
Ġviend ra
Ġcannib als
Ġquadruped s
Ġforb ade
Ġjelly fish
Ġenle vÃ©
Ġcarc ass
Ġunconcer ned
Ġemphat ic
Ġbayon ets
Ġhypocrit ical
Ġrefe ree
Ġunaw are
ĠPall a
Ġpeop led
Ġremon str
ĠCle ve
ĠSOU BRET
Ġimpuls es
Ġcarav an
Ġequino x
Ġmutil ated
Pas que
ĠchaÃ® ne
colle ctor
Bes ide
Ġprover b
Ġresplend ent
Ġscabb ard
Ġrecomp ense
Ġferv our
ĠNept une
Ġfrivol ous
Ġcout ume
ĠfraÃ® che
Ġuniver se
ĠPAS SE
ĠSusse x
ĠGi ov
Ġdiabol ical
Ġporr idge
Ġdeform ity
ĠMex ico
inds or
ĠFoss oyeurs
ĠVirg il
Ġindefatig able
Ġplebe ian
Magg iore
Ġtheat res
Ġwelf are
Ġenric hed
Ġalacr ity
ĠPousse pain
ĠLloy d
Ġimpract icable
Ġbrevi ary
Ġincalcul able
ĠsecrÃ©t aire
ĠDevons hire
ĠPococur ante
ĠSOUBRET TE
1 0
1 5
A way
A ussitÃ´t
B ern
B reak
B OOK
C Y
C ap
D is
E L
E urope
F art
G eorgiana
L Ãł
L IS
L ooking
N onsense
P ER
P lus
P hil
P ARDIEU
R ather
R OM
S m
T re
T oday
U N
b od
b ably
b ones
c har
c ule
e rers
f olk
g reat
h om
j ardon
k ens
k ina
l eng
l ante
l ky
m ine
m ile
n ine
o ble
o Ã¹
p oor
p aper
r ave
s s
s y
s al
s wer
s uff
t ete
u ille
v y
w ich
y n
z on
Ã «
Ġ ?"
Ġ Only
Ġt ue
Ġt els
Ġt inted
Ġt inder
Ġt arts
Ġt ension
Ġt ucked
Ġa chet
Ġs its
Ġs ott
Ġw har
Ġw renched
re aux
Ġo t
Ġo sc
Ġo aks
ou a
ou re
ou ched
ou ville
ha p
er as
er te
er ate
Ġm ug
it ous
it ative
Ġb ened
Ġb oud
is en
is sible
en voy
Ġd ome
Ġd ive
Ġd eth
Ġd avantage
Ġf Ã¢
Ġf ern
Ġf umÃ©e
Ġf ucus
on Ã§ait
Ġl aced
Ġp y
Ġp ic
Ġp ent
Ġp int
Ġp ins
Ġp ines
ar o
ar ly
ar ity
Ġh ip
Ġhe mp
Ġn Ã©
Ġha Ã¯
at ta
Ġe lope
Ġg um
Ġg aped
Ġbe ver
Ġbe que
Ġbe aches
ic kered
ut ting
se pt
im ble
ent er
Ġwas ting
ve led
ve ille
Ġre e
Ġre opened
id an
ld en
Ġth re
Ġth orns
st art
st ool
st itution
Ġwh ips
ur Ã©
et ime
ir k
ir s
Ġwith stand
Ġr ouse
Ġas pir
Ġas phy
Ġst ings
Ã© ra
Ã© der
Ã© kina
Ġher ald
Ġse ct
Ġse vered
Ġan on
Ġsa pp
Ġsa llow
Ġsa bres
red ict
ke eping
ĠM at
ĠM essieurs
oo ling
if erous
Ġle nding
Ġle mon
pe arl
ess ard
li ever
Ġfr ais
Ġfr oth
Ġcon ception
Ġcon gen
ne es
Ġall ant
Ġex il
Ġex pend
ul er
ĠC art
ĠC ons
ĠC ors
ĠC ook
ĠC ald
ĠC resp
Ġfe ign
Ġdo om
Ġdo zing
ist ory
Ġli able
em and
ol ation
ol Ãł
Ġun he
Ġun ite
Ġun lo
Ġun ity
Ġun intellig
Ġpl umes
Ġal che
Ġman ikin
ĠP ardon
ĠP eter
ĠP ARDIEU
Ġtr ailed
ass a
um mell
ĠS her
ĠS ec
ig g
ĠA ub
Ġwor ms
ire z
Ġar om
ĠB a
Ġag gress
ace ae
Ġpr ise
Ġpr ices
Ġpr awn
-- _
ĠL ec
ĠL amb
ĠL esc
Ġtw igs
Ġco vet
ĠH u
ĠH orn
ĠÃ ī
ĠG lycerine
Ġgr umbling
Ġro le
Ġro oted
Ġro bbing
Ġro asting
Ġbr un
Ġbr ink
Ġsp an
Ġsp ont
Ġsp rawling
Ġlo ins
ĠJ os
ĠJ ones
lo pp
Ġdis k
Ġdis o
Ġdis eng
Ġdis closed
Ġim b
Ġrep ris
Ġrep rendre
ĠR O
ĠR et
Ġad e
Ġad vertis
ue ill
Ġover coat
Ġhand ing
Ġthan king
ĠN ov
ĠN OT
Ġbo ister
Ġnow adays
Ġpass Ã©e
Ġcomp lied
Ġcomp ris
Ġpre gn
Ġpre nds
Ġrem ont
Ġrem nant
Ġcha cune
Ġcha lk
Ġcl ue
ĠE astern
ons olate
Ġthought less
co ach
ĠD O
ĠD odo
Ġoff ense
Ã©t ant
od s
Ġgood ly
Ġres uming
Ġap iece
Ġpart itions
ang u
Ġpar ven
Ġcr uc
Ġcr isp
Ġcr Ã©dit
de al
Ġthr ice
Ġexp ost
Ġexp ensive
Ġexp iration
Ġexp anding
Ġsc iences
Ġser ves
Ġmar chait
Ġmar row
ign on
ien ced
Ġseem ingly
There upon
Ġcar n
Ġho oting
Ġfl own
Ġfl ab
Ġfl ickered
Ġune arth
Ġappe lÃ©
Ġdist aste
omet hing
Ġapp r
Ġapp les
Ġpour ra
enc ing
ĠW idow
ĠW indsor
be aten
lie f
Ġhouse wife
Ġdon key
ĠV ery
ĠV igo
Ġhar assed
Ġatt ics
Ġcomm une
orm ais
Ġsupp ress
ither to
Ġreg ulated
Ġcertain s
Ġmat ernal
oy en
Ġchan ter
Ġchan gement
âĢĶ âĢľ
ins on
Ġdr aper
Ġconf essor
Ġconf iding
Ġconf iance
Ġconf ront
Ġinc and
Ġass ailed
Ġside ways
Ġside long
Ġnew comer
Ġmet als
Ġstre ak
cei ves
lic itÃ©
Ġwal t
Ġinf Ã¢me
Ġsl iding
Ġins ur
Ġinter ven
Ġinter vened
Ġinter course
Ġsou pir
als er
Ġvis a
Ġmaster piece
Ġbed stead
omp ette
Ġless en
cept ibly
Ġcol ored
Ġfin ir
Ġste ed
Ġlarge ly
Ġplac Ã©e
gu ing
not es
Ã©p oque
Ã©p ouser
Ġmis hap
Ġdisc onsolate
Ġlay s
Ġsing led
Ġprof ane
Ġfore finger
Ġorder ly
Ġwar ren
Ġcal umn
Ġdet ailed
Ġadm itting
Ġdeath s
Ġel abor
Ġdec ay
Ġbur dened
Ġdisp uted
Ġred em
ĠChar lie
ĠRo ck
Ġappro ving
Ġnecess ities
Ġcut s
Ġcut ter
Ġesc alier
ER T
Ġquel s
Ġtri ple
Ġconst raint
Ġemb ell
Ġemb old
ĠÃ© che
ĠÃ© br
ĠÃ© glise
Ġfait s
quis ition
Ġstart s
Ġast rolo
Ġnature lle
Ġhorse man
oth ouse
ĠCh Ã©kina
Ġmain ten
Ġmal heurs
Ġann ual
Ġdi ale
Ġheav iness
cher y
Ġpal aces
Ġaccomp lices
Ġsal ute
Ġsal mon
Ġven ue
An ne
Ġsucc or
Ġmeet ings
Ġpat ent
Ġpat rol
Ġsol itaire
Ġstri ped
Ġart illery
Ġsqu ire
Ġglo ire
Ġacqu ies
Ġacqu itted
ex il
Ġoccup ants
Ġstud ded
Ġdou ter
Ġprodu cts
Ġcontr ar
Ġver te
Ġvent re
Ġpa quet
Ġnarr ower
uff s
Ġcompl Ã¨te
Ġinqu iet
Ġtrave ls
Ġpub lique
Ġwonder ment
Ġspite ful
Ġplan et
umb ers
Ġmort ar
Ġsweet er
Ġgun shot
by essard
oute ville
Ġhabit able
Ġhabit ually
Ġpi astres
Ġgrave ment
Ġnumber less
Ġexper iments
Ġdifficult Ã©
Ġcand our
Ġcomfort s
Ġcommon ly
St anding
Ġoccur rences
Ġcel estial
Ġid iots
Ġbas is
str icken
Ġcloud y
Ġcre vice
Ġcher chÃ©
Ġdrag oon
Ġbox ed
Ġheaven ly
Ġexec uting
Ġabsol u
Ġpuis qu
Ġnarrow ly
Ġobst ructed
Ġden ial
Ġden ounce
Ġign oble
Ġbreakfast ed
Ġpist olets
Ġtemper ate
onne cted
ĠdÃ©s agrÃ©
ĠdÃ©s ormais
Ġcolle ague
Ġimpr Ã©v
Ġcoll ars
Ġsmo ky
Ġsmo othed
Ġaddress es
Ġ18 3
Ġuneas ily
Ġlif etime
Ġrend it
Ġcourt iers
Ġbrill ante
Ġfun nel
Ġdeb ate
Ġphil anthrop
Ġtouch Ã©
Ġgrief s
Ġbal m
Ġfac ulty
Ġhorrible ment
Ġmyst ic
Ġdesign ated
Ġinflu enced
ĠBr uno
Ġembarr as
ON G
aur a
wh om
Ġchat tered
Ġtomb Ã©e
Ġthrust s
Ġscr aps
AN T
Ġtemp ests
Ġrevol ted
Ġjet ant
Ġreser voir
Ġ4 00
Ġreven ait
Ġstock ing
Ġmag azine
Ġartic ulate
Ġassured ly
ann Ã©e
Ġridic ules
Ġz inc
gl asses
Ġhom age
Ġtravers ing
ĠCar ter
Ġlabour ing
Ex plain
Ġcontinu er
Ġaj outer
Ġsubst antial
Ġencl osing
AT H
road s
aper Ã§
aper cevoir
Ġmoder ation
Ġ5 0
Ġrent rant
Ġcontempt uous
Ġesp Ã©rer
Ġta wn
ĠU P
Ġstiff ness
Ġcolour less
Ġvale ts
Ġcivil isation
ING S
ĠdÃ©t ail
ĠBask erv
Ġpurcha ses
Ġpant ry
Ġard ently
hem ence
ĠTur in
Ġatmosp heric
Ġunif orme
Ġep ithe
Ġdoc ile
Ġimper ative
Ġcaval erie
Ġsplendid ly
Ġbrand ishing
Ġtend res
Ġnation ality
Ġcorrespond ing
Ġdesert ion
Ġine ff
ĠComm and
ĠFl orian
Ġmanufact uring
rog en
Ġentreat y
Ġadvent urous
Ġcerem onies
Ġ14 6
Ġfil thy
Ġfil aments
Ġretour ner
Ġpil gr
Ġpil ules
wor ld
Ġtap age
Ġcavern s
Ġconvuls ively
ĠBou jardon
ĠEgypt ians
Ġtrick le
Ġovert aken
Ġovert ook
fr ont
Com ing
ĠSo ci
mar ks
Ġment ally
Ġgrie ve
Ġrese arch
Ġconsult ation
Ġindul gent
Ġvault s
Ġpred omin
Ġpred icted
Ġdict ation
Ġcatastro phes
Ġremembr ances
Ġingen uous
Ġingen uity
Ġcapit ale
Ġcapit als
ĠBrit ain
Ġgor ges
apt ist
Ġhaul age
Ġunivers ity
Ġnap kin
Ġinex per
Ġprecip itated
Ġbust ling
Ġling ering
Ġnest led
ĠpÃ¢ leur
ĠHim self
Through out
ĠAfric an
ĠBl ue
Ġexhaust ing
Ġpuff s
Ġga ie
ĠMad am
Ġmas tered
Ġmonot ony
Ġnurs ing
Ġpropri Ã©t
ĠBo hem
Ġclust ered
Ġruff ians
Ġscrup ulous
Ġinferior ity
Ġtriumphant ly
Ġeccentric ity
Ġmars h
Ġmars hes
Ġsolic itude
hors es
Ġrecei ves
ourd el
Ġclut ching
Ġstrain ing
Ġaccus ations
Ġbol ted
ĠMan on
Ġoutr aged
Ġmock ery
Ġliter ally
alling ford
Ġconfident ial
Ġpike man
Ġrenew al
fo lio
Ġske letons
Ġsavant s
Ġsho ots
Ġexert ions
Ġpreoccup ation
Ġrevolution ary
Ġsurv ive
Ġdorm itory
ĠRich omme
Ġverd ict
Ġcess ation
ĠpÃ©r il
Ġsculpt ure
Ġmould ed
Ġinterrog ate
Ġoutburst s
Ġmorte lle
Ġeloqu ent
Ġdefect s
low ly
Ġtrades man
Ġpoly ps
Est outeville
Ġcli ent
Ġvra ie
ĠAbb Ã©
Ġaccur acy
Ġpettico ats
Ġom itted
Ġchart s
Ġaccommod ations
ĠTor res
Ġcommenc er
Ġdece it
Ġsore ly
ĠSur geon
Ġperman ently
chand ise
Ġshipwreck ed
Ġsuperst ition
Ġsuperst itious
power ful
Ġsports men
Ob viously
Ġdefic ient
Ġpolicem en
ĠMo ors
ĠMor gue
ĠFal ourdel
ĠdÃ©gu isÃ©
ĠdÃ©mar ches
Ġprett ier
Ġprett iest
Bar rymore
Ġtract s
Ġscound rels
Ġrelax ation
ĠentiÃ¨re ment
Ġappropri ate
Ġtransm itted
ĠCorinth ian
every thing
Ġvend u
Ġcirconst ance
Ġcirconst ances
Ġsurround ings
Ġambassad or
Ġnaught y
Ġprair ies
Ġcondesce nded
Ġtelegrap h
Ġmeur t
Ġmeur tre
Ġponder ing
ĠVinc art
Ġacce pter
Ġsimpl est
Ġglimps es
Ġcyl inder
Ġsonn ets
Ġeffray Ã©
fight er
ĠÃ©vÃ© nements
ĠdÃ©cid Ã©
Ġsauce pans
Ġpatter n
ĠJuli e
Ġcruis ing
Ġscri bb
Ġbenevol ent
ĠPrussi ans
ĠnaÃ¯ ve
avanÃ§ ait
Ġrecher che
Ġinm ates
ĠRep ublic
ĠmÃ©lanco lie
Ġprosec ution
Ġcapy bara
Ġlabou rers
Ġmol ten
Ġfratern ity
Ġja un
auph in
Ġstrat ag
Ġmiser ably
Ġadj usted
Ġbetrot hed
Ġgreed ily
ĠProtest ant
ĠHuguen ots
PART OUT
Ġpenal ty
Ġexalt ation
ĠAlex and
Ġbrus quement
Ġskir ted
Ġbookse ller
Ġconvention al
Voil a
ĠFau bourg
ĠGal ile
ĠDun stable
ĠVol can
ĠProven ce
Und oubtedly
Ġaster n
Ġsecl usion
Ġupbr ow
ĠCrom arty
ĠBarr ington
ĠMarse illes
Cour age
ĠCrÃ© vecoeur
Ġabl aze
Ġadap ted
Ġblas phe
Ġreminisc ences
ĠVau byessard
Ġseaf aring
Ġinterm ittent
Ġhelms man
del Ãł
Ġbicy cle
Ġforl orn
ĠMaug iron
Ġmonaster y
ĠVier zon
ĠVisc ount
Ġconvain c
ĠPASSE PARTOUT
Fart her
Ġsott ise
Ġosc ill
Ġasphy x
ĠCresp o
ĠBaskerv illes
A bs
A GE
B o
B azin
C T
C ross
C unegund
C onst
E lles
F ie
F ancy
F elicite
G re
H erm
H ippolyte
H umph
H itherto
J oy
J amais
L uc
M ou
O pposite
P ard
P AR
P angloss
P atrick
R osemilly
S we
V II
W on
W ater
W ickham
b urn
b ishop
b Åĵuf
c ook
c raft
d ri
d amp
e e
e usse
f ess
f au
f illed
h ound
i oun
j a
j i
l ot
l ter
l ation
l ittle
l antic
l isten
m ake
n am
n ings
o cean
r ots
r iment
r Ã©es
s ight
s chool
t ar
t al
u ble
v ances
y et
y ers
Ġt iens
Ġt Ã¢che
Ġt Ã¢cher
he it
Ġa urez
in ait
in ue
in ated
Ġs ess
Ġs oud
Ġs owed
Ġs acks
Ġw ig
Ġo ct
Ġo ily
ou le
ou iller
er ly
Ġm and
Ġm aps
it ans
it uted
Ġb ount
Ġb ang
Ġb ib
Ġb oute
Ġb anqu
Ġb ache
is ode
Ġc um
Ġc udge
Ġc Åĵurs
Ġc rescent
ed e
ed ed
Ġd and
Ġd ors
Ġd aint
Ġd ates
Ġf on
Ġf ade
Ġf ief
Ġf iend
Ġl ith
Ġl ash
Ġl ashing
Ġl Ã¢che
Ġl inks
Ġp ac
Ġp ip
Ġp iling
Ġp oop
Ġp onies
Ġp oudre
ing ap
ll et
ar ret
ar ia
Ġh ub
Ġh ounds
Ġh ilt
Ġh ilar
an ke
an nes
Ġhe w
Ġhe aving
Ġn ast
Ġin ha
Ġin artic
Ġe urent
Ġe ucalypt
le ans
Ġg Ãª
Ġg aming
Ġbe ats
ot tes
ut tering
im ately
im mense
ent ering
ve rer
Ġre ced
id a
Ġth w
Ġthat ched
ce vait
Ġon ion
Ġon cle
ur t
ur la
et on
ir ons
ver ted
ad ies
qu ay
qu ier
Ġr he
Ġr ake
Ġr ider
Ġr usted
Ġr acing
Ġwe aken
Ġst ains
Ġst ung
ac red
Ġse quel
Ġme llow
Ġan th
Ġan em
ri em
ill ant
Ġv Ã©ri
Ġv iennent
ke pt
ĠM es
ĠM ore
ĠM el
ĠM useum
if ix
if era
Ġqu ote
Ġso ixante
us al
us cade
Ġle vres
Ġshe ds
ag issait
pe lle
Ġsu lf
Ġsu ms
Ġfr owned
Ġcon ical
ard a
Ġsh ri
all ais
all Ã©e
Ġbut to
Ġj ets
Ġk ids
th ink
os is
ul ed
ul us
ĠC L
ĠC ic
ĠC am
ĠC hant
ĠC open
Ġno ire
Ġdo le
Ġdo cks
Ġdo zed
Ġli gnes
ol ution
art ments
Ġun ic
Ġun sc
Ġun acqu
Ġman ly
Ġman ge
Ġman iac
ĠP oly
ĠP ere
ort s
Ġout come
Ġout sk
ell an
ĠS ch
ĠS ince
ĠS har
ĠS oup
ĠS alle
ĠS icily
ig her
ĠA S
ĠA p
ĠA sc
Ġar du
Ġar isen
Ġwill ows
ĠB ow
ĠB inder
Ġag ir
Ġag out
Ġag onies
Ġpr omet
Ġpr Ã©p
Ġint Ã©r
Ġgo v
ĠF ern
au ld
au lettes
Ġpro ven
Ġpro hibit
Ġco pse
ĠH um
ĠH istory
Ġgr aciously
Ġgr azing
ab e
ab and
ab eau
Ġro amed
Ġsp un
Ġsp lin
Ġlo i
Ġlo aves
ĠJ udge
Ġkn it
Ġdis reg
Ġdis emb
Ġim minent
Ġrep art
Ġrep ress
Ġrep ressed
Ġrep ouss
Ġpo ster
Ġpo ids
ĠR an
av ent
av ouer
Ġsha ving
Ġsha dy
Ġad oration
ue ux
are ns
Ġch ir
ĠN av
ĠN atural
op inion
Ġbo g
Ġbo Ã®
Ġper sever
Ġper tur
Ġper usal
Ġcomp ressed
Ġcomp atri
Ġcomp renait
Ġpre med
Ġcha ire
Ġcha leur
Ġfo lies
ĠE lli
Th omas
Ġdu cks
Ġdown wards
Ġdown fall
Ġfir mer
co d
co ck
ĠD in
ĠD enny
ĠD avy
Ġstr ap
Ġstr ide
Ġap othe
ang Ã¨re
Ġpar u
Ġpar liament
Ġcr one
Ġcr ump
Ġcr aving
Ġcr umble
Ġcont our
Ġcont enait
si ly
si ast
Ġback side
Ġimp licit
anc ers
Ġent ers
Ġent ail
Ġspe cially
de g
Ġexp rim
orn ing
Ġsc an
Ġser ment
Ġser ont
Ġsm ashing
Ġwhere upon
Ġacc our
Ġav ance
Ġho ll
Ġho vered
Ġfl ows
Ġyoung ster
Ġgl or
Ġgl aring
Ġgl oss
Ġune ven
Ġdist ances
Ġend urance
Ġcons p
omet imes
ĠÃ©t ud
ĠÃ©t onnement
iz z
iz on
Ġcour ted
Ġmen a
Ġmen uis
ĠW AS
ren heit
Ġche at
be y
ĠV ienne
ĠV alser
Ġatt ired
Ġinst ances
Ġlove liest
Ġter res
Ġter med
Ġter rain
Ġlight house
Ġarm ies
pr ise
Ġcount less
oy ez
Ġpers piring
arr Ãªt
Ġdev ices
Ġfa wn
Ġfa una
Ġgu ides
Ġgu iding
Ġass erted
Ġref inement
Ġfar thing
Ġes qu
Ġsw an
Ġsw ans
Ġsw armed
Ġsat ir
Ġtre ason
Ġcur b
Ġcur ieux
ued oc
Ġlook out
Ġsub t
Ġsub urb
Ġinf ancy
Ġsl ide
Ġsl owness
Ġarri ves
Ġinter fered
Ġpoor house
Ġfather ly
ĠO lympe
Ġbed clothes
Ġless ened
Ġsort ie
Ġfin anc
Ġhard i
Ã©r ables
Ġreco nd
Ġir ony
Ġmis giving
Ġmis Ã©rable
Ġdisc ut
Ġdisc omp
Ġve al
Ġve hemence
Ġaff able
Ġprof use
Ġprof iting
ĠAr mentieres
Ġsuff is
Ġsuff ers
Ġsign aux
Ġcal am
Ġfur rows
Ġfut ile
Ġpresent ation
Ġfell ed
ĠK ear
ĠK Ã¶
Ġenc lose
For give
Ġsun ken
Ġbel ated
Ġbar ouche
Ġstand still
for me
Ġrais onnement
Ġel m
Ġdec ree
Ġdisp atch
Ġdisp atched
Ġwood y
Le aning
Ġdeep ened
ĠdÃ© du
Ġact ively
ĠSp ir
Ġcou v
Ġcou cher
Ġcou leur
Ġunderstand s
Ġterri fic
Ġca us
Ġoften er
Ġfact ion
Ġfact ory
Ġexcl usively
Ġmer ited
Ġdro ll
ER E
Ġquel con
Ġcor p
Ġport a
Ġport Ã©e
Ġeight h
Ġgall antly
Ġprov oc
ĠÃ© te
ĠÃ© gar
Ġhur l
Ġeff ace
Ġru gs
Ġsn out
Ġsn ake
Ġsn ipe
Ġnature llement
Ġfright ening
Ġcast les
Ġlaugh s
Ġexam iner
Ġregard less
Ġgentleman like
Ġfront s
Ġpast ure
br other
Ġheav ier
Ġhair y
Ġpal try
Ġquick er
Ġquick ness
Ġdream t
Ġpret ensions
onn Ã©e
Ġhat es
Ġquiet ed
Ġmus icians
Ġmus cular
uss ion
Ġconsider ations
Ġboy hood
Ġsqu all
ĠAl b
Ġrecogn ising
Ġacqu iring
ex istence
ĠrÃ©p arer
Ġball e
Ġdirect or
Ġeat able
Ġrapid itÃ©
Ġthick ened
Ġsuper fl
Ġprodu ct
Ġjud gments
Ġver m
Ġnarr ated
igne urs
Ġconse ils
Ġconse iller
Ġpress ures
Ġsuccess es
Ġcab man
Ġcab ins
Ġcro cod
ĠAnd alus
Ġfight s
Ġpull eys
Ġpub li
old s
Ġexcept ing
Ġfem ales
Ġbes et
ĠRe gent
Ġsac he
Ġsac hant
Ġdifferent ly
ĠY ard
Ġmort s
Ġexact ing
Ġexact itude
ĠX II
Ġdevil ish
ron ed
Ġjourney man
Ġhabit ants
Ġempt iness
Ġheads man
Cha que
ah s
Ġund id
Ġund ers
Ġspo iling
Ġbank rupt
hor izon
Ã©cri ai
Ġvan ishing
chet te
Ġ3 1
Ġbright er
Ġden ier
Ġden ying
Ġble ed
Ġod ours
Ġnom s
ina fore
Ġband ages
Ġpurpose ly
En ough
Ġmor ale
Ġgloom ily
Ġcler ic
Ġsong ea
ĠCha rt
Ġpract ised
Ġsurr ounds
Ġmagnific ently
Ġpleasant ries
Ġhost el
Ġaud itors
Ġenv ie
Ġcord ially
RE E
Ġlangu ages
athe tic
Ġembr aces
Ġtow el
Ġdir a
Ġdir ait
Ġresp ite
Gr and
Ġfun ction
Ġfun nels
Ġfatig ues
Ġda ignÃ©
Ġgar b
Ġgar lands
Ġmyst Ã©rie
ĠAn son
aff aires
ĠBr other
ĠBr ummell
ĠEurope ans
Ġdef ault
Ġpure st
Ġintim ated
Ġclean ing
Ġclean liness
Ġprot racted
Ġsang uine
Ġglim mers
Ġdefe ated
Ġchem ical
Ġrevol ving
Ġleg it
Ġoper ate
ĠdÃ©c ouv
Ġge ography
erc ati
Ġplatform s
Ġentend ant
Ġcrew s
Ġcontent ment
rÃ© m
ĠZ urla
Ġaccident al
Ġaccident ally
Ġwond rous
ĠdÃ©p l
Ġsupply ing
Ġreve rence
Ġexperien cing
Ġlin ked
Ġpot ash
Ġappar itions
Ġenth ousiasme
Ġple ad
Ġsubst itute
Ġstick y
Ġlog ique
ĠWest pha
Ġshru bber
Ġconven able
Ġcontri ve
Ġunf aith
Ġruin ous
Ġesp ion
Ġesp ions
Ġmix ing
Ġdepend ence
Ġplais ante
Ġtent er
su ccess
Ġcover let
Ġmurder ous
Ġquant ities
Ġcivil ities
Ġrail ways
Ġunp redict
Ġtoler ate
Ġdesper ately
Ġconsol ing
Ġder ive
Ġreb el
cont rol
lÃ© siast
Ġrum ours
Ġwreck age
Ġgal erie
Ġep it
Ġdoc uments
Ġcaval cade
Ġnav y
uv res
rol abe
Ġsteep ed
Ġtot tering
ĠBour ges
Ġjou e
Ġdesert s
Ġinstru cted
Ġecc lÃ©siast
Ġrust le
cast le
Ġminer als
Harr ison
Ġlab oured
Ġloin tain
Ġretour nant
Ġawkward ness
Ġsmell ed
Pro vided
Ġacknowled gment
Ġsport ing
Ġnet work
Ġshr inking
Ġexagger ating
ĠCour ts
Ġkingdom s
Ġexplos ive
*** -"
rid ges
Ġhosp itable
Ġdisgr Ã¢ce
Ġrefus er
Ġrefus Ã©
Ġrencont ra
Ad miral
Ġhammer ing
Ġstol id
Ġuns p
ĠGasc ony
Ġdisd ained
ĠTour nelle
Ġglit ter
Ġfan at
Ġouv rit
Ġhaz ards
Ġdimin ish
ograp hic
ĠMicha el
ĠRoy ale
Ġblo nde
Ġscient ists
Ġtempt ations
Ġconsul ter
Ġmagistr ates
Ġchemin Ã©e
Ġimagin ations
Ġdeven ait
Ġnombre ux
Ġtoilet te
Ġjur Ã©
Ġjur ors
apt ured
ĠCor riem
ĠLest iboudois
Ġecho ing
Ġintend s
Ġlibert ine
Ġenvoy er
Ġirresist ibly
enf uit
Ġneat ness
Ġintr ude
Ġleaf less
Ġecst asies
Ġmaintain ing
Ġvoud rait
Ġimpress ive
Ġident ified
Ġpersist ence
Ġfleet ing
Ġprivile ged
Ġsoot hed
Ġformal ities
Ġruff ian
Ġfid Ã¨
Ġfid get
Ġsolic itor
Ġaltern ative
Ġgrin ned
Ġrebell ious
Ġrecei ver
Ġindisc retion
Ġcombat ants
Ġhem isphere
Ġconfid ant
Ġincomp ar
Ġhandful s
Ġrecomm and
ĠÃ©le vÃ©
Ġtick ets
Ġprow ling
Ġappreci ated
ĠBelg ium
pan es
Ġgut ters
ĠÃ©vid ent
Ġcryst all
Ġhorizont ally
Ġcrav ats
ĠCarn ival
Ġsculpt ured
Ġattri bute
ĠÃ©m u
Ġpiqu ant
Ġvivid ly
Ġmorte l
Ġapolog ies
interest ing
Ġdroop ed
eff et
ĠAcadem y
ĠmÃ©c hant
Ġdexter ous
Ġdraught s
Ġcorrupt ion
ĠNeuf chat
Ġroug it
ĠHonour able
Ġtrouv aient
Ġferoc ity
Ġache ter
Ġbri oche
Ġyawn ed
Ġyawn ing
Ġcurios ities
Dr ink
Ġpond ered
ĠÃ©tab li
Ġdegr ad
Ġmaneu vers
Ġcompet ition
Ġsports man
Ġdefic iency
Ġbutton ed
Ġcoquet ry
Ġcoquet tish
Ġsurre ndered
Ġbrood ing
Ġmiscar ry
Ġconnais sez
Ġluxur ious
Ġabdu ction
Ġbuff et
Ġgarn ished
Ġpyram ids
ĠMars hal
ĠprÃ©par Ã©
Ġspoon ful
Ġcommer cial
ĠmÃ©de c
ORE N
Ġhaun ches
ĠBri ggs
Ġdiscont ented
Ro che
Ġstal ks
Ġcondesce nd
Ġenchant ment
Ġremarqu able
Ġprat iqu
Ġphot ograph
Ġtourn ure
ograph ical
Ġtact ics
Ġfag ot
Ġdetest able
Ġoutrage ous
ĠPur itan
Ġsurve ying
Ġcrag gy
ĠÃ©vÃ© nement
Ġconnaiss ances
ĠaperÃ§ u
ĠdÃ©vou ement
Ġsag acity
Ġmanoe uvre
ĠRic hard
Ġalphab et
ĠFah renheit
Ġsham eless
Ġglist ened
Ġconscient ious
Ġguillot ine
ĠrÃ©gn ait
Ġtyp ho
Ġaristocr atic
Toute fois
Ġentour Ã©
Ġflick ering
obli ge
ĠTurk ish
Ġbarric aded
Ġromp re
ĠagrÃ© able
Ġindec ision
ĠCrus oe
Dam nation
Ġhamm ers
Ġenli vened
ĠAst rolabe
Ġhalluc ination
Ġcertific ate
Ġamen Ã©
Ġincom plete
Ġdiagon al
Ġapprehe nded
Ġsemic ircle
ĠLang uedoc
Ġvor acious
Ġdolph in
Ġintercept ed
Ġsauv age
Ġmouch oir
Din ner
affect ed
Ġcomed ian
Ġalmond s
ĠLod ge
Ġcram med
ĠTan beau
Ġslugg ish
Ġautom at
Ġcorre cted
Ġcartil aginous
Ġpinc ers
Ġhei ress
Ġstub born
ĠCad iz
Ġintrep id
Ġcoars eness
ĠreprÃ©s ent
Ġfantast ically
Ġcrustace ans
Ġmicros cop
Luck ily
Mer cy
ennem i
Ġarab esques
ĠNic olas
Ġindo ors
ĠStreat ley
Ġraisonne ments
ĠCarib be
Ġtranspare ncy
ĠCald er
ĠAub ry
ĠLesc aut
Ġboister ous
Ġredem ption
Ġembold ened
Ġepithe t
Herm ite
Joy eux
Pard ieu
ioun i
Ġbache lor
Ġdors al
ingap ore
ĠCopen ha
Ġunacqu ainted
Ġoutsk irts
ĠSalle e
Ġardu ous
ĠintÃ©r Ãªts
ĠElli ott
ĠValser ra
ĠKear ney
ĠKÃ¶ n
Ġquelcon que
Ġshrubber y
Ġunfaith ful
ĠCorriem uir
ĠNeufchat el
" ,
, )
1 7
6 00
; '
A c
A vant
A bb
A ugust
A CE
A gre
C ant
C Ã©cile
C hance
C alm
D ark
D ec
E s
E ve
F l
F orm
F oot
G ener
J asmin
K ill
M ah
M icha
M OREN
N ature
O pen
P eu
P retty
R ou
R ef
S c
S ha
S er
T er
T urning
T MOREN
U RE
V ER
V III
Y e
b i
b ble
c ated
c orn
d a
e h
e es
e use
e ze
e aters
f ined
f erm
f ishing
g ard
i our
i ocr
l im
l our
m ort
m oor
n olds
p te
p arent
p ipe
r one
r able
s ur
s ir
t ight
u est
u ite
u ence
u ber
u elle
u ement
u ellement
v ue
v ada
w ait
w omen
w ixt
y the
y ards
Ġt ying
Ġt resp
Ġt attered
he as
he ries
Ġa ise
Ġa kin
in am
Ġs ill
Ġs urn
Ġs Åĵurs
Ġs izes
Ġthe s
Ġw aked
Ġw agg
re int
Ġo ri
ou ff
ou vant
er ai
Ġm ise
Ġb omb
is i
is er
is ome
is Ã©e
Ġd ing
Ġd ent
Ġd oth
Ġf ie
Ġf able
Ġf ared
Ġf Ãªtes
on a
on ic
on ial
Ġto e
Ġto it
Ġto pp
Ġl oth
Ġl onel
Ġl anÃ§
Ġl outs
Ġl ourd
Ġp li
Ġp ies
Ġp ai
Ġp lied
Ġp ained
Ġp ork
Ġp uls
Ġp inafore
Ġp heas
es pecially
as i
as ps
ll as
ar is
Ġh Ã¢t
an ou
Ġhe red
Ġhe ather
Ġhe ret
Ġn ud
Ġn orm
Ġn iche
Ġn oose
Ġn ouvel
Ġin human
Ġha re
at hing
at ious
om f
Ġe els
Ġe lig
Ġe bbing
le te
Ġg ou
Ġg ren
Ġg asping
Ġbe amed
Ġbe aks
Ġbe fell
ic ting
ut tered
se em
se venth
im self
Ġre ap
Ġth orn
Ġth undered
Ġwh iff
ur ie
ur bable
al though
Ġfor cer
Ġfor feit
Ġr aving
Ġr aced
Ġr uth
Ġr af
Ġr oman
Ġwe ird
Ġst agn
ac ia
Ġher oism
il ier
am i
am or
am ant
ri or
ri an
ill ance
ter re
ter ior
ro i
ro pic
Ġsa bb
Ġv ied
ich thy
ĠM en
ĠM oi
ĠM iche
ĠM US
ĠM ichel
if ace
Ġso i
Ġso is
Ġso jour
Ġso cks
us c
us pic
Ġle vers
ore r
Ġfr Ã¨res
Ġfr aternal
Ġcon ve
ard ins
ne ed
Ġsh ipping
Ġall usions
Ġall eys
Ġup start
Ġj ing
Ġj urer
Ġex or
Ġex Ã©c
Ġex ceeded
Ġex pended
Ġk ins
Ġk icks
ĠC omme
ĠC aste
Ġfe ats
ie usement
ast rous
Ġno ires
Ġdo se
Ġor deal
art re
Ġun fe
Ġun per
Ġun sha
Ġun affected
Ġthem e
Ġen lever
Ġpl ating
Ġpl onge
Ġman servant
un ch
un ction
un ts
ind res
ĠP od
han ging
Ġtr uss
ĠS ans
ĠS EC
ĠS chool
ĠS ingapore
ck ed
ig ation
ig gs
ig str
ĠA R
ĠA den
Ġwor sh
Ġar re
Ġar ousing
ĠB ro
ĠB us
ĠB Ã©r
ĠB oth
ĠB icarat
ate e
ate ful
el is
Ġpr Ãªcher
ĠL ub
Ġgo al
ĠF eut
au c
Ġpro pped
Ġpro cha
Ġco ke
Ġmo quer
Ġmo indres
ĠG Ãªnes
Ġgr amm
ab aptist
Ġro asted
Ġsp ed
Ġsp aces
ĠJ en
lo ad
Ġkn ack
Ġus ur
Ġrep as
Ġrep ulse
Ġrep aid
Ġrep ublic
me as
Ġpo isons
Ġlike lihood
ĠR Ã©
Ġch Ã¢t
Ġch urned
ĠN er
ĠN ich
op es
op hy
Ġloo ph
Ġper te
Ġbl ancs
Ġpass word
Ġcomp ly
Ġcomp artments
Ġpre aching
Ġpe at
Ġpe int
Ġpe ines
Ġrem et
Ġcha mbres
Ġcl own
Ġ' '
Ġob elis
ĠD ES
Ġsur g
Ã©t ab
Ġunder went
ach y
ang ement
Ġpar ched
Ġpar lez
Ġpar ox
Ġcr ows
Ġcame ll
Ġcont ag
Ġvo leur
Ġimp ose
Ġlet s
Ġent ier
Ġent ailed
Ġspe lls
act ed
act ing
Ġthr ows
Ġbet wixt
Ġexp licit
Ã¨ vres
iss es
iss ante
Ġsc ud
Ġsc raw
Ġsc oured
Ġsc ythe
Ġmar qu
Ġmar gin
ign ation
Ġway side
Ġlast ing
ier ra
Ġje er
aut eur
Ġav ions
Ġav owed
Ġturn ings
Ġfl ap
Ġfl ute
Ġfl itted
Ġfl ask
Ġfl avour
Ġfound ered
Ġgl int
Ġgl ued
Ġfriend less
Ġold est
Ġappe ll
Ġappe lle
Ġappe als
Ġappe la
Ġson ner
ĠÃ©t ro
Ġte nde
Ġpour rez
per d
enc re
Ġcap es
Ġown s
Ġmen aces
Ġmen ottes
ĠW ITH
ĠW allingford
be en
be ing
ĠV is
ĠV ander
iv il
Ġlight ness
Ġsil very
No v
No el
orm s
Ġmin ut
Ġreg ener
Ġreg ulation
ru it
Ġpleas anter
Ġcertain es
Ġmat tered
Ġchar g
arr ange
Wh ilst
Ġfort ified
Ġdev aient
Ġconf ound
Ġfew er
Ġinc ont
Ġass ent
Ġsw irl
Ã©c happ
When ce
Ġmet aph
Ġcur l
uck le
Ġsl owed
Ġsl ates
Ġinter d
ank y
Ġou vert
ĠHe art
Ġsort es
Ġsort ant
Ġblack smith
ĠFr anche
Ġkind er
Ġplac Ã©s
Ġhum bled
ĠLa w
ĠLa ura
Ã©r ir
Ã©r ait
Ġten acious
Ġir as
Ġir repro
Ġdisc omf
Ġve loc
Ġaff licting
Ġprof usion
Ġprof iter
Ġwar mer
Ġwar ming
Ġcountry men
ĠParis ians
Ġcal f
Ġcal ves
Ġfut ur
Ġpri or
Ġtem pered
Ġsecond ary
Ġland ers
ĠK n
ĠK ings
ĠK night
Ġenc ha
ĠSt ation
Ġbar ber
ĠMa ury
Ã¢ ge
Ġdec iding
Ġmot ley
Ġmot tled
ĠThe odore
cha mp
Ġfoot stool
Ġsound ings
Ġele ction
Ġadv ising
Ġjo ists
Le ft
Ġvi olets
Ġact iv
Ġcut l
Ġdraw ling
ia h
Ġca user
Not e
ric he
Ġgener a
Ġgener ated
Ġrock ing
Ġcor k
Ġport Ã©
Ġport iÃ¨re
Ġport folio
Ġconst ancy
Ġemb assy
Ġprov ides
Ġinv asion
ĠÃ© qu
Ġdri ves
Ġmad men
Ġmad rep
Ġsn akes
Ġsn iff
Ġast ron
Ġast ride
you ng
Ġdesp atched
Ġimpos sib
Ġexam inations
ĠCl oud
pl ate
pl aces
pl ates
Ġdi pping
Ġpal anqu
par lour
Ġoffic ier
Ġven us
Ġven ant
Ġstay s
An swer
Ġfat ten
Ġfat ality
Ġvol ont
Ġstri ving
Ġequ ival
Ġcrowd ing
ĠLe vaques
iff Ã©
Ġpit iable
uss Ã©e
Ġserv itude
Ġsad dles
Ġsad dened
ĠrÃ©p ub
Ġoccup ies
Ġoccup Ã©e
Ġfre ck
Ġthick er
Ġang ular
Ġprodu it
Ġjud gement
Ġpossess ing
Ġdel usion
ĠCo ast
ĠCo lle
Ġvent ures
Ġhang s
Ġforget fulness
Ġchurch yard
Be gin
Ġtrave ler
Ġcause way
Ġcro quet
Ġpull s
ĠTh under
Ġdiv isions
any thing
umb us
fin able
Ġsac ked
Ġhabit udes
Ġline aments
Ġsoft en
ĠGu illa
Ġfer mer
Ġremar king
Ġdifficult Ã©s
Ġsy n
Ġsy mm
Ġincl ine
ĠQu oi
Ġprem iÃ¨res
Ġpens Ã©
ob jet
Ġspec ific
Ġspec ulations
Ġhill side
Ġcre vices
Ġdrag ons
Ġemploy Ã©
Ġclim ates
Ġclim ax
Ġren oncer
Ġvoyage ur
Ġ3 7
Ġbound ary
Ġden oted
Ġenorm ously
Ġfashion ed
Ġwit hered
Ġer a
Ġer reur
Ġtreat y
Ġtour ner
Ġband aged
ĠdÃ©s ordre
Ġmor ose
Ġmor bid
Ġimpr im
Ġimpr int
Ġimpr inted
Ġrepro of
ral tar
Ġmut ter
ĠCha ulnes
incip al
Ġcoll isions
Ã©d i
Ġpill ows
Ġcho ix
Ġcho quÃ©
Did n
isc op
Ġpract ices
Ġfond it
Ġmont Ã©
Ġban tering
cul es
Ġ18 0
Ġhost s
Ġhost ile
Ġtra ffic
Ġrend ers
Ġblind ness
amb les
Ġvoul ais
Ġguess ing
ĠÃ©c out
Ġlangu or
Ġdam sels
Ġtong s
go at
Ġfun ctions
esp Ã¨re
Ġdonner a
Ġassist ants
Ġsuiv ie
ĠNew found
ĠNew castle
ĠrÃ©pond is
Ġfac ade
Ġconn oisse
ĠAn y
ĠAn abaptist
Ġuseless ly
Ġmir rors
Ġbless ure
Ġnouve aux
Ġimm od
Ġdef ense
Ġperiod s
ĠCom b
Ġirrit ate
Ġirrit able
Ġtomb Ã©
Ġtort ures
zz led
set tled
Ma jor
Ġdispos itions
acha it
Ġrare ment
Ġdism ayed
Ġcharm antes
rem ember
Ġcompre hens
Ġexperien ces
ris sement
Ġbou gie
Ġpot ent
Ġhom es
ĠCar lo
Ġphys icians
Ġcontinu ation
Ġtrouver ait
Char lotte
Ġsolid ly
Ġcoo led
Ġimpro pri
Ġthunder ing
Ġthunder struck
Ġlog ement
Ġlog ical
ĠCol umbus
Ġfamiliar ity
Ġunf ath
Ġcompass es
Ġpeculiar ity
Ġframe work
Ġquit te
Ġcolour ing
Ġenthus iast
Ġunex p
Ġmethod ically
Ġlam bs
off ice
ĠdÃ©t our
Ġobsc ured
Ġencoun tering
Ġspark le
Ġmerc en
Ġmerc iless
Ġraft s
Ġdesper ation
Ġanch ors
Ġrum ble
Ġmach ines
Ġinsp ires
Ġrav ages
ĠCont inent
Ġfis heries
AS T
Ġhero ine
ĠÃ©p oque
imp orte
ĠBe arn
Ġspl ashing
ĠTr ans
ĠTr ompette
Ġcorrespond ance
ĠEs p
Ġqual ified
Ġconvey ance
Ġorgan ization
Ġdign itÃ©
Ġrust led
Ġhate ful
Ġpris ons
Ġcroy ez
Ġsuggest ions
Ġ14 82
ĠAtl antis
Ġsmell ing
Ġpil othouse
Ġindic ating
ĠPi geon
ĠPi quette
Ġvac ancy
Ġfeverish ly
Ġshr ink
Ġrecl ining
Ġapprehens ive
Ġnavig ators
Ġrappe la
Ġrappe lait
Ġgent e
Ġgent il
Ġexplo it
Ġpuzz le
Ġcig ars
Ġsystem s
Ġtempest uous
rim in
Ġdispleas ing
Ġcorrect ly
Ġfi ber
ĠPe ople
Ġsalt p
Ġdict ates
Ġhaz el
Ġweigh s
Ġdur ant
Ġimpert urbable
Ġdimin uer
Ġimpl oring
ĠExcell ency
Ġharness es
Ġestim ation
Ġpasseport s
ĠLow ton
ĠWh it
ĠAdmiral ty
itz er
Ġsentin elle
Ġsentin els
ĠNorth umberland
Ġdoct r
ĠÃ©tonn Ã©e
Ġgod dess
ĠRos amond
Ġdiff idence
Ġshaw ls
Ġforeign er
Ġprecip ices
Ġling e
Ġtram mer
Ġtrav ailler
Ġretr ouver
ĠOr leans
ĠgeÃ´ liÃ¨re
Ġiv re
Ġsne ez
Ġnour ished
Ġassoci ations
Ġpuff ed
Ġpuff ing
Ġvoud ra
Ġunb ounded
Ġenchan ting
Ġghost s
Ġcock ed
Ġattentive ment
Ġrece vait
Ġfors ake
anim ate
Ġcareless ness
Ġenlar ge
Ġheed less
ĠEn fin
Ġreconc iliation
Ġphysi que
Ġze alous
Ġos Ã©
ĠprÃ©tend ait
Ġsouff rir
Ġtroubles ome
Ġcraw led
Ġprejud iced
Ġvibr ations
Ġmagnif iques
him self
ĠMan or
ĠHar pe
Ġhesitating ly
ĠDan iel
Ġinjust e
Ġfrapp Ã©
Ġconj ured
Ġaccompl ishing
Ġdorm ir
ĠConst ance
Ġunjust ly
Ġcapric es
Ġmoss y
Ġmould y
Ġquitt a
Ġdefect ive
Ġlav ish
Ġcrest s
Ġpoly p
Ġpav Ã©
Ġimportun ate
Ġtid y
Ġom it
Ġnu pt
Ġalle g
Ġdissip ation
Ġchron ic
Ġtransl ation
ĠrÃ©ve iller
Ġdilig ent
Ġdece ase
Ġdece ased
Ġlege nds
Ġdram atic
Ġempoison ner
Ġmirac ulously
ĠCast le
Ġclatter ing
Ob ser
Ġfring ed
Ġenlight en
Bel cher
IV ER
ĠsÃ© du
ĠsÃ© jour
Ġanaly sis
Ġundergo ing
Ġtab ern
Ġnim bly
ĠMade ira
Ġchast isement
Ġarchitect ural
Ġanecd ote
Ġtops ide
Ġult ra
Ġdevast ated
Ġpermet t
Ġvoluptuous ness
Ġmouse tr
Ġfib ers
Ġearthen ware
imag ination
Ġdeme an
Ġmagnet ic
Ġparson age
Ġmelo d
Ġmelo dy
Ġprat ique
Ġincons ist
Ġsouv ient
Ġfag ots
Ġnull ement
ĠPRO P
Ġdissol ved
Ġracont a
Cel ui
ĠPur itans
Ġsurviv ors
Ġhack ney
Ã©le vait
ĠGib raltar
Ġshallow s
Ġbenevol ence
Sp ilett
Ġting e
Ġbub bling
Ġrout ine
Ġalphab ets
ĠFah r
Ġglist ening
Ġconscient iously
Ġforecast le
ĠMah omet
girl s
Ġjac obins
Ġrepar ut
Ġprotr uding
Ġ179 6
Ġsarc astic
Ġster ling
ĠPoor house
Ġprophe t
obser ved
Ġinflamm ation
Ġsteadfast ly
Ġnick n
Ġdefer red
ĠAlp es
ĠBoul anger
Ġrepuls ive
Ġventil ation
Ġpupp y
pock et
estab lished
Ġenig ma
ĠAg de
Ġstragg ling
Ġstealth y
Ġsquad ron
Ġgeolog ists
ĠsÃ©rÃ©n ade
Ġcasc ade
Ġpharm acy
ĠCler gy
ĠSqu are
ĠSax on
Ġdisfig ured
Ġchari ot
Ġsurpl ice
Ġpostp one
Ġarticul ates
Ġcontempor ary
Ġprelim inary
Ġdange reux
Ġunanim ous
Ġplent iful
ĠRen aissance
Ġhogs head
Inst antly
Ġapprent ice
Ġjudic ial
Ġhalloo ed
might y
Ġtha w
Ġcade au
Ġinfect ed
omn ia
ĠGold en
ĠRh ine
ĠRail way
ĠstupÃ© fait
Ġseashe lls
ĠprÃ©l at
Ġbould ers
Ġcust ody
Ġsund ry
Ġintens ified
ĠRey nolds
ĠMontm artre
Ġimmort al
Ġsord id
Ġsext ant
Ġneut ral
ĠLim ercati
Ġinflex ible
Ġengross ed
Ġcolonn ade
Ġamphib ious
ĠCleve land
Ġboud oir
Ġdeth roned
Ġfern s
Ġelope ment
Ġbever age
Ġsapp hire
Ġunintellig ible
Ġcruc ifix
Ġincand escent
ĠÃ©br an
Ġtawn y
Ġineff able
ĠCommand ant
Luc ie
fau Ã§on
Ġhilar ity
ĠvÃ©ri f
Ġdole ful
ĠShar k
ĠAsc agne
Ġpersever ance
ĠSpir it
ĠAndalus ian
Ġhostel ry
rÃ©m itÃ©
Ġincompar able
Ġdegrad ation
ĠKÃ¶n igstr
Agre ed
Cant el
TMOREN CY
iocr ity
Ġlonel iness
Ġhered itary
Ġunper ceived
ĠPod ger
ĠLub in
ĠFeut ry
Ġparox ys
Ġmetaph ys
Ġirrepro achable
Ġveloc ity
Ġequival ent
ĠGuilla umin
ĠKÃ¶nigstr asse
! _"
' -
* ,
, --"
? )
A F
A ig
A CH
A TER
A CK
A udi
B Ã©
B less
B onne
C he
C hange
C ongregation
F ur
F rant
G ir
G lad
H olÃł
I nd
L I
M oi
M ousqueton
N ine
N anine
P ass
R Y
S et
S lowly
_ :
_ ,"
a ig
b ro
b us
b el
b ree
b ach
b ub
b esides
b urg
c art
c ence
c ary
c und
c alled
c rated
d rawn
g om
g ow
g al
g un
g iers
g ener
i vent
i Ã©e
i ette
i Ã©tÃ©
j ured
j oyed
l ay
l ice
l uck
l ines
m ag
o qu
o ie
o gram
p our
p ie
p ine
r ap
r ough
r als
r owing
r ances
r anch
s ac
s ke
s pe
s enal
s pir
s peak
t in
t own
t op
t ons
t ron
t ipped
u ction
u pper
u ye
v u
v in
w r
w all
w arm
w ords
Ġ ichthy
Ġt aches
Ġt angle
Ġt Ã©lÃ©
he ar
Ġa ched
Ġa iling
in ch
Ġs land
Ġs owing
Ġthe d
Ġthe ocr
Ġw int
Ġw ink
Ġw ield
Ġw akened
Ġw ilful
re c
re y
Ġo un
Ġo ats
Ġo min
ou va
ou ghed
ou illÃ©
Ġm ound
Ġm ince
Ġb i
Ġb ake
Ġb als
Ġb itten
Ġb asses
en ance
Ġc ed
Ġc uck
Ġc ited
Ġc aud
ed ies
Ġd ic
Ġd ating
Ġd ents
Ġd izzy
Ġf ried
Ġf urs
Ġf iles
Ġf ooling
on ced
Ġto ile
Ġto kens
Ġl ait
Ġl itt
Ġl ilies
Ġp ul
Ġp um
Ġp ars
Ġp aving
Ġp unt
Ġp inion
Ġp Ã©chÃ©
or b
or ks
or ters
ll ied
ar ge
Ġh ive
Ġh ipp
an ous
Ġhe ating
Ġn as
Ġn ieces
Ġin laid
Ġin animate
om te
om able
om ies
om Ã¨
Ġe lf
Ġe man
le ge
Ġg aps
Ġg urg
Ġg ifted
Ġbe ad
Ġbe eches
ic on
ot al
ĠI M
ĠI T
ĠI m
ut ted
ent rer
Ġre lied
Ġre fect
Ġre aw
Ġre nding
Ġth imble
Ġy oke
ce nd
Ġwh ites
ur ant
et ch
et erm
Ġwith standing
ad orn
Ġr h
Ġr ack
Ġr ally
Ġr use
Ġr acked
Ġr ambled
Ġr ambling
Ġst unted
Ġat om
Ġat las
Ġher mit
il ine
ri ble
ill ion
Ġmy th
ro xy
Ġsa un
Ġsa fer
Ġsa ules
Ġv Ã©n
Ġv ifs
ich on
ĠM ur
ĠM az
ĠM aker
oo h
Ġqu ill
Ġqu atri
Ġso oth
Ġso igne
Ġle ak
ag ir
ag oes
pe re
ch urch
ess ed
li quer
Ġcon ge
Ġcon Ã§
Ġcom er
Ġcom pel
Ġsh ifted
Ġall y
Ġall Ã©e
Ġall iance
Ġup he
Ġup side
Ġj Ã©s
Ġj ested
Ġj ests
te rest
te ments
Ġex Ã©cut
th ur
ait re
Ġla issez
ul og
ĠC ou
ĠC et
ĠC ass
ĠC av
ĠC lement
Ġfe es
Ġfe vers
Ġli ar
Ġor th
art aris
Ġun res
Ġun har
Ġun used
Ġun wel
Ġun rave
Ġun interesting
Ġun settled
Ġun observed
Ġen sc
Ġen fl
Ġpl ait
Ġman iÃ¨re
un ique
un ciation
ind ing
ind eed
ĠP L
ĠP om
ĠP ad
ĠP iÃ©
ap res
Ġtr ough
ass ade
ood le
ort ion
Ġout ing
Ġout right
hed rals
ĠS y
ĠS im
ĠS abb
ĠS acr
ĠS ierra
ck h
ĠA rt
ĠA loise
Ġwill s
Ġwill ed
ĠB re
ĠB as
ĠB und
Ġag i
Ġpr one
Ġpr ick
ĠL E
ĠL I
ĠL ittle
ĠL isten
ĠF red
ĠF ore
ĠF lan
ĠF ere
au cune
Ġpro ie
Ġam uses
Ġam assed
Ġam ulet
Ġco pe
Ġco con
ĠH ivert
Ġaf oot
ĠG ros
ĠG ina
ĠG las
ĠG anges
ĠG ospel
Ġgr unt
Ġgr umble
ab ilities
Ġbr ats
Ġbr oth
Ġbr uits
Ġbr awn
Ġbr avery
Ġsp ars
Ġsp ades
Ġsp iders
Ġlo an
Ġlo ads
lo ge
Ġdis aient
Ġdis heart
Ġdis astrous
Ġrep rim
Ġdes c
Ġpo se
Ġpo Ã¨te
Ġsee ks
ĠR ub
ĠR IVER
Ġsha lt
Ġsha ky
Ġad ro
ue il
Ġover night
Ġover joyed
fe atured
fe rences
Ġch ic
Ġch op
ĠN ord
ĠN ey
ĠN IGHT
op her
Ġper ch
Ġper used
Ġper ishing
Ġper ception
che bÅĵuf
Ġbl ust
Ġbl anches
ving t
Ġcomp ter
Ġpre cept
Ġpe indre
Ġrem is
Ġrem part
Ġcha ined
Ġcha nde
Ġcl an
ĠE X
ĠE y
ĠE ven
ĠE cc
ĠE ug
Ġdu els
Ġdu quel
Ġ' --
co z
co gn
co cks
Ġob s
ĠD I
ĠD ian
ĠD oes
ĠD onne
ĠD over
ĠD illon
Ġoff re
Ġstr aying
Ġres semb
ord onn
Ġap se
Ġap ric
Ġpart ake
Ġpar ley
Ġpar rots
Ġcr Ã©
Ġcr ains
Ġcr umbled
Ġcr amps
Ġcont red
Ġcont orted
Ġcont raction
Ġvo lle
Ġimp ious
Ġlet har
act ions
Ġexp osing
Ġbeg u
Ã¨ retÃ©
ĠT est
ĠT ake
ĠT adorn
iss ions
Ġsc ut
Ġsc amp
Ġsc aly
Ġser as
Ġmar chÃ©
Ġmar itime
ont ed
ier ais
Ġwhere of
Ġje well
Ġacc ab
Ġacc ustom
Ġhead strong
Ġcar te
Ġcar man
Ġcar rier
Ġav anÃ§
Ġho vering
Ġturn key
Ġfl ax
Ġfl irt
Ġfound ling
Ġgl ared
Ġappe lait
Ġcons ac
Ġcons erv
Ġte nding
Ġte inte
iz able
Ġapp uy
ret ien
Ġpour raient
Ġwind y
ens ities
ĠW al
ĠW alter
be fore
ĠV ic
ĠV ir
ĠV aug
ĠV arens
Ġinst itution
Ġbot hered
ci als
ci arda
Ġcomm ettre
ner gie
man y
Ġarm Ã©e
Ġarm Ã©s
Ġsupp ression
Ġsupp ositions
Ġmin arets
pr ison
rew ed
je ur
Ġwr inkles
Ġrest oration
Ġchan t
Ġchar woman
Ġdev ient
the l
ict ive
Ġinc ense
Ġinc onst
Ġinc ommod
Ġsent enced
Ġref rained
Ġdoub ling
ĠPar adise
Ġsl ain
Ġins ists
Ġins anity
Ġins omnia
Ġinter l
Ġinter ro
az on
cess or
ĠGr otto
ute urs
Ġrec ip
Ġfire works
Ġfin ances
Ġdark ening
Ġplac ards
Ġsto ves
Ġten acity
Ã©p Ã©
Ã©p aule
fort y
Ġisland ers
Ġdisc ord
Ġprof itable
Ġinte gr
gr and
Ġsign ing
Ġdet our
Ġdet aching
Ġswe ating
Ġprom otion
Ġsecond ed
lan ade
Ġenc rusted
Ġbar ge
Ġbar ks
Ġbar reaux
Ġhigh road
ĠMa jeur
Ġdec ayed
Ġhope lessly
Ġcirc ulation
Ġdisp ut
Ġdisp ense
Ġaw hile
cha l
Ġdeep ening
Ġdem ons
ĠdÃ© go
ĠdÃ© bar
but ing
ĠRo llet
Ġappro aches
ĠSp iel
Ġcou chant
Ġterri bles
Not withstanding
Ġexcl ude
Ġaut or
Ġrel ent
Ġremem bers
Ġpay Ã©
Ġdead ened
Ġcor ro
uit es
Ġport aient
Ġsleep s
Ġconst ell
Ġgall eys
ĠÃ© d
ĠÃ© perd
Ġpur vey
Ġcreat ing
Ġreal m
Ġdesp otic
Ġcat alog
Ġcat hedrals
ouv ait
ouv Ã©e
Ġregard e
aw ed
pl ay
Ġforg ave
end ing
end roit
Ġnum Ã©ro
Ġpal ing
Ġpal ings
Ġrap ide
Ġvoy ais
Ġworth less
Ġjoy ously
iment ary
Ġsucc Ã©d
Ġsucc umbed
Ġanx ieties
Ġpat rie
Ġsol ved
Ġstri ps
erm it
Ġart ists
ĠBon iface
ped o
Ġcomplete ment
Ġmus ique
Ġmus sels
Ġiron work
inter romp
Ġboy ish
Ġrequ iring
Ġfast idious
Ġtor pid
Ġtor pedo
ex cept
ex cellent
Ġfree ze
Ġoccup ant
ĠrÃ© uss
ĠrÃ© ussi
Ġconce it
Ġconce ited
Ġvill anous
Ġfre ak
Ġbat tered
Ġves pers
Ġincre ases
Ġdelight fully
Ġrid den
Ġpost master
Ġpossess ions
Ġburn s
igne ment
Ġforget ful
Ġconse cr
Be lieve
Ġcro ck
ĠPr in
ĠPr Ã©
ĠPr incipal
Un cle
Ġplan ter
Ġevent ually
Ġbes p
oint ed
ĠRe igate
fin ished
ule ment
ĠY ards
ĠY ew
Ġperm its
Ġcharacter istics
ĠNe vada
ĠKing dom
Ġincl ude
Ġund es
Ġservice able
ĠQu aker
Ġlaw su
Ġlaw yers
Ġcru ised
Ġkill s
Ġyell s
Ġfro g
Ġval ise
aud at
Ġbank er
Ġbank notes
arent ly
kn ife
ob ook
oe uf
Ġhill ock
Ġcher chant
olog ie
Ġren ferm
ĠBar ons
ĠBar net
Ġvar n
Ġ3 5
Ġwrong ed
Ġdom inion
ĠMont fauÃ§on
Ġdonn aient
Ġmed iocrity
Ġguard ians
Ġev inced
Some body
Ġclass ifying
Ġlang ue
Ġtour nant
Ġpath way
Ġagree ably
Ġband it
Ġminute ly
Ġcolle ctions
ĠMaj est
Ġpriv ations
Ġpriv ately
Ġsor rel
Ġrepro ches
Ġsong ez
Ġthreat ens
Ġpreser ves
hold ers
Ġmill iner
Ġpill aged
Ġmont rait
Ġban ners
ĠSe lden
Ġpleasant ry
Ġpron onÃ§a
Ġprote ge
Ġprote cting
Ġprote cts
Ġvoul aient
Ġwretched ly
Ġwa ft
Ġbrill iance
Ġpossib les
Ġliber ally
Ġperi w
Ġsuiv is
Ġcomb inations
Ġwand erer
Ġporte fe
Ġstation ary
Ġbal anced
Ġstair cases
Ġexha led
Ġtransport Ã©
she ll
ĠFer ou
Ġgrass y
Ġsuf fe
Ġaccompan iment
ĠBr avo
De ath
Ġrough ness
Ġmir acles
ON D
aur us
Ġimm Ã©di
Ġmess engers
Ġpier res
Ġintim ately
ma ids
Ġsembl able
Ġscr ap
Ġglim mered
AN S
Ġrevol vers
Ġrevol utions
Ġappre ndre
Ġemotion less
Ġice berg
Ġsout herly
Ġ4 2
Ġdistress es
ĠChrist opher
Ġlun ched
Ġpauv retÃ©
atur ally
Ġrepres ents
fl ow
OR Y
Ġdispl aced
Ġmour ant
Ġwear isome
ann ia
Ġexecution ers
ĠrÃ©s ist
com ers
Ġamb uscade
Ġkey hole
Ġinfin ie
Ex cept
Ġscre ams
Ġcra ign
Ġmaid ens
Ġtrouver ai
Ġsolid ity
OU ND
Ġencl osures
Ġdeck s
Ġimpro per
Ġclock s
Ġconven iences
Ġswall ows
Ġpoison ing
Ġcontri bute
Ġfaint est
Ġunf avour
Ġrig ged
Ġrig orous
Ġcontempt uously
Ġesp ied
EN D
ĠU nder
ĠmÃ© th
aps ing
Even ing
Ġremind s
Ġange lic
Ġcivil ization
Ġ15 7
ĠprÃ©sent Ã©e
ĠMou chebÅĵuf
Ġreconn o
Ġmerc iful
Ġnort herly
Ġcomment ed
Ġmit re
Ġep isode
Ġimper ial
Ġabsurd ities
Ġcomprehe nding
Ġrasc ally
Ġconc ili
Ġspl itting
Ġjou es
Ġjou ir
Ġjou ait
Ġenf erm
Ġcorrespond s
Ġinvol ve
Ġtreas ury
ĠMed icine
ĠComm on
Ġmurmur a
Ġpou ch
Ġpou ces
Ġmarve lled
Ġlaqu ais
Ġcroy ant
Ġcroy ais
Ġentreat ing
Ġsuggest ing
Ġoffe nder
lis aire
Ġbew are
Ġbew itched
Ġextr Ãª
Ġafford s
Ġunus ually
Ġvert ically
Ġrival ry
ĠBou levard
Ġcarpet ed
Ġwra pping
Ġcri b
Ã©m otion
Ġnavig ate
ĠRob inson
Ġamount ed
Ġcig are
mar ried
Ġerr ands
Ġtranquill ement
Ġrepresent atives
Ġenve lop
Ġdispleas e
Ġeru ptions
ĠTour nelles
Ġretire r
Ġretire ment
Ġfi ancÃ©e
ores s
Ġnorthern most
Ġ8 00
Ġtos s
Ġhel ter
Ġhel met
Ġdimin ishing
Ġsympath ies
Ġforbid ding
Ġadress a
Ġadress Ã©
Ġadress ait
Ġestim able
Ġorigin ated
Ġtin iest
Ġaper cevoir
ĠÃ©tr anger
ĠÃ©tr anges
Ġtun ic
ĠChan ge
Ġsinc Ã¨re
ĠsÃ©rie usement
Ġconcent ric
Ġconcent rate
Ġconject ured
Ġbarbar ians
TI V
Ġwave red
Ġcass er
Ġleaf y
Ġtele grams
ĠOr der
Ġtast ing
Ġquad rum
Ġspy glass
Ġexhibit ing
ĠWell ington
got ten
Ġwick er
Ġrot ting
ĠAnt oine
Ġmollus cs
Ġaccomplish ment
Ġwithdraw ing
TH ER
Ġensu ing
Ġelement ary
Br other
aill ot
lement ary
Ġgagn Ã©
ĠBÃ© lisaire
Ġinsen sibly
Ġdiscip lined
Ġsacrific ing
Ġmars hy
Ġferm ier
Ġsuck ling
Ġvibr ated
Ġben umbed
Ġliter ary
ste ady
did dle
Ġfund s
Ġinval uable
Ġsho al
Ġsweep s
Ġhazard ed
Ġtick led
esce nd
Ġcultiv ate
Tw elve
Ġprel ude
Ġsurm ise
Ġscull ing
Arri ving
atr ical
Ġvehic les
ĠpÃ©r ils
ĠMin istry
ĠSw itzer
Ġhurric anes
Ġphant oms
Ġphant asm
Ġinse ct
Ġselfish ness
Ġperpet ually
Ġchagr ins
Ġapolog ise
Ġassert ion
Ġrefer ring
Ġvin rent
Ġstrang ling
IR ST
pro pre
Ġcul p
ĠSam uel
Ġ186 7
Ġscrut iny
Ġappart enant
Ġarriv Ã©s
Ġarriv aient
ĠÃ©g alement
Ġtyr ant
ĠnÃ©cess aires
Ġumbre llas
Ġalle ged
Ġcommenc Ã©
Ġatte int
Ġchois ir
Ġacute ly
Ġterrif y
ĠAustral ian
Ġtwink le
ĠVern aye
Ġprais es
Ġtreacher ous
bu ilt
ĠFal coz
ĠDum as
ĠconsÃ©qu ent
Ġquarre lled
Ġbenefact ress
Ġjun ction
Ġpled ged
Ġjourn Ã©es
Ġrelax ed
Ġ181 5
Ġhistor ian
Ġhistor ical
Ġurch in
accord er
ĠcÃ© der
Ġglac ial
Ġirre voc
Ġchestnut s
Ġwagon ette
Ġcash ier
Ġpha eton
Ġgout te
Ġripp le
ĠGen Ã¨ve
Ġdevast ation
Ġrenvoy a
Ġrenvoy er
Ġbrace lets
Ġrestaur ants
ĠdÃ©n on
Ġturb ulent
Ġscrutin ised
ĠPic ardy
Ġtrist es
ĠJo han
Ġceas elessly
ĠVinc ent
Ġgnaw ing
Fif teen
ĠlÃ©g Ã¨re
Ġenn uye
Ġavar icious
Ġbrilli antly
Ġeconom ize
Ġsour it
Ang oule
Int o
Ġwreat hs
Ġcamar ade
ĠScript ures
ĠRic ciarda
Ġtriomp he
Ġsensual ity
Ġfroid ement
Ġantip athy
Ġvom ited
Ġparv int
Ġcraint es
Ġguillot ined
Ġvehement ly
Ġfres hen
Ġranc our
Ã©loign er
Ġprocl aimed
ĠprocÃ©d Ã©
ĠrÃ©ser voir
Ġextermin ate
Ġinund ation
ĠBos si
Ġexpans ion
Ġoppress ive
ĠÃ©tend u
ioc re
Ġdais ies
Ġdisappro bation
blood ed
Aut riche
Cor rect
Ġfaud rait
Ġbeet root
Ġforbear ance
ĠPers ian
Ġchoo ses
Ġobliv ion
Ġportray ed
Ġcabb ages
Ġcandlest icks
Ġimpregn able
Ġfugit ives
treat ed
Ġoo zed
Ġpous ser
Ġsock et
Ġavow al
Ġdecomp osed
Ġcompromet tre
Ġbamb oo
ĠvÃªt u
ĠPour quoi
Ġpecc aries
Ġcarap aces
Ġwatersp out
Ġcounse llor
Ġtus ks
Ġcens ure
Ġpus ill
Ġungr ateful
Ġunfast ened
ĠchÃ¢ le
Ġsubse quent
Ġmush room
accomp agn
embarr as
hÃ´ tesse
Ġdiction ary
Ġrus set
Ġperv aded
Ġpector al
Ġcrab bed
Ġintrud ers
Ġinterlocut or
Fort y
ĠChat eau
empe reur
ĠBuck horse
Ġdub ious
Ġscree ch
Bern ard
Cap ital
hom mes
Ġpy roxy
Ġbeque athed
Ġree king
ĠSher idan
Ġprawn s
ĠLamb ton
ĠHu chette
ĠRet z
ĠNov are
Ġpregn ant
Ġflab by
Ġmainten ance
Ġpilgr im
ĠSoci ety
ĠpropriÃ©t aire
Ġinartic ulate
Ġrhe um
Ġanem one
ifera e
Ġunic orn
Ġprohibit ed
ĠDin ah
Ġapothe cary
[...]
