{"<s>":0,"<pad>":1,"</s>":2,"<unk>":3,"!":4,"\"":5,"#":6,"$":7,"%":8,"&":9,"'":10,"(":11,")":12,"*":13,"+":14,",":15,"-":16,".":17,"/":18,"0":19,"1":20,"2":21,"3":22,"4":23,"5":24,"6":25,"7":26,"8":27,"9":28,":":29,";":30,"<":31,"=":32,">":33,"?":34,"@":35,"A":36,"B":37,"C":38,"D":39,"E":40,"F":41,"G":42,"H":43,"I":44,"J":45,"K":46,"L":47,"M":48,"N":49,"O":50,"P":51,"Q":52,"R":53,"S":54,"T":55,"U":56,"V":57,"W":58,"X":59,"Y":60,"Z":61,"[":62,"\\":63,"]":64,"^":65,"_":66,"`":67,"a":68,"b":69,"c":70,"d":71,"e":72,"f":73,"g":74,"h":75,"i":76,"j":77,"k":78,"l":79,"m":80,"n":81,"o":82,"p":83,"q":84,"r":85,"s":86,"t":87,"u":88,"v":89,"w":90,"x":91,"y":92,"z":93,"{":94,"|":95,"}":96,"~":97,"¡":98,"¢":99,"£":100,"¤":101,"¥":102,"¦":103,"§":104,"¨":105,"©":106,"ª":107,"«":108,"¬":109,"®":110,"¯":111,"°":112,"±":113,"²":114,"³":115,"´":116,"µ":117,"¶":118,"·":119,"¸":120,"¹":121,"º":122,"»":123,"¼":124,"½":125,"¾":126,"¿":127,"À":128,"Á":129,"Â":130,"Ã":131,"Ä":132,"Å":133,"Æ":134,"Ç":135,"È":136,"É":137,"Ê":138,"Ë":139,"Ì":140,"Í":141,"Î":142,"Ï":143,"Ð":144,"Ñ":145,"Ò":146,"Ó":147,"Ô":148,"Õ":149,"Ö":150,"×":151,"Ø":152,"Ù":153,"Ú":154,"Û":155,"Ü":156,"Ý":157,"Þ":158,"ß":159,"à":160,"á":161,"â":162,"ã":163,"ä":164,"å":165,"æ":166,"ç":167,"è":168,"é":169,"ê":170,"ë":171,"ì":172,"í":173,"î":174,"ï":175,"ð":176,"ñ":177,"ò":178,"ó":179,"ô":180,"õ":181,"ö":182,"÷":183,"ø":184,"ù":185,"ú":186,"û":187,"ü":188,"ý":189,"þ":190,"ÿ":191,"Ā":192,"ā":193,"Ă":194,"ă":195,"Ą":196,"ą":197,"Ć":198,"ć":199,"Ĉ":200,"ĉ":201,"Ċ":202,"ċ":203,"Č":204,"č":205,"Ď":206,"ď":207,"Đ":208,"đ":209,"Ē":210,"ē":211,"Ĕ":212,"ĕ":213,"Ė":214,"ė":215,"Ę":216,"ę":217,"Ě":218,"ě":219,"Ĝ":220,"ĝ":221,"Ğ":222,"ğ":223,"Ġ":224,"ġ":225,"Ģ":226,"ģ":227,"Ĥ":228,"ĥ":229,"Ħ":230,"ħ":231,"Ĩ":232,"ĩ":233,"Ī":234,"ī":235,"Ĭ":236,"ĭ":237,"Į":238,"į":239,"İ":240,"ı":241,"Ĳ":242,"ĳ":243,"Ĵ":244,"ĵ":245,"Ķ":246,"ķ":247,"ĸ":248,"Ĺ":249,"ĺ":250,"Ļ":251,"ļ":252,"Ľ":253,"ľ":254,"Ŀ":255,"ŀ":256,"Ł":257,"ł":258,"Ń":259,"Ġt":260,"he":261,"Ġa":262,"in":263,"Ġs":264,"Ġthe":265,"Ġw":266,"re":267,"Ġo":268,"ou":269,"nd":270,"ha":271,"er":272,"Ġm":273,"it":274,"Ġb":275,"is":276,"en":277,"Ġc":278,"ed":279,"Ġd":280,"Ġf":281,"on":282,"Ġto":283,"Ġl":284,"Ġp":285,"Ġof":286,"es":287,"ing":288,"as":289,"Ġand":290,"or":291,"ll":292,"ar":293,"Ġh":294,"an":295,"Ġhe":296,"Ġn":297,"Ġin":298,"Ġha":299,"at":300,"om":301,"Ġe":302,"le":303,"hat":304,"Ġg":305,"Ġbe":306,"ic":307,"ot":308,"ĠI":309,"ut":310,"se":311,"im":312,"ent":313,"Ġwas":314,"ve":315,"ow":316,"Ġre":317,"id":318,"ld":319,"Ġth":320,"Ġy":321,"st":322,"Ġthat":323,"Ġu":324,"ce":325,"Ġon":326,"Ġwh":327,"ur":328,"ly":329,"Ġit":330,"et":331,"ir":332,"gh":333,"ith":334,"Ġyou":335,"ver":336,"Ġde":337,"Ġwith":338,"ion":339,"Ġhis":340,"ad":341,"qu":342,"Ġhad":343,"ay":344,"al":345,"Ġfor":346,"Ġr":347,"Ġas":348,"Ġwe":349,"âĢ":350,"Ġnot":351,"Ġst":352,"ac":353,"Ã©":354,"ght":355,"ould":356,"Ġat":357,"Ġher":358,"il":359,"Ġse":360,"am":361,"Ġme":362,"The":363,"Ġan":364,"ain":365,"ri":366,"âĢĻ":367,"ill":368,"Ġmy":369,"ter":370,"her":371,"ro":372,"Ġhim":373,"Ġsa":374,"Ġv":375,"ich":376,"Ġis":377,"red":378,"ke":379,"Ġwhich":380,"ĠM":381,"oo":382,"if":383,"Ġqu":384,"our":385,".\"":386,"Ġso":387,"us":388,"Ġle":389,"ore":390,"Ġshe":391,"ag":392,"pe":393,"Ġsu":394,"and":395,"ch":396,"Ġhave":397,"ant":398,"ess":399,"li":400,"Ġfr":401,"ct":402,"ous":403,"out":404,"Ġne":405,"Ġcon":406,"Ġby":407,"Ġthis":408,"res":409,"ard":410,"Ġcom":411,"ne":412,"Ġsh":413,"Ġall":414,"ble":415,"ight":416,"all":417,"Ġbut":418,"Ġup":419,"Ġj":420,"te":421,"Ġfrom":422,"Ġex":423,"Ġk":424,"Ġwere":425,"th":426,"Ġsaid":427,"ait":428,"Ġla":429,"est":430,"lf":431,"Ġ\"":432,"Ġwho":433,"os":434,"ul":435,"ĠC":436,"Ġfe":437,"'s":438,"Ġthey":439,"pp":440,"Ġwhe":441,"ame":442,"ie":443,"Ġwould":444,",\"":445,"very":446,"ong":447,"ast":448,"Ġno":449,"ust":450,"Ġdo":451,"ers":452,"ist":453,"Ġone":454,"Ġli":455,"em":456,"ol":457,"Ġor":458,"art":459,"Ġun":460,"Ġthem":461,"Ġen":462,"ome":463,"ound":464,"Ġpl":465,"Ġal":466,"ation":467,"Ġman":468,"He":469,"un":470,"self":471,"ind":472,"ĠP":473,"ure":474,"ap":475,"?\"":476,"ak":477,"Ġab":478,"han":479,"Ġtr":480,"ass":481,"ge":482,"ood":483,"um":484,"ort":485,"Ġtheir":486,"Ġout":487,"Ġcould":488,"one":489,"hed":490,"ell":491,"Ġthere":492,"ven":493,"ĠS":494,"ck":495,"ig":496,"ĠA":497,"Ġbeen":498,"Ġwor":499,"ice":500,"ire":501,"ide":502,"Ġar":503,"Ġwill":504,"ĠB":505,"ate":506,"el":507,"Ġag":508,"ace":509,"Ġpr":510,"!\"":511,"ked":512,"--":513,"Ġint":514,"Ġare":515,"ĠL":516,"Ġgo":517,"ine":518,"itt":519,"Ġwhen":520,"ĠF":521,"au":522,"Ġtw":523,"ite":524,"own":525,"nt":526,"Ġpro":527,"reat":528,"ved":529,"Ġif":530,"ough":531,"Ġam":532,"ive":533,"Ġco":534,"able":535,"Ġyour":536,"ĠH":537,"It":538,"Ġaf":539,"Ġmore":540,"Ġet":541,"hing":542,"Ġwhat":543,"ence":544,"ĠÃ":545,"Ġmo":546,"ther":547,"ack":548,"urn":549,"ĠG":550,"Ġgr":551,"ab":552,"Ġro":553,"Ġbr":554,"Ġsp":555,"Ġtim":556,"ake":557,"Ġlo":558,"ĠJ":559,"ais":560,"lo":561,"Ġvery":562,"pt":563,"Ġthen":564,"Ġkn":565,"ought":566,"Ġsome":567,"tain":568,"Ġdis":569,"ade":570,"Ġus":571,"Ġinto":572,"Ġim":573,"Ġrep":574,"ans":575,"ment":576,"cc":577,"me":578,"ance":579,"Ġdes":580,"Ġpo":581,"ile":582,"ity":583,"Ġagain":584,"ud":585,"Ġday":586,"nder":587,"age":588,"But":589,"Ġlike":590,"ĠÃł":591,"Ġsee":592,"ĠR":593,"Ġany":594,"Ġdid":595,"ft":596,"av":597,"ress":598,"ep":599,"ry":600,"Ġsha":601,"ave":602,"fore":603,"Ġad":604,"Ġother":605,"way":606,"Ġupon":607,"ittle":608,"ue":609,"ng":610,"Ġtwo":611,"Ġlong":612,"Ġover":613,"Ġtime":614,"Ġhand":615,"Ġthan":616,"are":617,"Ġtoo":618,"fe":619,"Ġlittle":620,"ish":621,"Ġch":622,"Ġshould":623,"ĠN":624,"op":625,"ree":626,"And":627,"Ġbo":628,"Ġloo":629,"Ġper":630,"Ġque":631,"Ġcan":632,"Ġonly":633,"Ġour":634,"Ġsay":635,"Ġnow":636,"Ġknow":637,"che":638,"Ġbl":639,"ated":640,"other":641,"Ġpass":642,"ving":643,"Ġcomp":644,"Ġmade":645,"Ġpre":646,"ra":647,"ps":648,"Ġabout":649,"Ġpe":650,"ber":651,"Ġrem":652,"we":653,"Ġcha":654,"ions":655,"Ġfo":656,"Ġcl":657,"ried":658,"ĠE":659,"Ġbefore":660,"ies":661,"ons":662,"Ġgreat":663,"ious":664,"Ġafter":665,"ady":666,"king":667,"Th":668,"Ġdu":669,"Ġthought":670,"Ġits":671,"Ġ'":672,"ose":673,"Ġhimself":674,"Ġdown":675,"Ġhas":676,"Ġfir":677,"rie":678,"Ġeven":679,"ather":680,"co":681,"Ġey":682,"Ġob":683,"ĠD":684,"Ġoff":685,"Ġmust":686,"Ġsur":687,"You":688,"Ã©t":689,"od":690,"Ġthese":691,"'t":692,"Ġhow":693,"Ġgood":694,"Ġunder":695,"les":696,"Ġstr":697,"Ġevery":698,"Ġwithout":699,"ary":700,"ally":701,"ars":702,"ach":703,"ount":704,"Ġres":705,"led":706,"ise":707,"uch":708,"ward":709,"ord":710,"Ġap":711,"wn":712,"Ġpart":713,"ings":714,"ang":715,"Ġ;":716,"Ġwent":717,"She":718,"Ġpar":719,"Ġfirst":720,"ness":721,"Ġcr":722,"Ġil":723,"Ġcame":724,"Ġcont":725,"Ġles":726,"si":727,"Ġback":728,"Ġvo":729,"Ġimp":730,"ife":731,"Ġqui":732,"ux":733,"ild":734,"anc":735,"Ġlet":736,"int":737,"ty":738,"Ġsuch":739,"Ġnever":740,"Ġent":741,"Ġspe":742,"act":743,"de":744,"Ġthr":745,"âĪ":746,"âĪĴ":747,"ened":748,"ared":749,"Ġmuch":750,"Ġbet":751,"Ġcome":752,"ull":753,"Ġexp":754,"Ġbeg":755,"Ġwell":756,"ff":757,"orn":758,"Ã¨":759,"ĠT":760,"Ġwat":761,"ath":762,"iss":763,"ink":764,"Ġsc":765,"Ġop":766,"Ġser":767,"ouse":768,"Ġmar":769,"ai":770,"What":771,"ful":772,"Ġret":773,"ied":774,"ign":775,"Ġbec":776,"ves":777,"ont":778,"oment":779,"Ġway":780,"ien":781,"Ġmight":782,"Ġmoment":783,"Ġlast":784,"rt":785,"Ġseem":786,"ier":787,"llow":788,"Ġsm":789,"Ġwhere":790,"Ġje":791,"ks":792,"agn":793,"Ġeyes":794,"Ġacc":795,"There":796,"Ġnothing":797,"aut":798,"lied":799,"Ġce":800,"Ġhead":801,"Ġcar":802,"Ġstill":803,"ix":804,"Ġav":805,"Ġho":806,"air":807,"Ġwom":808,"This":809,",'":810,"cl":811,"lle":812,"They":813,"Ġturn":814,"Ġfl":815,"Ġmake":816,"Ġyoung":817,"Ġword":818,"Ġfound":819,"Ġjust":820,"uli":821,"ick":822,"Ġbeing":823,"Ġgl":824,"Ġreplied":825,"In":826,"ince":827,"riend":828,"que":829,"ĠMr":830,"Ġaway":831,"ip":832,"Ġune":833,"mb":834,"ever":835,"Ġfriend":836,"land":837,"Ġsaw":838,"Ġshall":839,"pect":840,"Ġold":841,"less":842,"Ġthree":843,"Then":844,"ged":845,"Ġ.":846,"Ġleft":847,"Ġappe":848,"med":849,"Ġson":850,"Ġmon":851,"Ġdist":852,"Ġset":853,"Ġend":854,"lt":855,"aking":856,"We":857,"ille":858,"Ġke":859,"ors":860,"ond":861,"Ġcons":862,"ui":863,"omet":864,"ished":865,"thing":866,"ily":867,"ĠÃ©t":868,"Ġpres":869,"Ġtook":870,"At":871,"Ġpos":872,"Ġte":873,"Ġput":874,"iz":875,"ertain":876,"Ġapp":877,"Ġthink":878,"Ġye":879,"Ġdans":880,"ret":881,".'":882,"ulien":883,"Ġpour":884,"per":885,"Ġcour":886,"Ġwind":887,"der":888,"Ġtake":889,"enc":890,"tre":891,"Ġcap":892,"Ġthose":893,"ens":894,"agnan":895,"Art":896,"Artagnan":897,"Ġnight":898,"Ġthrough":899,"ted":900,"Ġown":901,"hen":902,"Ġseemed":903,"ction":904,"une":905,"Ġmen":906,"ĠW":907,"sel":908,"ren":909,"Ġau":910,"Ġmay":911,"Ġche":912,"Ġhour":913,"Ġkne":914,"Ġhere":915,"Ġsoon":916,"Ġreturn":917,"ting":918,"Ġplace":919,"leas":920,"Ġmyself":921,"ches":922,"Ġonce":923,"Ġget":924,"Ġmost":925,"und":926,"be":927,"ail":928,"Ãª":929,"lie":930,"Ġwhile":931,"Ġwoman":932,"oub":933,"Ġlife":934,"Ġhouse":935,"Ġdon":936,"vent":937,"Ġasked":938,"ause":939,"Ġtell":940,"ĠV":941,"Ġcall":942,"Ġgoing":943,"Ġdoor":944,"Ġhar":945,"Ġpas":946,"iv":947,"Ġface":948,"Ġatt":949,"Ġcried":950,"Ġhapp":951,"Ġlui":952,"Ġinst":953,"aster":954,"vers":955,"Ġbot":956,"Ġheard":957,"Ġhands":958,"Ġsame":959,"Ġlove":960,"ci":961,"Ġcomm":962,"ner":963,"Ġter":964,"Ġlight":965,"ling":966,"Ġsil":967,"Ġheart":968,"No":969,"Ġwant":970,"man":971,"Ġarm":972,"ost":973,"Ġroom":974,"igh":975,"ched":976,"ways":977,"orm":978,"ced":979,"Ġpoint":980,"Ġhaving":981,"Ġsupp":982,"get":983,"Ġsomet":984,"Ġmin":985,"ition":986,"pr":987,"Ã©e":988,"ither":989,"Yes":990,"adame":991,"ained":992,"Ġreg":993,"thos":994,"Ġlooked":995,"Ġagainst":996,"ently":997,"ru":998,"elle":999,"Ġyet":1000,"Ġans":1001,"Ġtold":1002,"rew":1003,"ult":1004,"ark":1005,"gg":1006,"wards":1007,"je":1008,"Ġbegan":1009,"Ġpleas":1010,"Ġanother":1011,"Ġcount":1012,"Ġcertain":1013,"Ġmat":1014,"urs":1015,"Ġfollow":1016,"Ġchild":1017,"ered":1018,"ĠJulien":1019,"ros":1020,"Ġwr":1021,"Ġtout":1022,"ween":1023,"Ġrest":1024,"sible":1025,"oy":1026,"Ġpers":1027,"Ġbre":1028,"Ġthough":1029,"Ġwater":1030,"Ġear":1031,"ined":1032,"Ġchan":1033,"âĢĶ":1034,"Ġchar":1035,"rice":1036,"Ġfind":1037,"pped":1038,"Ġac":1039,"Ġfelt":1040,"mer":1041,"Ġair":1042,"fect":1043,"Ġgive":1044,"ures":1045,"arr":1046,"Ġhor":1047,"Ġplus":1048,"As":1049,"Ġalways":1050,"Wh":1051,"Ġcontin":1052,"den":1053,"Ġfort":1054,"Ġbetween":1055,"ins":1056,"Ġdev":1057,"the":1058,"Ġever":1059,"Ġgi":1060,"ian":1061,"Ġdr":1062,"Ġwhom":1063,"Ġconf":1064,"Ġfa":1065,"ations":1066,"Ġhalf":1067,"Ã©s":1068,"abrice":1069,"up":1070,"On":1071,"ict":1072,"Ġherself":1073,"Ġfew":1074,"ows":1075,"ase":1076,"Ġinc":1077,"men":1078,"Ġgu":1079,"aken":1080,"Ġass":1081,"ory":1082,"Ġsent":1083,"Ġnear":1084,"Ġseen":1085,"Ġsea":1086,"Ġref":1087,"ating":1088,"Ġvous":1089,"Ġfar":1090,"entle":1091,"ene":1092,"Ġround":1093,"Ġes":1094,"That":1095,"Ġfour":1096,"Ġadd":1097,"Ġmorn":1098,"ette":1099,"ople":1100,"ieur":1101,"ement":1102,"Ġtal":1103,"Ġsw":1104,"Ġside":1105,"oud":1106,"My":1107,"Ġknew":1108,"Ġeach":1109,"light":1110,"Ġmorning":1111,"iness":1112,"onsieur":1113,"lock":1114,"Ġopen":1115,"Ġright":1116,"Ġocc":1117,"Well":1118,"Ġdoub":1119,"Ġ!":1120,"Ġsat":1121,"Ġnew":1122,"Ġtre":1123,"Ġdays":1124,"Ġgave":1125,"Ã©c":1126,"Ġwork":1127,"haps":1128,"Ġvoice":1129,"When":1130,"Ġmet":1131,"ten":1132,"Ġstre":1133,"ured":1134,"cei":1135,"osed":1136,"ĠPar":1137,"ired":1138,"Ġmany":1139,"Ġevening":1140,"lic":1141,"Ġgentle":1142,"Ġenough":1143,"Ġfeel":1144,"Ġquite":1145,"owed":1146,"Ġunc":1147,"xt":1148,"Ġpassed":1149,"Ġem":1150,"so":1151,"Ġmind":1152,"selves":1153,"Ġbelie":1154,"Ġdif":1155,"Ġnat":1156,"Ġcur":1157,"Ġave":1158,"ued":1159,"Ġlook":1160,"Ġnor":1161,"ning":1162,"Ġavait":1163,"Oh":1164,"Ġsub":1165,"most":1166,"Ġpeople":1167,"ale":1168,"uck":1169,"ove":1170,"ery":1171,"Ġest":1172,"ters":1173,"ĠMar":1174,"ool":1175,"Ġlar":1176,"ub":1177,"vant":1178,"Ġwal":1179,"Ġwhole":1180,"Ġdire":1181,"Ġinf":1182,"ison":1183,"Ġeng":1184,"Ġcle":1185,"Ġ1":1186,"Ġsl":1187,"Ġdep":1188,"ower":1189,"Ġcompan":1190,"Ġins":1191,"har":1192,"Ġthings":1193,"Ġsince":1194,"Ġarri":1195,"hes":1196,"Ġdone":1197,"Ġmother":1198,"Ġinter":1199,"How":1200,"ank":1201,"az":1202,"rent":1203,"ross":1204,"Ġname":1205,"roft":1206,"aient":1207,"Ġ:":1208,"ject":1209,"cess":1210,"tend":1211,"âĢĵ":1212,"Ġpoor":1213,"irl":1214,"ple":1215,"ude":1216,"Ġgot":1217,"ĠGr":1218,"Ġwait":1219,"Ġind":1220,"Ġfather":1221,"Ġworld":1222,"ised":1223,"Ġwhose":1224,"Ġdoubt":1225,"Ġou":1226,"ĠFabrice":1227,"Ġcond":1228,"ane":1229,"If":1230,"ute":1231,"encroft":1232,"Ġavec":1233,"aring":1234,"ular":1235,"Ġwords":1236,"ĠO":1237,"ying":1238,"Ġfam":1239,"ook":1240,"undred":1241,"Ġsou":1242,"Ġhundred":1243,"uring":1244,"aught":1245,"Ġthing":1246,"Ġbrought":1247,"Ġlonger":1248,"ĠÃ©tait":1249,"here":1250,"ents":1251,"Ġturned":1252,"Ġbro":1253,"Ġunderst":1254,"ides":1255,"als":1256,"Ġsomething":1257,"Ġinde":1258,"right":1259,"Ġvis":1260,"Ġmaster":1261,"Ġfeet":1262,"Ġalso":1263,"Ġsk":1264,"ĠHe":1265,"Ġsix":1266,"Ġread":1267,"oke":1268,"ready":1269,"Ġfall":1270,"ressed":1271,"aint":1272,"Ġbed":1273,"its":1274,"Ġrec":1275,"Ġide":1276,"Ġfull":1277,"Ġgirl":1278,"ately":1279,"vered":1280,"eth":1281,"Ġjour":1282,"omp":1283,"Ġless":1284,"ĠMadame":1285,"Ġelle":1286,"Ġyears":1287,"Ġfire":1288,"Ġtowards":1289,"ser":1290,"cept":1291,"Ġsir":1292,"ceived":1293,"Ġsort":1294,"Ġmid":1295,"Ġgen":1296,"Ġcol":1297,"Ġbeh":1298,"Ġtaken":1299,"Ġfin":1300,"Ġdark":1301,"ason":1302,"Ġste":1303,"Ġalready":1304,"oun":1305,"Ġcare":1306,"Ġleast":1307,"Ġleave":1308,"Ġcaptain":1309,"raw":1310,"Ġbetter":1311,"orr":1312,"Ġbecause":1313,"Ġma":1314,"use":1315,"ger":1316,"Ġalone":1317,"enty":1318,"Ġappeared":1319,"ached":1320,"Ġalmost":1321,"His":1322,"dden":1323,"Ġblack":1324,"Ġtrou":1325,"Ġhard":1326,"Ġlarge":1327,"Ġboth":1328,"mes":1329,"ĠFr":1330,"bert":1331,"Ġperhaps":1332,"outh":1333,"Ġclo":1334,"Ġkind":1335,"Ã¨re":1336,"ousand":1337,"Ġdit":1338,"Ġquest":1339,"Ġspeak":1340,"Ġplac":1341,"Ġsle":1342,"Ġsto":1343,"Ġhum":1344,"gu":1345,"Ġbien":1346,"Ġsudden":1347,"ĠLa":1348,"gether":1349,"ys":1350,"used":1351,"amp":1352,"Ġnext":1353,"Ġcalled":1354,"Ġthousand":1355,"ster":1356,"Ã©r":1357,"ĠGod":1358,"Ġreco":1359,"Ġthemselves":1360,"arding":1361,"Ġten":1362,"ater":1363,"ange":1364,"not":1365,"Ã©p":1366,"du":1367,"Ġdear":1368,"fort":1369,"Ġir":1370,"rest":1371,"ime":1372,"Ġanything":1373,"ĠPencroft":1374,"Ġperson":1375,"'ll":1376,"ces":1377,"Ġlau":1378,"Ġkeep":1379,"Ġbehind":1380,"oir":1381,"Ġmis":1382,"Ġwall":1383,"tle":1384,"Ġdre":1385,"eb":1386,"tered":1387,"ient":1388,"val":1389,"ois":1390,"Ġfive":1391,"cy":1392,"Ġhon":1393,"Ġgone":1394,"ets":1395,"Ġisland":1396,"day":1397,"cted":1398,"Ġindeed":1399,"ention":1400,"Ġeas":1401,"Ġsec":1402,"Ġdisc":1403,"ided":1404,"Ġmais":1405,"Ġamong":1406,"Ġve":1407,"Ġsi":1408,"Ġrather":1409,"Ġsim":1410,"Ġsure":1411,"Ġeverything":1412,"bit":1413,"Ġlad":1414,"Ġlay":1415,"Ġuncle":1416,"Ġsing":1417,"ned":1418,"Ġboat":1419,"Ġobser":1420,"Ġsail":1421,"tem":1422,"Ġaff":1423,"Ġfriends":1424,"Ġwife":1425,"Ġrun":1426,"owing":1427,"Ġprof":1428,"Ġhowever":1429,"ĠAr":1430,"ken":1431,"Ġinte":1432,"Ġfore":1433,"Ġgrand":1434,"anger":1435,"ical":1436,"So":1437,"cond":1438,"Ġ?":1439,"omme":1440,"Ġorder":1441,"Ġalong":1442,"Ġhear":1443,"Ġsuff":1444,"lp":1445,"Ġwar":1446,"Ġcountry":1447,"Ġsurpr":1448,"ĠParis":1449,"Ġcette":1450,"bed":1451,"gr":1452,"Ġtogether":1453,"Ġsign":1454,"Ġcal":1455,"Ġfur":1456,"Ġmist":1457,"ense":1458,"Ġfut":1459,"Ġpri":1460,"Ġletter":1461,"Ã§":1462,"Ġdet":1463,"let":1464,"Ġdoes":1465,"ĠHarding":1466,"Ġswe":1467,"ible":1468,"ister":1469,"imes":1470,"Ġsmall":1471,"Ġcontinued":1472,"Ġvie":1473,"yr":1474,"ĠÂ":1475,"ages":1476,"Ġtem":1477,"Ġhus":1478,"ual":1479,"Ġpresent":1480,"inal":1481,"Ġfell":1482,"Ġprom":1483,"Ġabs":1484,"Ġlost":1485,"Ġfine":1486,"Ġlist":1487,"Ġremained":1488,"irc":1489,"Ġtill":1490,"ĠAthos":1491,"Ġstood":1492,"aim":1493,"Ġill":1494,"Ġsecond":1495,"Ġland":1496,"Ġreturned":1497,"Ġbelieve":1498,"00":1499,"ĠK":1500,"Ġbeaut":1501,"Ġabove":1502,"Ġmil":1503,"ceed":1504,"ield":1505,"ĠJe":1506,"Ġfear":1507,"lan":1508,"Ġenc":1509,"Ġ_":1510,"Ġuse":1511,"Ġexc":1512,"aptain":1513,"to":1514,"ering":1515,"Ġadm":1516,"For":1517,"Ġlow":1518,"Ġtwenty":1519,"fic":1520,"room":1521,"Ġable":1522,"ĠSt":1523,"To":1524,"Ġhun":1525,"Ġhome":1526,"ards":1527,"clock":1528,"Ġtable":1529,"Ġform":1530,"Ġarms":1531,"Ġsun":1532,"Ġhours":1533,"Ġcoming":1534,"Ġengine":1535,"!'":1536,"uis":1537,"ains":1538,"Ġbene":1539,"Ah":1540,"All":1541,"Ġbel":1542,"oney":1543,"Ġbar":1544,"Ġneed":1545,"Ġhigh":1546,"Ġstand":1547,"ĠEng":1548,"for":1549,"Ġthus":1550,"Ġdeath":1551,"Ġrais":1552,"ĠMa":1553,"Ġses":1554,"utes":1555,"bour":1556,"Ã¢":1557,"Ġel":1558,"Ġ(":1559,"eng":1560,"Ġthir":1561,"Ġdec":1562,"Ġmot":1563,"Ġbur":1564,"Ã¨s":1565,"ĠThe":1566,"Ġtou":1567,"Ġbest":1568,"Ġhope":1569,"Ġkept":1570,"Ġcirc":1571,"Ġcold":1572,"Ġroad":1573,"Ġdisp":1574,"Ġwood":1575,"Ġidea":1576,"Ġaw":1577,"cha":1578,"Ġshort":1579,"Ġgiven":1580,"Ġking":1581,"Why":1582,"iver":1583,"Ġfoot":1584,"Ġmonth":1585,"illed":1586,"Ġinstant":1587,"Ġsound":1588,"Ġele":1589,"Ġadv":1590,"?'":1591,"Ġwhite":1592,"Ġexpect":1593,"Ġjo":1594,"band":1595,"Ġ-":1596,"Ġpol":1597,"ances":1598,"Le":1599,"wer":1600,"Ġred":1601,"Ġdeep":1602,"Ġdem":1603,"ert":1604,"ĠdÃ©":1605,"ific":1606,"but":1607,"ole":1608,"Ã´":1609,"Ġfollowed":1610,"Ġstep":1611,"Ġwindow":1612,"Ġbrother":1613,"ats":1614,"Ġsays":1615,"Ġbecame":1616,"Ġlooking":1617,"Ġduches":1618,"Ġquestion":1619,"ety":1620,"Ġvi":1621,"that":1622,"Ġact":1623,"Ġpossible":1624,"Ġshore":1625,"Ġground":1626,"Ġbus":1627,"ĠChar":1628,"Ġsilence":1629,"ĠRo":1630,"Ġothers":1631,"Ġappro":1632,"ĠSp":1633,"mm":1634,"Ġcou":1635,"appe":1636,"Ġpet":1637,"wered":1638,"Ġunderstand":1639,"Ġsight":1640,"Ġmoney":1641,"Ġhusband":1642,"gn":1643,"Ġmur":1644,"Ġanswered":1645,"Ġcent":1646,"ushed":1647,"Ġterri":1648,"ial":1649,"Ġreason":1650,"ilady":1651,"Ġnecess":1652,"ully":1653,"ock":1654,"erbert":1655,"Now":1656,"vid":1657,"Ġcut":1658,"Ġdraw":1659,"Ġrepe":1660,"ized":1661,"liz":1662,"Ġplay":1663,"Ġcannot":1664,"Ġhold":1665,"Ġtimes":1666,"Ġopened":1667,"Ġesc":1668,"ilus":1669,"fter":1670,"ia":1671,"Ġmaking":1672,"autilus":1673,"Ġminutes":1674,"Ġmatter":1675,"ience":1676,"Ġwish":1677,"Ġca":1678,"Ġduchesse":1679,"Ġpie":1680,"itude":1681,"Ġoften":1682,"Ġfellow":1683,"Ġut":1684,"ited":1685,"Not":1686,"Qu":1687,"Ġhelp":1688,"ville":1689,"Ġfact":1690,"ash":1691,"Ġobli":1692,"Ġopp":1693,"esides":1694,"ric":1695,"Ġexcl":1696,"âĪĴâĪĴ":1697,"enal":1698,"ments":1699,"Ġgener":1700,"inc":1701,"Ġmer":1702,"Ġcard":1703,"dy":1704,"Ġph":1705,"onse":1706,"ody":1707,"Ġaut":1708,"Ġdro":1709,"Ġrel":1710,"ER":1711,"Ġunt":1712,"Ġremem":1713,"Ġtro":1714,"Ġrose":1715,"Ġengineer":1716,"Ġclose":1717,"Ġris":1718,"ĠMonsieur":1719,"Ġlive":1720,"Ġbon":1721,"ĠÂ»":1722,"Ġsever":1723,"riage":1724,"Ġadded":1725,"ho":1726,"Ġpay":1727,"Ġstrange":1728,"Ġship":1729,"Ġdiffic":1730,"min":1731,"Â«":1732,"One":1733,"Ġdead":1734,"Ġquel":1735,"Ġcomme":1736,"Ġrock":1737,"Ġappear":1738,"Ġcourse":1739,"Ġran":1740,"fully":1741,"Ġprop":1742,"Ġtri":1743,"ĠFo":1744,"Ġcomple":1745,"Ġfamily":1746,"ts":1747,"ton":1748,"ham":1749,"Ġanim":1750,"ĠNautilus":1751,"aves":1752,"Ġtrue":1753,"Ġpower":1754,"Ġgre":1755,"Ġcor":1756,"aces":1757,"Ġprison":1758,"Ãł":1759,"Il":1760,"uit":1761,"body":1762,"ilet":1763,"Ġreally":1764,"ants":1765,"Ġport":1766,"ils":1767,"abeth":1768,"ĠRenal":1769,"lizabeth":1770,"Ġsuddenly":1771,"Ġbeneath":1772,"Ġbu":1773,"Ġeight":1774,"Ġext":1775,"ates":1776,"ote":1777,"Ġsleep":1778,"ider":1779,"Ġmean":1780,"nes":1781,"Ġconst":1782,"Ġduring":1783,"Ġthin":1784,"cer":1785,"Ġemb":1786,"Ġgall":1787,"Ġprov":1788,"Ġinv":1789,"ĠMiss":1790,"ably":1791,"ĠÃ©":1792,"ching":1793,"Ġbring":1794,"Ġpur":1795,"Ġimag":1796,"yrus":1797,"Ġseveral":1798,"Ġdin":1799,"ually":1800,"Ġquar":1801,"Ġearth":1802,"Do":1803,"Ġcreat":1804,"Ġdri":1805,"Ġconv":1806,"ĠFogg":1807,"ib":1808,"Ġuntil":1809,"Ġlady":1810,"ĠSir":1811,"ror":1812,"ĠCaptain":1813,"ump":1814,"ract":1815,"Ġask":1816,"ls":1817,"Ġcarried":1818,"Ġmanner":1819,"rom":1820,"Ġhur":1821,"Ġeither":1822,"aving":1823,"iously":1824,"Ġentered":1825,"ienne":1826,"After":1827,"ec":1828,"nded":1829,"Ġready":1830,"ieux":1831,"Ġwomen":1832,"oc":1833,"medi":1834,"Ġeff":1835,"Ġru":1836,"ler":1837,"Ġbreat":1838,"isf":1839,"va":1840,"Ġcross":1841,"Ġconvers":1842,"Ġexpress":1843,"Ġmad":1844,"Ġfait":1845,"Ġcardinal":1846,"oon":1847,"Ġsn":1848,"Ġeye":1849,"Ġchildren":1850,"Ġnous":1851,"quis":1852,"Ġanswer":1853,"rit":1854,"ĠIt":1855,"Ġstart":1856,"Ġwhether":1857,"Ġspoke":1858,"Ġclear":1859,"app":1860,"lish":1861,"mber":1862,"orthos":1863,"ques":1864,"La":1865,"Ġexpl":1866,"Ġviol":1867,"Ġbecome":1868,"ging":1869,"ours":1870,"..":1871,"Ġsit":1872,"ists":1873,"Ġast":1874,"Ġnature":1875,"you":1876,"gs":1877,"Ġord":1878,"Ġhorse":1879,"Ġtaking":1880,"Ġwithin":1881,"Ġdisco":1882,"Ġfif":1883,"Ġgard":1884,"Ġstrong":1885,"Ġwhy":1886,"Ġresol":1887,"Ġstopped":1888,"Ġreal":1889,"Ġfaire":1890,"sh":1891,"oth":1892,"Ġarr":1893,"aimed":1894,"Ġfright":1895,"ĠHerbert":1896,"Ġces":1897,"Ġdesp":1898,"Ġseeing":1899,"Ġservant":1900,"Ġcat":1901,"orrow":1902,"Ġmouth":1903,"Ġcorn":1904,"ounded":1905,"ea":1906,"ues":1907,"Ġimpos":1908,"Mr":1909,"Ġrespect":1910,"Ġsatisf":1911,"Ġcast":1912,"Ġmeans":1913,"ĠMrs":1914,"dle":1915,"ouv":1916,"atter":1917,"Ġbegin":1918,"Ġlaugh":1919,"Ġcomte":1920,"Ġprince":1921,"Ġsaying":1922,"Ġaccount":1923,"Ġleng":1924,"Ġexam":1925,"Ġyourself":1926,"Ġheld":1927,"ĠCl":1928,"Ġregard":1929,"Ã»":1930,"ots":1931,"'ve":1932,"Ã©n":1933,"Ġyear":1934,"Ġgentleman":1935,"ilett":1936,"urent":1937,"Ġfront":1938,"ĠCh":1939,"emo":1940,"Ġsus":1941,"aw":1942,"nde":1943,"Ġcase":1944,"ĠMilady":1945,"Ġperfect":1946,"ket":1947,"Ġused":1948,"Ġcry":1949,"--\"":1950,"ĠNemo":1951,"Ġwee":1952,"pl":1953,"Ġmain":1954,"Ġforg":1955,"Ġmove":1956,"Ġglass":1957,"asse":1958,"ution":1959,"ney":1960,"Ġimmedi":1961,"Ġinterest":1962,"cri":1963,"Ġbreak":1964,"With":1965,"Ġpast":1966,"Ġknown":1967,"ape":1968,"br":1969,"Ġtrans":1970,"Ġcertainly":1971,"guer":1972,"Ġsecret":1973,"Ġed":1974,"Ġpleasure":1975,"Ġsister":1976,"aged":1977,"Ġwanted":1978,"Ã®":1979,"Ġpale":1980,"Ġmal":1981,"Ġitself":1982,"Ġann":1983,"Ġbit":1984,"Ġdi":1985,"ume":1986,"Ġlength":1987,"Ġheav":1988,"cher":1989,"iled":1990,"end":1991,"Ġspr":1992,"Ġplaced":1993,"Ġnum":1994,"īt":1995,"Ġpain":1996,"iful":1997,"Ġsold":1998,"guerite":1999,"amis":2000,"Ġhair":2001,"Ġscar":2002,"Ġreceived":2003,"Ġthoughts":2004,"hile":2005,"orter":2006,"Ġmount":2007,"rig":2008,"CH":2009,"Ġtown":2010,"aded":2011,"ancs":2012,"ītienne":2013,"Ġpal":2014,"Ġquick":2015,"resh":2016,"Ġdream":2017,"ley":2018,"Ġtherefore":2019,"Ġhappy":2020,"Ġrap":2021,"Ġpret":2022,"airs":2023,"ening":2024,"Ã©tait":2025,"Ġvoy":2026,"Ġdanger":2027,"Ġworth":2028,"ility":2029,"rupt":2030,"ĠCharles":2031,"Ġlips":2032,"ĠJane":2033,"iers":2034,"Ġsch":2035,"Ġjoy":2036,"tempt":2037,"Ġexclaimed":2038,"Ġconversation":2039,"bo":2040,"par":2041,"iment":2042,"Ġtried":2043,"Ġoffic":2044,"Ġnatur":2045,"ze":2046,"ieu":2047,"Ġsometimes":2048,"Ġcompanions":2049,"Ġreached":2050,"Ġyes":2051,"Ġlear":2052,"Ġsett":2053,"Ġtalk":2054,"Ġaccomp":2055,"Ġdistance":2056,"Ġsal":2057,"ĠPorthos":2058,"Ġven":2059,"Ġelse":2060,"onder":2061,"Ġfix":2062,"Ġstay":2063,"Ġfrancs":2064,"An":2065,"ĠIs":2066,"Here":2067,"ax":2068,"Ġfat":2069,"ony":2070,"Ġvol":2071,"Ġsucc":2072,"oss":2073,"Ġmiles":2074,"Ġmine":2075,"Ġoccas":2076,"Ġanx":2077,"Ġnecessary":2078,"Ġflo":2079,"onn":2080,"ief":2081,"anite":2082,"Ġhast":2083,"aux":2084,"Ġarrived":2085,"ges":2086,"side":2087,"umed":2088,"Ġslow":2089,"Ġfit":2090,"Ġcrow":2091,"onseil":2092,"Ġmeet":2093,"Ġpartic":2094,"Ġbott":2095,"aven":2096,"ĠRoche":2097,"Ġ2":2098,"isted":2099,"Ġdiffe":2100,"Ġvisit":2101,"ines":2102,"akes":2103,"Ġblood":2104,"Ġemp":2105,"read":2106,"enn":2107,"Ġextre":2108,"Ġrefle":2109,"oire":2110,"ination":2111,"Ġpat":2112,"Ġwished":2113,"Ġhat":2114,"Ġsol":2115,"ĠThere":2116,"itÃ©":2117,"lled":2118,"Ġneither":2119,"Ġstruck":2120,"Ġterrible":2121,"Ġstri":2122,"Ġequ":2123,"ident":2124,"fered":2125,"erm":2126,"ased":2127,"Ġquiet":2128,"ming":2129,"Ġdest":2130,"Ġart":2131,"els":2132,"itted":2133,"Ġpap":2134,"ĠBon":2135,"Ġcrowd":2136,"ped":2137,"Ġbody":2138,"Ġtears":2139,"Ġbusiness":2140,"tended":2141,"Ġcomplete":2142,"Ġimpossible":2143,"Ġimmediately":2144,"Ġposs":2145,"otre":2146,"ĠLe":2147,"ĠLord":2148,"Ġought":2149,"Ġdeg":2150,"iff":2151,"Ġdaught":2152,"Ġdeux":2153,"Ġshout":2154,"Ġlived":2155,"Ġdisappe":2156,"Ġmus":2157,"Ġtrees":2158,"Ġaston":2159,"Ġbad":2160,"Ġpit":2161,"Ġiron":2162,"ern":2163,"Ġfig":2164,"urch":2165,"uss":2166,"Ġserv":2167,"Ġconsider":2168,"Ãªme":2169,"Ġhuman":2170,"Ġsad":2171,"Ġgaz":2172,"inter":2173,"ities":2174,"Ġboy":2175,"ĠAramis":2176,"Ġpassion":2177,"ĠMarguerite":2178,"Ġsqu":2179,"Ġrequ":2180,"Ġcarry":2181,"ante":2182,"ĠAl":2183,"Ġsailor":2184,"Ġaround":2185,"ior":2186,"Ġtone":2187,"Ġhomme":2188,"Ġglo":2189,"retched":2190,"part":2191,"rait":2192,"inary":2193,"orte":2194,"essor":2195,"itting":2196,"Ġrecogn":2197,"ĠSpilett":2198,"og":2199,"Ġgentlemen":2200,"Ġbeautiful":2201,"Ġcircum":2202,"Ġfast":2203,"Ġneigh":2204,"Ġarch":2205,"ĠLond":2206,"Ġshut":2207,"Ġeasy":2208,"Ġcalm":2209,"Ġfortune":2210,"ey":2211,"ffect":2212,"Ġwild":2213,"Ġtor":2214,"Ġacqu":2215,"AP":2216,"ex":2217,"Ġfree":2218,"ĠrÃ©p":2219,"Julien":2220,"oured":2221,"Ġoccup":2222,"aire":2223,"Ġbig":2224,"ĠElizabeth":2225,"Al":2226,"ĠrÃ©":2227,"Ġstud":2228,"Ġball":2229,"teen":2230,"Ġgold":2231,"Ġbell":2232,"Ġdirect":2233,"Ġfresh":2234,"Ġeat":2235,"Ġconce":2236,"Ġvill":2237,"tern":2238,"Ġlead":2239,"Ġsoul":2240,"Ġrepeated":2241,"Ġpretty":2242,"ms":2243,"nding":2244,"Ġspir":2245,"ĠTre":2246,"uc":2247,"ush":2248,"Ġobserved":2249,"Ġdemand":2250,"Ġsav":2251,"tes":2252,"ug":2253,"Ġfre":2254,"Ġled":2255,"Ġobliged":2256,"Ġrapid":2257,"Ġfav":2258,"Ã©es":2259,"ĠCyrus":2260,"ĠLondon":2261,"where":2262,"Ġreply":2263,"From":2264,"TER":2265,"eor":2266,"Ġbat":2267,"ishing":2268,"Ġwalked":2269,"vous":2270,"Ġshad":2271,"Ġmonths":2272,"Ġheavy":2273,"Ġfair":2274,"These":2275,"Ġves":2276,"rence":2277,"Ġdou":2278,"Ġdeal":2279,"ager":2280,"Ġthick":2281,"Ġsuper":2282,"Ġang":2283,"Ġprodu":2284,"Ġincre":2285,"Ġhop":2286,"Ġriver":2287,"Ġliving":2288,"Her":2289,"Is":2290,"Je":2291,"Let":2292,"Ġeffect":2293,"Ġrev":2294,"ĠPro":2295,"By":2296,"rer":2297,"Ġdrew":2298,"aced":2299,"ĠHen":2300,"raid":2301,"Ġsmile":2302,"CHAP":2303,"Ġdelight":2304,"Ġjud":2305,"Ġimport":2306,"Ġrid":2307,"ĠHouse":2308,"Ġshar":2309,"ov":2310,"arcy":2311,"ĠBut":2312,"Ġpost":2313,"ĠEnglish":2314,"Ã»t":2315,"Ġmonsieur":2316,"Ġfeeling":2317,"Ġpossess":2318,"form":2319,"ĠConseil":2320,"Ġchance":2321,"Ġsimple":2322,"Ġattention":2323,"Ġwaiting":2324,"Ġbelong":2325,"ctor":2326,"Ġcontr":2327,"Ġhappened":2328,"Ġmidst":2329,"Ġvessel":2330,"Ġdel":2331,"Ġraised":2332,"what":2333,"Ġevid":2334,"Ġplain":2335,"Ġcovered":2336,"Ġprec":2337,"Ġposition":2338,"ead":2339,"night":2340,"phe":2341,"uge":2342,"Ġmass":2343,"Ġburn":2344,"Ġnoise":2345,"Ġobject":2346,"Ġscarce":2347,"inct":2348,"Ġkiss":2349,"Ġbread":2350,"Ġcircumst":2351,"pend":2352,"ĠCo":2353,"Ġafraid":2354,"ails":2355,"Ġsilent":2356,"Ġsurf":2357,"ugg":2358,"assepart":2359,"assepartout":2360,"of":2361,"Ġver":2362,"Ġforward":2363,"Ġvent":2364,"Ġcoast":2365,"ĠDarcy":2366,"Ãªtre":2367,"Ġbroken":2368,"Ġtous":2369,"Ġbir":2370,"Ġinn":2371,"iling":2372,"Come":2373,"bre":2374,"Ġdress":2375,"Ġhang":2376,"Ġformed":2377,"Ġremember":2378,"'m":2379,"Ġpa":2380,"Ġnarr":2381,"ames":2382,"Ġmere":2383,"uff":2384,"Ġcompl":2385,"Ġturning":2386,"ĠShe":2387,"igne":2388,"Ġclosed":2389,"Ġsans":2390,"ury":2391,"Ġforget":2392,"Ġconse":2393,"ĠNeb":2394,"However":2395,"Ġpriest":2396,"Ġentire":2397,"Ġbottom":2398,"oh":2399,"Ġfurn":2400,"ici":2401,"Ã´t":2402,"oes":2403,"uth":2404,"Ġremain":2405,"Ġmurm":2406,"Ġpiece":2407,",âĪĴâĪĴ":2408,"Ġlater":2409,"Ġhors":2410,"ounds":2411,"Ġprob":2412,"Ġboard":2413,"Ġcharac":2414,"Ġstanding":2415,"Ġslight":2416,"Ġdie":2417,"ulnes":2418,"unt":2419,"Ġoccasion":2420,"Ġchurch":2421,"'re":2422,"Be":2423,"Ġview":2424,"Ġpress":2425,"ingly":2426,"Ġinqu":2427,"Ġleaving":2428,"Ġtrave":2429,"Ġprevent":2430,"Ġloved":2431,"tained":2432,"ĠNed":2433,"Ġstreng":2434,"Ġmoi":2435,"Ġpresence":2436,"mma":2437,"Ġsuccess":2438,"Ġcab":2439,"Ġcause":2440,"ustom":2441,"Ġcro":2442,"vern":2443,"ung":2444,"ĠAnd":2445,"ĠIsland":2446,"Ġfight":2447,"Ġpull":2448,"Ġpub":2449,"Ġcarriage":2450,"Ġsubject":2451,"Ġwalk":2452,"Ġparticular":2453,"Ġjam":2454,"port":2455,"ĠTh":2456,"ining":2457,"Ġcompany":2458,"Ġsurprised":2459,"Ġthinking":2460,"Ġnatural":2461,"ones":2462,"Ġshop":2463,"ĠSaint":2464,"rench":2465,"Ġgarden":2466,"eaulnes":2467,"ices":2468,"cell":2469,"ĠPr":2470,"Ġwatch":2471,"ceeded":2472,"Ġdinner":2473,"CHAPTER":2474,"ries":2475,"andide":2476,"atherine":2477,"Ġwonder":2478,"aled":2479,"Ġhappiness":2480,"Ġwarm":2481,"Ġfing":2482,"Ġacross":2483,"Ġsurface":2484,"old":2485,"acieux":2486,"ague":2487,"Ġprep":2488,"ission":2489,"Ġtrouble":2490,"Ġsingle":2491,"Ġcreature":2492,"ĠYou":2493,"Ġexcept":2494,"Ġfem":2495,"Ġspite":2496,"Ġforgot":2497,"Un":2498,"âĢľ":2499,"Ġstory":2500,"Ġdepth":2501,"Ġfixed":2502,"Ġcaught":2503,"âĢĿ":2504,"Ġdoing":2505,"Ġdesire":2506,"Ġdaughter":2507,"Ġstone":2508,"Ġplan":2509,"Ġclot":2510,"oi":2511,"ask":2512,"Ġattempt":2513,"inion":2514,"Ġevent":2515,"amed":2516,"Ġsteps":2517,"Ġtu":2518,"Ġstate":2519,"aped":2520,"Ġsurprise":2521,"HE":2522,"Ġdiv":2523,"Ġfanc":2524,"though":2525,"Ġspeaking":2526,"Ġtremb":2527,"Ġweek":2528,"ĠRochester":2529,"oul":2530,"Ġbes":2531,"any":2532,"iced":2533,"umb":2534,"Never":2535,"ph":2536,"Ã¹":2537,"Ġtop":2538,"irt":2539,"antly":2540,"ively":2541,"ilde":2542,"Ġslowly":2543,"oint":2544,"Ġneck":2545,"ĠRe":2546,"Ġpeu":2547,"Ġaccept":2548,"ohn":2549,"Ġstrength":2550,"ds":2551,"fin":2552,"Ġgrew":2553,"Ġtruth":2554,"Ġtalking":2555,"Ġsac":2556,"Ġcourage":2557,"Ġmiddle":2558,"Ġlaid":2559,"athilde":2560,"ize":2561,"Ġdifferent":2562,"ule":2563,"ented":2564,"Ġrunning":2565,"Ġextreme":2566,"ĠY":2567,"ceive":2568,"rill":2569,"Ġpassage":2570,"ndre":2571,"Ġmort":2572,"ussi":2573,"Ġshow":2574,"Ġchair":2575,"Ġsweet":2576,"eorge":2577,"Ġgun":2578,"Ġshowed":2579,"anced":2580,"omm":2581,"Ġreach":2582,"Ġaccord":2583,"Ġexact":2584,"ĠLand":2585,"lia":2586,"Ġschool":2587,"Ġfool":2588,"ĠMole":2589,"Ġexist":2590,"ĠÃītienne":2591,"Ġnearly":2592,"Ġfilled":2593,"ĠEngland":2594,"ĠX":2595,"Ġperm":2596,"Ġdevil":2597,"by":2598,"Ġaux":2599,"Ġsuc":2600,"fection":2601,"Ġseems":2602,"ron":2603,"Ġthrew":2604,"ĠBonacieux":2605,"vel":2606,"Ġforce":2607,"ctions":2608,"oute":2609,"Ġthirty":2610,"Ġeffort":2611,"Ġcharacter":2612,"yond":2613,"ĠMme":2614,"ously":2615,"Ġreporter":2616,"Ġunderstood":2617,"Ġjourney":2618,"Ġage":2619,"Ġhabit":2620,"hant":2621,"udence":2622,"rton":2623,"Ġconfess":2624,"Ġarrang":2625,"yrton":2626,"oup":2627,"Ġline":2628,"Ġpi":2629,"Ġbeyond":2630,"usion":2631,"Ġwindows":2632,"Ġchange":2633,"Ġcondu":2634,"gy":2635,"Ġwon":2636,"Ġmagn":2637,"Ġlim":2638,"cially":2639,"pter":2640,"Ġsoft":2641,"ĠGu":2642,"Ġempt":2643,"Ġeasily":2644,"Ġfer":2645,"Ġpen":2646,"ĠFrench":2647,"Ġgrave":2648,"morrow":2649,"ĠoÃ¹":2650,"ature":2651,"ortun":2652,"Ġdesce":2653,"ĠNe":2654,"Ġheads":2655,"Ġfollowing":2656,"Ġscarcely":2657,"ĠMus":2658,"Ġshoulders":2659,"Ġpassing":2660,"Ġremar":2661,"Ġgiving":2662,"Ġwalls":2663,"Ġdrawing":2664,"Ġrocks":2665,"Ġcorner":2666,"Ġnumber":2667,"Cha":2668,"Ġformer":2669,"Ġexper":2670,"ĠTreville":2671,"ingoire":2672,"Ġsend":2673,"Ġmem":2674,"like":2675,"Ġburst":2676,"Ġbeginning":2677,"ah":2678,"Ġhot":2679,"Ġafterwards":2680,"Ġresumed":2681,"Ġopinion":2682,"ope":2683,"lly":2684,"ĠHarr":2685,"Ġblue":2686,"sib":2687,"Ġbroke":2688,"Ġdifficult":2689,"Ġsy":2690,"Ġsens":2691,"loy":2692,"Ġadvant":2693,"Ġhardly":2694,"Ġcand":2695,"Ġsum":2696,"esty":2697,"ĠÃ©tÃ©":2698,"Ġdarkness":2699,"ĠTherese":2700,"Ġtoward":2701,"ĠJohn":2702,"ĠKing":2703,"Ġsitu":2704,"bs":2705,"Ġincl":2706,"Ġrich":2707,"Ġseven":2708,"Ġsepar":2709,"pecially":2710,"Ġcomfort":2711,"Ġpeut":2712,"ĠGranite":2713,"Ġcondition":2714,"Ġfigure":2715,"Ġcet":2716,"Ġdecl":2717,"Ġlean":2718,"ailed":2719,"Ġcommon":2720,"Ġresolved":2721,"St":2722,"Ġund":2723,"Ġseized":2724,"Ġgetting":2725,"Ġsuppose":2726,"ennet":2727,"Ġdisappeared":2728,"Where":2729,"Ġstra":2730,"Ġwaters":2731,"ply":2732,"head":2733,"Ġpock":2734,"Ġladies":2735,"ĠMahe":2736,"Ġmotion":2737,"Ġappearance":2738,"ĠAlice":2739,"Ġsense":2740,"acon":2741,"Ġnews":2742,"kete":2743,"ray":2744,"Åĵ":2745,"Ġfle":2746,"Ġmistress":2747,"Ġbreath":2748,"Ġescape":2749,"erable":2750,"Ġmeant":2751,"Ġperceived":2752,"Ġletters":2753,"Ġfaith":2754,"Ġservice":2755,"Ġjamais":2756,"ĠMuskete":2757,"af":2758,"oly":2759,"wo":2760,"pping":2761,"ĠJean":2762,"Besides":2763,"ĠQu":2764,"Ġwaves":2765,"itation":2766,"ĠgÃ©n":2767,"Ġdepart":2768,"ardon":2769,"Ġlaw":2770,"Ġcru":2771,"ĠLaurent":2772,"Ġhorses":2773,"alth":2774,"Ġkill":2775,"Ġdistur":2776,"ires":2777,"Ġlower":2778,"Ġyell":2779,"ĠBennet":2780,"Ġprem":2781,"Ġgeneral":2782,"Ġquarter":2783,"Ġexpression":2784,"ique":2785,"Ġspo":2786,"Ġmarried":2787,"oiselle":2788,"Ġquickly":2789,"Every":2790,"Ġfro":2791,"Ġspot":2792,"Ġdirection":2793,"Ġexpected":2794,"Ġdespair":2795,"Ġbook":2796,"Ġdut":2797,"Ġval":2798,"oof":2799,"ĠCatherine":2800,"Ġspread":2801,"dered":2802,"ierre":2803,"Ġfurther":2804,"Ġdecided":2805,"Ġpublic":2806,"cean":2807,"Ġbelow":2808,"Ġneighbour":2809,"lers":2810,"Ġsli":2811,"Ġhes":2812,"otion":2813,"aching":2814,"ĠCan":2815,"Who":2816,"Ġquelque":2817,"Ġrain":2818,"Ġconcer":2819,"aud":2820,"Ġdidn":2821,"Ġmoments":2822,"Ġglad":2823,"Ġterror":2824,"Ġespecially":2825,"ĠFrance":2826,"Good":2827,"Ġbesides":2828,"ulty":2829,"Ġhung":2830,"Ġconsequ":2831,"Ġbank":2832,"asc":2833,"ays":2834,"arent":2835,"Ġglance":2836,"Ġoccur":2837,"Ġstraight":2838,"Ġcel":2839,"Ġsear":2840,"Ġsoci":2841,"Ġhoriz":2842,"Ġsword":2843,"Ġfuture":2844,"kn":2845,"rist":2846,"iter":2847,"Ġdog":2848,"Ġstrugg":2849,"fast":2850,"Ġpens":2851,"ift":2852,"olmes":2853,"ument":2854,"Ġhandsome":2855,"Ġperfectly":2856,"well":2857,"Ġid":2858,"Ġcorr":2859,"Ġlie":2860,"Ġvain":2861,"ĠMeaulnes":2862,"Ġknows":2863,"Ġlistened":2864,"Ġadmir":2865,"Ġgreen":2866,"Ġbas":2867,"âĢ¦":2868,"Ġseated":2869,"Ġkilled":2870,"Ġmoved":2871,"Ġforest":2872,"hor":2873,"ob":2874,"ingley":2875,"Ġusual":2876,"Ġstreet":2877,"Ġcircumstances":2878,"II":2879,"can":2880,"ĠâĢľ":2881,"Ġpu":2882,"Ã©lia":2883,"Ġallow":2884,"ables":2885,"Ġ...":2886,"ashion":2887,"oe":2888,"icked":2889,"Ġsave":2890,"Ġtry":2891,"Ġspec":2892,"Ã©cri":2893,"oned":2894,"Ġenj":2895,"Ġsky":2896,"bb":2897,"rees":2898,"habit":2899,"Ġhill":2900,"Ġnone":2901,"adem":2902,"ideon":2903,"Ġrising":2904,"Your":2905,"ĠIn":2906,"ips":2907,"ouve":2908,"Ġmention":2909,"str":2910,"Ã©g":2911,"elve":2912,"Ġencore":2913,"Ġallowed":2914,"elton":2915,"Ġchamber":2916,"Ġcloud":2917,"rief":2918,"fortun":2919,"Ġvan":2920,"Ġsole":2921,"Ġmarry":2922,"mense":2923,"Ġcre":2924,"Ġcher":2925,"Ġweak":2926,"Ġstop":2927,"ilt":2928,"Ġdrag":2929,"Ġinterrupt":2930,"Ġcost":2931,"Ġaffection":2932,"Ġwaited":2933,"Ġdread":2934,"Ġanimal":2935,"Ġfloor":2936,"Ġclothes":2937,"),":2938,"iting":2939,"eness":2940,"acle":2941,"Ġcolon":2942,"Ġfinished":2943,"Ġdifficulty":2944,"ative":2945,"olog":2946,"Ġwatched":2947,"Ġcommand":2948,"Ġemploy":2949,"Ġbox":2950,"Ġclim":2951,"ĠDu":2952,"Ġvillage":2953,"hy":2954,"Ġdeli":2955,"Ġcomes":2956,"Ġyeux":2957,"iÃ¨re":2958,"rÃ¨s":2959,"Ġpict":2960,"Ġpouv":2961,"lling":2962,"Ġren":2963,"Ġproper":2964,"action":2965,"Ġplease":2966,"Ġfifty":2967,"Ġheight":2968,"chet":2969,"Ġserious":2970,"ored":2971,"rel":2972,"Ġfish":2973,"Ġpurs":2974,"Ġhid":2975,"Ġheaven":2976,"Ġwhis":2977,"ades":2978,"Ġring":2979,"lig":2980,"Ġtwelve":2981,"ĠÃª":2982,"Ġbelieved":2983,"Ġenjoy":2984,"Ġbare":2985,"Ġexec":2986,"usted":2987,"Ġenter":2988,"Ġnorth":2989,"Ġtrois":2990,",--":2991,"ĠCandide":2992,"ounced":2993,"Ġvoyage":2994,"fessor":2995,"ouis":2996,"Ġbeast":2997,"Ġago":2998,"Ġqueen":2999,"Ġfois":3000,"Ġtalked":3001,"Ġpaper":3002,"Ġpray":3003,"Ġdescri":3004,"Ġabsol":3005,"sc":3006,"Ġlate":3007,"acked":3008,"ĠMathilde":3009,"ĠBar":3010,"ĠBingley":3011,"rawn":3012,"Ne":3013,"Ġpuis":3014,"Ġteeth":3015,"Ġsteam":3016,"pic":3017,"Ġdont":3018,"etr":3019,"Ġvar":3020,"Ġspent":3021,"Ġimmense":3022,"Chapter":3023,"Ġ3":3024,"Ġoffer":3025,"Ġcommun":3026,"Ġcounten":3027,"Ġopening":3028,"wise":3029,"Ġbright":3030,"Ġdressed":3031,"Ġfart":3032,"Ġgest":3033,"amille":3034,"ishment":3035,"Ġknees":3036,"Ġfrequ":3037,"Ġentirely":3038,"Ġoffered":3039,"Ġsand":3040,"Ġspeed":3041,"Ġjeune":3042,"Ġwalking":3043,"known":3044,"hood":3045,"ases":3046,"Ġbear":3047,"Ġconcl":3048,"Ġnoble":3049,"ĠJim":3050,"Ġwrong":3051,"Ġadvantage":3052,"Ġcell":3053,"Ġdom":3054,"llig":3055,"Ġvast":3056,"ĠMont":3057,"oles":3058,"Ġabbe":3059,"Ġstranger":3060,"Ġdonn":3061,"Ġinfl":3062,"Ġutter":3063,"Ġnarrow":3064,"ĠmÃªme":3065,"Ġlatter":3066,"aste":3067,"Ġweather":3068,"ili":3069,"auv":3070,"ĠGeorge":3071,"Ġpeace":3072,"Ġpleased":3073,"ĠMarquis":3074,"Ġfallen":3075,"Ġthird":3076,"Ġoppos":3077,"Ġdiscovered":3078,"mp":3079,"Ġbound":3080,"Ġpun":3081,"ically":3082,"Ġobst":3083,"Ã©ral":3084,"Ġhonour":3085,"Ġpurp":3086,"lin":3087,"Ġbeat":3088,"semb":3089,"Ġblow":3090,"Ġmed":3091,"Ġden":3092,"Ġfais":3093,"Ġenorm":3094,"itten":3095,"Ġmarriage":3096,"Ġguard":3097,"Madame":3098,"ives":3099,"while":3100,"Ġfashion":3101,"Ġroof":3102,"odo":3103,"Ġchest":3104,"sed":3105,"Ġwit":3106,"Ġble":3107,"atre":3108,"Ġoutside":3109,"ĠAyrton":3110,"happ":3111,"Ġfield":3112,"anqu":3113,"Ġapart":3114,"ĠTHE":3115,"Ġtoute":3116,"Ġcharming":3117,"Ġstream":3118,"Per":3119,"Ġer":3120,"Ġod":3121,"ories":3122,"iday":3123,"avait":3124,"Ġspect":3125,"Ġwrite":3126,"Ġdegrees":3127,"itated":3128,"Ġnom":3129,"antic":3130,"arer":3131,"Ġmes":3132,"ality":3133,"Ġproc":3134,"Ġshoulder":3135,"theless":3136,"Ġpieces":3137,"tis":3138,"Ġtreat":3139,"Ġself":3140,"Ġsuis":3141,"Ġimpat":3142,"Ġsettle":3143,"Ġpetit":3144,"Ġmovement":3145,"Ġhall":3146,"ĠPassepartout":3147,"ĠParme":3148,"Ġhonest":3149,"Ġlearned":3150,"cellent":3151,"Ġcolonists":3152,"Fabrice":3153,"pse":3154,"zen":3155,"Ġign":3156,"Ġsouth":3157,"Ġfles":3158,"Ġev":3159,"Ġforced":3160,"Ġstorm":3161,"ouses":3162,"Ġshook":3163,"ĠHolmes":3164,"Ġdouble":3165,"Ġhorizon":3166,"Some":3167,"ez":3168,"Ġtall":3169,"Ġmadame":3170,"atitude":3171,"Ġears":3172,"Ġclass":3173,"Ġthrown":3174,"Ġregret":3175,"Ġdrink":3176,"Ġfarther":3177,"alous":3178,"Ġvict":3179,"Ġdeser":3180,"Very":3181,"fied":3182,"gar":3183,"Ġocean":3184,"Ġstro":3185,"ested":3186,"ĠLy":3187,"ĠRue":3188,"Ġjustice":3189,"Ġintellig":3190,"Ġbreakfast":3191,"under":3192,"Ġlang":3193,"Ġplate":3194,"Ġalthough":3195,"Ġbuild":3196,"Ġtour":3197,"Ġpist":3198,"Ġstir":3199,"acy":3200,"ified":3201,"osing":3202,"Ġenem":3203,"aked":3204,"ĠaprÃ¨s":3205,"Ġcrime":3206,"Ġtemper":3207,"Ġpocket":3208,"Ġpath":3209,"Ġpride":3210,"Ġcoal":3211,"Ġknowing":3212,"Ġtender":3213,"ĠGringoire":3214,"Nothing":3215,"Ġorders":3216,"ising":3217,"Ġner":3218,"Ġcountenance":3219,"cent":3220,"Ġwide":3221,"Ġloud":3222,"Ġnine":3223,"Ġdelic":3224,"Ġagree":3225,"heur":3226,"ina":3227,"Ġband":3228,"onne":3229,"Ġpity":3230,"Ġrelie":3231,"Ġaband":3232,"Ġbecom":3233,"Ġearly":3234,"Ġcompanion":3235,"Ġlisten":3236,"ĠClÃ©lia":3237,"Ġpurpose":3238,"Ġenormous":3239,"Ġcoun":3240,"asim":3241,"vere":3242,"Ġminute":3243,"000":3244,"Ġsquare":3245,"Ġspirit":3246,"Ġempty":3247,"ademoiselle":3248,"come":3249,"ĠdÃ©s":3250,"idence":3251,"Ġforty":3252,"Ġcolle":3253,"Ġentr":3254,"Ġinstead":3255,"ĠMaj":3256,"Ġapproached":3257,"Ġstarted":3258,"Ġofficer":3259,"Ġexistence":3260,"ĠCanad":3261,"En":3262,"iety":3263,"uous":3264,"Ġmor":3265,"Ġtrain":3266,"ression":3267,"Ġtoutes":3268,"Ġpriv":3269,"Ġgloom":3270,"Ġforgotten":3271,"Ġduty":3272,"Ġamid":3273,"Ġcler":3274,"Ġimpr":3275,"Ġavo":3276,"bered":3277,"ĠVer":3278,"Ġhorri":3279,"Ġopportun":3280,"Ġsettled":3281,"Ġsharp":3282,"asimodo":3283,"Ġdrawn":3284,"oman":3285,"Ġbeauty":3286,"Ġcoup":3287,"Ġconvict":3288,"with":3289,"Ġsor":3290,"Ġsitting":3291,"Ġdied":3292,"Ġrushed":3293,"Ġrepro":3294,"Ġflesh":3295,"ral":3296,"Ġaussi":3297,"Ġsong":3298,"Ġlac":3299,"ator":3300,"ĠInd":3301,"Ġthreat":3302,"Ġsumm":3303,"ĠCamille":3304,"Ġsupport":3305,"Ġwritten":3306,"racted":3307,"ĠProfessor":3308,"iant":3309,"Ġmut":3310,"Ġdim":3311,"Ġlegs":3312,"ĠEmma":3313,"Ġvoir":3314,"mbre":3315,"Ġdisting":3316,"Ġpreser":3317,"venture":3318,"Ġsous":3319,"oln":3320,"Ġagre":3321,"ption":3322,"Ġourselves":3323,"incoln":3324,"Ġviolent":3325,"fer":3326,"Ġwine":3327,"Ġbent":3328,"Ġfaut":3329,"Ġvague":3330,"ooks":3331,"Ġfever":3332,"Ġliked":3333,"Ġscene":3334,"ĠgÃ©nÃ©ral":3335,"Ce":3336,"heure":3337,"Ġbill":3338,"Ġdry":3339,"ork":3340,"Ġnoticed":3341,"Ġshot":3342,"oses":3343,"ĠCha":3344,"Ġlose":3345,"Ġflow":3346,"incip":3347,"hold":3348,"Ġanxious":3349,"ĠCanadian":3350,"Ġaim":3351,"Ġyield":3352,"ences":3353,"meric":3354,"Ġmurmured":3355,"itions":3356,"Ġlying":3357,"ushing":3358,"Ġtranqu":3359,"ĠAt":3360,"Ġcoll":3361,"Ġcontrary":3362,"Mais":3363,"Ġfaces":3364,"Ã©d":3365,"Ġunknown":3366,"Ġplant":3367,"ĠGideon":3368,"Ġuttered":3369,"igneur":3370,"Are":3371,"jo":3372,"my":3373,"uf":3374,"Ġfly":3375,"leep":3376,"Ġmeas":3377,"ĠLincoln":3378,"Ġmoon":3379,"Ġflat":3380,"Ġideas":3381,"Ġsimply":3382,"Ġincreased":3383,"Ġpaid":3384,".,":3385,"AR":3386,"ics":3387,"idered":3388,"Ġlod":3389,"psy":3390,"Ġfalling":3391,"Ġmemory":3392,"Perhaps":3393,"'d":3394,"Just":3395,"Ġgy":3396,"ĠAmeric":3397,"ĠRa":3398,"Ġparl":3399,"Ġchanged":3400,"Ġaffair":3401,"kes":3402,"iture":3403,"ledge":3404,"Ġsmo":3405,"Ġfavour":3406,"oor":3407,"Ġsom":3408,"Ġmill":3409,"Ġfet":3410,"Ġlamp":3411,"Ġpill":3412,"Ġtroub":3413,"Ġgrow":3414,"Ġcho":3415,"Ġparty":3416,"Ġgirls":3417,"Ġescaped":3418,"Ġsatisfied":3419,"Ġspring":3420,"Did":3421,"field":3422,"isc":3423,"vey":3424,"hern":3425,"Ġexcellent":3426,"Ġpract":3427,"Ġende":3428,"Ġpointed":3429,"Ġaddress":3430,"cious":3431,"ians":3432,"Ġgame":3433,"Ġwhatever":3434,"Ġfond":3435,"Ġsurr":3436,"ald":3437,"vÃ©":3438,"Ġwinter":3439,"Ġcous":3440,"illy":3441,"ference":3442,"Ġshouted":3443,"Ġshadow":3444,"Ġmagnific":3445,"Ġopportunity":3446,"Ġmont":3447,"itable":3448,"Ġban":3449,"Ġcity":3450,"Ġdare":3451,"Ġinhabit":3452,"vering":3453,"Ġshock":3454,"ĠSe":3455,"itty":3456,"ĠFelton":3457,"Ġaffect":3458,"Ġlock":3459,"ĠRass":3460,"Ġpleasant":3461,"Ġdeterm":3462,"Ġanimals":3463,"Ġoccurred":3464,"cul":3465,"Ġmakes":3466,"Ġlit":3467,"Ġhuge":3468,"Ġeager":3469,"Ġnotice":3470,"Ġvotre":3471,"Ġsoir":3472,"Ġchee":3473,"Ġ18":3474,"Ġextra":3475,"Ġcompletely":3476,"Ġfemme":3477,"Ġyellow":3478,"Have":3479,"Me":3480,"jours":3481,"Ġleur":3482,"agues":3483,"unk":3484,"ĠPl":3485,"Ġmoor":3486,"Ġbran":3487,"Ġfeelings":3488,"Ġprofound":3489,"Ġlaughing":3490,"Ġmotionless":3491,"Ġdistingu":3492,"Ġendeav":3493,"Ġsin":3494,"Ġcart":3495,"live":3496,"Ġknock":3497,"Ġhost":3498,"Ġuneas":3499,"Ġpolice":3500,"ovary":3501,"ital":3502,"Ġtra":3503,"Ġprincip":3504,"Ġjours":3505,"Ġdiscuss":3506,"Ġpromised":3507,"ta":3508,"Ġlif":3509,"Ġpardon":3510,"Ġrend":3511,"Ġresult":3512,"Ġavoir":3513,"Ġcheval":3514,"Ġrecall":3515,"hileas":3516,"Ġburning":3517,"ĠWhat":3518,"arm":3519,"Ġpron":3520,"Ġblind":3521,"Ġsmiled":3522,"Ãªte":3523,"Ġpromise":3524,"Ġtoujours":3525,"Ġtrop":3526,"ĠÃªtre":3527,"Ġaud":3528,"Ġenv":3529,"lanchet":3530,"Ġpolit":3531,"Ġquelques":3532,"Ġabsolute":3533,"ech":3534,"ivers":3535,"Ġcord":3536,"ashed":3537,"Ġbeha":3538,"Ġdoctor":3539,"Ġprote":3540,"deacon":3541,"Ġtouched":3542,"Ġexactly":3543,"Ġopposite":3544,"RE":3545,"bor":3546,"ids":3547,"Ġhist":3548,"Ġforth":3549,"osp":3550,"Ġproud":3551,"Only":3552,"Ġbeside":3553,"Ġsucceeded":3554,"IN":3555,"Ġheat":3556,"Ġbeau":3557,"Ġasleep":3558,"Ġsafe":3559,"ĠDe":3560,"ebus":3561,"Ġcrossed":3562,"Ġsuspic":3563,"Ġoccupied":3564,"Ġsituation":3565,"During":3566,"ghed":3567,"Ġpounds":3568,"Ġrelig":3569,"amb":3570,"roy":3571,"Ġvoul":3572,"Ġbreast":3573,"nest":3574,"Ġsen":3575,"esse":3576,"Ġmelan":3577,"chief":3578,"osity":3579,"ĠBovary":3580,"Ġgreatly":3581,"Ġcourt":3582,"Ġguess":3583,"hoebus":3584,"Ġfifteen":3585,"Ġbitter":3586,"Ġsettlers":3587,"vait":3588,"ĠÃ©c":3589,"oted":3590,"sez":3591,"aming":3592,"Ġsaved":3593,"owned":3594,"Ġladder":3595,"Ġsociety":3596,"Ġlangu":3597,"zy":3598,"Ġlors":3599,"iments":3600,"choly":3601,"oland":3602,"lop":3603,"angers":3604,"Ġadvanced":3605,"Ġholding":3606,"Ġquietly":3607,"Ġextraord":3608,"ding":3609,"mble":3610,"Ġwretched":3611,"ision":3612,"Ġdam":3613,"Ġheures":3614,"icated":3615,"Ġanger":3616,"Ġworse":3617,"Ġgreater":3618,"Ġcaused":3619,"Ġprepared":3620,"Ġignor":3621,"ker":3622,"Ġgate":3623,"Ġstup":3624,"Ġstretched":3625,"terday":3626,"nel":3627,"aiss":3628,"Ġpetite":3629,"Ġdepths":3630,"Ġmelancholy":3631,"chan":3632,"ĠThey":3633,"iner":3634,"athe":3635,"Ġfeared":3636,"ĠprÃ©s":3637,"Ġdisait":3638,"Ġchose":3639,"Ġfirm":3640,"Ġsupper":3641,"Ġcurrent":3642,"Ġinform":3643,"Ġembr":3644,"Go":3645,"Ġwa":3646,"Ġtow":3647,"Ġhouses":3648,"Their":3649,"Ġquand":3650,"Ġnobody":3651,"Ġdoors":3652,"Monsieur":3653,"lished":3654,"Ġtree":3655,"Ġbrill":3656,"Ġdir":3657,"Ġpow":3658,"Ġhig":3659,"Ġrise":3660,"Ġstar":3661,"Ġlikely":3662,"Ġprev":3663,"Ġserved":3664,"Ġbroad":3665,"Ġsuffer":3666,"Ġarchdeacon":3667,"ĠHarris":3668,"how":3669,"house":3670,"tres":3671,"Ġtong":3672,"Ġresp":3673,"Ġpossib":3674,"Ġtemps":3675,"Gr":3676,"go":3677,"hip":3678,"Ġwounded":3679,"Ġmiss":3680,"Ġfun":3681,"icient":3682,"Ġstones":3683,"Ġliber":3684,"Ġmonde":3685,"Ġquestions":3686,"Ġgrande":3687,"Ġfatig":3688,"Ġfingers":3689,"Ar":3690,"Was":3691,"bing":3692,"vation":3693,"esp":3694,"ache":3695,"ams":3696,"ament":3697,"Ġva":3698,"Ġleagues":3699,"Ġperi":3700,"Ġregular":3701,"Ġfinding":3702,"Ġautre":3703,"Ġworthy":3704,"Ġastonished":3705,"Of":3706,"Two":3707,"Ġsides":3708,"Ġlines":3709,"Ġdeb":3710,"Ġweight":3711,"Ġattend":3712,"iles":3713,"Ġseas":3714,"ests":3715,"Ġunhapp":3716,"chen":3717,"pected":3718,"Ġdonner":3719,"Ġattack":3720,"Ġassist":3721,"Ġphil":3722,"Ġstrike":3723,"Ġcorral":3724,"Sir":3725,"Ġsought":3726,"Ġwis":3727,"rodu":3728,"Ġwrote":3729,"Ġmeters":3730,"Ġtouch":3731,"Ġagreed":3732,"Que":3733,"cing":3734,"ism":3735,"urope":3736,"Ġsuiv":3737,"Ġcomb":3738,"Ġnose":3739,"Ġtrying":3740,"ancing":3741,"Ġplaces":3742,"ĠNew":3743,"Ġgypsy":3744,"over":3745,"Ġvers":3746,"Ġwand":3747,"Ġporte":3748,"Ġthro":3749,"uses":3750,"ols":3751,"Ġended":3752,"Ġattent":3753,"ĠFriday":3754,"Ġhoped":3755,"now":3756,"rade":3757,"Ġgrief":3758,"quise":3759,"Ġstation":3760,"Ġunfortun":3761,"ishop":3762,"While":3763,"ĠfaÃ§":3764,"Ġvirt":3765,"Ġpros":3766,"Ġmod":3767,"Ġmistaken":3768,"Ġelect":3769,"Ġinterrupted":3770,"Our":3771,"Ġbal":3772,"ises":3773,"Ġpressed":3774,"icks":3775,"quin":3776,"Ġstair":3777,"Ġseat":3778,"Ġexha":3779,"Ġtwice":3780,"Ġchief":3781,"Ġgreatest":3782,"Ġtransport":3783,"Ġpulled":3784,"she":3785,"Ġcit":3786,"Ġcamp":3787,"uted":3788,"ĠMademoiselle":3789,"ĠLouis":3790,"ĠFer":3791,"Ġputting":3792,"Ġfault":3793,"Ġgallery":3794,"Ġdiam":3795,"board":3796,"ĠrÃ©pond":3797,"ĠLyd":3798,"Ġaction":3799,"Ġfac":3800,"atic":3801,"leur":3802,"Ġgle":3803,"Ġur":3804,"quet":3805,"Ġkit":3806,"Ġunable":3807,"Ġplat":3808,"Ġcoach":3809,"Ġmoving":3810,"Ġgrass":3811,"Ġbrid":3812,"Ġsilver":3813,"Ġhorror":3814,"Ġacquaint":3815,"Ġangry":3816,"Ġimportant":3817,"Ġhorrible":3818,"isters":3819,"Ġda":3820,"Ġgar":3821,"Ġmyst":3822,"Ġconn":3823,"Ġdesign":3824,"Ġsingular":3825,"Ġgazed":3826,"Ġsacri":3827,"ĠMusketeers":3828,"Ġciv":3829,"Ġinj":3830,"Ġsuf":3831,"ĠAn":3832,"Ġarg":3833,"Ġthank":3834,"Ġils":3835,"Ġspeech":3836,"Ġsmoke":3837,"Ġhonor":3838,"Ġexplain":3839,"Ã®tre":3840,"Ġaccompan":3841,"Ġinflu":3842,"aff":3843,"vi":3844,"Ġtired":3845,"vet":3846,"stairs":3847,"osop":3848,"ĠBr":3849,"Ġintrodu":3850,"ĠÃ©taient":3851,"Ġfortun":3852,"Ġcuri":3853,"ĠMarch":3854,"Ġdining":3855,"Ġevidently":3856,"Ġkitchen":3857,"De":3858,"Ġdying":3859,"Ġrough":3860,"Ġjus":3861,"Ġedge":3862,"Ġmountain":3863,"Ġtrembling":3864,"Ġsorry":3865,"Ġmagnificent":3866,"Ġhide":3867,"Ġshud":3868,"ĠHis":3869,"Ġremark":3870,"rieres":3871,"ickham":3872,"Ġarrival":3873,"Ġskin":3874,"Ġuseless":3875,"Ġembarr":3876,"Ġyesterday":3877,"Ġextremely":3878,"Ġsearch":3879,"Elizabeth":3880,"Ġmir":3881,"Ġdared":3882,"orous":3883,"Ġrien":3884,"Ġbless":3885,"Ġchambre":3886,"Ġaccording":3887,"Ġconduct":3888,"Ġwid":3889,"Ġeld":3890,"Ġreceive":3891,"Ġsemb":3892,"tering":3893,"Ġgrowing":3894,"uded":3895,"ĠEurope":3896,"Ġharm":3897,"cient":3898,"Ġsupposed":3899,"Ġstreets":3900,"ucking":3901,"Ġreading":3902,"Ġsatisfaction":3903,"Ġbattle":3904,"Ġavoid":3905,"Ġdetermined":3906,"ON":3907,"aur":3908,"do":3909,"Ġalive":3910,"Ġpied":3911,"Ġnouve":3912,"atures":3913,"Ġleaves":3914,"Ġconne":3915,"uments":3916,"onel":3917,"Ġimm":3918,"Ġavant":3919,"Ġconsidered":3920,"Ġsentence":3921,"Ġlaughed":3922,"Ġservants":3923,"Ġphilosop":3924,"iÃ©":3925,"loo":3926,"wed":3927,"insi":3928,"Ġrejo":3929,"Ġdef":3930,"using":3931,"Ġplun":3932,"Ġlover":3933,"Ġjealous":3934,"Ġreturning":3935,"Ġdepuis":3936,"Ġpresented":3937,"Ġpropos":3938,"ĠVerrieres":3939,"Ġperiod":3940,"fish":3941,"wh":3942,"Ġtaste":3943,"Ġmess":3944,"Ġeut":3945,"ĠeÃ»t":3946,"Ġasce":3947,"Ġnotre":3948,"Ġant":3949,"Ġami":3950,"Ġbrave":3951,"Ġpersu":3952,"Ġimagine":3953,"Ġspoken":3954,"Cyrus":3955,"Will":3956,"inces":3957,"Ġfill":3958,"Ġpier":3959,"llins":3960,"Ġhy":3961,"Ġvig":3962,"ĠSc":3963,"Ġremembered":3964,"Ġpowerful":3965,"Ġfrightful":3966,"Ġanxiety":3967,"Ġproduced":3968,"Ġpenetr":3969,"Ġcela":3970,"Ġcustom":3971,"Ġyouth":3972,"quer":3973,"rier":3974,"Ġresist":3975,"Ġrefused":3976,"Ġtriump":3977,"Ġdegree":3978,"Ġrapidly":3979,"ĠCollins":3980,"Ġdeparture":3981,"Ġsuffered":3982,"case":3983,"Ġtide":3984,"inet":3985,"Ġpure":3986,"Ġpushed":3987,"Ġgro":3988,"acc":3989,"ĠMer":3990,"ĠCom":3991,"Ġintim":3992,"Ġdistant":3993,"Ġclean":3994,"Ġirrit":3995,"Ġcalcul":3996,"Ġbonheur":3997,"Ġastonishment":3998,"Ġfancy":3999,"ĠMajesty":4000,"Don":4001,"ES":4002,"aille":4003,"ma":4004,"Ġbrig":4005,"Ġchat":4006,"Ġsugg":4007,"Ġjump":4008,"Ġprot":4009,"Ġpeas":4010,"Ġcarefully":4011,"Ġconceal":4012,"Ġconcealed":4013,"Ġparticularly":4014,"Pencroft":4015,"ium":4016,"Ġsont":4017,"Ġfier":4018,"asp":4019,"ĠMaster":4020,"Ġneg":4021,"ĠFix":4022,"Ġmoins":4023,"Ġbrow":4024,"Ġadvice":4025,"Yet":4026,"water":4027,"Ġaunt":4028,"inced":4029,"Ġsang":4030,"Ġtomb":4031,"Ġcouldn":4032,"Ġgrace":4033,"Ġabsence":4034,"ĠHenry":4035,"ustomed":4036,"Ġsembl":4037,"Captain":4038,"Ġ~":4039,"Ġwha":4040,"Ġwound":4041,"ouver":4042,"Ġtort":4043,"Ġhearing":4044,"Ġroute":4045,"Ġasking":4046,"Ġremo":4047,"Ġthrust":4048,"Ġscr":4049,"Ġglim":4050,"ĠWickham":4051,"Ġinstr":4052,"Ġmiserable":4053,"Ġrequired":4054,"Ġbirds":4055,"Ġdreadful":4056,"Ġunhappy":4057,"AN":4058,"ners":4059,"Ġrub":4060,"Ġmyster":4061,"neys":4062,"ĠChe":4063,"Ġparts":4064,"Ġpresently":4065,"prit":4066,"Ġsufficient":4067,"Ġrecognized":4068,"Ġgesture":4069,"Ġelectric":4070,"ring":4071,"zz":4072,"Ġwore":4073,"Ġcin":4074,"Ġdefe":4075,"Ġra":4076,"Ġshel":4077,"Ġener":4078,"ĠprÃ©":4079,"Ġrob":4080,"Ġchem":4081,"Ġtemp":4082,"Ġlistening":4083,"Ġdriven":4084,"Ġsnow":4085,"Ġvolcan":4086,"Ġrevol":4087,"Ġcruel":4088,"Ġembarrass":4089,"**":4090,"Ġwest":4091,"iche":4092,"ainted":4093,"Ġleg":4094,"uls":4095,"ĠComp":4096,"aude":4097,"Ġthanks":4098,"Ġfold":4099,"Ġaftern":4100,"Ġoper":4101,"Ġarranged":4102,"Ġextraordinary":4103,"ĠWe":4104,"held":4105,"Ġheure":4106,"att":4107,"Ġease":4108,"aches":4109,"Ġliv":4110,"Ġtrust":4111,"Ġetc":4112,"Ġduke":4113,"Ġfrightened":4114,"Ġweeks":4115,"Ġjudge":4116,"Ġprobably":4117,"Ġcandle":4118,"Ġbecoming":4119,"Ġhistory":4120,"uckingham":4121,"Se":4122,"Ġsick":4123,"Ġbord":4124,"Ġbooks":4125,"ĠdÃ©c":4126,"adually":4127,"Ġproved":4128,"Ġchim":4129,"Ġbetray":4130,"Ġappre":4131,"ĠWinter":4132,"Ġemotion":4133,"Ġrecolle":4134,"ndeed":4135,"Åĵur":4136,"Ġcousin":4137,"Ġbow":4138,"Ġpan":4139,"Ġge":4140,"set":4141,"Ġones":4142,"ourse":4143,"Ġcoat":4144,"Ġdesired":4145,"udent":4146,"ival":4147,"Ġlighted":4148,"Ġminist":4149,"Ġcurious":4150,"Ġauthor":4151,"ĠQuasimodo":4152,"Elle":4153,"Ġice":4154,"omais":4155,"Ġsake":4156,"Ġshell":4157,"agement":4158,"cture":4159,"Ġordered":4160,"Ġbrown":4161,"Ġthrow":4162,"Ġearnest":4163,"Ġestab":4164,"ĠRaquin":4165,"Ġinfluence":4166,"Ma":4167,"pir":4168,"erc":4169,"Ġcow":4170,"stand":4171,"pered":4172,"Ġgover":4173,"Ġreport":4174,"Ġshare":4175,"Ã¨rent":4176,"Ġretreat":4177,"Ġconfidence":4178,"Ġcurtain":4179,"ĠKitty":4180,"Ġdispos":4181,"Ġconsiderable":4182,"Ġevents":4183,"Ġplatform":4184,"Had":4185,"aly":4186,"mn":4187,"ener":4188,"anwhile":4189,"Ġhealth":4190,"acha":4191,"Ġjet":4192,"Ġfeatures":4193,"Ġyours":4194,"Ġlooks":4195,"Thus":4196,"Ġreser":4197,"Ġcarp":4198,"ceiving":4199,"IS":4200,"ias":4201,"iny":4202,"Ġsout":4203,"Ġwret":4204,"erville":4205,"isions":4206,"Ġstore":4207,"Ġupper":4208,"iece":4209,"ĠPlanchet":4210,"ĠPhoebus":4211,"Ġamaz":4212,"Ġafternoon":4213,"Ãītienne":4214,"Ġ4":4215,"Ġfood":4216,"Ġreven":4217,"Ġnote":4218,"this":4219,"Ġlives":4220,"Ġgoes":4221,"Ġsomewhat":4222,"ĠNap":4223,"Ġbold":4224,"Ġdistress":4225,"Ġinstinct":4226,"Ġcharge":4227,"Ġslept":4228,"Ġstock":4229,"Ġobserve":4230,"Ġgrey":4231,"Ġhurried":4232,"ĠChrist":4233,"Ġpalais":4234,"Ġdirectly":4235,"five":4236,"long":4237,"Ġaur":4238,"Ġmag":4239,"Ġlun":4240,"Ġpauv":4241,"Ġrage":4242,"rose":4243,"never":4244,"ongo":4245,"Ġenfin":4246,"Ġseek":4247,"ĠTop":4248,"igned":4249,"Ġaccustomed":4250,"Ġhollow":4251,"Ġinside":4252,"Ġindif":4253,"Ġdiscover":4254,"Ġartic":4255,"Ġlanguage":4256,"Somet":4257,"Ġcas":4258,"Ġcool":4259,"atur":4260,"Ġrare":4261,"Ġviv":4262,"ĠLady":4263,"ĠNor":4264,"Ġundert":4265,"Ġentend":4266,"Ġtelling":4267,"Ġassured":4268,"Ġswear":4269,"Ġsummer":4270,"Ġapartment":4271,"Meanwhile":4272,"Bec":4273,"Indeed":4274,"sou":4275,"ĠQue":4276,"Ġbag":4277,"urst":4278,"Ġrate":4279,"Ġrepres":4280,"Ġpop":4281,"Ġmarquis":4282,"aily":4283,"Ġcloak":4284,"Ġexplained":4285,"Ġcatch":4286,"exp":4287,"more":4288,"Ġcrew":4289,"ĠcÃ´t":4290,"enth":4291,"Ġreck":4292,"umn":4293,"Ġdism":4294,"ĠRod":4295,"Ġanyone":4296,"Ġmarked":4297,"Ġmarquise":4298,"cial":4299,"Ġassure":4300,"Ġsuffering":4301,"Ġmeeting":4302,"Ġdelay":4303,"Ġdisturbed":4304,"Ġintelligence":4305,"kerchief":4306,"fl":4307,"Ġlevel":4308,"Ġunless":4309,"reek":4310,"Ġcontent":4311,"Ġchez":4312,"Ġimagination":4313,"Ġconvinced":4314,"Ġstupid":4315,"Ġtongue":4316,"OR":4317,"dom":4318,"rÃ©":4319,"Ġsigh":4320,"Ġming":4321,"Ġcries":4322,"Ġdust":4323,"Ġfail":4324,"anÃ§":4325,"Ġresemb":4326,"ghter":4327,"Ġexplan":4328,"Ġsmiling":4329,"Ġengaged":4330,"Ġlaughter":4331,"Ġdispl":4332,"Ġequal":4333,"Ġmerely":4334,"Up":4335,"gent":4336,"ĠZ":4337,"Ġton":4338,"Ġmour":4339,"Ġmile":4340,"Ġmud":4341,"itary":4342,"Ġgens":4343,"Ġwithd":4344,"Ġassez":4345,"Ġwear":4346,"Ã©rie":4347,"aine":4348,"ĠMay":4349,"ĠMart":4350,"Ġsoil":4351,"ulous":4352,"ĠPierre":4353,"acks":4354,"aise":4355,"Ġdisapp":4356,"Ġshame":4357,"beau":4358,"Ġfinally":4359,"Ġeleven":4360,"Ġrisk":4361,"Ġdestroy":4362,"Ġfinger":4363,"Ġleaning":4364,"Ġjusqu":4365,"bl":4366,"eau":4367,"io":4368,"ann":4369,"Ġancient":4370,"Ġaccident":4371,"Ġceased":4372,"Ġcharm":4373,"Ġcreatures":4374,"Ġviolence":4375,"Ġexamined":4376,"Ġstayed":4377,"Ġridic":4378,"Ġpouvait":4379,"Ġliberty":4380,"ĠCompany":4381,"Because":4382,"gin":4383,"Ġz":4384,"Ġsisters":4385,"Ġwond":4386,"rem":4387,"Ġbree":4388,"Ġcred":4389,"Ġwhist":4390,"Ġlake":4391,"Ġcompre":4392,"ĠVal":4393,"ruction":4394,"Ġguide":4395,"ĠOF":4396,"Ġkeeping":4397,"Ġmisery":4398,"ĠSpan":4399,"Ġhurry":4400,"Ġcarrying":4401,"ĠMontsou":4402,"Ġentrance":4403,"Am":4404,"gund":4405,"ĠdÃ©p":4406,"Ġfal":4407,"Ġluck":4408,"rai":4409,"Ġsupply":4410,"formed":4411,"Ġburied":4412,"Ġsoldiers":4413,"Ġdangerous":4414,"Ġspecies":4415,"Ġcommunic":4416,"Ġunfortunate":4417,"Look":4418,"gl":4419,"gment":4420,"ĠThen":4421,"Ġdwell":4422,"Ġreve":4423,"Ġmois":4424,"Ġcalling":4425,"Ġsubm":4426,"Ġinquir":4427,"Ġremarked":4428,"Ġexperien":4429,"ĠMaheu":4430,"Ġexecution":4431,"Ġacquaintance":4432,"Ġcuriosity":4433,"ris":4434,"Ġtant":4435,"Ġbou":4436,"Ġcav":4437,"arse":4438,"Ġeast":4439,"lend":4440,"Ġbeheld":4441,"ĠrÃ©s":4442,"agger":4443,"Ġaloud":4444,"Ġarrest":4445,"Ġproject":4446,"ĠGer":4447,"Ġgranite":4448,"Ġpend":4449,"Ġdonc":4450,"Ġfurious":4451,"Ġphr":4452,"Ġbelonged":4453,"Ġstruggle":4454,"Ġaccompanied":4455,"will":4456,"Ġdue":4457,"Ġlin":4458,"Ġpot":4459,"Ġpair":4460,"Ġhom":4461,"Ġdeaf":4462,"acher":4463,"Ġhandkerchief":4464,"Ġserait":4465,"Ġconsent":4466,"Ġappar":4467,"ency":4468,"Ġsooner":4469,"ĠÂ«":4470,"Ġpays":4471,"Ġventured":4472,"Ġevil":4473,"Ġtravers":4474,"Milady":4475,"ĠUn":4476,"Ġhed":4477,"ĠCar":4478,"ĠBuckingham":4479,"Ġproceed":4480,"eping":4481,"Ġprefer":4482,"Ġvoices":4483,"Ġimpression":4484,"Ġwatching":4485,"Ġterms":4486,"Ġrooms":4487,"Ġswift":4488,"Ġinterv":4489,"Ġmaj":4490,"Ġphys":4491,"minence":4492,"Ġfrequently":4493,"Ġstaircase":4494,"com":4495,"Ġblock":4496,"lles":4497,"Ġsevere":4498,"Ġvit":4499,"key":4500,"Ġshoes":4501,"Ġlabour":4502,"Ġamb":4503,"Ġknowledge":4504,"Ġobey":4505,"Ġkey":4506,"Ġbottle":4507,"Ġwriting":4508,"Ġbreaking":4509,"Ġinfin":4510,"Ġcentre":4511,"Ġdropped":4512,"Ġhopes":4513,"Ġhanging":4514,"Ġseparated":4515,"la":4516,"uly":4517,"reck":4518,"Ġbore":4519,"Ġborn":4520,"Ġfille":4521,"Ġbeach":4522,"ĠMy":4523,"essie":4524,"lies":4525,"ĠHow":4526,"Ġspace":4527,"Ġsplend":4528,"Ġfury":4529,"Ġplaying":4530,"Ġfavor":4531,"Ġgoverness":4532,"Ex":4533,"bar":4534,"hand":4535,"Ġdamp":4536,"Ġfu":4537,"atin":4538,"ims":4539,"alais":4540,"Ġsau":4541,"lier":4542,"Ġcontain":4543,"pper":4544,"arted":4545,"Ġworked":4546,"Ġgoat":4547,"Ġblows":4548,"ĠEminence":4549,"Ġoffice":4550,"Ġparler":4551,"Ġenth":4552,"Ġscre":4553,"Ġdistinct":4554,"Ġcontinu":4555,"Ġconfused":4556,"Ġsignal":4557,"Ġinnoc":4558,"Nevertheless":4559,"Ġclouds":4560,"Ġfaisait":4561,"Ġagreeable":4562,"Would":4563,"ffe":4564,"oot":4565,"Ġtur":4566,"rect":4567,"Ġorig":4568,"Ġcra":4569,"arily":4570,"Ġintended":4571,"Ġgently":4572,"ĠMary":4573,"Ġabrupt":4574,"geon":4575,"ĠFair":4576,"Ġcondem":4577,"Ġmaid":4578,"Ġtrouver":4579,"Ġhunger":4580,"Ġcouple":4581,"Ġconstantly":4582,"Ġdrive":4583,"Ġsprang":4584,"Ġimportance":4585,"Ġpossessed":4586,"Ã©cria":4587,"Ġpicture":4588,"Ġsurrounded":4589,"Ġabsolutely":4590,"Athos":4591,"een":4592,"nce":4593,"whe":4594,"Ġaj":4595,"inking":4596,"Ġple":4597,"Ġpave":4598,"llen":4599,"Ġnames":4600,"Ġham":4601,"Ġisn":4602,"Ġlend":4603,"Ġsubst":4604,"Ġinterior":4605,"Ġencour":4606,"chair":4607,"Mrs":4608,"Ġsuperior":4609,"Char":4610,"Ġainsi":4611,"Ġemer":4612,"acious":4613,"Ġquatre":4614,"Ġlaiss":4615,"ĠPac":4616,"Ġarmed":4617,"Ġwilling":4618,"Ġproceeded":4619,"Ġhole":4620,"Ã¢te":4621,"Ġdeeply":4622,"Ġsolid":4623,"Ġfastened":4624,"Ġspirits":4625,"phew":4626,"Ġenemy":4627,"Ġmysterious":4628,"OU":4629,"nal":4630,"Ġcoo":4631,"ading":4632,"ĠPhileas":4633,"Ġmatters":4634,"Ġexchan":4635,"Ġjoined":4636,"Ġgenerally":4637,"iliar":4638,"Ġfields":4639,"con":4640,"omb":4641,"irst":4642,"Ġaside":4643,"Ġving":4644,"Ġnearer":4645,"Ġnephew":4646,"Ġcontem":4647,"astic":4648,"Ġencl":4649,"cknow":4650,"Ġgradually":4651,"Ġadventure":4652,"Ġaddressed":4653,"Ġabsor":4654,"Ġaware":4655,"Ġplayed":4656,"Ġimagined":4657,"ĠClaude":4658,"Ġdelighted":4659,"ĠDuke":4660,"Ġwaist":4661,"Ġpowder":4662,"Ġdiamond":4663,"ĠLydia":4664,"AT":4665,"Ġacknow":4666,"Ġsank":4667,"ites":4668,"Ġeu":4669,"ott":4670,"Ġdeck":4671,"Ġrang":4672,"Ġstern":4673,"Ġimpro":4674,"Ġseriously":4675,"Ġways":4676,"fortune":4677,"Ġordinary":4678,"ship":4679,"Ġsavage":4680,"Ġevident":4681,"Ġprobable":4682,"Ġdeclared":4683,"Ġmentioned":4684,"Ġsettlement":4685,"Ġflowers":4686,"ĠPlace":4687,"athered":4688,"Since":4689,"ca":4690,"itive":4691,"Ġclock":4692,"ĠcÅĵur":4693,"Ġfailed":4694,"Ġthunder":4695,"quette":4696,"Ġstick":4697,"Ġseule":4698,"ulated":4699,"Ġlog":4700,"ĠNo":4701,"Ġpec":4702,"izing":4703,"ĠWest":4704,"Ġfortnight":4705,"Ġreader":4706,"Ġinstantly":4707,"Ġcentury":4708,"Ġbringing":4709,"Ġhaste":4710,"Ġgaze":4711,"Ġpressure":4712,"Ab":4713,"ashing":4714,"ĠIce":4715,"Ġstairs":4716,"ria":4717,"road":4718,"Ġshru":4719,"ĠCol":4720,"aper":4721,"Ġworking":4722,"ĠHomais":4723,"Ġmoder":4724,"Ġgrown":4725,"Ġdull":4726,"Ġcontre":4727,"Ġentertain":4728,"iens":4729,"Ġawait":4730,"Ġapproaching":4731,"Ġdrove":4732,"tesse":4733,"ugust":4734,"ĠHenne":4735,"Ġpremier":4736,"Ġfatigue":4737,"Passepartout":4738,"ius":4739,"Ġcure":4740,"orse":4741,"Ġrays":4742,"Ġseason":4743,"Ġconven":4744,"ĠFor":4745,"Ġrolled":4746,"Ġpoet":4747,"ĠNotre":4748,"Ġperform":4749,"Ġappears":4750,"Ġhappen":4751,"iana":4752,"Ġswall":4753,"Ġfamiliar":4754,"Ġeleg":4755,"Ġbuilt":4756,"place":4757,"Ġpossession":4758,"Ġguns":4759,"ĠMercy":4760,"bly":4761,"Ġbour":4762,"ormed":4763,"Ġstat":4764,"Ġatm":4765,"nem":4766,"Ġliqu":4767,"ĠAlt":4768,"Ġpoison":4769,"ĠEt":4770,"Ġcrown":4771,"Ġcontri":4772,"Ġkeen":4773,"Ġcheer":4774,"Ġdevant":4775,"Ġdrowned":4776,"Ġdoubtless":4777,"Ġmisfortune":4778,"Ġfatal":4779,"Ġconsequence":4780,"Ġfetch":4781,"Ġbranches":4782,"ĠfaÃ§on":4783,"Les":4784,"coup":4785,"fice":4786,"fax":4787,"Ġ5":4788,"edy":4789,"Ġfaint":4790,"Ġpick":4791,"Ġrent":4792,"Ġweary":4793,"Ġquoi":4794,"Ġunf":4795,"ĠEd":4796,"Ġentre":4797,"Ġincident":4798,"Ġclever":4799,"Ġvisible":4800,"Ġprofess":4801,"ĠJehan":4802,"Ġruin":4803,"Ġarchite":4804,"Ġflew":4805,"Ġhidden":4806,"Ġdisappoint":4807,"rane":4808,"aries":4809,"ĠIl":4810,"Ġrig":4811,"pel":4812,"Ġcontempt":4813,"ĠSan":4814,"Ġworks":4815,"ĠBer":4816,"ĠBel":4817,"Ġgroup":4818,"Ġbod":4819,"there":4820,"Ġesp":4821,"Ġfamous":4822,"Ġelb":4823,"Ġclearly":4824,"Ġlearn":4825,"Ġreflected":4826,"Ġconcern":4827,"Ġprivate":4828,"Ġcheeks":4829,"ffee":4830,"vÃª":4831,"Ġmix":4832,"Ġfate":4833,"Ġdepend":4834,"Ġstam":4835,"Ġprinces":4836,"Ġdisg":4837,"Ġcompass":4838,"Ġprendre":4839,"Ġobtain":4840,"Ġavaient":4841,"Ãªt":4842,"ouda":4843,"Ġaffairs":4844,"vaque":4845,"Ġannoy":4846,"ĠFairfax":4847,"Ġdaz":4848,"quel":4849,"keep":4850,"osure":4851,"emain":4852,"olphe":4853,"Ġplais":4854,"Ġshape":4855,"ĠDongo":4856,"Ġeverybody":4857,"Ġarrive":4858,"Ġapproach":4859,"Ġpainful":4860,"ĠRassi":4861,"Ġvirtue":4862,"Ġvingt":4863,"Certain":4864,"Et":4865,"Emma":4866,"ford":4867,"work":4868,"Ġtent":4869,"Ġloss":4870,"Ġfears":4871,"ighed":4872,"Ġwhence":4873,"Ġcoffee":4874,"Ġeverywhere":4875,"Ġspend":4876,"dele":4877,"Ġretired":4878,"uliar":4879,"Ġsoup":4880,"Ġdete":4881,"Ġdoesn":4882,"Ġgallant":4883,"Laurent":4884,"Ġsoldier":4885,"Ġdisplay":4886,"Ġlinen":4887,"ĠHennebeau":4888,"Herbert":4889,"Ġta":4890,"Ġwet":4891,"Ġdaily":4892,"ĠlÃł":4893,"Ġetern":4894,"Ġgathered":4895,"ĠÃ¢":4896,"Ġknife":4897,"Ġotherwise":4898,"Ġpeine":4899,"Ġtea":4900,"Ġcapable":4901,"Ġinformed":4902,"Ġexcuse":4903,"Ġrepeat":4904,"Ġtrembled":4905,"Ġnervous":4906,"Ġbeaucoup":4907,"Ġignorant":4908,"Sometimes":4909,"Ġpeculiar":4910,"EN":4911,"eur":4912,"gain":4913,"mand":4914,"su":4915,"ĠU":4916,"ĠmÃ©":4917,"Ġbowed":4918,"Ġlest":4919,"Ġhither":4920,"acles":4921,"resp":4922,"ulted":4923,"Ġdozen":4924,"Ġlibr":4925,"Ġorg":4926,"geance":4927,"Ġcover":4928,"ĠRoland":4929,"sip":4930,"Ġexcited":4931,"Ġlowered":4932,"Ġdrop":4933,"ĠGuards":4934,"ĠMaheude":4935,"Ġfaithful":4936,"Ġdeserted":4937,"ĠMartin":4938,"Ġcredit":4939,"Ġexperienced":4940,"Miss":4941,"hod":4942,"sha":4943,"ĠThis":4944,"era":4945,"Ġgained":4946,"iding":4947,"Ġsevent":4948,"agne":4949,"Ġframe":4950,"ĠPort":4951,"aps":4952,"Ġproof":4953,"Ġgratitude":4954,"Ġboys":4955,"Ġserve":4956,"Ġrecomme":4957,"Ġjoin":4958,"Ġslightly":4959,"ĠPrince":4960,"Ġdelicate":4961,"Ġconvicts":4962,"ĠChaval":4963,"Ġplunged":4964,"Ġremoved":4965,"Ġpavement":4966,"Can":4967,"Even":4968,"Such":4969,"gress":4970,"mÃªme":4971,"pre":4972,"itement":4973,"Ġbull":4974,"Ġgend":4975,"utation":4976,"Ġstif":4977,"Ġstiff":4978,"rock":4979,"ify":4980,"Ġquit":4981,"ĠAd":4982,"Ġremains":4983,"Ġscience":4984,"Ġappoint":4985,"Ġapparent":4986,"jection":4987,"Ġsincere":4988,"Ġcolour":4989,"Ġforehead":4990,"Ġmurder":4991,"Ġportrait":4992,"Ġtorn":4993,"Ġadmiration":4994,"Ġplateau":4995,"Ġgloomy":4996,"heureux":4997,"Ġlifted":4998,"Ġwishes":4999,"More":5000,"_,":5001,"rain":5002,"was":5003,"ench":5004,"Ġfen":5005,"Ġislet":5006,"ĠMais":5007,"ieurs":5008,"umin":5009,"ĠAugust":5010,"Ġintense":5011,"ĠLong":5012,"ĠGard":5013,"Ġpasser":5014,"Ġremind":5015,"Ġflood":5016,"Ġrefuge":5017,"Ġkindness":5018,"Ġrecovered":5019,"Ġmistake":5020,"Ġprisoner":5021,"Ġmusic":5022,"Ġstudy":5023,"Ġsolemn":5024,"Ġdragged":5025,"Ġabandoned":5026,"Ġcitad":5027,"nds":5028,"itate":5029,"Ġlan":5030,"asing":5031,"acity":5032,"amour":5033,"Ġquant":5034,"Ġexceed":5035,"Ġprove":5036,"Ġbrain":5037,"ĠRou":5038,"ĠDieu":5039,"Ġbegun":5040,"Ġpersons":5041,"tenant":5042,"Ġneeded":5043,"Ġrelations":5044,"Ġproposed":5045,"Ġhastened":5046,"Ġsucceed":5047,"Ġimpatience":5048,"Ġwidow":5049,"ĠcÃ´tÃ©":5050,"Ġenthus":5051,"ĠPacific":5052,"Dame":5053,"occ":5054,"Ġwed":5055,"hal":5056,"isp":5057,"Ġgig":5058,"Ġredu":5059,"Ġseam":5060,"Ġvale":5061,"oose":5062,"Ġleurs":5063,"oused":5064,"Ġships":5065,"ĠCape":5066,"Ġworst":5067,"Ġexped":5068,"Ġexpressed":5069,"Ġunex":5070,"Ġdirected":5071,"Ġtrouva":5072,"Ġpersonne":5073,"Ġamongst":5074,"Ġveget":5075,"Ġprofond":5076,"Ġrelated":5077,"Ġvengeance":5078,"Ġplainly":5079,"ĠReed":5080,"Ġarrangement":5081,"Ġdescended":5082,"Ġemployed":5083,"Ġvarious":5084,"Ġclerk":5085,"Ġthroat":5086,"Ġgendar":5087,"ef":5088,"ipped":5089,"vol":5090,"Ġarose":5091,"oring":5092,"omin":5093,"otte":5094,"Ġseul":5095,"aging":5096,"asted":5097,"emple":5098,"ĠSund":5099,"ĠprÃ©c":5100,"Ġmonster":5101,"enced":5102,"Ġmethod":5103,"Ġdetails":5104,"Ġsleeping":5105,"Ġconstant":5106,"Ġviolently":5107,"Ġannounced":5108,"Ġnaturally":5109,"Ġsacrifice":5110,"which":5111,"Ġhyp":5112,"Ġpauvre":5113,"fall":5114,"Ġsize":5115,"Ġfol":5116,"Ġfired":5117,"Ġlam":5118,"ira":5119,"irgin":5120,"Ġstuff":5121,"Ġsais":5122,"ĠMos":5123,"Ġshed":5124,"Ġshone":5125,"ĠBishop":5126,"Ġshade":5127,"Ġobtained":5128,"Ġcrushed":5129,"Ġlettre":5130,"Ġpresque":5131,"unegund":5132,"Ġcontinue":5133,"Ġsentiment":5134,"Ġfully":5135,"ground":5136,"grap":5137,"Ġlandl":5138,"engers":5139,"aws":5140,"Ġfurnished":5141,"Ġlimbs":5142,"Ġexperience":5143,"ĠMusketeer":5144,"Ġwitness":5145,"Ġtroubled":5146,"Ġfalse":5147,"Tis":5148,"len":5149,"mon":5150,"off":5151,"pes":5152,"erous":5153,"Ġcup":5154,"ĠpÃ¨re":5155,"oration":5156,"ller":5157,"Ġbearing":5158,"sters":5159,"urd":5160,"Ġange":5161,"ource":5162,"Ġextended":5163,"Ġlava":5164,"Ġalors":5165,"ĠPier":5166,"ĠStre":5167,"ĠJac":5168,"Ġentering":5169,"Ġauc":5170,"Ġhearts":5171,"Ġruined":5172,"Alas":5173,"Ġhotel":5174,"Ġvalue":5175,"Ġcivil":5176,"Ġcinq":5177,"Certainly":5178,"Ġlibrary":5179,"aÃ®tre":5180,"fait":5181,"woman":5182,"rez":5183,"reur":5184,"Ġdix":5185,"Ġfled":5186,"Ġpicked":5187,"asons":5188,"asped":5189,"Ġrene":5190,"irard":5191,"Ġaspect":5192,"Ġweap":5193,"Ġmeat":5194,"Ġmanaged":5195,"mered":5196,"resses":5197,"aires":5198,"Ġflung":5199,"Ġsetting":5200,"Ġcapital":5201,"Ġcutting":5202,"Ġmeaning":5203,"Ġprovisions":5204,"Ġcrying":5205,"Ġmountains":5206,"Ġofficers":5207,"Ġkissed":5208,"Ġspectacle":5209,"Ġsensible":5210,"Ġmystery":5211,"Ġlivres":5212,"bon":5213,"iet":5214,"iam":5215,"iest":5216,"esc":5217,"Ġhab":5218,"Ġyards":5219,"Ġrail":5220,"Ġsty":5221,"acing":5222,"ĠMil":5223,"Ġsuit":5224,"Ġplans":5225,"Ġprocess":5226,"ĠHall":5227,"Ġcompar":5228,"Ġclaim":5229,"Ġknee":5230,"Ġ15":5231,"Ġsorts":5232,"Ġadmit":5233,"Ġbaron":5234,"atson":5235,"Ġnecessity":5236,"Ġhatred":5237,"ĠAmerica":5238,"ING":5239,"ĠprÃ©sent":5240,"Mahe":5241,"fois":5242,"gÃ©":5243,"ky":5244,"no":5245,"Ġ#":5246,"eds":5247,"ĠdÃ©t":5248,"Ġtools":5249,"ese":5250,"Ġnon":5251,"Ġhalt":5252,"ĠIf":5253,"ilar":5254,"ĠMou":5255,"geois":5256,"ĠJup":5257,"lope":5258,"Ġchas":5259,"Ġobsc":5260,"Ġreconn":5261,"ounce":5262,"Ġwoods":5263,"Ġbird":5264,"Ġprevented":5265,"Ġfoolish":5266,"Ġefforts":5267,"Ġslipped":5268,"Ġsombre":5269,"Ġministre":5270,"wing":5271,"Ġ6":5272,"Ġtask":5273,"Ġcave":5274,"Ġpaces":5275,"imneys":5276,"Ġcomtesse":5277,"Ġunp":5278,"ĠBask":5279,"ĠLatin":5280,"Ġgovern":5281,"pted":5282,"Ġmatch":5283,"Ġgives":5284,"Ġswell":5285,"Ġencoun":5286,"Ġfellows":5287,"Ġmounted":5288,"ĠLevaque":5289,"ĠPrudence":5290,"ĠHarrison":5291,"Ġobstin":5292,"Ġblew":5293,"Ġpronounced":5294,"Ġprospect":5295,"standing":5296,"Ġexplanation":5297,"ranean":5298,"Ġcitadelle":5299,"homme":5300,"uary":5301,"yre":5302,"hest":5303,"Ġmast":5304,"onst":5305,"Ġtower":5306,"Ġtoler":5307,"inging":5308,"Ġinvent":5309,"imaud":5310,"Ġrou":5311,"Ġstret":5312,"Ġfrag":5313,"Ġshowing":5314,"----":5315,"Ġspark":5316,"Ġthrowing":5317,"aution":5318,"cience":5319,"Ġpoints":5320,"Ġprofessor":5321,"ĠdÃ©j":5322,"Ġmerc":5323,"Ġpurcha":5324,"Ġexample":5325,"ĠChimneys":5326,"Ġreflection":5327,"Jean":5328,"Ġcabin":5329,"Ġfancied":5330,"Ġaccepted":5331,"Ġformerly":5332,"Ġdisturb":5333,"Ġbuilding":5334,"Ġraft":5335,"Ġcontempl":5336,"ĠMosca":5337,"IT":5338,"Mar":5339,"Than":5340,"cle":5341,"hi":5342,"Ġess":5343,"Ġtum":5344,"Ġflight":5345,"Ġpant":5346,"esprit":5347,"Ġnamed":5348,"Ġgain":5349,"icy":5350,"iller":5351,"liv":5352,"Ġcontained":5353,"ulate":5354,"iere":5355,"Ġtrade":5356,"umes":5357,"Ġard":5358,"Ġamuse":5359,"Ġtimid":5360,"Ġanybody":5361,"Ġremorse":5362,"ĠDr":5363,"isely":5364,"Ġmasters":5365,"Ġventure":5366,"Ġpursued":5367,"Ġdomest":5368,"Ġexhausted":5369,"Ġpeasant":5370,"nier":5371,"Ġing":5372,"Ġici":5373,"Ġwicked":5374,"Ġhit":5375,"Ġnaked":5376,"Ġville":5377,"Ġexcess":5378,"Ġtrace":5379,"Ġintention":5380,"Ġgrim":5381,"Ġdesper":5382,"udov":5383,"chevÃª":5384,"Ġmari":5385,"Ġconsol":5386,"hens":5387,"Ġdrunk":5388,"Ġgallop":5389,"Ġmadam":5390,"Without":5391,"Ġdressing":5392,"Ġrelief":5393,"Ġuneasy":5394,"Ġelder":5395,"looking":5396,"Ġpendant":5397,"line":5398,"upe":5399,"Ġtit":5400,"hem":5401,"reg":5402,"Ġder":5403,"orough":5404,"Ġnort":5405,"imer":5406,"Ġreb":5407,"irm":5408,"Ġrace":5409,"Ġanch":5410,"resse":5411,"Ġcomment":5412,"ules":5413,"Ġworn":5414,"ĠprÃ¨s":5415,"Ġsomeone":5416,"ĠTur":5417,"Ġattached":5418,"Ġattract":5419,"Ġwants":5420,"Ġminers":5421,"Ġdevoted":5422,"Ġschol":5423,"Ġpressing":5424,"Ġatmosp":5425,"udovic":5426,"Jane":5427,"Take":5428,"cont":5429,"lÃ©":5430,"ram":5431,"Ġmit":5432,"Ġfrig":5433,"attered":5434,"Ġrum":5435,"Ġrib":5436,"Ġwealth":5437,"cting":5438,"ctive":5439,"Ġexerc":5440,"Ġunif":5441,"aping":5442,"Its":5443,"Ġspare":5444,"Ġusually":5445,"udden":5446,"Ġgoods":5447,"Ġparce":5448,"Therese":5449,"Ġ..":5450,"ĠWatson":5451,"Ġadvance":5452,"Ġterrified":5453,"Ġhurt":5454,"Ġinquired":5455,"Ġdescend":5456,"Ġprocur":5457,"Ġvictim":5458,"Ġsummit":5459,"Ġchemist":5460,"Ġajout":5461,"hum":5462,"Ġtail":5463,"Ġtakes":5464,"Ġwreck":5465,"Ġmach":5466,"Ġdern":5467,"armed":5468,"ainte":5469,"pended":5470,"istr":5471,"Ġmanners":5472,"Ġtrait":5473,"Ġshaking":5474,"Ġado":5475,"Ġbegged":5476,"ĠThat":5477,"Ġmatin":5478,"Ġindign":5479,"ĠFranc":5480,"Ġshadows":5481,"Ġknocked":5482,"Ġpossibly":5483,"ĠrÃ©pondit":5484,"Ġphilosopher":5485,"uddenly":5486,"cut":5487,"Ġloun":5488,"Ġparent":5489,"Ġgal":5490,"ĠIN":5491,"Ġreasons":5492,"Ġate":5493,"ĠMort":5494,"ĠCunegund":5495,"ĠAs":5496,"Ġloft":5497,"Ġshaft":5498,"Ġpear":5499,"Ġinsp":5500,"Ġcircle":5501,"Ġfurniture":5502,"ĠXI":5503,"Ġdeliver":5504,"Ġdirty":5505,"ĠQueen":5506,"Ġlounge":5507,".âĢĿ":5508,"LE":5509,"lÃł":5510,"inte":5511,"Ġsire":5512,"itating":5513,"enod":5514,"Ġep":5515,"Ġhadn":5516,"Ġwel":5517,"rois":5518,"Ġsheet":5519,"Ġdoc":5520,"isten":5521,"ĠPh":5522,"Ġabund":5523,"venir":5524,"Ġbrut":5525,"Ġboots":5526,"Ġimper":5527,"Ġflag":5528,"Ġwanting":5529,"leton":5530,"Ġabsurd":5531,"Ġmilieu":5532,"vidence":5533,"Ġcorpse":5534,"Ġreflections":5535,"Ġfreed":5536,"Ġconcerned":5537,"Ġflying":5538,"Ġrecalled":5539,"Ġhigher":5540,"Ġpieds":5541,"Ġmingled":5542,"Upon":5543,"Ġcaval":5544,"Suddenly":5545,"ault":5546,"bles":5547,"dig":5548,"four":5549,"iqu":5550,"Ġpack":5551,"Ġnav":5552,"ata":5553,"keys":5554,"Ġwholly":5555,"Ġwhenever":5556,"ĠAb":5557,"Ġperceive":5558,"Ġsera":5559,"autre":5560,"Ġharp":5561,"Ġmates":5562,"eneur":5563,"Ġcleared":5564,"Ġfinish":5565,"Ġexcitement":5566,"Ġshouting":5567,"Ġleading":5568,"Ġclimbed":5569,"Ġbeasts":5570,"Ġpreserved":5571,"Ġrendered":5572,"Ġbrilliant":5573,"acharie":5574,"Ġsplendid":5575,"Ġlendemain":5576,"Ġabsorbed":5577,"Ġprincesse":5578,"_.":5579,"mir":5580,"reux":5581,"ĠhÃ©":5582,"Ġni":5583,"Ġstared":5584,"Ġmeme":5585,"Ġvap":5586,"ĠPirard":5587,"aker":5588,"Ġovercome":5589,"Ġcomposed":5590,"Ġmark":5591,"Ġmonse":5592,"Ġconscience":5593,"ursed":5594,"Ġfarm":5595,"Ġestate":5596,"Ġuseful":5597,"Ġmercy":5598,"ĠLeon":5599,"Before":5600,"Ġwonderful":5601,"Ġmeantime":5602,"Everything":5603,"Ġpictures":5604,"Ġwhispered":5605,"Ġsteamer":5606,"Ġinformation":5607,"Ġbridge":5608,"Ġdwelling":5609,"Bon":5610,"Ġfou":5611,"Ġthorough":5612,"Ġmechan":5613,"Ġfruit":5614,"Ġgrou":5615,"Ġbrand":5616,"Ġrepent":5617,"Ġpassengers":5618,"Ġpointing":5619,"Ġforgive":5620,"Ġbarely":5621,"Ġcoward":5622,"Ġbourgeois":5623,"Ġmonseigneur":5624,"!--":5625,"Poor":5626,"gged":5627,"pent":5628,"Ġsed":5629,"Ġporter":5630,"Ġrav":5631,"illes":5632,"ĠvÃ©r":5633,"Ġiss":5634,"ulation":5635,"ĠCont":5636,"Ġwheel":5637,"Ġwouldn":5638,"Ġcop":5639,"Ġdaylight":5640,"Ġlikewise":5641,"Ġchoses":5642,"Ġbored":5643,"Ġvois":5644,"Ġflame":5645,"Ġtend":5646,"Ġguests":5647,"guish":5648,"Ġsecure":5649,"Ġglobe":5650,"ĠComte":5651,"Ġsouthern":5652,"Ġcomprehe":5653,"ĠValenod":5654,"Ġhommes":5655,"Ġlantern":5656,"Ġunexpected":5657,"Cl":5658,"rades":5659,"ture":5660,"uv":5661,"Ġaid":5662,"Ġsorrow":5663,"Ġfis":5664,"Ġpace":5665,"omen":5666,"urse":5667,"Ġrasc":5668,"ilst":5669,"illa":5670,"rol":5671,"loped":5672,"ints":5673,"Ġhousehold":5674,"Ġdevoured":5675,"Ġassass":5676,"Ġrefuse":5677,"Ġsteep":5678,"Ġunderstanding":5679,"Ġresolution":5680,"Ġoccasions":5681,"Ġextrem":5682,"Ġpatience":5683,"Ġrequest":5684,"Ġhedge":5685,"ĠIceland":5686,"Ġliquid":5687,"ĠBaskerville":5688,"AS":5689,"Cette":5690,"Re":5691,"uce":5692,"Ġmute":5693,"iste":5694,"Ġtot":5695,"Ġhero":5696,"ilty":5697,"Ġconc":5698,"Ġshown":5699,"ĠAouda":5700,"ĠBour":5701,"Ġprudence":5702,"ĠFather":5703,"Ġoverwhe":5704,"Ġpretended":5705,"Ġunderwater":5706,"Ġconscious":5707,"Ġindicated":5708,"Ġconditions":5709,"Ġskill":5710,"Ġvex":5711,"Ġinvited":5712,"Ġacquainted":5713,"iciently":5714,"Ġtriumph":5715,"Charles":5716,"respond":5717,"Ġoverwhel":5718,",âĢĿ":5719,"tic":5720,"ĠÃ©p":5721,"ĠtÃªte":5722,"Ġaven":5723,"Ġnation":5724,"Ġeating":5725,"imp":5726,"Ġthither":5727,"Ġyonder":5728,"Ġstupe":5729,"ĠAdele":5730,"ĠBe":5731,"ĠBessie":5732,"ĠLuc":5733,"Ġspl":5734,"Ġloc":5735,"Ġtear":5736,"izzy":5737,"ursday":5738,"Ã¢t":5739,"ĠÂ»,":5740,"Ġdiscovery":5741,"Ġeduc":5742,"Ġgazing":5743,"Ġsavages":5744,"Ġdivided":5745,"Ġenemies":5746,"Or":5747,"Pierre":5748,"law":5749,"Ġlord":5750,"oms":5751,"uten":5752,"eter":5753,"Ġrow":5754,"Ġanguish":5755,"Ġvic":5756,"Ġjou":5757,"teem":5758,"Ġenf":5759,"Ġprit":5760,"Ġnevertheless":5761,"ĠTr":5762,"Ġyounger":5763,"Ġattach":5764,"prÃ¨s":5765,"Ġcharged":5766,"Ġguilty":5767,"Ġ17":5768,"Ġhighly":5769,"Ġbonne":5770,"Ġcorrespond":5771,"Ġprovided":5772,"Ġinvol":5773,"Ġbreathing":5774,"Ġdisappear":5775,"Ġhanged":5776,"Ġpermission":5777,"Ġconsequently":5778,"Ġcelui":5779,"Ġconcluded":5780,"Ġaffected":5781,"Ġreligion":5782,"Ġlorsque":5783,"Ġtowers":5784,"Ġenergy":5785,"Ġinnocent":5786,"keeper":5787,"ĠMilan":5788,"God":5789,"ares":5790,"ere":5791,"Ġ7":5792,"onc":5793,"Ġrender":5794,"Ġyard":5795,"elles":5796,"ĠAust":5797,"Ġdesert":5798,"Ġseeking":5799,"ĠEs":5800,"Ġinstru":5801,"Ġtreas":5802,"Ġ16":5803,"Ġstead":5804,"Ġsurely":5805,"Ġraising":5806,"Ġdifference":5807,"Ġcounter":5808,"Ġtranquil":5809,"Ġdistinguish":5810,"Ġsuspicion":5811,"Ġbodies":5812,"Ġstyle":5813,"Ġatmosphere":5814,"ĠFrancis":5815,"loss":5816,"oning":5817,"Ġpor":5818,"Ġpup":5819,"Ġine":5820,"Ġecc":5821,"Ġbelle":5822,"ĠMed":5823,"Ġqual":5824,"Ġconvey":5825,"Ġkil":5826,"Ġorn":5827,"ĠSore":5828,"Ġprudent":5829,"Ġprogress":5830,"Ġloaded":5831,"ĠJan":5832,"Ġsomewhere":5833,"Ġpreced":5834,"ĠEx":5835,"Ġeveryone":5836,"lessly":5837,"Ġconsid":5838,"Ġassumed":5839,"Ġsufficiently":5840,"Ġwooden":5841,"Ġmercer":5842,"Ġsolitude":5843,"Ġinclined":5844,"Ġstammered":5845,"Ġorgan":5846,"ĠStreet":5847,"Ġuniform":5848,"Lord":5849,"inally":5850,"Ġbay":5851,"Ġcage":5852,"Ġdign":5853,"Ġdancing":5854,"Ġlieu":5855,"Ġrad":5856,"Ġrust":5857,"Ġvu":5858,"ember":5859,"Ġplants":5860,"Ġalarm":5861,"ĠBes":5862,"Ġprolong":5863,"ĠJes":5864,"ĠRed":5865,"they":5866,"Once":5867,"iction":5868,"Ġavez":5869,"Ġtrouvait":5870,"Ġhumble":5871,"ification":5872,"Ġpurse":5873,"Ġneighbor":5874,"Ġcircumstance":5875,"ĠThursday":5876,"bye":5877,"Ġdelivered":5878,"Ġstirred":5879,"Ġsupported":5880,"Ġbetrayed":5881,"Ġbreeze":5882,"ĠGerman":5883,"Ġinfinite":5884,"Ġarchitecture":5885,"ĠSunday":5886,"ipp":5887,"when":5888,"wenty":5889,"hall":5890,"oncer":5891,"Ġlack":5892,"Ġlatitude":5893,"Ġhate":5894,"Ġgai":5895,"ĠComm":5896,"orted":5897,"ĠHans":5898,"Ġrope":5899,"Ġdish":5900,"Ġrepl":5901,"Ġsurt":5902,"bec":5903,"Ġpasse":5904,"Ġterre":5905,"licity":5906,"Ġcolumn":5907,"Ġsigns":5908,"ĠStap":5909,"Ġsuspect":5910,"Ġangle":5911,"Ġmurmur":5912,"Ġhesitated":5913,"viour":5914,"Ġshudder":5915,"Ġjealousy":5916,"Ġwretch":5917,"Ġharpoon":5918,"cast":5919,"Ġty":5920,"Ġmieux":5921,"Ġpou":5922,"Ġnuit":5923,"Ġray":5924,"amm":5925,"oreux":5926,"Ġupstairs":5927,"iel":5928,"Ġpris":5929,"ĠFl":5930,"abbit":5931,"Ġcliff":5932,"Ġcrack":5933,"ancon":5934,"ornfield":5935,"Ġmarve":5936,"Ġceiling":5937,"ĠVoreux":5938,"Ġtroop":5939,"Ġextent":5940,"Ġmaintenant":5941,"Ġtorrent":5942,"umbled":5943,"Ġsensation":5944,"III":5945,"ufact":5946,"Ġbehaviour":5947,"Ġjumped":5948,"Ġcondemned":5949,"Ġgigantic":5950,"ĠSorel":5951,"jet":5952,"nÃ©":5953,"sm":5954,"time":5955,"oux":5956,"oral":5957,"Ġgri":5958,"qua":5959,"Ġconvent":5960,"Ġlaqu":5961,"emp":5962,"Ġmanufact":5963,"ĠGo":5964,"ĠGalais":5965,"abor":5966,"Ġcloth":5967,"Ġcheck":5968,"Ġminer":5969,"Ġmater":5970,"Ġmaison":5971,"Ġswept":5972,"Ġexpecting":5973,"Ġportion":5974,"Ġbuy":5975,"cript":5976,"Ġhastily":5977,"Ġdemanded":5978,"rers":5979,"Ġcroy":5980,"Still":5981,"Ġcorrid":5982,"Ġdistinguished":5983,"ĠColonel":5984,"Ġdazz":5985,"chevÃªque":5986,"ded":5987,"iÃ¨":5988,"lotte":5989,"then":5990,"ĠâĢĻ":5991,"Ġtel":5992,"Ġbought":5993,"eding":5994,"Ġegg":5995,"Ġgather":5996,"Ġrever":5997,"Ġdeceived":5998,"Ġstories":5999,"Ã©qu":6000,"Ġsem":6001,"Ġmeal":6002,"rog":6003,"Ġshining":6004,"indre":6005,"ability":6006,"Ġloose":6007,"Ġvoiture":6008,"ancy":6009,"Ġentreat":6010,"Ã¨ve":6011,"ĠWill":6012,"ivid":6013,"Ġconfusion":6014,"Ġassur":6015,"Ġsixty":6016,"Ġforms":6017,"Ġutmost":6018,"Ġmovements":6019,"Ġnumerous":6020,"Ġdreams":6021,"Ġfloating":6022,"Ġeaten":6023,"Ġpistoles":6024,"Ġtemperature":6025,"Ġeagerly":6026,"Ġprincipal":6027,"Ġsuggest":6028,"Ġglimpse":6029,"Ã¢teau":6030,"Ġvalet":6031,"Ġfolk":6032,"Harr":6033,"Tout":6034,"cade":6035,"gly":6036,"kward":6037,"past":6038,"rat":6039,"yer":6040,"Ġoffe":6041,"Ġinexp":6042,"ators":6043,"icking":6044,"ĠIng":6045,"ĠreÃ§":6046,"quÃ©":6047,"Ġhers":6048,"usse":6049,"Ġfrank":6050,"Ġlab":6051,"ĠAll":6052,"Ġprice":6053,"Ġgray":6054,"Ġgrant":6055,"Ġrolling":6056,"avoir":6057,"Ġcann":6058,"coat":6059,"Ġvision":6060,"ientÃ´t":6061,"Ġdiscourse":6062,"Ġhunting":6063,"Ġrepeating":6064,"Ġquarters":6065,"Ġpapers":6066,"Ġdaughters":6067,"Ġgolden":6068,"Ġweakness":6069,"Ġtreated":6070,"Ġthreatened":6071,"Ġinhabitants":6072,"Ġfierce":6073,"Ġvolcano":6074,"Ġabruptly":6075,"Ġprocurator":6076,"ĠBesancon":6077,"Ġsurtout":6078,"his":6079,"lis":6080,"na":6081,"net":6082,"yard":6083,"Ġmille":6084,"Ġbid":6085,"Ġfils":6086,"urity":6087,"adventure":6088,"Ġstraw":6089,"acam":6090,"Ġsell":6091,"Ġsaf":6092,"Ġvag":6093,"Ġnoon":6094,"olate":6095,"Ġtimber":6096,"Ġdisord":6097,"Ġreputation":6098,"Ġadvent":6099,"angloss":6100,"Ġmarble":6101,"Ġcerem":6102,"Ġdevour":6103,"Ġsubl":6104,"Ġ14":6105,"ĠArmand":6106,"Ġbenef":6107,"Ġsounded":6108,"Ġproport":6109,"Ġinteresting":6110,"Ġproduce":6111,"Ġjudgment":6112,"Ġfighting":6113,"withstanding":6114,"ĠIndian":6115,"Ġbanks":6116,"Ġdisgust":6117,"Ġlofty":6118,"\"'":6119,"Neb":6120,"dess":6121,"Ġfil":6122,"Ġlot":6123,"Ġhell":6124,"Ġbeating":6125,"Ġrag":6126,"Ġstars":6127,"Ġcomrades":6128,"ights":6129,"eless":6130,"Ġprodig":6131,"Ġloin":6132,"Ġchin":6133,"Ġfolly":6134,"ĠEyre":6135,"Ġparfait":6136,"Ġscru":6137,"Ġscattered":6138,"Ġretour":6139,"Ġlasted":6140,"Ġtermin":6141,"pril":6142,"Ġstopping":6143,"together":6144,"Ġroads":6145,"Ġawkward":6146,"Ġpolite":6147,"Ġdemon":6148,"Ġcoral":6149,"Ġeighty":6150,"Ġbadly":6151,"Ġrecognised":6152,"ĠAtl":6153,"Ġhighest":6154,"espoir":6155,"Ġdawn":6156,"Ġchimney":6157,"ĠGardiner":6158,"Ġdesperate":6159,"';":6160,"Acc":6161,"bid":6162,"car":6163,"Ġowe":6164,"arn":6165,"Ġnice":6166,"Ġbew":6167,"icha":6168,"Ġdeve":6169,"Ġrank":6170,"Ġvall":6171,"Ġallait":6172,"Ġjack":6173,"oser":6174,"osen":6175,"ulse":6176,"ĠHer":6177,"Ġgrav":6178,"arest":6179,"Ġcrim":6180,"Ġexpense":6181,"Ġsmell":6182,"Ġsilk":6183,"âĢĶ\"":6184,"Ġvel":6185,"Ġhelped":6186,"Ġextr":6187,"ĠThornfield":6188,"ĠJeanlin":6189,"Ġvanished":6190,"Ġrelieved":6191,"Ġsmooth":6192,"Ġinhabited":6193,"Ġoperation":6194,"Ġwondered":6195,"Each":6196,"May":6197,"Spe":6198,"Tell":6199,"iently":6200,"ses":6201,"Ġtaught":6202,"Ġwin":6203,"Ġwise":6204,"Ġmult":6205,"Ġbrief":6206,"Ġfishing":6207,"Ġtoday":6208,"Ġlou":6209,"Ġpin":6210,"Ġpil":6211,"Ġhence":6212,"Ġgay":6213,"sever":6214,"Ġvais":6215,"ander":6216,"cto":6217,"iez":6218,"Ġmanage":6219,"Ġtruly":6220,"umber":6221,"Ġpole":6222,"Ġchaque":6223,"Ġcrater":6224,"Ġexposed":6225,"Ġdistr":6226,"ĠVirgin":6227,"Ġcommitted":6228,"Ġlarmes":6229,"Ġinsol":6230,"Ġindic":6231,"Ġfinal":6232,"Ġcareful":6233,"Ġafford":6234,"Ġprisonnier":6235,"Ġquarrel":6236,"Ġaccomplished":6237,"Ġvenait":6238,"Ġequally":6239,"Ġbirth":6240,"Ġsoftly":6241,"Ġneighbourhood":6242,"Ġdescribe":6243,"ĠAmerican":6244,"Ġuneasiness":6245,"Ġeternal":6246,"Ġquantity":6247,"First":6248,"Pro":6249,"bber":6250,"iard":6251,"rais":6252,"wor":6253,"Ġtap":6254,"Ġwings":6255,"itution":6256,"Ġbos":6257,"Ġtomorrow":6258,"Ġhull":6259,"anks":6260,"Ġnurse":6261,"ads":6262,"Ġwept":6263,"agon":6264,"arde":6265,"Ġunus":6266,"ĠPi":6267,"Ġabomin":6268,"ĠAN":6269,"ĠLudovic":6270,"Ġamused":6271,"abs":6272,"Ġpretend":6273,"ĠDo":6274,"inted":6275,"ensity":6276,"Ġattitude":6277,"Ġlightning":6278,"Ġplusieurs":6279,"Ġaddition":6280,"Ġbehold":6281,"lets":6282,"Ã¢ce":6283,"Ġsounds":6284,"Ġbusy":6285,"Ġtrif":6286,"Ġprisoners":6287,"Ġstriking":6288,"Ġvert":6289,"gypt":6290,"bbing":6291,"Ġmuttered":6292,"Ġguessed":6293,"Ġlorsqu":6294,"Ġwhale":6295,"ĠAltesse":6296,"Ġreduced":6297,"Ġgroups":6298,"Candide":6299,"certain":6300,"uable":6301,"uits":6302,"voir":6303,"orne":6304,"Ġwhilst":6305,"Ġrush":6306,"Ġassemb":6307,"Ġstage":6308,"Ġquart":6309,"Ġsoit":6310,"chÃ©":6311,"tement":6312,"Ġaltogether":6313,"ĠAh":6314,"Ġagitated":6315,"Ġchoose":6316,"angled":6317,"fulness":6318,"Ġrested":6319,"ĠHeaven":6320,"Ġislands":6321,"temps":6322,"Ġcavern":6323,"Ġclosely":6324,"Ġrisen":6325,"Ġconvuls":6326,"Ã®t":6327,"Ġprecious":6328,"Ġkisses":6329,"Ġinclination":6330,"Ġhills":6331,"Ġchoice":6332,"Ġvoulait":6333,"Ġassistance":6334,"Ġremarkable":6335,"iasm":6336,"Ġacknowled":6337,"Ġparents":6338,"Ġsafety":6339,"Par":6340,"ye":6341,"Ġcelle":6342,"Ġdance":6343,"Ġfant":6344,"Ġpir":6345,"atch":6346,"omach":6347,"otted":6348,"Ġreceiving":6349,"Ġthou":6350,"Ġrival":6351,"Ã©ment":6352,"Ġvac":6353,"Ġbutter":6354,"Ġlaun":6355,"Ġabroad":6356,"Ġtraces":6357,"ĠBou":6358,"Ġsport":6359,"arecha":6360,"Ġchosen":6361,"ĠEgypt":6362,"Ġparti":6363,"Ġarmy":6364,"Ġdrinking":6365,"Ġsentiments":6366,"Ġmettre":6367,"Ġsinging":6368,"Ġlanded":6369,"Ġraise":6370,"Ġactually":6371,"Ġreality":6372,"Ġregarded":6373,"Ġsituated":6374,"Ġhesitation":6375,"Ġspecim":6376,"Ġvanity":6377,"Ġfeverish":6378,"ĠRasseneur":6379,"Ġinstruments":6380,"Ġarrested":6381,"Ġtumult":6382,"jour":6383,"just":6384,"xel":6385,"rels":6386,"hamed":6387,"Ġfus":6388,"Ġnet":6389,"Ġreappe":6390,"idents":6391,"cember":6392,"Ġvou":6393,"Ġsheep":6394,"Ġshr":6395,"teenth":6396,"Ġtrick":6397,"ĠApril":6398,"udes":6399,"Ġovert":6400,"Three":6401,"Ġvoix":6402,"ĠVous":6403,"Ġlovely":6404,"Ġansw":6405,"Ġreste":6406,"Ġresting":6407,"Ġdrank":6408,"ĠGrÃ©g":6409,"Ġsimilar":6410,"Ġboats":6411,"Ġfriendship":6412,"Ġseconds":6413,"Ġadmire":6414,"onseigneur":6415,"Ġfigures":6416,"Ġballoon":6417,"Ġpermit":6418,"Ġcandles":6419,"Ġdescribed":6420,"ĠBaron":6421,"Ġstroke":6422,"Ġfortunate":6423,"Ġsemblait":6424,"Ġinstrument":6425,"Ġcarpet":6426,"Ġwedding":6427,"Ġexpedition":6428,"Ġhabits":6429,"Bonadventure":6430,"ĠConti":6431,"ĠIngram":6432,"AL":6433,"Au":6434,"Mme":6435,"eu":6436,"hic":6437,"west":6438,"Ġtied":6439,"Ġwra":6440,"eries":6441,"itiÃ©":6442,"Ġcri":6443,"Ġfought":6444,"Ġfires":6445,"Ġlux":6446,"arine":6447,"argent":6448,"Ġhaut":6449,"Ġrecl":6450,"Ġreaching":6451,"Ġthres":6452,"Ġstamp":6453,"Ã©m":6454,"Ã©v":6455,"Ġisol":6456,"pelled":6457,"Ġexagger":6458,"ĠCour":6459,"ounding":6460,"Ġtrack":6461,"ĠSi":6462,"Ġcoarse":6463,"ĠHot":6464,"abb":6465,"Ġperd":6466,"Ġblame":6467,"Ġscand":6468,"Ġturns":6469,"Ġattacked":6470,"Ġcommission":6471,"Ġuncons":6472,"Ġindivid":6473,"ception":6474,"Ġexcurs":6475,"Ġkingdom":6476,"Ġcorps":6477,"raction":6478,"Ġsuspected":6479,"Ġincrease":6480,"ĠHenri":6481,"Ġwhisper":6482,"Ġfrequent":6483,"Ġapprehens":6484,"ĠZacharie":6485,"Ġpreferred":6486,"Ġintervals":6487,"ĠMortimer":6488,"Ġnavig":6489,"Ġlaquelle":6490,"ctober":6491,":--":6492,"Listen":6493,"Si":6494,"iques":6495,"Ġbase":6496,"ician":6497,"Ġashamed":6498,"aks":6499,"hedral":6500,"Ġmoy":6501,"Ġbras":6502,"Ġlonged":6503,"Ġblowing":6504,"Those":6505,"ode":6506,"Ġcontented":6507,"Ġincess":6508,"Ġobservation":6509,"Ġadmitted":6510,"Ġjoie":6511,"Ġdemi":6512,"Ġgenerous":6513,"Ġexplos":6514,"ouvre":6515,"Ġdestruction":6516,"pendant":6517,"Ġadmirable":6518,"Ġtenderness":6519,"Ġdiscussion":6520,"Ġreligious":6521,"Ġintroduced":6522,"Ġresistance":6523,"Ġfolded":6524,"ĠSpanish":6525,"About":6526,"Ġelegant":6527,"Ġanchor":6528,"acambo":6529,"Ġthreshold":6530,"Eh":6531,"Finally":6532,"Master":6533,"Ned":6534,"fr":6535,"ny":6536,"vis":6537,"vÃ©e":6538,"wood":6539,"Ġslope":6540,"Ġmou":6541,"Ġmission":6542,"Ġhuit":6543,"Ġech":6544,"Ġgown":6545,"Ġwhit":6546,"iring":6547,"Ġrappe":6548,"Ġascertain":6549,"Ġstaring":6550,"Ġstomach":6551,"ĠMount":6552,"neur":6553,"Ġloves":6554,"ferent":6555,"Ġparted":6556,"Ġletting":6557,"Ġaccused":6558,"Ġ.'":6559,"ĠVotre":6560,"entlemen":6561,"ĠOctober":6562,"Ġmidnight":6563,"ĠAronn":6564,"Soon":6565,"bourn":6566,"Ġshores":6567,"ĠCharlotte":6568,"ĠRob":6569,"Ġautres":6570,"Ġcrossing":6571,"Any":6572,"Ġdelightful":6573,"Ġbelonging":6574,"Ġmasses":6575,"ortunately":6576,"Ġforests":6577,"Ġpouvoir":6578,"Ġnerves":6579,"ĠRodolphe":6580,"Ġdestroyed":6581,"Ġcommunication":6582,"Ġobeyed":6583,"ĠLongbourn":6584,"Ġgendarmes":6585,"Ġfreedom":6586,"ĠAronnax":6587,"Having":6588,"iance":6589,"Ġ----":6590,"ino":6591,"Ġwake":6592,"Ġwishing":6593,"ouque":6594,"Ġheels":6595,"Ġgent":6596,"Ġthread":6597,"stem":6598,"ales":6599,"ulgar":6600,"Ġfeather":6601,"Ġnod":6602,"akened":6603,"Ġgrat":6604,"Ġspur":6605,"Ġlongtemps":6606,"Ġboot":6607,"Ġprey":6608,"Ġaccent":6609,"Ġcounted":6610,"Ġbedroom":6611,"Ġawoke":6612,"Ã´te":6613,"Ġmerry":6614,"Ġvoyait":6615,"Ġincreasing":6616,"Ġslightest":6617,"umbling":6618,"Ġleaned":6619,"Ġcheek":6620,"ĠDecember":6621,"aissance":6622,"Ġhideous":6623,"Ġnegle":6624,"Ġtorture":6625,"***":6626,"Ġshells":6627,"Ġfrigate":6628,"Ġwelcome":6629,"Ġvelvet":6630,"Com":6631,"George":6632,"iot":6633,"rid":6634,"rir":6635,"uine":6636,"yal":6637,"ĠÃ©cri":6638,"Ġoath":6639,"Ġdoute":6640,"Ġhosp":6641,"Ġgau":6642,"Ġgouver":6643,"see":6644,"seen":6645,"Ġmelt":6646,"herlock":6647,"oop":6648,"Ġfeu":6649,"Ġnois":6650,"unes":6651,"ĠPangloss":6652,"ĠSo":6653,"cks":6654,"Ġgrate":6655,"Ġlovers":6656,"Ġdisgr":6657,"uding":6658,"Ġpeur":6659,"Ġsurvey":6660,"Ġmonstr":6661,"ĠFrank":6662,"Ġfearful":6663,"Ġpaying":6664,"ilson":6665,"Ġexamine":6666,"Ġbottles":6667,"Ġfrozen":6668,"ĠidÃ©e":6669,"Ġyielded":6670,"Ġmeasure":6671,"atural":6672,"Ġsubstance":6673,"Harris":6674,"bac":6675,"col":6676,"gue":6677,"Ġtight":6678,"inent":6679,"Ġmant":6680,"Ġcases":6681,"ĠfÃ»t":6682,"asion":6683,"Ġhaven":6684,"Ġgros":6685,"Ġnotwithstanding":6686,"ĠMarecha":6687,"ifice":6688,"Ġsuite":6689,"outs":6690,"Ġju":6691,"Ġexting":6692,"ĠCham":6693,"iew":6694,"Ġlies":6695,"Ġpassions":6696,"Ġexplo":6697,"Ġincred":6698,"Ġtremble":6699,"Ġmetres":6700,"Ġinsult":6701,"ĠGrimaud":6702,"Ġslee":6703,"Ġmurde":6704,"Ġdreamed":6705,"Ġconsideration":6706,"Ġfreely":6707,"Ġcomfortable":6708,"Ġpuzz":6709,"Ġconclusion":6710,"Ġurged":6711,"Ġshuddered":6712,"Ġascended":6713,"Ġindifference":6714,"Ġprofession":6715,"Ġexceedingly":6716,"Ġenthusiasm":6717,"livier":6718,"Ġajouta":6719,"Ġdocument":6720,"Ġextremity":6721,"ĠHotel":6722,"Fortunately":6723,"hire":6724,"rained":6725,"vit":6726,"Ġtables":6727,"Ġdru":6728,"Ġdiver":6729,"Ġfain":6730,"arch":6731,"atched":6732,"idable":6733,"stead":6734,"uries":6735,"Ã©ri":6736,"Ġabys":6737,"ĠSainte":6738,"Ġamount":6739,"Ġroll":6740,"Ġprepar":6741,"Ġdownstairs":6742,"ĠTemple":6743,"Ġflash":6744,"mbers":6745,"Ġheartily":6746,"rospect":6747,"Ġcontinually":6748,"Ġrefus":6749,"Ġesteem":6750,"Ġdischar":6751,"Ġmots":6752,"Ġbones":6753,"Ġdriving":6754,"Ġexamining":6755,"iletti":6756,"Ġsacred":6757,"Ã©grel":6758,"Ġrencont":6759,"Ġmillions":6760,"Ġpractice":6761,"Gringoire":6762,"Ġconnection":6763,"Ġshelter":6764,"Ġestablish":6765,"Ġestablished":6766,"Ġdisposition":6767,"Ġindifferent":6768,"Ġwithdrew":6769,"Ġlamps":6770,"Ġthoroughly":6771,"Ġcorridor":6772,"Ġmonstrous":6773,"Ad":6774,"Porthos":6775,"back":6776,"jud":6777,"oil":6778,"pers":6779,"zed":6780,"Ġcig":6781,"Ġdig":6782,"Ġdaring":6783,"Ġpages":6784,"Ġec":6785,"Ġbeard":6786,"step":6787,"Ġugly":6788,"Ġnotion":6789,"Ġlace":6790,"Ġfee":6791,"Ġdogs":6792,"Ġplenty":6793,"Ġmoreover":6794,"ĠGri":6795,"abond":6796,"Ġsomebody":6797,"Ġperformed":6798,"Ġremove":6799,"Ġdug":6800,"six":6801,"ometer":6802,"Ġchev":6803,"Ġchannel":6804,"Ġminds":6805,"Ġkindly":6806,"Ġreasonable":6807,"Ġcomplex":6808,"Ġcasta":6809,"Ġpalace":6810,"Another":6811,"Ġbelly":6812,"Ġpreparing":6813,"Ġpipe":6814,"Ġsystem":6815,"Ġseparate":6816,"ĠdonnÃ©":6817,"Ġimpatient":6818,"Ġmoral":6819,"Ġreproach":6820,"Ġendeavour":6821,"Ġaudience":6822,"ĠScot":6823,"Ġtempest":6824,"ĠChristian":6825,"Ġridicule":6826,"Ġambition":6827,"Ġhammer":6828,"Ġswallowed":6829,"ĠGovern":6830,"Ġunusual":6831,"HI":6832,"gen":6833,"kin":6834,"kers":6835,"mar":6836,"ught":6837,"ĠOh":6838,"Ġment":6839,"enois":6840,"Ġlosing":6841,"Ġpause":6842,"lem":6843,"Ġwearing":6844,"Ġstol":6845,"Ġatro":6846,"Ġleather":6847,"Ġupright":6848,"Ġexisted":6849,"ĠCrois":6850,"Ġuns":6851,"ums":6852,"ĠLouvre":6853,"rymore":6854,"Ġblaz":6855,"ĠEst":6856,"aired":6857,"Ġends":6858,"Ġtellement":6859,"Ġinstance":6860,"Ġregions":6861,"Ġskiff":6862,"Ġcolor":6863,"Ġfacts":6864,"Ġgreet":6865,"Ġinterested":6866,"Ġrequire":6867,"ĠProvidence":6868,"Ġpriests":6869,"finite":6870,"Ġsymp":6871,"Ġsenses":6872,"Ġenjoyed":6873,"Ġerr":6874,"Ġtranquill":6875,"Ġembraced":6876,"Ġpersuaded":6877,"Ġdefend":6878,"Ġembarrassed":6879,"Ġcurtains":6880,"Ġrepresent":6881,"Moreover":6882,"miral":6883,"Ġvagabond":6884,"Ġsublime":6885,"ĠCroisenois":6886,"ED":6887,"Mathilde":6888,"Tr":6889,"Vous":6890,"nÃ©e":6891,"ok":6892,"oin":6893,"piece":6894,"rim":6895,"two":6896,"who":6897,"reuse":6898,"Ġbars":6899,"Ġbund":6900,"isis":6901,"enger":6902,"Ġdil":6903,"Ġdine":6904,"Ġgrie":6905,"Ġrese":6906,"Ġreass":6907,"Ġstout":6908,"roll":6909,"Ġshirt":6910,"Ġshoot":6911,"olt":6912,"Ġenve":6913,"ĠSea":6914,"eling":6915,"ĠLizzy":6916,"ĠGasc":6917,"abord":6918,"Ġobjection":6919,"Ġfriendly":6920,"Ġconsult":6921,"Ġsupplied":6922,"Ġswim":6923,"Ġ10":6924,"Ġindul":6925,"Ġsixteen":6926,"Ġstepped":6927,"ebru":6928,"Ġobserv":6929,"Ġprize":6930,"Ġformidable":6931,"Ġsunk":6932,"Ġdispleas":6933,"Ġcentral":6934,"Ġcorrect":6935,"Ġbreathe":6936,"ĠItal":6937,"Ġcorners":6938,"Ġglasses":6939,"Ġdivers":6940,"Ġeffects":6941,"Ġcompliment":6942,"Ġwarmth":6943,"ĠpremiÃ¨re":6944,"Ġslip":6945,"Ġeru":6946,"ĠIndia":6947,"Ġthreatening":6948,"Ġvault":6949,"ailleurs":6950,"Ġprotest":6951,"Ġphrases":6952,"Ġswiftly":6953,"Ġdisappointment":6954,"ĠSansever":6955,"ĠBelcher":6956,"ĠÃ¢me":6957,"Ġapparently":6958,"ĠPierron":6959,"ĠhÃ©ros":6960,"Ġoverwhelmed":6961,"Ġproportion":6962,"Ġbosom":6963,"Ġabominable":6964,"Ġextingu":6965,"ĠSanseverina":6966,"ders":6967,"Ġwounds":6968,"Ġphen":6969,"asper":6970,"Ġheap":6971,"Ġhaute":6972,"ete":6973,"Ġrue":6974,"Ġvos":6975,"text":6976,"astro":6977,"urel":6978,"umps":6979,"ĠSem":6980,"ĠLoth":6981,"ĠGre":6982,"Ġdisd":6983,"ĠRoman":6984,"Ġcomprom":6985,"Ġspecial":6986,"ĠTour":6987,"issait":6988,"Ġmarch":6989,"Ġretire":6990,"Ġlights":6991,"merald":6992,"Ġgulf":6993,"Ġsinguli":6994,"lph":6995,"Ġlanding":6996,"Ġlively":6997,"Ġcompleted":6998,"Ġprovost":6999,"Ġcastle":7000,"Ġsolitary":7001,"Ġsuperb":7002,"Ġvessels":7003,"Ġvaluable":7004,"Ġdomin":7005,"Ġodour":7006,"Ġabandon":7007,"Ġaddressing":7008,"Ġirritated":7009,"Ġmixed":7010,"Ġlandlord":7011,"ĠJacques":7012,"Ġeducation":7013,"ĠStapleton":7014,"Accord":7015,"bacco":7016,"ebruary":7017,"ĠLothian":7018,"?--":7019,"Could":7020,"heart":7021,"Ġacted":7022,"Ġfi":7023,"Ġhut":7024,"Ġwhither":7025,"Ġmead":7026,"ores":7027,"resc":7028,"thy":7029,"ossip":7030,"Ġalarmed":7031,"ĠPe":7032,"urely":7033,"ĠLet":7034,"Ġetre":7035,"ĠJust":7036,"Ġdisaster":7037,"Ġdescent":7038,"avais":7039,"Ġshaken":7040,"Ġadvers":7041,"Ġcanv":7042,"Ġcompagn":7043,"Ġstrangers":7044,"Ġresign":7045,"Ġglit":7046,"ĠWilson":7047,"Ġsilently":7048,"Ġrestored":7049,"Ġfourth":7050,"Ġmetal":7051,"Ġsubs":7052,"ĠHeights":7053,"Ġbeds":7054,"Ġsecured":7055,"Ġsails":7056,"Ġdisposed":7057,"Ġactive":7058,"Ġactions":7059,"Ġdrift":7060,"Ġstarting":7061,"Ġsalt":7062,"Ġhumanity":7063,"Ġinquire":7064,"Ġchairs":7065,"Ġneighbours":7066,"Ġbasket":7067,"Near":7068,"Next":7069,"Ġodd":7070,"Among":7071,"Ġseulement":7072,"Ġdetective":7073,"Ġnorthern":7074,"Ġcomprehend":7075,"ĠJanuary":7076,"Ġchevaux":7077,"meralda":7078,"Ayrton":7079,"Phileas":7080,"Tow":7081,"Ġ8":7082,"Ġmild":7083,"enz":7084,"Ġfan":7085,"Ġtos":7086,"Ġtobacco":7087,"Ġpred":7088,"Ġpall":7089,"orious":7090,"lez":7091,"Ġweighed":7092,"Ġsupre":7093,"cts":7094,"Ġupset":7095,"ula":7096,"olÃ©":7097,"ĠProspect":7098,"Ġhanded":7099,"Ġbois":7100,"Ã©taient":7101,"Ġscorn":7102,"Ġregiment":7103,"Ġlarger":7104,"Ġouv":7105,"Ġsouvent":7106,"Ġsteel":7107,"Ġpersonal":7108,"grÃ©":7109,"Ġconstru":7110,"Ġbreathed":7111,"Ġsatisfy":7112,"Ġsharply":7113,"Ġburned":7114,"Ġobstacle":7115,"Ġbeaten":7116,"Ġnouveau":7117,"asping":7118,"ĠMayor":7119,"Ġhitherto":7120,"Ġsupreme":7121,".)":7122,"Pe":7123,"ived":7124,"oll":7125,"Ġsink":7126,"rep":7127,"ĠmÃ¨re":7128,"Ġcu":7129,"Ġdict":7130,"Ġfow":7131,"Ġfare":7132,"Ġflock":7133,"Ġlone":7134,"llis":7135,"Ġhel":7136,"Ġhaz":7137,"atory":7138,"omfort":7139,"ldom":7140,"verse":7141,"Ġweigh":7142,"Ġvue":7143,"antes":7144,"alled":7145,"Ġjoke":7146,"Ġtrous":7147,"elly":7148,"Ġagitation":7149,"Ġbruit":7150,"Ġdiss":7151,"udge":7152,"ĠNove":7153,"Ġobv":7154,"Ġresc":7155,"Ġbacks":7156,"Ġlettres":7157,"ĠTabor":7158,"Ġwinds":7159,"Ġnights":7160,"Ġconfined":7161,"Ġincon":7162,"Ġdepri":7163,"ĠGrand":7164,"Ġeffet":7165,"Ġrespectable":7166,"Ġvolume":7167,"Ġhungry":7168,"Ġlackeys":7169,"Ġpreserve":7170,"Ġamiable":7171,"Ġreserved":7172,"Ġrepresented":7173,"Ġcraft":7174,"Ġhypoc":7175,"Ġangel":7176,"Maheu":7177,"Ġscholar":7178,"Ġexercise":7179,"utenant":7180,"Ġadventures":7181,"ĠAtlantic":7182,"Ġphenomen":7183,"ĠNovember":7184,"Again":7185,"Conseil":7186,"ET":7187,"Im":7188,"Meaulnes":7189,"bers":7190,"ials":7191,"kind":7192,"rs":7193,"sing":7194,"wel":7195,"yl":7196,"your":7197,"ĠOn":7198,"Ġicy":7199,"Ġax":7200,"inst":7201,"Ġtheatre":7202,"Ġoil":7203,"ĠbientÃ´t":7204,"enÃ§":7205,"Ġdur":7206,"Ġdate":7207,"Ġpush":7208,"ashes":7209,"llers":7210,"Ġholes":7211,"Ġhaught":7212,"Ġbending":7213,"Ġwasn":7214,"Ġram":7215,"Ġnotes":7216,"Ġseldom":7217,"Ġsugar":7218,"Ġshiver":7219,"Ġexasper":7220,"osition":7221,"ulations":7222,"Ġfeast":7223,"ustri":7224,"Ġtrunk":7225,"ĠAxel":7226,"Ġshake":7227,"Ġimpert":7228,"Ġscen":7229,"Ġteach":7230,"Ġharsh":7231,"Ġinfam":7232,"Ġreadily":7233,"Ġgenius":7234,"Ġthousands":7235,"Ġirres":7236,"Ġpromen":7237,"Ġburnt":7238,"Quasimodo":7239,"Ġaccompany":7240,"Ġstudied":7241,"Ġcomplaint":7242,"Ġremaining":7243,"Ġviews":7244,"ĠYork":7245,"Ġaccordingly":7246,"Ġdescription":7247,"Ġbecomes":7248,"Ġamidst":7249,"Ġdimin":7250,"ĠSeine":7251,"Ġwandering":7252,"See":7253,"Ġphrase":7254,"Ġelbow":7255,"Ġseventy":7256,"Ġrecommend":7257,"Ġstifled":7258,"ĠfenÃªtre":7259,"Ġreminded":7260,"occup":7261,"Ġfeeble":7262,"Ġsympath":7263,"ĠSeminary":7264,"fell":7265,"father":7266,"ograp":7267,"ras":7268,"Ġcook":7269,"Ġfins":7270,"Ġbelt":7271,"Ġforbid":7272,"ĠMicha":7273,"alls":7274,"ational":7275,"ĠAm":7276,"ĠLi":7277,"ĠGiletti":7278,"Ġdisag":7279,"ĠRoy":7280,"aret":7281,"ĠchÃ¢teau":7282,"Ġpassait":7283,"Ġpassages":7284,"angle":7285,"Ġcrou":7286,"Ġimpl":7287,"iennes":7288,"ĠcommenÃ§":7289,"ggist":7290,"Which":7291,"Ġinsisted":7292,"Ġcolony":7293,"Ġprompt":7294,"Ã¢me":7295,"Ġthirst":7296,"chait":7297,"Ġredoub":7298,"Ġembro":7299,"appro":7300,"Ġobjects":7301,"Ġimprison":7302,"Ġlackey":7303,"Ġmissed":7304,"Ġattentively":7305,"Ġsuggested":7306,"Ġamazement":7307,"Ġprocession":7308,"Ġmachine":7309,"ĠEsmeralda":7310,"ĠExcell":7311,"Ġdisorder":7312,"Ġceremony":7313,"Ġwrapped":7314,"Shall":7315,"THE":7316,"rant":7317,"Ġtiny":7318,"Ġai":7319,"itor":7320,"Ġblo":7321,"Ġlane":7322,"Ġhorn":7323,"anche":7324,"Ġere":7325,"Ġgates":7326,"ether":7327,"Ġrud":7328,"Ġanc":7329,"Ġwheels":7330,"ĠBay":7331,"Ġadress":7332,"Ġpretext":7333,"Thr":7334,"Ġcontact":7335,"Ġscient":7336,"everal":7337,"ensive":7338,"Ġharness":7339,"Ġarmchair":7340,"Ġcontinent":7341,"Ġgentlewoman":7342,"Ġestim":7343,"Ġveil":7344,"Ġforever":7345,"Ġhearth":7346,"Ġtempt":7347,"rooms":7348,"Ġawake":7349,"Ġtrial":7350,"Ġeighteen":7351,"Ġrule":7352,"Ġcatastro":7353,"Ġedifice":7354,"Ġpainted":7355,"Ġvenir":7356,"Ġpassionate":7357,"Ġtorment":7358,"Ġballs":7359,"Ġfairly":7360,"Ġcomplain":7361,"Ġfemmes":7362,"Ġattempted":7363,"Ġheavens":7364,"Ġcellar":7365,"Ġlodging":7366,"Ġbranch":7367,"Ġwandered":7368,"Ġvigorous":7369,"eneral":7370,"Ġaurait":7371,"Ġorigin":7372,"ĠEdie":7373,"Ġplaisir":7374,"ĠPhil":7375,"Ġpasseport":7376,"Ġdruggist":7377,").":7378,"leness":7379,"Ġ9":7380,"ĠâĢĶ":7381,"Ġtale":7382,"Ġsche":7383,"Ġsilly":7384,"enb":7385,"Ġfasc":7386,"Ġpits":7387,"aning":7388,"irts":7389,"vert":7390,"ilight":7391,"ilies":7392,"ulating":7393,"ĠCacambo":7394,"ĠCresc":7395,"ĠLow":7396,"ĠFebruary":7397,"Ġcrust":7398,"Ġconsul":7399,"Ġappl":7400,"Ġincome":7401,"Ã©cile":7402,"Ġgenus":7403,"Ġgenuine":7404,"Ġhumour":7405,"Ġpersonage":7406,"Ġraison":7407,"Ġremembr":7408,"Ġsoldats":7409,"Ġpatron":7410,"Alice":7411,"ĠEnglishman":7412,"Ġprecaution":7413,"Ġpaused":7414,"Ġtravel":7415,"iterranean":7416,"Ġcostume":7417,"Neither":7418,"Ġuttering":7419,"Ġdeny":7420,"Ġcounsel":7421,"Ġsinking":7422,"Ġembrace":7423,"Ġdebt":7424,"Ġintimate":7425,"Ġmagistr":7426,"Ġdistinctly":7427,"Ġcheerful":7428,"ĠdÃ©jÃł":7429,"hibit":7430,"Ġstupefied":7431,"Ġconsidering":7432,"ĠWilliam":7433,"Ġbundle":7434,"enzi":7435,"ĠCrescenzi":7436,"Bet":7437,"iving":7438,"pool":7439,"Ġtard":7440,"Ġsie":7441,"onville":7442,"Ġlust":7443,"Ġpian":7444,"alt":7445,"Ġstuck":7446,"Ġsees":7447,"Ġvrai":7448,"Ġquitted":7449,"usions":7450,"Ġcomrade":7451,"ĠCross":7452,"Ġmans":7453,"ĠPont":7454,"irent":7455,"ĠNether":7456,"Ġcanoe":7457,"Ġfog":7458,"Ġserge":7459,"Ġcarri":7460,"Ġattracted":7461,"Ġcommence":7462,"Ġworkers":7463,"Ġveux":7464,"Ġwarn":7465,"grat":7466,"Ġdecide":7467,"buted":7468,"Ġmeanwhile":7469,"Ġinvitation":7470,"ibly":7471,"Ġsalon":7472,"Ġrecognize":7473,"Ġprecisely":7474,"Ġforgetting":7475,"Ġsuccession":7476,"ĠXX":7477,"Ġconfessed":7478,"Ġpockets":7479,"ology":7480,"Ġcommander":7481,"Ġgestures":7482,"ĠdÃ©sespoir":7483,"Ġfirmly":7484,"Ġrespond":7485,"Ġpossibility":7486,"Ġproposal":7487,"Ġinquiry":7488,"Ġoriginal":7489,"ĠRouen":7490,"Ġingen":7491,"ĠMediterranean":7492,"Ġeggs":7493,"Towards":7494,"ĠNetherfield":7495,"Fix":7496,"Several":7497,"Une":7498,"honne":7499,"ipe":7500,"met":7501,"moi":7502,"von":7503,"Ã¦":7504,"Ġsource":7505,"Ġcared":7506,"Ġtore":7507,"Ġpage":7508,"Ġnails":7509,"Ġniece":7510,"atured":7511,"utions":7512,"Ġstove":7513,"Ġattended":7514,"ama":7515,"Ġleis":7516,"Ġlequel":7517,"isting":7518,"unted":7519,"inder":7520,"apan":7521,"ĠSherlock":7522,"Ġprim":7523,"ĠFa":7524,"Ġtwilight":7525,"ĠgrÃ¢ce":7526,"Ġthence":7527,"Ġqueer":7528,"Ġbeforehand":7529,"ords":7530,"Ġseries":7531,"Ġmarks":7532,"ĠmarÃ©c":7533,"Ġflowing":7534,"Ġglanced":7535,"Ġcapit":7536,"enses":7537,"Ġinfer":7538,"Ġsouver":7539,"Ġsteal":7540,"Ġlaying":7541,"Ġsigned":7542,"Ġabsent":7543,"Ġmilk":7544,"Ġadmired":7545,"Ġawakened":7546,"Ġstrongly":7547,"shire":7548,"Ġevidence":7549,"Ġconducted":7550,"Ġintelligent":7551,"Ġpoliteness":7552,"Ġignorance":7553,"Ġtraversed":7554,"Ġexchange":7555,"Ġfisher":7556,"Ġassassin":7557,"Ġprolonged":7558,"Ġcanvas":7559,"Ġlonely":7560,"Both":7561,"Dans":7562,"Felton":7563,"ike":7564,"rated":7565,"Ã¯":7566,"Ġtin":7567,"Ġtut":7568,"headed":7569,"rebber":7570,"ouche":7571,"Ġbail":7572,"Ġdense":7573,"atives":7574,"Ġonto":7575,"etre":7576,"Ġrude":7577,"Ġrushing":7578,"Ġquelle":7579,"ardinal":7580,"Ġshrie":7581,"ĠBrit":7582,"--'":7583,"ĠLied":7584,"Ġbrist":7585,"Ġanywhere":7586,"Ġaper":7587,"Ġparish":7588,"ĠÃ©tr":7589,"Ġpourrait":7590,"Ġthroughout":7591,"ĠWh":7592,"Ġchemin":7593,"Ġdevait":7594,"Ġincap":7595,"Ġfourteen":7596,"ĠmaÃ®":7597,"Ã©par":7598,"Ġwarned":7599,"Ġdetail":7600,"Ġdeeper":7601,"Ġdrops":7602,"Ġimagin":7603,"Ġimmediate":7604,"Ġreflect":7605,"Ġclimb":7606,"Ġcollar":7607,"Ġwretches":7608,"Ġamazed":7609,"aturday":7610,"Ġdismiss":7611,"Ġenclosure":7612,"Ġrigid":7613,"ĠAdmiral":7614,"Ġappointed":7615,"ĠLucas":7616,"honneur":7617,"ĠmaÃ®tres":7618,".âĢĶ":7619,"Hence":7620,"OM":7621,"hour":7622,"natural":7623,"tr":7624,"tant":7625,"Ġtest":7626,"Ġtun":7627,"Ġoak":7628,"Ġowed":7629,"itz":7630,"Ġbench":7631,"isse":7632,"Ġpains":7633,"Ġpoured":7634,"asy":7635,"Ġhound":7636,"Ġink":7637,"Ġdeven":7638,"Ġstable":7639,"Ġsending":7640,"Ġvive":7641,"Ġsobs":7642,"Ġsheets":7643,"Ġextend":7644,"ĠChan":7645,"Ġenl":7646,"Ġalt":7647,"Ġmanif":7648,"ĠSouth":7649,"Ġrode":7650,"ĠJames":7651,"Ġreprit":7652,"Ġboil":7653,"Ġeyel":7654,"Ġgoodness":7655,"Ġparaly":7656,"Ġbackward":7657,"Ġavons":7658,"Ġendless":7659,"Ġsentin":7660,"ĠGrant":7661,"Ġhumili":7662,"Ġobserving":7663,"Ġgrands":7664,"Ġmilitary":7665,"Ġexclam":7666,"ndez":7667,"Ġmalheur":7668,"Ġheavily":7669,"Ġdreaming":7670,"Ġartist":7671,"Ġtravelling":7672,"ĠBarrymore":7673,"Ġpeaceful":7674,"Ġroofs":7675,"Ġnombre":7676,"lopin":7677,"Ġembarrassment":7678,"Ġrevenge":7679,"ĠNorth":7680,"Marguerite":7681,"Ġardent":7682,"Ġinspired":7683,"dessus":7684,"Ġgravity":7685,"ĠFranklin":7686,"Ġabyss":7687,"Ġstolen":7688,"enbrock":7689,"ĠLiedenbrock":7690,"Hans":7691,"aved":7692,"awn":7693,"apped":7694,"bes":7695,"iven":7696,"van":7697,"Ġmains":7698,"Ġbout":7699,"Ġborne":7700,"Ġdangers":7701,"Ġtoilet":7702,"Ġpushing":7703,"ari":7704,"Ġgor":7705,"utch":7706,"iron":7707,"Ġrows":7708,"Ġvint":7709,"agg":7710,"ands":7711,"Ġcongrat":7712,"Ġjur":7713,"Ġdoit":7714,"Ġdoct":7715,"uns":7716,"ĠPer":7717,"apt":7718,"gellis":7719,"ĠBra":7720,"Ġagony":7721,"ĠHope":7722,"Ġroar":7723,"Ġloving":7724,"Ġintox":7725,"Ġlongue":7726,"Ġperf":7727,"ĠEh":7728,"Ġcrimes":7729,"Ġcapt":7730,"rente":7731,"bear":7732,"ĠVen":7733,"Ġdevotion":7734,"upon":7735,"Ġengagement":7736,"Ġ13":7737,"azin":7738,"Ġskull":7739,"ceptible":7740,"Ġrecover":7741,"Ġhuss":7742,"Ġillness":7743,"Ġruins":7744,"....":7745,"Ġcathedral":7746,"box":7747,"Ġsadness":7748,"ĠTregellis":7749,"Ġmemories":7750,"Ġstruggled":7751,"Ġbasin":7752,"ologne":7753,"Ġproperly":7754,"Ġpunishment":7755,"ĠSeurel":7756,"ĠNaples":7757,"Ġarticles":7758,"anÃ§ais":7759,"Ġresembled":7760,"Ġ...'":7761,"Ġjacket":7762,"Ġpirates":7763,"Ġscandal":7764,"Ã´tel":7765,"Ġgouverneur":7766,"Ġdisdain":7767,"Ġtrousers":7768,"Ġdisagree":7769,"ĠmarÃ©chal":7770,"Has":7771,"Little":7772,"aul":7773,"ncy":7774,"oard":7775,"inth":7776,"inaire":7777,"Ġsinc":7778,"ĠsÃ©rie":7779,"Ġoars":7780,"hab":7781,"Ġmate":7782,"Ġdip":7783,"orously":7784,"Ġreef":7785,"Ġrom":7786,"ĠrÃ©c":7787,"Ã©l":7788,"agers":7789,"Ġsuitable":7790,"ouss":7791,"Ġconcent":7792,"Ġshill":7793,"Ġjaws":7794,"ĠCor":7795,"unks":7796,"Ġtrot":7797,"ĠtrÃ¨s":7798,"ĠLest":7799,"ĠFouque":7800,"Ġmoist":7801,"ĠJune":7802,"Ġperse":7803,"raham":7804,"ĠDrebber":7805,"Ġresume":7806,"ancer":7807,"ĠTo":7808,"Ġsmith":7809,"Ġappearing":7810,"Ġdistri":7811,"ĠÃ©tonn":7812,"ailing":7813,"ivity":7814,"Ġcertainty":7815,"Ġfollows":7816,"Ġswore":7817,"Ġworkmen":7818,"licable":7819,"ĠOlivier":7820,"gues":7821,"Ġdiscour":7822,"Ġredd":7823,"Ġbrothers":7824,"vaques":7825,"Ġdespite":7826,"Ġmouths":7827,"Ġmalheureux":7828,"Ġcrowded":7829,"ĠYonville":7830,"Ġchercher":7831,"Ġhiding":7832,"Ġloudly":7833,"Ġconviction":7834,"Ġplantation":7835,"ĠprÃ©sence":7836,"Ġgleam":7837,"Ġeldest":7838,"Ġwhales":7839,"Ġreserve":7840,"Ġarticle":7841,"Ġspecimens":7842,"Ġecho":7843,"Ġextinguished":7844,"Ġincapable":7845,"eux":7846,"gate":7847,"ige":7848,"iated":7849,"nant":7850,"table":7851,"Ġslop":7852,"Ġthee":7853,"Ġox":7854,"Ġbatter":7855,"Ġcad":7856,"Ġcant":7857,"Ġfists":7858,"Ġpiled":7859,"Ġintend":7860,"Ġhaul":7861,"atus":7862,"Ġreward":7863,"Ġont":7864,"irmed":7865,"ousquet":7866,"Ġaller":7867,"Ġjury":7868,"ulars":7869,"Ġlibert":7870,"Ġunl":7871,"Ġunivers":7872,"Ġenr":7873,"ĠSaturday":7874,"ĠBomb":7875,"Ġgod":7876,"Ġtwisted":7877,"Ġcoff":7878,"Ġcovering":7879,"Ġmode":7880,"ĠJack":7881,"ĠRos":7882,"Ġcanal":7883,"Ġclub":7884,"Ġafterward":7885,"Ġparole":7886,"autions":7887,"Ġcependant":7888,"Ġflut":7889,"Ġdiff":7890,"ĠGrace":7891,"Ġvisited":7892,"Ġjournal":7893,"Ġplacing":7894,"nothing":7895,"Ġwarning":7896,"Ġcoldly":7897,"oleon":7898,"Ġpetits":7899,"Ġmerit":7900,"Ġgardens":7901,"Ġstronger":7902,"Ġsuspended":7903,"Ġpatient":7904,"ĠBonnem":7905,"Ġdirections":7906,"Ġsavait":7907,"Ġbatt":7908,"ĠIslands":7909,"Ġprepare":7910,"Ġdivine":7911,"Ġgravely":7912,"Ġdifficulties":7913,"Ġnewsp":7914,"ristan":7915,"Ġutterly":7916,"Ġvictory":7917,"Ġmeasured":7918,"Ġsmoking":7919,"Ġenvoy":7920,"Ġrespons":7921,"ĠFerrier":7922,"Ġnouvelle":7923,"Ġawaited":7924,"Ġaucune":7925,"Ġweapon":7926,"Thank":7927,"Ġpanting":7928,"ĠvÃ©ritÃ©":7929,"Ġcriminal":7930,"Ġacknowledged":7931,"Ġexcursion":7932,"Ġmoyen":7933,"Ġirresist":7934,"ĠFaust":7935,"ĠBonnemort":7936,"Catherine":7937,"Lys":7938,"Out":7939,"gne":7940,"host":7941,"rows":7942,"upp":7943,"Ġsorte":7944,"ĠdÃ¨s":7945,"Ġnap":7946,"Ġinex":7947,"icip":7948,"otes":7949,"stone":7950,"acre":7951,"rily":7952,"roit":7953,"Ġvest":7954,"Ġvient":7955,"ifying":7956,"Ġconject":7957,"allel":7958,"ĠAf":7959,"Ġafar":7960,"Ġdesires":7961,"Ġshaw":7962,"Ġthrong":7963,"Ġcargo":7964,"Ġglory":7965,"Ġappet":7966,"lease":7967,"Ġdoubted":7968,"Ġsimp":7969,"Ġfuriously":7970,"ĠKong":7971,"Ġstands":7972,"bourg":7973,"ĠdÃ©f":7974,"Ġoblig":7975,"Ġanimated":7976,"Ġinvest":7977,"Ġexamination":7978,"Ġ20":7979,"Ġsavoir":7980,"eorg":7981,"phy":7982,"Ġmortal":7983,"ĠGulf":7984,"Ġcollected":7985,"Ġplanted":7986,"Ġparlour":7987,"Ġprevious":7988,"Ġprevailed":7989,"Ġtransports":7990,"Ġrejoined":7991,"Ġpierced":7992,"Ġearnestly":7993,"Ġobstinate":7994,"regular":7995,"Ġprodigious":7996,"Ġreappeared":7997,"Ġcomplexion":7998,"Ġsouverain":7999,"ousqueton":8000,"ĠBombay":8001,"Give":8002,"Gideon":8003,"lus":8004,"nor":8005,"Ġtres":8006,"Ġsway":8007,"Ġsco":8008,"Ġwax":8009,"had":8010,"erity":8011,"Ġbishop":8012,"enf":8013,"Ġcaut":8014,"Ġdess":8015,"Ġfaded":8016,"onour":8017,"estern":8018,"arri":8019,"othes":8020,"idÃ©e":8021,"Ġseize":8022,"ĠCe":8023,"ĠCr":8024,"Ġaltered":8025,"apes":8026,"Ġaboard":8027,"assed":8028,"Ġcopper":8029,"ĠJapan":8030,"Ġadorn":8031,"Ġchain":8032,"Ġchamp":8033,"Ġpartly":8034,"inkled":8035,"Ġmighty":8036,"Ġcarved":8037,"Ġthinks":8038,"Ġgets":8039,"Ġdonne":8040,"Ġcommit":8041,"Ġgiant":8042,"lication":8043,"Ġuncertain":8044,"Ġbelieving":8045,"Ġnative":8046,"Ġslender":8047,"Ġirregular":8048,"Ġforeign":8049,"Ġbarbar":8050,"Ġdecision":8051,"Ġrelate":8052,"Ġcreated":8053,"Ġparticulars":8054,"ussit":8055,"Ġprecip":8056,"Ġpulling":8057,"Ġsearched":8058,"Ġyielding":8059,"Ġarguments":8060,"Ġpenetrated":8061,"Ġcalculated":8062,"Ġauthority":8063,"Ġrevealed":8064,"Ġexecutioner":8065,"Ġphysical":8066,"Ġemerged":8067,"Ġannoyed":8068,"Ġaucun":8069,"Ġhalted":8070,"Ġunpleas":8071,"Ġmariage":8072,"ĠAbraham":8073,"ĠAustria":8074,"Ġqualities":8075,"Ġmaterial":8076,"Ġunconscious":8077,"ĠRobin":8078,"Ġhaughty":8079,"Ġpiano":8080,"ĠmaÃ®tresse":8081,"ĠFausta":8082,"CE":8083,"Under":8084,"mol":8085,"milly":8086,"oci":8087,"rot":8088,"rÃ©e":8089,"Ġtub":8090,"Ġsons":8091,"ouille":8092,"Ġmart":8093,"Ġbust":8094,"Ġling":8095,"asm":8096,"orable":8097,"Ġnest":8098,"Ġeux":8099,"Ġbeings":8100,"icular":8101,"urg":8102,"verty":8103,"ayed":8104,"Ġroused":8105,"Ġweep":8106,"riar":8107,"ĠMon":8108,"Ġneat":8109,"ĠCal":8110,"ĠCardinal":8111,"Ġmanager":8112,"urer":8113,"Ġtram":8114,"Ġtrav":8115,"uming":8116,"Ġoutl":8117,"ĠSon":8118,"ĠAvon":8119,"Ġintr":8120,"ĠLu":8121,"Ġrepose":8122,"Ġpoverty":8123,"ressing":8124,"Ġblushed":8125,"Ġcompte":8126,"osemilly":8127,"Ġstrict":8128,"Ġvoil":8129,"Ġretr":8130,"Ġglances":8131,"Ġacid":8132,"Ġarriving":8133,"Ġhunt":8134,"Ġforming":8135,"Ġquestioned":8136,"Ġmadness":8137,"Ġcatching":8138,"Ġmaintained":8139,"Ġinterests":8140,"Ġpitch":8141,"Ġfemale":8142,"Ġplanks":8143,"Ġstruggling":8144,"Ġmarrying":8145,"Ġprayers":8146,"Ġbuildings":8147,"Ġmodest":8148,"Ġconnected":8149,"Ġfiery":8150,"ĠChelan":8151,"Ġrobber":8152,"Ġborder":8153,"Ġrecollection":8154,"Ġcoolness":8155,"Ġreckoned":8156,"Ġmodern":8157,"uminous":8158,"Ġweapons":8159,"Ġgaiety":8160,"Ġassurance":8161,"Ġvalley":8162,"ĠMichaud":8163,"ĠExcellence":8164,"Roland":8165,"TI":8166,"eys":8167,"och":8168,"hered":8169,"Ġwave":8170,"Ġoub":8171,"Ġbone":8172,"Ġbab":8173,"enard":8174,"Ġcass":8175,"Ġcable":8176,"Ġcott":8177,"Ġdried":8178,"Ġlat":8179,"Ġlift":8180,"Ġlament":8181,"ĠpÃ¢":8182,"archevÃªque":8183,"Ġnay":8184,"lex":8185,"Ġbeer":8186,"Ġwashed":8187,"Ġros":8188,"Ġleaf":8189,"Ġennem":8190,"ĠBet":8191,"ĠLheureux":8192,"ĠFleur":8193,"ivered":8194,"ĠHim":8195,"abled":8196,"Ġspared":8197,"Ġimage":8198,"Ġpoign":8199,"Ġoverfl":8200,"Ġchase":8201,"onsense":8202,"Ġoffering":8203,"Ã©tais":8204,"issary":8205,"Ġserpent":8206,"Ġcaract":8207,"Ġholy":8208,"Ġflatter":8209,"Ġconsisted":8210,"Ġtele":8211,"ĠWhy":8212,"Ġpleasures":8213,"Ġ12":8214,"Ġinspect":8215,"ĠOr":8216,"ĠHelen":8217,"ĠcolÃ¨re":8218,"gram":8219,"Ġtouching":8220,"Ġacting":8221,"apping":8222,"Ġtransp":8223,"Ġbloody":8224,"Ġsadly":8225,"Ġshutters":8226,"Ġacquired":8227,"Although":8228,"ĠrÃ©g":8229,"Ġhoping":8230,"Ġcetace":8231,"Ġhesitate":8232,"ĠDuches":8233,"Ġproperty":8234,"Ġfavourite":8235,"Ġlocked":8236,"Ġsuspicions":8237,"Ġvolcanic":8238,"ĠgeÃ´":8239,"Ġdiamonds":8240,"Ġshrugged":8241,"ĠBerks":8242,"rockle":8243,"Ġchasse":8244,"Ġbrutal":8245,"illaume":8246,"Ġpoult":8247,"Ġbewild":8248,"ĠAND":8249,"Ġincessantly":8250,"Ġpuzzled":8251,"Ġpreparations":8252,"Ġecst":8253,"Ġeruption":8254,"Through":8255,"Ġdisagreeable":8256,"ĠAfric":8257,"eorgiana":8258,".âĪĴâĪĴ":8259,"Top":8260,"Wait":8261,"cles":8262,"hurst":8263,"lait":8264,"Ġiv":8265,"Ġay":8266,"Ġsan":8267,"Ġsne":8268,"Ġwire":8269,"Ġmauv":8270,"Ġcards":8271,"Ġcreek":8272,"Ġlent":8273,"llus":8274,"Ġhol":8275,"Ġnour":8276,"attend":8277,"icing":8278,"Ġrendez":8279,"quenard":8280,"Ġnoted":8281,"Ġseizing":8282,"Ġnearest":8283,"ĠCat":8284,"Ġnovel":8285,"Ġplates":8286,"asses":8287,"ellement":8288,"ĠBl":8289,"ĠBank":8290,"ĠBrockle":8291,"elic":8292,"Ġpraise":8293,"Ġintent":8294,"Ġbrings":8295,"avant":8296,"Ġcontrol":8297,"Ġentra":8298,"Ã¨res":8299,"ĠTO":8300,"Ġmarine":8301,"Therefore":8302,"Ġcele":8303,"Ġflour":8304,"Ġdistracted":8305,"Ġapplied":8306,"Ġcalls":8307,"Ġhappily":8308,"Ġcommenced":8309,"Ġlightly":8310,"Ġminister":8311,"Ġearlier":8312,"Ġguine":8313,"Ġassoci":8314,"hard":8315,"Ġarriver":8316,"ĠOne":8317,"Ġvisits":8318,"Ġfinest":8319,"Ġeasier":8320,"Ġaffaire":8321,"Ġcoups":8322,"Ġcenturies":8323,"Ġconstable":8324,"ĠChurch":8325,"Ġmaintain":8326,"Ġanxiously":8327,"Ġcontrast":8328,"ĠCoquenard":8329,"break":8330,"Ġsweetheart":8331,"Ġadvantages":8332,"Ġpistols":8333,"Ġprotection":8334,"Ġdamned":8335,"Ġexhaust":8336,"ĠFerr":8337,"Ġpiercing":8338,"Ġsheltered":8339,"Ġinquiries":8340,"Ġinterview":8341,"Ġconvenient":8342,"Ġdisplayed":8343,"Ġobscure":8344,"Ġdeliverance":8345,"Ġfusil":8346,"ĠCourt":8347,"Ġexplosion":8348,"ĠMarechale":8349,"ĠGascon":8350,"Ġcatastrophe":8351,"Ġsiege":8352,"Ġcarriages":8353,";\"":8354,"Ch":8355,"Gentlemen":8356,"Pr":8357,"Sh":8358,"bres":8359,"dled":8360,"fa":8361,"mond":8362,"nation":8363,"olet":8364,"tu":8365,"vest":8366,"yes":8367,"ysi":8368,"Ġtast":8369,"Ġtip":8370,"hearted":8371,"reet":8372,"rene":8373,"Ġmouve":8374,"Ġpig":8375,"Ġpuff":8376,"arms":8377,"ani":8378,"Ġinher":8379,"omy":8380,"Ġga":8381,"Ġgn":8382,"ĠIV":8383,"Ġwaste":8384,"Ġrear":8385,"Ġdefinite":8386,"Ġric":8387,"ilence":8388,"Ġvoud":8389,"ĠMad":8390,"ĠMill":8391,"ĠMason":8392,"Ġquad":8393,"ources":8394,"lique":8395,"Ġbutt":8396,"Ġlabor":8397,"erson":8398,"Ġunb":8399,"Ġunique":8400,"unning":8401,"ĠSand":8402,"Ġaroused":8403,"ĠFlem":8404,"ĠHong":8405,"Ġrobe":8406,"Ġbrick":8407,"Ġspy":8408,"Ġdisgu":8409,"ften":8410,"Ġlongitude":8411,"ĠNÃ©grel":8412,"berg":8413,"Ġchape":8414,"Ġstrata":8415,"Ġcrit":8416,"Ġimpress":8417,"issant":8418,"Ġglided":8419,"enched":8420,"Ġ11":8421,"Ġfamilies":8422,"Ġindepend":8423,"Ġcolonel":8424,"ĠFril":8425,"Ġsailors":8426,"Ġsurprising":8427,"Ġenchan":8428,"Ġfootstep":8429,"Ġexpectation":8430,"Ġrelation":8431,"ĠÃ©cl":8432,"Does":8433,"Ġarrange":8434,"Ġaccounts":8435,"enny":8436,"Ġbells":8437,"Ġneighbouring":8438,"ological":8439,"Ġpursue":8440,"Ġenjoyment":8441,"Ġexecuted":8442,"Ġattentions":8443,"Ġcoachman":8444,"Ġpersuade":8445,"Ġpenetrate":8446,"maid":8447,"Ġheureux":8448,"Ġcarpent":8449,"Ġstatue":8450,"Ġrenewed":8451,"Ġmerchant":8452,"Ġconsolation":8453,"Ġissue":8454,"Ġinvolunt":8455,"Ġsteadily":8456,"Ġkilomet":8457,"Ġreplaced":8458,"Ġinexplicable":8459,"Ġdisgrace":8460,"Ġremembrance":8461,"Ġunpleasant":8462,"AM":8463,"AprÃ¨s":8464,"Hold":8465,"LL":8466,"Other":8467,"Pres":8468,"aid":8469,"bable":8470,"eight":8471,"gre":8472,"natured":8473,"vice":8474,"Â°":8475,"Ġident":8476,"Ġtig":8477,"Ġtrente":8478,"Ġmas":8479,"itively":8480,"Ġluminous":8481,"Ġpacked":8482,"Ġnos":8483,"Ġninet":8484,"Ġinward":8485,"Ġerect":8486,"Ġghost":8487,"idge":8488,"Ġrive":8489,"Ġweeping":8490,"illart":8491,"Ġsaving":8492,"ĠMal":8493,"Ġquality":8494,"ctic":8495,"Ġexhibit":8496,"Ġunited":8497,"ĠBologne":8498,"Ġintol":8499,"ĠFroll":8500,"Ġcock":8501,"Ġroyal":8502,"Ġbride":8503,"Ġrepaired":8504,"Ġcompared":8505,"Ġduel":8506,"ĠDel":8507,"ĠDiana":8508,"Ġparallel":8509,"Ġimpass":8510,"Ġmarket":8511,"Ġmonot":8512,"Ġendure":8513,"Ġapply":8514,"Ġcaps":8515,"ĠWell":8516,"Ġregards":8517,"Ġpersist":8518,"Ġindisp":8519,"Ġsouri":8520,"Ġfalls":8521,"Ġsteady":8522,"usement":8523,"Ġprofit":8524,"ĠJew":8525,"Ġactual":8526,"Ġgrounds":8527,"Ġstrangely":8528,"Ġprovin":8529,"Ġinvis":8530,"boat":8531,"Ġequip":8532,"Ġtravellers":8533,"Ġfools":8534,"Ġconfession":8535,"Ġemptied":8536,"Ġdeparted":8537,"Ġslipp":8538,"Ġconsequences":8539,"Ġidiot":8540,"Ġprayer":8541,"Ġ30":8542,"Ġclergy":8543,"Ġavoided":8544,"Aramis":8545,"Ġattentive":8546,"ĠNapoleon":8547,"Ġridiculous":8548,"Ġcompassion":8549,"Ġencounter":8550,"hemian":8551,"ĠTurtle":8552,"Ġinstructions":8553,"Ġdignity":8554,"ĠJesuit":8555,"Ġdazzling":8556,"Ġeyelids":8557,"ĠBrocklehurst":8558,"ĠFrollo":8559,".âĢĻ":8560,"Many":8561,"Nor":8562,"boy":8563,"don":8564,"flo":8565,"got":8566,"lon":8567,"nut":8568,"oine":8569,"oison":8570,"ront":8571,"sp":8572,"uer":8573,"why":8574,"Ġtand":8575,"Ġtire":8576,"Ġwick":8577,"have":8578,"ermin":8579,"Ġmap":8580,"Ġcursed":8581,"Ġdumb":8582,"only":8583,"Ġnurs":8584,"leg":8585,"icious":8586,"Ġrece":8587,"Ġthief":8588,"ettre":8589,"Ġfors":8590,"Ġrot":8591,"Ġrif":8592,"aments":8593,"Ġquin":8594,"Ġsust":8595,"liers":8596,"ardes":8597,"Ġshoe":8598,"Ġnobles":8599,"Ġtrains":8600,"ĠAnt":8601,"Ġamis":8602,"ĠHatter":8603,"Ġmollus":8604,"Ġdesk":8605,"Ġdesir":8606,"ĠRivers":8607,"Ġchaise":8608,"Ġclasped":8609,"Ġevenings":8610,"Ġobed":8611,"ĠDom":8612,"ordre":8613,"Ġcontracted":8614,"Ġimpulse":8615,"Ã¨se":8616,"Ġflowed":8617,"Ġflames":8618,"ĠWhen":8619,"Ġterr":8620,"Ġrounded":8621,"Ġinsist":8622,"Ġsmallest":8623,"Ġbestowed":8624,"Ġadvise":8625,"Ġpropri":8626,"ouvarine":8627,"ĠmalgrÃ©":8628,"Ġaccomplish":8629,"Ġelsewhere":8630,"Ġvisitor":8631,"Ġvisitors":8632,"Ġmusket":8633,"Ġsaddle":8634,"Ġfleet":8635,"Ġduties":8636,"Ġclimbing":8637,"ĠMajor":8638,"Ġprivile":8639,"Ġmeasures":8640,"Ġsommes":8641,"ĠÃ©crit":8642,"Ġprosper":8643,"Ġanticip":8644,"Ġgraceful":8645,"Ġdisposal":8646,"Ġpopular":8647,"Ġreckoning":8648,"ackson":8649,"Ġapparatus":8650,"Ġexchanged":8651,"Ġmoderate":8652,"Ġcrowns":8653,"Ġrailway":8654,"Thanks":8655,"Ġdomestic":8656,"Ġgalop":8657,"Ġpupil":8658,"Ġtype":8659,"Ġmarvell":8660,"Ã©quillart":8661,"Ġoffended":8662,"Ġcannon":8663,"Ġmoust":8664,"Ġgrateful":8665,"Ġobservations":8666,"Accordingly":8667,"Ġphenomenon":8668,"ĠFrilair":8669,"Like":8670,"Pre":8671,"Twenty":8672,"cation":8673,"eÃ»t":8674,"oom":8675,"oked":8676,"Ġtones":8677,"Ġahead":8678,"Ġwager":8679,"Ġmorrow":8680,"Ġbast":8681,"Ġbark":8682,"Ġdun":8683,"Ġpenc":8684,"arl":8685,"anim":8686,"anco":8687,"Ġbend":8688,"Ġbeam":8689,"Ġwhip":8690,"Ġashes":8691,"Ġsemble":8692,"tery":8693,"ĠCity":8694,"Ġfearing":8695,"Ġtramp":8696,"ĠSep":8697,"ĠBo":8698,"ĠLiver":8699,"ĠGreek":8700,"Ġropes":8701,"ĠRÃ©quillart":8702,"Ġthanked":8703,"Ġperple":8704,"Ġrempl":8705,"Ġclay":8706,"Ġclust":8707,"oseph":8708,"Ġsurgeon":8709,"Ġstring":8710,"Ġparting":8711,"Ġparut":8712,"Ġquivering":8713,"ĠTH":8714,"ĠTom":8715,"Ġhoarse":8716,"Ġglow":8717,"Ġappare":8718,"Ġwinding":8719,"ĠWardes":8720,"arrant":8721,"Ġsworn":8722,"Ġcareless":8723,"Ġveins":8724,"Ġladders":8725,"Ġsweat":8726,"Ġneeds":8727,"ĠRobert":8728,"Ġtrip":8729,"Ġpurple":8730,"Ġregarda":8731,"Ġlearning":8732,"Ġservices":8733,"Ġtorches":8734,"Ġfurnish":8735,"Ġsensations":8736,"Ġflee":8737,"Ġlawyer":8738,"Ġswords":8739,"ĠÃªtes":8740,"Ġenterpr":8741,"Ġimprudence":8742,"Ġvaguely":8743,"Ġpractical":8744,"Ġresults":8745,"Ġmiracle":8746,"Ġfolds":8747,"Ġlunch":8748,"Ġwithdraw":8749,"Ġmajesty":8750,"Ġentertained":8751,"ĠMouquette":8752,"Ġfragments":8753,"Ġmechanically":8754,"Ġcroyait":8755,"Ġindividual":8756,"Ġresignation":8757,"ĠRoyal":8758,"Ġenlar":8759,"Ġpoultry":8760,"floor":8761,"ancois":8762,"Ġperplex":8763,"\"_":8764,"Fr":8765,"GE":8766,"Pour":8767,"RI":8768,"RO":8769,"TH":8770,"bank":8771,"sis":8772,"~,":8773,"heard":8774,"Ġsque":8775,"Ġsaint":8776,"Ġsighed":8777,"Ġwarrant":8778,"oureux":8779,"itute":8780,"Ġbows":8781,"Ġcot":8782,"Ġpont":8783,"ana":8784,"aned":8785,"Ġheed":8786,"otions":8787,"Ġwash":8788,"versi":8789,"quoi":8790,"ĠMery":8791,"ĠMock":8792,"Ġsoot":8793,"Ġshy":8794,"aston":8795,"Ġlib":8796,"Ġensu":8797,"Ġalter":8798,"Ġtriste":8799,"ĠBazin":8800,"avag":8801,"Ġperceiving":8802,"Ġchapel":8803,"Ġfoli":8804,"Ġcloser":8805,"ĠEn":8806,"Ġvoici":8807,"Ġcease":8808,"Ġmonsters":8809,"Ġconsented":8810,"Ġconsulted":8811,"Ġteacher":8812,"Ġcaporal":8813,"Ġchef":8814,"Ġincidents":8815,"Ġguards":8816,"Ġreconc":8817,"ouncing":8818,"ĠmaÃ®tre":8819,"Ġaffirm":8820,"Ġruns":8821,"Ġformal":8822,"Ġmotive":8823,"Ġelep":8824,"Ġelement":8825,"Ġdrawer":8826,"Ġphysi":8827,"ocr":8828,"Ġruff":8829,"Ġgarde":8830,"Ġsecrets":8831,"sibility":8832,"Åĵil":8833,"Ġkilling":8834,"Ġspotted":8835,"Ġdonna":8836,"Ġguarded":8837,"ĠRaversi":8838,"Ġchoked":8839,"Ġsinister":8840,"ĠFervaques":8841,"Ġgarments":8842,"Ġargument":8843,"piration":8844,"Ġmagic":8845,"Ġpopul":8846,"ĠrÃ©sol":8847,"Ġenclosed":8848,"Ġacknowledge":8849,"Ġelbows":8850,"Ġgovernor":8851,"Ġpurchase":8852,"Ġtitle":8853,"emberley":8854,"Ġscrup":8855,"Ġfantastic":8856,"Ġscientific":8857,"ĠLowood":8858,"Ġleisure":8859,"Ġinferior":8860,"Ġbailiff":8861,"molue":8862,"Ġcelebr":8863,"ĠLiverpool":8864,"Br":8865,"Four":8866,"Mademoiselle":8867,"Nous":8868,"Old":8869,"Often":8870,"aill":8871,"cr":8872,"chant":8873,"rons":8874,"uy":8875,"Ġze":8876,"inence":8877,"Ġward":8878,"Ġwool":8879,"Ġos":8880,"Ġdarted":8881,"Ġfid":8882,"onies":8883,"asmin":8884,"ara":8885,"omed":8886,"lement":8887,"Ġgas":8888,"Ġgust":8889,"Ġgagn":8890,"entric":8891,"Ġthie":8892,"ali":8893,"Ġforces":8894,"Ġrabbit":8895,"Ġsele":8896,"Ġseals":8897,"rolled":8898,"Ġsale":8899,"ĠMousqueton":8900,"ushes":8901,"Ġshrill":8902,"Ġexh":8903,"Ġexter":8904,"ĠClopin":8905,"onge":8906,"Ġplains":8907,"unken":8908,"ĠPemberley":8909,"ĠBÃ©":8910,"urned":8911,"ĠGry":8912,"Ġgrasped":8913,"Ġbris":8914,"Ġspots":8915,"Ġchill":8916,"ops":8917,"Ġremote":8918,"Ġclung":8919,"ĠDerville":8920,"ĠDutch":8921,"Ã©tÃ©":8922,"Ġflushed":8923,"Ġglorious":8924,"peror":8925,"Ãªter":8926,"Ġharbour":8927,"Ġrestless":8928,"Ġinsen":8929,"Ġsouls":8930,"Ġmidday":8931,"Ġdiscip":8932,"Ġvieille":8933,"Ġburden":8934,"liza":8935,"Ġbonnet":8936,"quisite":8937,"Ġexploration":8938,"Ġrealized":8939,"ermain":8940,"Ġleader":8941,"Ġnarrative":8942,"Ġcabinet":8943,"phon":8944,"Ġdescending":8945,"Ġbursting":8946,"fortunes":8947,"Ġdragging":8948,"Ġdelicious":8949,"Ġshocked":8950,"Ġsacrific":8951,"Ġcivility":8952,"Ġmessenger":8953,"Ġtriumphant":8954,"Ġpeasants":8955,"ĠprÃ©tend":8956,"Ġboldly":8957,"Ġimprove":8958,"Ġarrangements":8959,"Ġbaronet":8960,"Ġsedu":8961,"Ġeccentric":8962,"Ġextravag":8963,"Ġtranquillity":8964,"People":8965,"Between":8966,"Ġresponded":8967,"ĠBraz":8968,"ussitÃ´t":8969,"Ġinvisible":8970,"ĠMeryton":8971,"?âĢĿ":8972,"Comme":8973,"IE":8974,"Planchet":8975,"Silence":8976,"ae":8977,"gest":8978,"lance":8979,"nÃ¦":8980,"heast":8981,"Ġoy":8982,"Ġmood":8983,"Ġmars":8984,"Ġcough":8985,"Ġcult":8986,"Ġferm":8987,"Ġtoi":8988,"Ġpool":8989,"lls":8990,"veu":8991,"Ġreject":8992,"Ġride":8993,"Ġstater":8994,"Ġvice":8995,"Ġvulgar":8996,"Ġsob":8997,"Ġsolic":8998,"Ġsofa":8999,"Ġsuck":9000,"Ġjest":9001,"ulin":9002,"Ġaltern":9003,"Ġtrunks":9004,"Ġarches":9005,"Ġwillingly":9006,"ĠBast":9007,"Ġgrin":9008,"abio":9009,"Ġbrush":9010,"Ġbricks":9011,"ĠJoseph":9012,"Ġdesolate":9013,"Ġshared":9014,"Ġclosing":9015,"ĠDE":9016,"Ġresidence":9017,"Ġparties":9018,"Ġwherever":9019,"Ġdistressed":9020,"onday":9021,"lieu":9022,"Ġharvest":9023,"astern":9024,"Ġsupposing":9025,"Ġpleasing":9026,"Ġdrunken":9027,"eneulin":9028,"Ġinterval":9029,"Ġsouff":9030,"Ġlessons":9031,"ĠtrouvÃ©":9032,"Ġmisfortunes":9033,"Ġsmaller":9034,"Ġthirteen":9035,"Ġfootman":9036,"Quand":9037,"Ġprovide":9038,"Ġhurled":9039,"Ġexplore":9040,"othic":9041,"Ġcalmly":9042,"Ġleads":9043,"Ġbelongs":9044,"Ġdresses":9045,"Ġcompliments":9046,"Ġremarks":9047,"sibly":9048,"Ġconcerning":9049,"Ġerror":9050,"Ġpistol":9051,"Ġcollection":9052,"Ġaimable":9053,"Ġlodged":9054,"Ġtroubles":9055,"Ġdiscussed":9056,"Ġsufferings":9057,"ĠLydie":9058,"Ġfilling":9059,"ichelieu":9060,"Ġstockings":9061,"morency":9062,"Ã©rieur":9063,"Ġwonders":9064,"Ġreveal":9065,"Ġbullet":9066,"Ġprofonde":9067,"Ġgovernment":9068,"Ġtolerably":9069,"Ġrebell":9070,"Ġpicturesque":9071,"Ġrepentance":9072,"Ġrascal":9073,"Ġenfant":9074,"Ġdevelop":9075,"Ġrecluse":9076,"Ġinconven":9077,"instant":9078,"ĠLestrade":9079,"Ġirresistible":9080,"Ġshawl":9081,"ĠDuchess":9082,"Ġmarvellous":9083,"Ġstateroom":9084,"Five":9085,"Rod":9086,"UR":9087,"cur":9088,"hors":9089,"ugn":9090,"Ġalight":9091,"Ġwing":9092,"Ġoh":9093,"Ġbite":9094,"Ġbuck":9095,"Ġcraw":9096,"Ġheir":9097,"Ġinner":9098,"Ġecon":9099,"Ġgild":9100,"Ġrecei":9101,"Ġwhir":9102,"alf":9103,"Ġseats":9104,"amar":9105,"terranean":9106,"ourd":9107,"agu":9108,"Ġsulph":9109,"Ġneveu":9110,"ĠCon":9111,"ĠCÃ©cile":9112,"ĠPope":9113,"Ġabuse":9114,"Ġintensity":9115,"Ġgoats":9116,"Ġprope":9117,"Ġamusing":9118,"Ġgrain":9119,"Ġspurs":9120,"loved":9121,"Ġrepair":9122,"avre":9123,"Ġhandle":9124,"ĠNow":9125,"Ġboiling":9126,"Ġperpend":9127,"Ġprejud":9128,"Ġpeup":9129,"Ġclut":9130,"Ġclam":9131,"covered":9132,"Ġstrain":9133,"ounted":9134,"Ġpartner":9135,"Ġaccus":9136,"llect":9137,"icken":9138,"Instead":9139,"quered":9140,"Were":9141,"ensions":9142,"insula":9143,"Ġsentences":9144,"Ġfeels":9145,"ĠGrÃ¨ve":9146,"Ġindisc":9147,"Ġmax":9148,"tember":9149,"Ġsuffoc":9150,"Ġadmin":9151,"Leave":9152,"Ġvibr":9153,"iality":9154,"Ġdrawers":9155,"Ġcauses":9156,"Ġgalleries":9157,"Ġladyship":9158,"Ġstartled":9159,"Ġlearnt":9160,"ĠRochelle":9161,"Ġposts":9162,"Ġcroire":9163,"Ġwarmly":9164,"Ġsweetness":9165,"ĠXV":9166,"ĠXIII":9167,"Ġmagnif":9168,"Ġfrock":9169,"Ġemployment":9170,"Ġdonnait":9171,"Ġimpatiently":9172,"Ġendeavoured":9173,"Ġprotected":9174,"Ġcombat":9175,"Ġfortunately":9176,"Ġmessage":9177,"Ġvigorously":9178,"Ġpenetrating":9179,"Ġundertake":9180,"Ġproceeding":9181,"Ġlogis":9182,"ĠForster":9183,"Ġsincerely":9184,"Ġseamen":9185,"Ġadopt":9186,"Ġpearl":9187,"ClÃ©lia":9188,"ĠCommander":9189,"Ġparfaitement":9190,"Ġlouder":9191,"ĠGrÃ©goire":9192,"olÃ©on":9193,"Ġmansion":9194,"Ġinvestig":9195,"Ġtandis":9196,"Ġpopulace":9197,"ĠGryphon":9198,"Ġperpendicular":9199,"AD":9200,"US":9201,"Whe":9202,"him":9203,"ients":9204,"some":9205,"zing":9206,"Ġaz":9207,"Ġwip":9208,"Ġwaving":9209,"Ġwestern":9210,"erie":9211,"Ġben":9212,"Ġbol":9213,"Ġdashed":9214,"Ġfame":9215,"Ġhem":9216,"Ġnail":9217,"Ġhated":9218,"icable":9219,"otic":9220,"Ġwashing":9221,"Ġreign":9222,"Ġthy":9223,"ado":9224,"Ġstool":9225,"ĠMan":9226,"ifs":9227,"Ġquay":9228,"ĠCount":9229,"Ġmanor":9230,"Ġoutr":9231,"ĠHar":9232,"Ġmock":9233,"ptuous":9234,"mend":9235,"ĠRiver":9236,"uez":9237,"Ġperil":9238,"Ġclenched":9239,"Though":9240,"Ġhasard":9241,"Ġeyeb":9242,"ĠDans":9243,"Ġresent":9244,"Ġresigned":9245,"Ġcrushing":9246,"Ġcrisis":9247,"ontÃ©":9248,"Ġwhereas":9249,"autres":9250,"Ġcourty":9251,"rences":9252,"oubted":9253,"Ġregion":9254,"Ġbreach":9255,"Ġfinds":9256,"Ġdevoir":9257,"Ġconfid":9258,"Ġincomp":9259,"Ġswo":9260,"Ġslave":9261,"Ġinscri":9262,"ĠarrivÃ©":9263,"Ġinterp":9264,"Ġsortir":9265,"Ġstole":9266,"Ġveut":9267,"Ġvieux":9268,"Ġhunter":9269,"Ġbargain":9270,"ĠCharmolue":9271,"ibility":9272,"Ġexpressions":9273,"Ġordres":9274,"Ġcasting":9275,"Ġannounce":9276,"Ġastonishing":9277,"Ġoccupy":9278,"Ġrapidity":9279,"Ġfurnace":9280,"Ġexception":9281,"Ġbesoin":9282,"ommod":9283,"Ġundone":9284,"Ġlaws":9285,"Ġhesitating":9286,"Ġcommunicated":9287,"Ġdenied":9288,"Ġstreams":9289,"Ġpolitics":9290,"Ġbitterness":9291,"Ġintimacy":9292,"Ġrubbed":9293,"ĠCheval":9294,"Ġrevolt":9295,"Ġpotat":9296,"shaped":9297,"ĠdÃ©tails":9298,"Ġbrandy":9299,"Speak":9300,"Ġreassured":9301,"Ġexasperated":9302,"ustrious":9303,"Ġsympathy":9304,"ĠLiber":9305,"ĠRosings":9306,"Ġappetite":9307,"Ġadorned":9308,"ĠSeptember":9309,"Ġthieves":9310,"ĠBastille":9311,"Ces":9312,"None":9313,"Surely":9314,"cin":9315,"ew":9316,"eut":9317,"las":9318,"pet":9319,"pri":9320,"uve":9321,"uct":9322,"wind":9323,"zire":9324,"Ġ&":9325,"Ġtam":9326,"Ġtails":9327,"Ġaver":9328,"inction":9329,"itudes":9330,"Ġbul":9331,"Ġcake":9332,"Ġcunning":9333,"Ġdined":9334,"Ġliter":9335,"Ġpile":9336,"Ġpink":9337,"arre":9338,"anter":9339,"Ġeh":9340,"Ġbears":9341,"entered":9342,"Ġretain":9343,"ste":9344,"ird":9345,"Ġdeceive":9346,"quest":9347,"Ġrings":9348,"Ġriche":9349,"Ġseal":9350,"Ġmend":9351,"ĠMe":9352,"Ġsup":9353,"alling":9354,"Ġjer":9355,"ĠCreek":9356,"emment":9357,"Ġunlike":9358,"Ġagent":9359,"ĠFar":9360,"ĠFabio":9361,"ĠJuly":9362,"loqu":9363,"ĠRosemilly":9364,"Ġhandful":9365,"Ġblown":9366,"ĠEm":9367,"ĠDon":9368,"Ġpartir":9369,"Ġcracked":9370,"Ġbeggar":9371,"Ġscore":9372,"Ġscul":9373,"Ġhoisted":9374,"Ġolder":9375,"pris":9376,"Ġrestrained":9377,"Ġconfident":9378,"Ġguided":9379,"Ġworkman":9380,"Ġhundreds":9381,"Ġvisage":9382,"Ġrecent":9383,"Ġrecomm":9384,"Ġhardened":9385,"Ã©raux":9386,"Ġpersonn":9387,"Ġfores":9388,"Ġillumin":9389,"Ġlands":9390,"Ġbarrel":9391,"ĠdÃ©v":9392,"Ġcaresses":9393,"Ġpropose":9394,"mediately":9395,"Ġfaites":9396,"gson":9397,"Ġregardait":9398,"Ġsoldat":9399,"Ġvillain":9400,"Ġreplying":9401,"Ġbathed":9402,"Ġcontrad":9403,"Ġdelir":9404,"Ġprecautions":9405,"Ġcables":9406,"Ġpermitted":9407,"Ġpike":9408,"Ġsearching":9409,"Ġpursuit":9410,"Ġpunct":9411,"Ġbleeding":9412,"Ġimprudent":9413,"Ġbillet":9414,"Ġmoonlight":9415,"Ġpillow":9416,"Ġprotect":9417,"aissait":9418,"Ġpreviously":9419,"Ġsuivre":9420,"Ġcitiz":9421,"Ġfortunes":9422,"Ġblessed":9423,"ĠEuropean":9424,"Ġascending":9425,"Ġpanes":9426,"Ġfulf":9427,"Ġfuite":9428,"Ġsauver":9429,"Ġcontains":9430,"Ġcontaining":9431,"Ġawaiting":9432,"Ġdisappointed":9433,"Ġrenew":9434,"Maheude":9435,"Ġamusement":9436,"Ġexcessive":9437,"Ġgranted":9438,"Ġsurveyed":9439,"Ġadversary":9440,"Ġscenes":9441,"Ġtutor":9442,"ĠBritish":9443,"Ġbristling":9444,"ĠcaractÃ¨re":9445,"Ġfootsteps":9446,"Ġpropeller":9447,"Ġswollen":9448,"Bah":9449,"Harding":9450,"Pend":9451,"Pardon":9452,"after":9453,"did":9454,"fo":9455,"ns":9456,"nait":9457,"rous":9458,"ugu":9459,"voy":9460,"ware":9461,"Ġtons":9462,"Ġah":9463,"ini":9464,"inity":9465,"Ġske":9466,"ĠsÃ»":9467,"Ġwoke":9468,"Ġbade":9469,"Ġbounded":9470,"Ġbald":9471,"Ġcents":9472,"Ġcria":9473,"Ġciel":9474,"Ġdames":9475,"Ġdanced":9476,"Ġfed":9477,"Ġfath":9478,"Ġfund":9479,"Ġfoss":9480,"Ġfitted":9481,"Ġlately":9482,"ĠpÃ©n":9483,"anera":9484,"Ġinval":9485,"Ġhats":9486,"icine":9487,"entend":9488,"idian":9489,"Ġthigh":9490,"Ġsex":9491,"Ġserene":9492,"Ġmembers":9493,"riers":9494,"Ġsavant":9495,"Ġleague":9496,"Ġsujet":9497,"liest":9498,"Ġcompelled":9499,"Ġsho":9500,"Ġallowing":9501,"Ġexert":9502,"arts":9503,"Ġens":9504,"Ġpla":9505,"Ġabst":9506,"ĠBlan":9507,"Ġprint":9508,"Ġproble":9509,"Ġcoats":9510,"ĠHigh":9511,"ĠGreat":9512,"ĠGaston":9513,"ĠGothic":9514,"Ġbrass":9515,"Ġload":9516,"udarde":9517,"Ġdaybreak":9518,"ĠRome":9519,"Ġlonging":9520,"ĠNon":9521,"ĠNot":9522,"ĠNature":9523,"Ġours":9524,"Ġcomplic":9525,"Ġpreoccup":9526,"ĠDan":9527,"Ġresisted":9528,"Ġcrims":9529,"Ġcontents":9530,"Ġimpressed":9531,"Ġceux":9532,"Ġflower":9533,"ipes":9534,"Ġappeal":9535,"Ġmonter":9536,"ĠWHI":9537,"Ġhappens":9538,"Ġchanging":9539,"Ġcontinual":9540,"Ġassume":9541,"Ġtremend":9542,"Ġsubterranean":9543,"Ġdoubts":9544,"Ġlesson":9545,"Ġsecurity":9546,"Ã§a":9547,"Ã§ut":9548,"Ġsweep":9549,"Ġhunters":9550,"Ġshortly":9551,"Ġadvised":9552,"Ã´me":9553,"ĠSpain":9554,"Ġobliging":9555,"ĠÃ©le":9556,"Ġofficial":9557,"Ġshouts":9558,"Already":9559,"Ġstuds":9560,"Ġdemanda":9561,"Ġangrily":9562,"Ġlimp":9563,"Ġcreep":9564,"Ġboxes":9565,"etranera":9566,"Ġpetites":9567,"Ġregretted":9568,"Ġsummoned":9569,"angerson":9570,"Ġinjust":9571,"Ġintroduce":9572,"ĠMarchiennes":9573,"Ġascend":9574,"Ġenerget":9575,"Ġrevolution":9576,"Ġwhistling":9577,"Ġlucky":9578,"Ġlaisser":9579,"Ġtavern":9580,"Ġrecommended":9581,"Ġlandlady":9582,"Ġstretch":9583,"iÃ¨me":9584,"Ġassembled":9585,"Ġanswering":9586,"Ġstamped":9587,"Ġexaggerated":9588,"Ġcastaways":9589,"Ġfarewell":9590,"Ġhazard":9591,"Ġinfamous":9592,"Ġfascin":9593,"Ġprovincial":9594,"Ġquinze":9595,"Down":9596,"Phoebus":9597,"kins":9598,"liness":9599,"mons":9600,"oham":9601,"twenty":9602,"uing":9603,"Ġtick":9604,"Ġtete":9605,"inations":9606,"iniÃ¨re":9607,"Ġmuff":9608,"Ġbarr":9609,"ishes":9610,"Ġfist":9611,"Ġfave":9612,"Ġfainted":9613,"Ġlouis":9614,"Ġpag":9615,"Ġpaint":9616,"esce":9617,"anch":9618,"attle":9619,"Ġelles":9620,"Ġbeaux":9621,"Ġbeloved":9622,"ĠthÃ©":9623,"ura":9624,"etery":9625,"quait":9626,"alog":9627,"Ġascent":9628,"rop":9629,"Ġsait":9630,"Ġfrapp":9631,"ousin":9632,"Ġcone":9633,"Ġconj":9634,"nement":9635,"three":9636,"Ġnoir":9637,"emetery":9638,"Ġenabled":9639,"Ġabb":9640,"Ġoutb":9641,"ateur":9642,"Ġprow":9643,"Ġprovid":9644,"ĠHume":9645,"ĠGeorgiana":9646,"Ġgrasp":9647,"Ġrepast":9648,"ĠRussi":9649,"open":9650,"Ġchains":9651,"Ġthoughtful":9652,"Ġsurv":9653,"Ġpartie":9654,"anged":9655,"landers":9656,"Ġpresents":9657,"Ġregained":9658,"Ġpersisted":9659,"Ġrefres":9660,"Ġadding":9661,"Ġbelief":9662,"Ġwalks":9663,"Ġ19":9664,"Ġdepos":9665,"Ġkeeps":9666,"Ġintellect":9667,"Ġcalmer":9668,"Ġdetermin":9669,"ĠStangerson":9670,"forth":9671,"Ġawful":9672,"Quite":9673,"Ġresolute":9674,"shine":9675,"Ġaccompl":9676,"Ġstaying":9677,"Ġpapier":9678,"Ġmusk":9679,"Ġdemander":9680,"Ġjudges":9681,"Ġridge":9682,"Ġhabitation":9683,"ĠFrenchman":9684,"Ġsyll":9685,"Ġdeclare":9686,"Ġpension":9687,"Ġlieutenant":9688,"ARD":9689,"Ġparlait":9690,"Ġpillars":9691,"Ġenvir":9692,"Ġcurrents":9693,"Ġfacile":9694,"Ġcinqu":9695,"Ġappreci":9696,"Ġentendre":9697,"annah":9698,"Ġwhistle":9699,"Ġmajest":9700,"Ġcoolly":9701,"ĠBelg":9702,"Ġencountered":9703,"Ġstretching":9704,"Ġdernier":9705,"Ġindignation":9706,"Ġpearls":9707,"Ġtreasure":9708,"Ġmultip":9709,"ĠPietranera":9710,"Ġisolated":9711,"Ġmagistrate":9712,"Ġsimplicity":9713,"Ġscold":9714,"Ġcottage":9715,"ĠAfrica":9716,"Ġrendezvous":9717,"Ġintolerable":9718,"Ġfoliage":9719,"Ġcultiv":9720,"Pendant":9721,"ĠWHICH":9722,"Holmes":9723,"Tw":9724,"_\"":9725,"hist":9726,"lant":9727,"mem":9728,"master":9729,"tait":9730,"Ã¤":9731,"ĠYes":9732,"Ġtanks":9733,"outer":9734,"Ġmale":9735,"itious":9736,"enole":9737,"Ġdorm":9738,"Ġfest":9739,"Ġpious":9740,"ora":9741,"Ġnonsense":9742,"Ġinches":9743,"Ġrendre":9744,"adise":9745,"Ġash":9746,"ilities":9747,"ĠMonseigneur":9748,"ĠMonday":9749,"chie":9750,"Ġkings":9751,"ossible":9752,"ĠConst":9753,"ppenole":9754,"Ġnostr":9755,"olves":9756,"Ġunjust":9757,"apsed":9758,"Ġtraced":9759,"ĠSuez":9760,"Ġintrig":9761,"ĠHÃ´tel":9762,"Ġgracious":9763,"Ġroaring":9764,"Ġdislike":9765,"ĠRich":9766,"ĠRabbit":9767,"ĠpassÃ©":9768,"Ġprel":9769,"raire":9770,"Ġclad":9771,"Ġsurm":9772,"arson":9773,"Ġscull":9774,"Ġserai":9775,"Ġsmiles":9776,"Ġpositive":9777,"Ġcapric":9778,"ĠauprÃ¨s":9779,"Ġcommis":9780,"Ġregain":9781,"Ġcounting":9782,"Ġrestrain":9783,"Ġchanges":9784,"Ġsubd":9785,"Ġtempted":9786,"Ġsunshine":9787,"Ġbarking":9788,"Ġdecor":9789,"Ġadvancing":9790,"Ġpolished":9791,"Ġexclaim":9792,"Ġautumn":9793,"Ġrelative":9794,"Ġtrib":9795,"Ġhorseback":9796,"Ġimposing":9797,"Ġtowns":9798,"Ġpalm":9799,"Ġ25":9800,"Ġdestined":9801,"Ġgloves":9802,"Ġrecognise":9803,"Ġoccupation":9804,"ĠrÃ©f":9805,"Ġstudies":9806,"Ġverd":9807,"Ġremarqua":9808,"Ġsym":9809,"Ġseparation":9810,"Ġsocial":9811,"Ġvariety":9812,"Ġobstacles":9813,"Ġbills":9814,"Ġcousins":9815,"Ġaudible":9816,"Ġsuspicious":9817,"Ġvoulu":9818,"Ġpowers":9819,"Arri":9820,"Ġmodesty":9821,"ĠAnne":9822,"Ġaura":9823,"glass":9824,"Ġmajor":9825,"Ġelegance":9826,"Ġcupboard":9827,"Ġrouge":9828,"ĠdÃ©ja":9829,"Ġadopted":9830,"Ġabundance":9831,"Ġissued":9832,"Ġtotal":9833,"Ġattachment":9834,"Ġpupils":9835,"Ġharpooner":9836,"Ġdevouring":9837,"Ġdistrict":9838,"Ġvacant":9839,"Ġapprehensions":9840,"Ġgauche":9841,"ĠGrivet":9842,"ĠGovernor":9843,"Ġatrocious":9844,"Ġrescue":9845,"Ġcrouching":9846,"Ġcourtyard":9847,"Sur":9848,"TE":9849,"Ten":9850,"born":9851,"elf":9852,"iast":9853,"mpe":9854,"nusse":9855,"oise":9856,"pan":9857,"uish":9858,"would":9859,"ym":9860,"~!":9861,"Ġowing":9862,"ouer":9863,"hast":9864,"Ġmoss":9865,"ita":9866,"Ġbure":9867,"Ġcats":9868,"Ġcaution":9869,"Ġfits":9870,"Ġtomber":9871,"Ġpad":9872,"Ġhier":9873,"Ġhired":9874,"Ġna":9875,"Ġnations":9876,"atr":9877,"Ġgut":9878,"Ġgossip":9879,"Ġbeef":9880,"ente":9881,"ential":9882,"ĠrÃ´":9883,"Ġrash":9884,"Ġratt":9885,"ĠMorm":9886,"Ġleaped":9887,"Ġsuited":9888,"antz":9889,"Ġshows":9890,"Ġlikes":9891,"Ġunm":9892,"Ġunre":9893,"aknusse":9894,"Ġtrag":9895,"ĠSaknusse":9896,"ĠBible":9897,"ĠFitz":9898,"ĠFlanders":9899,"Ġamour":9900,"Ġcoin":9901,"Ġmob":9902,"ĠJackson":9903,"Ġdishes":9904,"rah":9905,"ĠEliza":9906,"Ġcrowned":9907,"Ġexpenses":9908,"ĠTristan":9909,"Ġpositively":9910,"Ġcourtis":9911,"Ġcheese":9912,"Ġchildhood":9913,"Ġassisted":9914,"Ġsentait":9915,"Ġtalent":9916,"Ġsatin":9917,"Ġsouvenir":9918,"Ġcareer":9919,"ĠFrantz":9920,"Ġspeaks":9921,"Ġplacid":9922,"Ã©rÃ©n":9923,"Ġvehic":9924,"Ġgrandes":9925,"Ã§on":9926,"Ġtemple":9927,"Ġcoldness":9928,"Ġbushes":9929,"Ġescort":9930,"Ġmeridian":9931,"Ġextinct":9932,"ĠÃ©vid":9933,"...":9934,"ĠarrÃªt":9935,"Ġcryst":9936,"Ġtransformed":9937,"chers":9938,"Ġscarlet":9939,"Ġsaluted":9940,"Ġriding":9941,"Ġbreadth":9942,"Ġremainder":9943,"Ġprobability":9944,"Ġcharacters":9945,"olyte":9946,"Ġhorizont":9947,"Ġdeserved":9948,"Ġsongs":9949,"Ġeagerness":9950,"Ġvoulut":9951,"Ġregularly":9952,"Ġbalust":9953,"Ġrobbed":9954,"Ġresemblance":9955,"Ġmourn":9956,"Ġmourning":9957,"Ġencouraged":9958,"Ġunfold":9959,"ietta":9960,"Ġrascals":9961,"Ġconsciousness":9962,"Ġpreceding":9963,"worthy":9964,"Ġdischarge":9965,"Ġmeadow":9966,"ĠcantiniÃ¨re":9967,"ĠBetty":9968,"Ġsanct":9969,"nÃ¦fell":9970,"Rodolphe":9971,"ĠChevalier":9972,"Ġcrimson":9973,"ĠSaknussemm":9974,"Happ":9975,"Jim":9976,"SE":9977,"bone":9978,"gone":9979,"hind":9980,"iastic":9981,"mind":9982,"erv":9983,"Ġcess":9984,"once":9985,"Ġlur":9986,"Ġlull":9987,"Ġlugg":9988,"ĠpÃ©r":9989,"arw":9990,"Ġnut":9991,"irds":9992,"quently":9993,"Ġrange":9994,"ĠMin":9995,"ooped":9996,"Ġsobbing":9997,"Ġsuits":9998,"anded":9999,"ĠfrÃ¨re":10000,"Ġconquered":10001,"nels":10002,"Ġexquisite":10003,"Ġ\"'":10004,"Ġlivid":10005,"Ġunwill":10006,"ĠSw":10007,"ĠAc":10008,"ĠAmb":10009,"Ġarcade":10010,"Ġintri":10011,"Ġamoureux":10012,"ĠHert":10013,"ĠGaut":10014,"ĠGates":10015,"Ġroots":10016,"Ġbron":10017,"Ġbrav":10018,"Ġblank":10019,"Ġparoles":10020,"Ġcrav":10021,"Ġmarvel":10022,"Whatever":10023,"Ġdistraction":10024,"ension":10025,"Ġtells":10026,"Ġcommissary":10027,"Ġcountries":10028,"Ġrefrain":10029,"Ġswam":10030,"Ġsubtle":10031,"ĠOcean":10032,"righton":10033,"Ġideal":10034,"ĠjournÃ©e":10035,"Ġcloister":10036,"Ġforeseen":10037,"ĠbeautÃ©":10038,"ĠStrait":10039,"Ġneedle":10040,"Ġpolic":10041,"Ġcouch":10042,"Quel":10043,"Ġconstruction":10044,"Ġgallows":10045,"Ġhurric":10046,"uesday":10047,"Ġregarder":10048,"Ġnumbers":10049,"Ġhasten":10050,"Ġ21":10051,"Ġmuscles":10052,"Ġcalmness":10053,"Ġstudying":10054,"Ġoccasionally":10055,"Ġcrois":10056,"Ġbesie":10057,"ĠGuillaume":10058,"Ġlowering":10059,"Ġquelquefois":10060,"Ġpensive":10061,"Ġaffectionate":10062,"Ġdeliber":10063,"Ġringing":10064,"Ġpunished":10065,"Ġspectators":10066,"Enfin":10067,"Ġreproaches":10068,"Ġmutual":10069,"Ġmillion":10070,"Ġendeavored":10071,"Ġprinciples":10072,"Ġwretchedness":10073,"Ġmissing":10074,"Ġelectricity":10075,"Ġjeta":10076,"Ġsubmit":10077,"Ġapparition":10078,"ĠUnion":10079,"ĠCarn":10080,"Above":10081,"Ġperformance":10082,"fordshire":10083,"Ġvegetation":10084,"Ġboredom":10085,"because":10086,"Ġcolumns":10087,"Ġbenefit":10088,"Ġpilot":10089,"Ġlaunched":10090,"Ġnoisy":10091,"Ġincredible":10092,"Ġmurderers":10093,"ĠItalian":10094,"Ġscheme":10095,"Ġapplaud":10096,"Ġsincerity":10097,"Ġrosy":10098,"Ġmouvement":10099,"Ġensuite":10100,"Ġsculpt":10101,"Ġfaveur":10102,"ĠGateshead":10103,"Great":10104,"Half":10105,"Last":10106,"Puis":10107,"aign":10108,"cun":10109,"ext":10110,"gings":10111,"mith":10112,"mission":10113,"pow":10114,"row":10115,"rine":10116,"zo":10117,"Ġtasted":10118,"Ġtheory":10119,"Ġwages":10120,"Ġmould":10121,"Ġbind":10122,"Ġbits":10123,"Ġbisc":10124,"Ġcach":10125,"Ġcured":10126,"Ġdame":10127,"Ġfab":10128,"ĠfÃªte":10129,"Ġphant":10130,"Ġinse":10131,"atively":10132,"omer":10133,"import":10134,"Ġretained":10135,"Ġrapp":10136,"Ġrivers":10137,"Ã©ch":10138,"Ġante":10139,"ills":10140,"illon":10141,"ĠMid":10142,"Ġquitt":10143,"emoiselle":10144,"Ġunion":10145,"Ġunacc":10146,"Ġenable":10147,"uncan":10148,"Ġabode":10149,"Ġtrap":10150,"umerable":10151,"Ġworry":10152,"ĠBrighton":10153,"Ġyourselves":10154,"Ġlocom":10155,"loign":10156,"ĠRichelieu":10157,"avez":10158,"Ġcompr":10159,"Ġcomposure":10160,"Ġremedy":10161,"ountable":10162,"actory":10163,"fferson":10164,"Ã¨ne":10165,"Ġscaff":10166,"Ġheading":10167,"Ġflashed":10168,"Ġfoundation":10169,"Ġconsist":10170,"Ġattri":10171,"Ġchildish":10172,"ĠMarietta":10173,"ublic":10174,"Ġclearing":10175,"Ġslumber":10176,"Ġinterrog":10177,"Ġfallait":10178,"Ġfinishing":10179,"Ġdearly":10180,"Ġmischief":10181,"Ġcircular":10182,"Ġawaken":10183,"Ġjob":10184,"Ġdemain":10185,"Ġactivity":10186,"Ġescaping":10187,"Ġquelqu":10188,"ĠÃ©m":10189,"Ġfaite":10190,"shot":10191,"Ġvoyant":10192,"Ġjoyous":10193,"Ġfloated":10194,"Ġdestin":10195,"Ġdestiny":10196,"ussent":10197,"Ġwildly":10198,"Ġrevived":10199,"CHAPIT":10200,"Ġsharks":10201,"Ġkissing":10202,"Ġtraveller":10203,"Ġpiqu":10204,"Ġincluding":10205,"Ġpensa":10206,"Ġpunish":10207,"Ġselfish":10208,"Ġbands":10209,"Ġfetched":10210,"Ġpillory":10211,"Ġprinciple":10212,"Ġmodel":10213,"Ġbalance":10214,"Ġbridges":10215,"Ġthankful":10216,"Ġirritation":10217,"ringer":10218,"ĠNapolÃ©on":10219,"Ġvivid":10220,"ĠNorbert":10221,"Ġentendu":10222,"ĠSpaniard":10223,"ĠdÃ©part":10224,"Ġseverely":10225,"Ġwaistcoat":10226,"Ġcontrived":10227,"Ġannoyance":10228,"ĠmÃ©pris":10229,"Ġappointment":10230,"Ġpurchased":10231,"Ġvexed":10232,"tico":10233,"Ġconveyed":10234,"Ġneighborhood":10235,"ippolyte":10236,"Ġrags":10237,"Ġtapest":10238,"Ġfeathers":10239,"Ġneglected":10240,"coloured":10241,"Ġcompagnon":10242,"Ġconstructed":10243,"Ġdeprived":10244,"Immediately":10245,"Ġtemptation":10246,"Ġoxy":10247,"Ġunluck":10248,"Ġuniversal":10249,"Ġmartyr":10250,"Ġsulphur":10251,"Ġoutburst":10252,"Ġmuskets":10253,"Ġscaffold":10254,"CHAPITRE":10255,"\"~":10256,".--":10257,"Car":10258,"Monseigneur":10259,"bation":10260,"foot":10261,"oons":10262,"uously":10263,"Ġshat":10264,"Ġmorte":10265,"Ġcurs":10266,"Ġcemetery":10267,"Ġdain":10268,"Ġfaster":10269,"Ġpyr":10270,"llement":10271,"anine":10272,"Ġhaw":10273,"Ġeloqu":10274,"Ġbeck":10275,"Ġreigned":10276,"urred":10277,"Ġdefect":10278,"adle":10279,"alier":10280,"Ġsticks":10281,"Ġsemin":10282,"rified":10283,"illar":10284,"Ġsober":10285,"Ġconceived":10286,"ardin":10287,"Ġalla":10288,"Ġlav":10289,"Ġfeed":10290,"asting":10291,"Ġalas":10292,"Ġmanus":10293,"ĠPre":10294,"Ġabhor":10295,"ĠSnÃ¦fell":10296,"igrat":10297,"ĠBall":10298,"Ġages":10299,"ĠLake":10300,"ĠGeneral":10301,"Ġroared":10302,"lose":10303,"Ġdise":10304,"Ġrepugn":10305,"Ġperish":10306,"Ġperpet":10307,"Ġpasses":10308,"Ġpreference":10309,"raven":10310,"raient":10311,"Ġremp":10312,"Ġchagr":10313,"Ġclinging":10314,"ĠDuc":10315,"Ġapolog":10316,"Ġbegins":10317,"ĠTuesday":10318,"iences":10319,"Ġaccess":10320,"Ġflu":10321,"retion":10322,"Ġcaprice":10323,"Ġowner":10324,"Ġknelt":10325,"Ġlighting":10326,"Ġchances":10327,"mering":10328,"Ġgibb":10329,"Ġconfirmed":10330,"Ġassert":10331,"Ġrefer":10332,"Ġdoubled":10333,"licted":10334,"Ġ100":10335,"Ġslid":10336,"ĠOak":10337,"Ġpersonages":10338,"Ġsufficed":10339,"Ġlandsc":10340,"ificant":10341,"Ġmurdered":10342,"Ġreasoning":10343,"ĠobligÃ©":10344,"Ġconstitution":10345,"Ġordre":10346,"Ġrealised":10347,"ĠannÃ©es":10348,"Ġvolumes":10349,"Ġobjections":10350,"ĠCoppenole":10351,"Ġinnumerable":10352,"Ġtravelled":10353,"Ġsubjects":10354,"ĠYok":10355,"Ġlimit":10356,"Ġsoftened":10357,"Ġfrost":10358,"Ġidle":10359,"Ġfaisant":10360,"Ġdoublet":10361,"Ġdeserve":10362,"Ġstroll":10363,"Ġpolitical":10364,"Ġdamage":10365,"Ġdebts":10366,"Ġbalc":10367,"Ġtransported":10368,"Ġcampaign":10369,"Ġrubbing":10370,"Ġundertaking":10371,"Ġdismal":10372,"Ġdelayed":10373,"Ġweariness":10374,"Ġbreeches":10375,"Ġphysician":10376,"Ġquoique":10377,"Ġfearsome":10378,"ĠRouault":10379,"Ġvegetable":10380,"Ġcomparison":10381,"Ġsparkling":10382,"Ġgrimace":10383,"interest":10384,"Ġabundant":10385,"Ġlocal":10386,"Ġpreceded":10387,"Ġtroops":10388,"Ġvertical":10389,"Ġanswers":10390,"Ġenveloped":10391,"Ġswimming":10392,"Ġtossed":10393,"Ġredoubled":10394,"Ġimaginable":10395,"bearable":10396,"Ġmauvais":10397,"ĠDelouche":10398,"ĠBÃ©bert":10399,"Ġgilded":10400,"Ġeyebrows":10401,"Ġtremendous":10402,"ohama":10403,"ĠHertfordshire":10404,"Ġdainty":10405,"ĠYokohama":10406,"500":10407,"Duncan":10408,"Nautilus":10409,"Over":10410,"Pl":10411,"Sire":10412,"from":10413,"low":10414,"mother":10415,"por":10416,"round":10417,"since":10418,"zes":10419,"Ġtante":10420,"Ġther":10421,"Ġwolves":10422,"Ġmare":10423,"isive":10424,"Ġcrest":10425,"Ġcush":10426,"Ġfoul":10427,"lla":10428,"arks":10429,"aten":10430,"Ġgift":10431,"Ġbeams":10432,"icted":10433,"otto":10434,"Ġreception":10435,"urches":10436,"etÃ©":10437,"Ġdepended":10438,"adis":10439,"alie":10440,"Ġstake":10441,"Ġstables":10442,"Ġstoop":10443,"Ã©ne":10444,"Ã©rer":10445,"Ġvin":10446,"Ġvile":10447,"usive":10448,"Ġleant":10449,"Ġlect":10450,"Ġshower":10451,"Ġupro":10452,"Ġexemple":10453,"ulÃ©":10454,"ulsed":10455,"ĠCÃ´me":10456,"ĠCousin":10457,"Ġfelicity":10458,"istic":10459,"Ġtraged":10460,"Ġtrah":10461,"Ġtrades":10462,"Ġoutline":10463,"ĠBoy":10464,"ĠFarn":10465,"ĠFriar":10466,"Ġbrains":10467,"ĠbrÃ»":10468,"Ġspit":10469,"Ġpoly":10470,"avy":10471,"Ġadored":10472,"Ġboards":10473,"Ġpassa":10474,"were":10475,"Ġfox":10476,"cope":10477,"Ġstrang":10478,"Ġapres":10479,"Ġpark":10480,"Ġcontract":10481,"actly":10482,"Ġexpose":10483,"Ġretorted":10484,"agnes":10485,"Ġdistinction":10486,"Ġcourant":10487,"Ġcourtes":10488,"Ġaugment":10489,"Ãªtres":10490,"arrag":10491,"ements":10492,"Ġopenly":10493,"Ġsubmer":10494,"ĠOudarde":10495,"Ġskins":10496,"ĠHere":10497,"Ġdreaded":10498,"Ġillustrious":10499,"ĠStone":10500,"Ġdispute":10501,"Ġinstants":10502,"Ġplayground":10503,"Ġautour":10504,"Ġdroite":10505,"Ġdroop":10506,"Ġbuzz":10507,"Ġrespected":10508,"Ġsprings":10509,"Behind":10510,"Ġclothed":10511,"oires":10512,"Ġexperiment":10513,"Ġcommonplace":10514,"Ġspreading":10515,"Ġprocure":10516,"Ġstorms":10517,"Ġstrokes":10518,"Ġdelicacy":10519,"Ġcounc":10520,"Ġspringing":10521,"ĠsoirÃ©e":10522,"Ġlifting":10523,"Ġunfortunately":10524,"Ġgleamed":10525,"Ġimmob":10526,"ĠdÃ©couver":10527,"Ġrecollections":10528,"Ġzoo":10529,"Ġblocks":10530,"Ġswelled":10531,"Ġtolerable":10532,"Ġdisturbance":10533,"human":10534,"ĠFlore":10535,"Ġinsolent":10536,"Ġtrifle":10537,"Ġmantel":10538,"ĠChamp":10539,"Ġsleeves":10540,"Ġvagabonds":10541,"Ġshivering":10542,"Ġimprisoned":10543,"Ġexclamation":10544,"ĠlibertÃ©":10545,"ĠvoilÃł":10546,"elicite":10547,"Ġcarpenter":10548,"Ġmonoton":10549,"Ġpeuple":10550,"Ġnostrils":10551,"Ġoxygen":10552,"Ġbalcony":10553,"ĠFarnÃ¨se":10554,"Ant":10555,"Est":10556,"IR":10557,"ION":10558,"Mon":10559,"OW":10560,"VE":10561,"bons":10562,"book":10563,"eff":10564,"houses":10565,"iable":10566,"lom":10567,"mas":10568,"nis":10569,"pit":10570,"pro":10571,"rÃ©s":10572,"romp":10573,"tur":10574,"za":10575,"~.":10576,"Ġwench":10577,"hale":10578,"Ġcul":10579,"Ġdart":10580,"Ġdial":10581,"Ġfai":10582,"orial":10583,"Ġhood":10584,"lev":10585,"Ġgang":10586,"Ġbellow":10587,"Ġbefall":10588,"ico":10589,"ĠII":10590,"Ġdeuce":10591,"Ġriant":10592,"Ġstained":10593,"iless":10594,"Ġsaut":10595,"ifted":10596,"Ġshrew":10597,"Ġjaw":10598,"ĠCraven":10599,"Ġdoll":10600,"Ġunbearable":10601,"ĠPit":10602,"apers":10603,"Ġtrad":10604,"geons":10605,"ĠSam":10606,"ĠarchevÃªque":10607,"ĠBur":10608,"ĠBob":10609,"urning":10610,"ĠGood":10611,"ĠJock":10612,"Ġblade":10613,"Ġblushing":10614,"Ġclasping":10615,"Ġclapped":10616,"ĠEl":10617,"Ġcrut":10618,"Ġscor":10619,"Ġsermon":10620,"ignant":10621,"Ġflush":10622,"Ġpresume":10623,"Ġapplication":10624,"Ġnightfall":10625,"ĠWho":10626,"Ġhousekeeper":10627,"Ġmines":10628,"Ġrestore":10629,"Ġcharmed":10630,"ictier":10631,"Ġ!âĢ¦":10632,"lices":10633,"Ġemotions":10634,"Ġnatives":10635,"Ġsteward":10636,"Ġtrouve":10637,"Ġkinds":10638,"Ġrecovering":10639,"Ġdiscours":10640,"Ġaffl":10641,"Ġdetained":10642,"ĠJefferson":10643,"chamber":10644,"ĠdÃ©cl":10645,"ifices":10646,"Ġranks":10647,"Ġprovinces":10648,"Ġdriver":10649,"Ã®ner":10650,"Ġpalis":10651,"Ġvolu":10652,"Ġhasty":10653,"ernal":10654,"Ġconsiderably":10655,"ĠrÃ©pli":10656,"Ġdemande":10657,"Ġrapidement":10658,"Ġshades":10659,"Ġfairy":10660,"Ġdouze":10661,"Ġdecidedly":10662,"Ġenjoying":10663,"Ġvaried":10664,"verend":10665,"Ġclerks":10666,"Ġlodge":10667,"Ġfavourable":10668,"Ġ186":10669,"Ġchevalier":10670,"Ġfunny":10671,"Ġinjury":10672,"Ġprotested":10673,"Ġscrut":10674,"Ġrecollect":10675,"Ġentendit":10676,"cutta":10677,"Ġcavalier":10678,"Ġcopy":10679,"ĠBourgh":10680,"smith":10681,"Ġmanufacture":10682,"ĠreÃ§u":10683,"lisa":10684,"Ġperdre":10685,"Ġmelted":10686,"Ġmental":10687,"Ġgreeted":10688,"Ġembroidered":10689,"Ġdismissed":10690,"Ġtunnel":10691,"Ġdiplom":10692,"Ġecstasy":10693,"Ġayant":10694,"Ġintentions":10695,"ĠFerrante":10696,"ĠFlemish":10697,"Ġenchanted":10698,"Ġelephant":10699,"oubtedly":10700,"Ġpotatoes":10701,"Ġbureau":10702,"ĠAcadem":10703,"ĠGautier":10704,"Ġmanuscript":10705,"!âĪĴâĪĴ":10706,"Ay":10707,"Get":10708,"Hall":10709,"Mad":10710,"Pray":10711,"aime":10712,"aert":10713,"door":10714,"jali":10715,"oa":10716,"ogn":10717,"ration":10718,"tree":10719,"ua":10720,"vil":10721,"xter":10722,"Ġtar":10723,"Ġtack":10724,"Ġsack":10725,"ĠmÃ©c":10726,"Ġbun":10727,"Ġcli":10728,"Ġcert":10729,"Ġdus":10730,"onzo":10731,"Ġpav":10732,"Ġpump":10733,"Ġhint":10734,"Ġgid":10735,"Ġgames":10736,"Ġwhirl":10737,"eters":10738,"Ġdexter":10739,"Ġrules":10740,"Ġattain":10741,"Ġseed":10742,"amira":10743,"Ġanony":10744,"Ġvine":10745,"Ġvra":10746,"ĠMir":10747,"ifully":10748,"anta":10749,"liÃ¨re":10750,"liament":10751,"Ġfrail":10752,"Ġframed":10753,"neath":10754,"tez":10755,"ĠCay":10756,"ieuse":10757,"Ġnob":10758,"unition":10759,"unned":10760,"ĠPo":10761,"Ġtrim":10762,"Ġouter":10763,"ĠAbb":10764,"elt":10765,"ĠFarrag":10766,"Italie":10767,"ĠGlen":10768,"abouts":10769,"Ġbrute":10770,"Ġloaf":10771,"ĠJasmin":10772,"Ġusing":10773,"Ġchoc":10774,"Ġfoi":10775,"Ġhasn":10776,"Ġobten":10777,"ĠDorm":10778,"Ġbackwards":10779,"Ġscent":10780,"Ġjeunes":10781,"Ġaccur":10782,"class":10783,"Ġappart":10784,"hensible":10785,"Ġtelle":10786,"ĠVand":10787,"Ġhearty":10788,"Ġwrath":10789,"Ġairs":10790,"Ġdraught":10791,"Ġseafloor":10792,"Ġtales":10793,"Ġuncomfort":10794,"ucked":10795,"uben":10796,"vantage":10797,"Ġarriv":10798,"Ġfireplace":10799,"aternal":10800,"Ġprofile":10801,"ĠMahi":10802,"Ġelements":10803,"Ġapproved":10804,"Ġpettico":10805,"Ġterribly":10806,"Ġrelatives":10807,"Ġrises":10808,"Ġcorrupt":10809,"Ġextract":10810,"ĠÃ©g":10811,"Ġsatisfactory":10812,"Ġshutter":10813,"Ġballast":10814,"Ġbellringer":10815,"Ġimportun":10816,"Ġwondering":10817,"ĠNeuf":10818,"Ġsymb":10819,"Stop":10820,"ĠgÃ©nÃ©":10821,"Ġcruelly":10822,"Ġlieues":10823,"Ġheights":10824,"Ġconclude":10825,"Ġchests":10826,"Ġtreatment":10827,"Ġtenderly":10828,"Ġsurrounding":10829,"Ġdetermine":10830,"Ġbehaved":10831,"Ġcombined":10832,"Ġfaults":10833,"Ġjumping":10834,"Ġtemples":10835,"Ġvivre":10836,"Ġhedges":10837,"Ġfavorable":10838,"Exactly":10839,"Ġencouraging":10840,"Ġpoetry":10841,"ĠprÃ©cip":10842,"Ġstuffed":10843,"Ġswelling":10844,"Ġmasts":10845,"Ġroug":10846,"Ġepoch":10847,"Really":10848,"Ġeccles":10849,"iÃ¨res":10850,"Ġinexpress":10851,"ĠVirginia":10852,"Ġluxury":10853,"Ġnodded":10854,"vitably":10855,"ĠGregson":10856,"Ġobvious":10857,"Ġhypocris":10858,"Ġsergeants":10859,"Ġparalysed":10860,"Ġslopes":10861,"ĠCalcutta":10862,"Ġbewildered":10863,"Ġtastes":10864,"Ġbastion":10865,"Ġbrisk":10866,"Ġwiped":10867,"Ġtambour":10868,"Ġenergetic":10869,"Ġdetermination":10870,"Ġsympt":10871,"minded":10872,"Ġtherm":10873,"ĠFarragut":10874,"ĠMahiette":10875,"\"âĢĻ":10876,"50":10877,"Imp":10878,"Lady":10879,"OS":10880,"Rem":10881,"Son":10882,"Tom":10883,"ially":10884,"ieth":10885,"iards":10886,"ipping":10887,"mous":10888,"munition":10889,"raint":10890,"sen":10891,"such":10892,"Ġted":10893,"Ġtid":10894,"Ġtyr":10895,"Ġtax":10896,"Ġwo":10897,"reland":10898,"Ġom":10899,"ĠmÃ©r":10900,"itaire":10901,"Ġbowing":10902,"Ġdagger":10903,"Ġfert":10904,"Ġpots":10905,"Ġpiles":10906,"arc":10907,"arte":10908,"arante":10909,"ĠnÃ©c":10910,"Ġinit":10911,"Ġinquis":10912,"atisf":10913,"omÃ©ne":10914,"Ġgaping":10915,"ication":10916,"ĠIreland":10917,"lder":10918,"etta":10919,"quar":10920,"Ġforte":10921,"Ġrac":10922,"Ġracon":10923,"Ġnotions":10924,"Ġstooped":10925,"aines":10926,"peak":10927,"Ġshove":10928,"Ġshift":10929,"Ġallez":10930,"ulent":10931,"iend":10932,"Ġalert":10933,"aporte":10934,"umption":10935,"Ġagents":10936,"Ġamorous":10937,"Ġammunition":10938,"ĠHonour":10939,"Ġbrows":10940,"Ġloge":10941,"Ġimbec":10942,"Ġchurches":10943,"Ġbluish":10944,"weed":10945,"Ġchart":10946,"ĠEast":10947,"Ġhowling":10948,"Ġbackground":10949,"Ã¨le":10950,"Ġjewel":10951,"Ġaccommod":10952,"Ġglowing":10953,"Ġconsole":10954,".'\"":10955,"Ġpourtant":10956,"Ġpourquoi":10957,"Ġcourts":10958,"ĠWith":10959,"sels":10960,"Ġaug":10961,"Ġmaybe":10962,"Ġkneeling":10963,"Nobody":10964,"gging":10965,"Ġearn":10966,"Ġchanced":10967,"Ġrefresh":10968,"Ġesprit":10969,"Ġstrewn":10970,"Ġengage":10971,"Ġslate":10972,"Ġslack":10973,"aze":10974,"azed":10975,"Ġsket":10976,"Ġreadiness":10977,"Ġrecently":10978,"Ġgenre":10979,"useum":10980,"Ġtrouv":10981,"Ġgrandfather":10982,"Ġdispar":10983,"Ġdispose":10984,"Ġelev":10985,"Ġoblige":10986,"Ġdeadly":10987,"Ġearthqu":10988,"Ġconvince":10989,"Ġdespise":10990,"Ġcattle":10991,"Ġdiving":10992,"Ġsalary":10993,"Ġ23":10994,"ĠrÃ©ellement":10995,"Ġeffectually":10996,"Ġwonderfully":10997,"ĠReform":10998,"ĠpiÃ¨":10999,"Ġferoc":11000,"Ġbreathless":11001,"ĠidÃ©es":11002,"fortunately":11003,"Ġcrept":11004,"Ġinterruption":11005,"Ġsonge":11006,"ĠIndians":11007,"Ġflattered":11008,"ART":11009,"Ġlodgings":11010,"Ġsmoked":11011,"Grimaud":11012,"Ġattacks":11013,"aurais":11014,"Ġphilosoph":11015,"Ġchatting":11016,"Ġbordered":11017,"Ġpanels":11018,"Ġstores":11019,"ĠEtats":11020,"Ġpickax":11021,"ENT":11022,"Ġquitter":11023,"Ġscholars":11024,"Ġribs":11025,"Ġlanterns":11026,"Ġsplit":11027,"Ġtreasures":11028,"Ġinevitably":11029,"Ġmultitude":11030,"Professor":11031,"ĠGrÃ©goires":11032,"Ġmantle":11033,"Ġmurderer":11034,"Ġblazing":11035,"ĠPhilip":11036,"ĠWhite":11037,"Ġaltar":11038,"Ġshillings":11039,"Ġtransparent":11040,"Ġcetacean":11041,"Ġguineas":11042,"Presently":11043,"Ġnineteen":11044,"Ġriveted":11045,"Ġclergyman":11046,"Ã¤uben":11047,"Ġlocomot":11048,"Ġmonotonous":11049,"Ġshrewd":11050,"ĠnÃ©cess":11051,"\";":11052,"Nay":11053,"RIS":11054,"aÃ®t":11055,"croft":11056,"dles":11057,"faced":11058,"jets":11059,"uity":11060,"wreck":11061,"Ġtame":11062,"Ġaust":11063,"Ġache":11064,"ĠaussitÃ´t":11065,"Ġsomme":11066,"Ġwoo":11067,"Ġwits":11068,"Ġore":11069,"ero":11070,"eration":11071,"Ġmu":11072,"Ġbri":11073,"Ġbounds":11074,"Ġped":11075,"Ġpense":11076,"ĠpÃ»t":11077,"Ġpouss":11078,"arvan":11079,"anne":11080,"Ġnu":11081,"athed":11082,"omas":11083,"icar":11084,"uting":11085,"seven":11086,"Ġwasted":11087,"vels":11088,"Ġyawn":11089,"Ġumbre":11090,"irty":11091,"quels":11092,"acit":11093,"rial":11094,"illÃ©":11095,"Ġviz":11096,"ĠMess":11097,"Ġquitting":11098,"Ġsod":11099,"Ġsovere":11100,"agged":11101,"Ġsullen":11102,"liver":11103,"Ġconquer":11104,"necess":11105,"Ġalle":11106,"Ġalley":11107,"Ġlazy":11108,"ĠCes":11109,"Ġwheat":11110,"ieres":11111,"Ġlip":11112,"olic":11113,"Ġunin":11114,"Ġmanagement":11115,"Ġmankind":11116,"ĠPal":11117,"assad":11118,"ĠBill":11119,"Ġaground":11120,"Ġamie":11121,"ĠHare":11122,"Ġmoindre":11123,"ĠGonzo":11124,"Ġgrating":11125,"Ġbru":11126,"Ġdissip":11127,"Ġchron":11128,"Ġpassport":11129,"Ġpeep":11130,"ĠElisa":11131,"onsign":11132,"Ġfiring":11133,"ĠDeneulin":11134,"Ġoffers":11135,"Ġunderneath":11136,"Ġimpre":11137,"Ġimpet":11138,"Ã¨te":11139,"ĠTor":11140,"ignait":11141,"Ġseeming":11142,"Ġconspir":11143,"Ġtendre":11144,"ization":11145,"perhaps":11146,"Ġauquel":11147,"Ãªcher":11148,"Ġcommenc":11149,"Ġcharity":11150,"Ġdrown":11151,"Ġtrem":11152,"Ġcurt":11153,"Ġcurled":11154,"Ġinsign":11155,"Ġinsuff":11156,"ĠON":11157,"ĠOui":11158,"aughter":11159,"Ġcoloured":11160,"Ġdiscern":11161,"Ġdiscomfort":11162,"Ġswearing":11163,"Ġsweeping":11164,"Ġpresenting":11165,"Ã¢che":11166,"Ġpetrified":11167,"Ġcenter":11168,"Ġnecessarily":11169,"Ġcausing":11170,"Ġprovision":11171,"Ġmademoiselle":11172,"Ġfifteenth":11173,"Ġfrighten":11174,"Ã©nore":11175,"Ġtransl":11176,"Ġmalheure":11177,"Ġpainfully":11178,"Ġsettling":11179,"Ġvolunt":11180,"ĠRochefort":11181,"elson":11182,"ĠrÃ©ve":11183,"Ġsupernatural":11184,"Ġverse":11185,"Ġattempting":11186,"Ġhabitual":11187,"Ġdeclaring":11188,"ĠInch":11189,"Ġwhiskers":11190,"ĠMontmorency":11191,"Ġwitch":11192,"Ġcolliers":11193,"Ġpillar":11194,"ambled":11195,"Ġstarving":11196,"Ġchiefly":11197,"Ġdares":11198,"ĠBrulÃ©":11199,"Ġcurios":11200,"Ġroughly":11201,"looked":11202,"Ġcruelty":11203,"Ġchimneys":11204,"Ġreports":11205,"Ġcommunicate":11206,"william":11207,"ĠUnivers":11208,"Ġdisgusted":11209,"Ġbullets":11210,"Ġvegetables":11211,"ĠprÃ©cis":11212,"Ġhypothes":11213,"ĠJupiter":11214,"Ġobscurity":11215,"Ġcontemplation":11216,"Ġinspire":11217,"ĠAbbe":11218,"Ġcowardly":11219,"Ġornament":11220,"Ġgathering":11221,"Ġwhiteness":11222,"Ġhospital":11223,"Ġdilig":11224,"Ġresemble":11225,"Ġobviously":11226,"Ġaxe":11227,"Ġcomplaints":11228,"Ġingenious":11229,"Ġfishermen":11230,"ĠVenice":11231,"Ġreddish":11232,"Ġenraged":11233,"Ġkilometres":11234,"Ġenterprise":11235,"Ġcotton":11236,"Ġzeal":11237,"Ġcomplicated":11238,"Ġintrigue":11239,"ĠFitzwilliam":11240,"Ġluggage":11241,"Ġunwilling":11242,"Ġrapport":11243,"Ġuproar":11244,"ĠGlenarvan":11245,"ĠDormouse":11246,"Ġhypocrisy":11247,"AU":11248,"DE":11249,"Dr":11250,"GH":11251,"IL":11252,"Night":11253,"Sa":11254,"Six":11255,"aj":11256,"ciously":11257,"ear":11258,"eches":11259,"eenth":11260,"giving":11261,"lor":11262,"phan":11263,"son":11264,"tles":11265,"uil":11266,"vre":11267,"ĠtÃ©m":11268,"Ġapt":11269,"erait":11270,"Ġber":11271,"Ġcages":11272,"Ġfurent":11273,"Ġlion":11274,"escri":11275,"oric":11276,"llies":11277,"Ġnets":11278,"Ġhal":11279,"lever":11280,"Ġbeacon":11281,"oting":11282,"veux":11283,"velled":11284,"Ġthrill":11285,"Ġdece":11286,"Ġraven":11287,"Ġatte":11288,"ilion":11289,"Ġsealed":11290,"oos":11291,"Ġsore":11292,"Ġlege":11293,"andom":11294,"ousse":11295,"Ġconver":11296,"Ġbutcher":11297,"ĠCome":11298,"emb":11299,"arthen":11300,"ĠPorte":11301,"aph":11302,"assass":11303,"ĠSur":11304,"ĠSout":11305,"ĠSouvarine":11306,"idel":11307,"ĠBat":11308,"ĠBesides":11309,"ĠBinet":11310,"Ġaren":11311,"Ġample":11312,"ĠHors":11313,"ĠHoly":11314,"ĠHurst":11315,"Ġpond":11316,"Ġchois":11317,"Ġperman":11318,"Ġblast":11319,"Ġpeak":11320,"Ġresounded":11321,"Ġparadise":11322,"Ġimpart":11323,"Ġentrer":11324,"Ġavail":11325,"closed":11326,"Ġflaming":11327,"lands":11328,"Ġsonorous":11329,"ĠÃ©tab":11330,"Ġputter":11331,"retÃ©":11332,"trees":11333,"renched":11334,"Ġcheap":11335,"Ãªtes":11336,"Ãªta":11337,"ĠVoil":11338,"cible":11339,"Ġpleases":11340,"Ġearned":11341,"Ġacute":11342,"Ġcontinuous":11343,"Ġdram":11344,"Ġrights":11345,"Ġskirt":11346,"Ġrecord":11347,"Ġcolours":11348,"Ġcaptains":11349,"Ġmaids":11350,"amples":11351,"Ġdreary":11352,"Ġladen":11353,"Ġpromont":11354,"Ġillusion":11355,"ĠMaigrat":11356,"ĠThese":11357,"chand":11358,"ifications":11359,"Ġterrif":11360,"Ġoppressed":11361,"Ġautant":11362,"Ġdroit":11363,"Ġshipwreck":11364,"cerine":11365,"Ġinvari":11366,"Ġregardant":11367,"Ġforgiven":11368,"Ġsecretary":11369,"Ġedifices":11370,"Ġvisiting":11371,"Ġempoison":11372,"Ġdouce":11373,"Ġsuperst":11374,"Ġmurmuring":11375,"Ġattempts":11376,"Ġfera":11377,"Ġcomfortably":11378,"ĠMaheus":11379,"Ġdespairing":11380,"horse":11381,"Ġstirring":11382,"Ġagreement":11383,"Ġchoking":11384,"Ġlocks":11385,"Ġblinded":11386,"Ġbitterly":11387,"affaire":11388,"Ġintroduction":11389,"Ġmirac":11390,"acca":11391,"Ġtortured":11392,"Ġoneself":11393,"Ġretreated":11394,"Ġlungs":11395,"Ġrarely":11396,"Ġexplanations":11397,"Ġcontinuing":11398,"ĠAltamira":11399,"ĠEdward":11400,"ĠAugustin":11401,"Ġgendarme":11402,"Ġobstinacy":11403,"Ġsparkled":11404,"Ġribbons":11405,"ĠXIV":11406,"ĠvÃ©ritable":11407,"ĠAustral":11408,"Ġradiant":11409,"Ġchecked":11410,"Ġsuggestion":11411,"Ġdeveloped":11412,"Ġinsolence":11413,"Ġvoulez":11414,"Ġhospit":11415,"Ġsleeve":11416,"Ġfainting":11417,"Ġestablishment":11418,"Ġhauteur":11419,"Ġfiacre":11420,"Ġglittering":11421,"Ġpromenade":11422,"ĠcommenÃ§ait":11423,"Ġpromptly":11424,"Ġprimitive":11425,"Ġmanifest":11426,"Ġintoxicated":11427,"Ġcoffin":11428,"Ġcassock":11429,"Ġriches":11430,"Ġdisguise":11431,"Ġindispens":11432,"Ġphysiogn":11433,"IEU":11434,"Ġaverage":11435,"meme":11436,"Ġshattered":11437,"Ġzoophy":11438,"ĠCaylus":11439,"ĠUniversity":11440,"Ag":11441,"Dep":11442,"Far":11443,"hil":11444,"hole":11445,"iation":11446,"kor":11447,"lest":11448,"mell":11449,"mment":11450,"power":11451,"rate":11452,"uated":11453,"ucha":11454,"wick":11455,"Ġ--":11456,"enir":11457,"Ġcy":11458,"ednes":11459,"Ġfiss":11460,"Ġlime":11461,"Ġpipes":11462,"anse":11463,"Ġhaunted":11464,"Ġthri":11465,"Ġwhims":11466,"Ġdegr":11467,"quins":11468,"aying":11469,"Ġroses":11470,"Ġrandom":11471,"Ġstakes":11472,"Ġherd":11473,"ilful":11474,"rium":11475,"Ġvas":11476,"Ġvite":11477,"ĠMother":11478,"ĠMlle":11479,"ifting":11480,"Ġsoaked":11481,"arded":11482,"Ġallons":11483,"Ġjadis":11484,"ĠCast":11485,"ĠCel":11486,"ĠCath":11487,"Ġdois":11488,"Ġunnecess":11489,"Ġplut":11490,"Ġmaneu":11491,"inders":11492,"ĠPen":11493,"ĠPoint":11494,"Ġtrusted":11495,"Ġtricks":11496,"umble":11497,"Ġoutcast":11498,"ĠSav":11499,"Ġtwink":11500,"Ġprostr":11501,"urns":11502,"Ġspin":11503,"Ġsomehow":11504,"Ġoverboard":11505,"Ġbond":11506,"Ġnowhere":11507,"Ġpassers":11508,"Ġcompet":11509,"Ġchap":11510,"Ġclatter":11511,"Ġclums":11512,"coats":11513,"ĠDame":11514,"Ġcrush":11515,"Ġaccum":11516,"Ġaccuse":11517,"lley":11518,"lessness":11519,"ĠWood":11520,"ĠVern":11521,"Ġinstalled":11522,"Ġterm":11523,"Ġterrest":11524,"Ġwrit":11525,"Ġrestait":11526,"Ġwaterways":11527,"Ġconfounded":11528,"ictions":11529,"ĠMarquise":11530,"Ġinternal":11531,"aneously":11532,"Ġreaders":11533,"Ġrecru":11534,"Ġcoloss":11535,"Ġcarelessly":11536,"ĠLapp":11537,"Ġtenir":11538,"Ġsailed":11539,"Ġsailing":11540,"Ġwarmed":11541,"Ġpromising":11542,"Ġlowest":11543,"Ġsunlight":11544,"Ġjokes":11545,"Leon":11546,"Ġgenerosity":11547,"Ġrisked":11548,"Ġseverity":11549,"Ġprovince":11550,"Ġeffaced":11551,"Ġarrows":11552,"Ġdespised":11553,"Ġsaloon":11554,"Ġfixing":11555,"ĠLefr":11556,"Ġstudent":11557,"Ġconceive":11558,"Ġposte":11559,"Ġprecise":11560,"Ġsuccessful":11561,"Ġgardener":11562,"ĠtuÃ©":11563,"Ġtuft":11564,"rillo":11565,"Ġschoolroom":11566,"obin":11567,"Ã©gl":11568,"Ġsettlements":11569,"onnement":11570,"Ġhorribly":11571,"ĠparlÃ©":11572,"iscal":11573,"Ġsenior":11574,"Ġwisdom":11575,"Ġvirtuous":11576,"Ġinjured":11577,"Dear":11578,"Ġmirror":11579,"Ġharmony":11580,"Ġdefence":11581,"AND":11582,"Ġhurriedly":11583,"ĠRoddy":11584,"Ġprojects":11585,"Ġturtle":11586,"Ġswallow":11587,"Ġmethods":11588,"Ġwitnessed":11589,"Ġessence":11590,"Ġtimidly":11591,"Ġtraits":11592,"ĠPhill":11593,"Ġheroic":11594,"Ġconcert":11595,"Ġavenge":11596,"Ġcorrespondence":11597,"Ġdazzled":11598,"Ġscruple":11599,"Ġafforded":11600,"Ġsports":11601,"Ġexplored":11602,"ĠGrianta":11603,"Ġforbidden":11604,"ĠsÃ©rieux":11605,"ĠJapanese":11606,"Ġexhaustion":11607,"Ġinherit":11608,"Ġdesirous":11609,"Ġdungeon":11610,"Ġenlarged":11611,"Ġresentment":11612,"ĠEmperor":11613,"Ġvehicle":11614,"Ġbalustrade":11615,"Ġsubmerged":11616,"Ġpalisade":11617,"Ġlocomotive":11618,"ednesday":11619,");":11620,"Bart":11621,"Cet":11622,"Fo":11623,"Mother":11624,"OL":11625,"Ob":11626,"bute":11627,"cote":11628,"des":11629,"down":11630,"east":11631,"faction":11632,"gro":11633,"gence":11634,"nent":11635,"pen":11636,"point":11637,"rite":11638,"rnest":11639,"vance":11640,"rehensible":11641,"Ġow":11642,"Ġoven":11643,"Ġoise":11644,"erted":11645,"Ġmamm":11646,"Ġborr":11647,"Ġfence":11648,"Ġfile":11649,"Ġfiscal":11650,"Ġlic":11651,"Ġpel":11652,"llor":11653,"aration":11654,"arling":11655,"arming":11656,"Ġhoof":11657,"Ġgale":11658,"Ġghast":11659,"Ġreleas":11660,"Ġdefic":11661,"qual":11662,"Ġraw":11663,"âĢĺ":11664,"Ġmeals":11665,"Ġsage":11666,"Ġfring":11667,"Ġfrown":11668,"ĠfranÃ§ais":11669,"Ġneuf":11670,"Ġallusion":11671,"Ġbutton":11672,"ĠCa":11673,"ieces":11674,"Ġenlight":11675,"Ġplaster":11676,"ĠPole":11677,"ĠPÃ´":11678,"ĠPalais":11679,"Ġtrail":11680,"Ġtheirs":11681,"ĠBy":11682,"Ġprin":11683,"Ġprais":11684,"Ġprinted":11685,"ĠLÃ©nore":11686,"Ġcoquet":11687,"Ġafresh":11688,"Ġchien":11689,"ĠNelson":11690,"oph":11691,"Ġboast":11692,"psies":11693,"Ġfolie":11694,"Ġfirs":11695,"Ġsurre":11696,"Ã©tr":11697,"oda":11698,"Ġstrained":11699,"Ġresources":11700,"anges":11701,"Ġimpot":11702,"Ġspending":11703,"Ġscales":11704,"Ġyoungest":11705,"Ġcapacity":11706,"ĠWednesday":11707,"oubt":11708,"Ġsupposition":11709,"Ġcounty":11710,"Ġmatt":11711,"Ġconfided":11712,"Ġrefusing":11713,"Ġtreacher":11714,"licit":11715,"alement":11716,"Ġcondam":11717,"Ġconduis":11718,"ĠOliver":11719,"Ġcolors":11720,"Ġtroupe":11721,"Ã©rÃ©":11722,"Ġtenait":11723,"Ġhonesty":11724,"Ġdiscreet":11725,"Ġlads":11726,"grams":11727,"Ġmists":11728,"Ġdetached":11729,"Ġbarren":11730,"Ã¢tre":11731,"Ġdecent":11732,"gnes":11733,"Ġholds":11734,"Ġportal":11735,"Ġembar":11736,"Ġinvaded":11737,"ecided":11738,"Ġrues":11739,"Ġsnare":11740,"Ġresolutions":11741,"ossess":11742,"Ġsquares":11743,"ĠrÃ©ponse":11744,"Ġdirectors":11745,"Ġshaded":11746,"Ġsuperin":11747,"Jehan":11748,"Ġposture":11749,"Ġoccasional":11750,"Ġsuccessive":11751,"Unfortunately":11752,"Ġlimits":11753,"Ġgravel":11754,"Åĵurs":11755,"âĢ¦.":11756,"Ġcommanded":11757,"ĠDuval":11758,"Ġspectre":11759,"Ġcollect":11760,"Ġfauteu":11761,"Ġbehalf":11762,"chants":11763,"Ġtongues":11764,"Ġattending":11765,"ĠNewgate":11766,"Ġstationed":11767,"Ġfacult":11768,"Ġgleams":11769,"Ġurgent":11770,"Ġmessieurs":11771,"ĠComment":11772,"Ġcalculation":11773,"Ġrevenir":11774,"Ġinstincts":11775,"ĠcÃ´tÃ©s":11776,"Ġmuddy":11777,"Ġhurrying":11778,"ĠGerv":11779,"Ġdeafening":11780,"ĠHowever":11781,"Ġscreaming":11782,"Ġsuperiority":11783,"Ġstatues":11784,"Ġenthusiastic":11785,"occasion":11786,"Ġdisappearance":11787,"ĠreÃ§ut":11788,"Ġterminated":11789,"Ġpolitely":11790,"Ġhenceforth":11791,"Ġcastaway":11792,"ĠScotch":11793,"ĠGovernment":11794,"ĠEstelle":11795,"Ġsingulier":11796,"ĠJustice":11797,"Ġimpertinent":11798,"Ġcommencement":11799,"Ġnewspaper":11800,"Ġresponsibility":11801,"ĠLucy":11802,"Ġoubli":11803,"Ġbaby":11804,"Ġennemis":11805,"Ġexhibited":11806,"Ġnursery":11807,"Ġprivilege":11808,"Ġcelebrated":11809,"Ġwardro":11810,"ĠBrazils":11811,"Ġmagnifique":11812,"Ġilluminated":11813,"Ġinjustice":11814,"Ġsyllable":11815,"Ġcinquante":11816,"Ġashore":11817,"Ġtribun":11818,"ĠrÃ´le":11819,"Ġpolicem":11820,"Ġhurricane":11821,"Ġunlucky":11822,"Ġseminar":11823,"Ġgibbet":11824,"Ġlandscape":11825,"Ġtedious":11826,"Ġmalheureuse":11827,"Ġindispensable":11828,"ĠLefrancois":11829,"Ã©glise":11830,",âĢĻ":11831,"30":11832,"Bel":11833,"Camille":11834,"Dieu":11835,"EC":11836,"IV":11837,"ST":11838,"Time":11839,"aith":11840,"bu":11841,"bur":11842,"chard":11843,"dened":11844,"hot":11845,"lais":11846,"lings":11847,"look":11848,"oici":11849,"rd":11850,"tte":11851,"ties":11852,"uel":11853,"uced":11854,"vreuse":11855,"wels":11856,"ĠsÃ©par":11857,"Ġwaking":11858,"Ġbons":11859,"isÃ©":11860,"enetr":11861,"Ġcacher":11862,"Ġdancer":11863,"Ġfren":11864,"onor":11865,"ĠlÃ©":11866,"Ġlame":11867,"Ġlump":11868,"Ġpare":11869,"Ġpenny":11870,"este":11871,"Ġhust":11872,"ĠhÃ¢":11873,"Ġhips":11874,"Ġnarw":11875,"Ġinch":11876,"Ġhath":11877,"Ġgam":11878,"ĠIII":11879,"semble":11880,"entine":11881,"Ġrevel":11882,"Ġdeed":11883,"alted":11884,"Ġriv":11885,"Ġrowing":11886,"ilitÃ©":11887,"amps":11888,"Ġmeille":11889,"Ġmember":11890,"Ġsab":11891,"Ġvirgin":11892,"ĠMo":11893,"ĠMor":11894,"ago":11895,"aller":11896,"Ġlire":11897,"Ġabre":11898,"ĠFal":11899,"aug":11900,"ĠamitiÃ©":11901,"ĠHay":11902,"urnal":11903,"Ġgrapes":11904,"Ġspasm":11905,"avo":11906,"Ġoverheard":11907,"cheon":11908,"Ġbliss":11909,"Ġprend":11910,"Ġpere":11911,"Ġchambers":11912,"Ġfollies":11913,"ĠDum":11914,"ĠDown":11915,"Ġress":11916,"Ġvoid":11917,"Ġimposed":11918,"Ġexpanse":11919,"ĠTown":11920,"ĠTwo":11921,"Ġfounded":11922,"Ġjustified":11923,"ĠconsÃ©qu":11924,"Ġtearing":11925,"Ġputs":11926,"Ġpours":11927,"Ġcourut":11928,"Ġowned":11929,"Ġcheveux":11930,"ĠVolt":11931,"Ġharder":11932,"Ġhappening":11933,"Ġhappiest":11934,"Ġmini":11935,"Ġcharms":11936,"Ġdevils":11937,"Ġconfl":11938,"Ġguest":11939,"Ġcurse":11940,"Ġcurls":11941,"Ġarriva":11942,"Ġdoubtful":11943,"ĠOld":11944,"Ġbrood":11945,"ĠFranÃ§ais":11946,"Ġmiscar":11947,"Ġsecre":11948,"Ġaffaires":11949,"Ã§ait":11950,"Ġseconde":11951,"Ġbury":11952,"Ġjoining":11953,"ĠdÃ©gu":11954,"ĠdÃ©mar":11955,"Ġviolet":11956,"ĠRoad":11957,"Ġcentimes":11958,"Ġcaf":11959,"Ġutens":11960,"Notre":11961,"Ġopposed":11962,"Ġcloset":11963,"Ġportait":11964,"Ġquarre":11965,"shton":11966,"Ġrespects":11967,"Ġrespectful":11968,"ĠClub":11969,"ĠChines":11970,"Ġtransform":11971,"Ġmalad":11972,"Ġmalade":11973,"Ġdiable":11974,"Ġpainting":11975,"Ġpalp":11976,"Ġprett":11977,"Ġsalvation":11978,"Ġfloat":11979,"Ġ22":11980,"Ġreflecting":11981,"Ġstripped":11982,"ussac":11983,"ĠAlzire":11984,"Ġrevint":11985,"Ġrevoir":11986,"Ġmassive":11987,"Ġcomplained":11988,"Ġfurnaces":11989,"Ġcrop":11990,"Ġsubjected":11991,"Ġtuer":11992,"Ġschoolboy":11993,"Ġpenit":11994,"Ġdescendre":11995,"Ġdeclined":11996,"Ġspoiled":11997,"Ġslipping":11998,"Ġsolely":11999,"Ġcherchait":12000,"Ġprayed":12001,"Ġabsolument":12002,"Ġpuisque":12003,"Ġsandy":12004,"Ġmedical":12005,"ĠVergy":12006,"Ġdimensions":12007,"Ġmeasuring":12008,"Ġtroubling":12009,"Ġmontagnes":12010,"Ġdiscussing":12011,"Ġaudacity":12012,"Ġwaved":12013,"Ġgrandeur":12014,"Ġwander":12015,"Ġconnais":12016,"Ġdefy":12017,"ĠChevreuse":12018,"Ġstupidity":12019,"Ġprojected":12020,"Ġcondemn":12021,"Ġmixture":12022,"Ġdetected":12023,"Ġgallantry":12024,"Ġstifling":12025,"Ġfalsehood":12026,"Ġinvented":12027,"Ġgaining":12028,"Ġparcel":12029,"humoured":12030,"Ġvapour":12031,"Ġavenue":12032,"Ġfrankness":12033,"Ġbenefact":12034,"Ġdemonstr":12035,"Ġlaunch":12036,"Ġluxur":12037,"Ġneglect":12038,"***,":12039,"Ġtightly":12040,"Ġesteemed":12041,"Adieu":12042,"Ġcigar":12043,"ĠScotland":12044,"ĠPierronne":12045,"Ġrudder":12046,"Ġtestim":12047,"Ġreefs":12048,"Ġhauled":12049,"enfant":12050,"Ġcautious":12051,"Prudence":12052,"Ġindependent":12053,"Ġinvoluntary":12054,"Ġmoustache":12055,"Ġexhib":12056,"Ġazure":12057,"ĠDansaert":12058,"Ġforesaw":12059,"ĠsÃ»r":12060,"Ġinvalid":12061,"Ġhorizontal":12062,"Ġunaccountable":12063,"Ġrepugnance":12064,"ĠVandame":12065,"Ġuncomfortable":12066,"Ġsymbol":12067,"Ġthermometer":12068,"Ġsovereign":12069,"onsignore":12070,"ĠHorscroft":12071,"uchart":12072,"ĠPhillips":12073,"Ġghastly":12074,"ĠChinese":12075,"!âĢĿ":12076,"AY":12077,"Bar":12078,"Doubt":12079,"John":12080,"Say":12081,"Supp":12082,"aver":12083,"cour":12084,"cuse":12085,"found":12086,"iate":12087,"lain":12088,"rors":12089,"than":12090,"ulf":12091,"uals":12092,"vie":12093,"vial":12094,"vonne":12095,"wife":12096,"Ġaqu":12097,"Ġalike":12098,"ĠsÃ©":12099,"Ġsigne":12100,"Ġolive":12101,"ĠmÃª":12102,"Ġmask":12103,"Ġmama":12104,"Ġbath":12105,"enait":12106,"Ġfri":12107,"esque":12108,"orus":12109,"Ġhind":12110,"Ġheaped":12111,"Ġheaved":12112,"Ġnin":12113,"Ġnit":12114,"Ġnave":12115,"Ġhaine":12116,"Ġgir":12117,"Ġgait":12118,"Ġgross":12119,"irait":12120,"Ġdeem":12121,"Ġrational":12122,"Ġnoticing":12123,"Ġstature":12124,"Ġanaly":12125,"kered":12126,"ĠMand":12127,"oole":12128,"Ġsoin":12129,"user":12130,"agit":12131,"Ġconster":12132,"Ġjun":12133,"Ġjug":12134,"Ġexalted":12135,"Ġkid":12136,"Ġkick":12137,"osph":12138,"ulously":12139,"Ġnovice":12140,"Ġdock":12141,"ersed":12142,"Ġorchard":12143,"Ġpled":12144,"Ġplot":12145,"ĠPres":12146,"ĠPap":12147,"ĠPaul":12148,"ĠPoole":12149,"urez":12150,"Ġabdu":12151,"Ġtract":12152,"ĠST":12153,"ĠSmith":12154,"ĠSacca":12155,"igo":12156,"ĠBulgar":12157,"ĠLis":12158,"Ġambit":12159,"abble":12160,"Ġbraz":12161,"lored":12162,"Ġperished":12163,"Ġperched":12164,"raft":12165,"Ġfolle":12166,"Ġduc":12167,"ĠDid":12168,"Ġundergo":12169,"acht":12170,"Ġparle":12171,"Ġvoit":12172,"Ġvocation":12173,"Ã¨ge":12174,"Ġscound":12175,"Ġscrew":12176,"Ġsmashed":12177,"Ġjewels":12178,"Ġmonument":12179,"Ġsets":12180,"Ġendured":12181,"Ġendowed":12182,"Ġtext":12183,"Ġapple":12184,"Ġcours":12185,"ĠWhere":12186,"ĠVict":12187,"Ġdoorway":12188,"Ġattic":12189,"Ġrester":12190,"fectly":12191,"Ġcontinents":12192,"these":12193,"cession":12194,"ĠGrÃ¤uben":12195,"Ġinduce":12196,"Ġjourn":12197,"servant":12198,"Ġtenant":12199,"aterp":12200,"Ġbarred":12201,"Ã¢mes":12202,"Ġjolie":12203,"Ġjolly":12204,"Ġduchess":12205,"Ġcaressing":12206,"Ġmerchants":12207,"Ġrelax":12208,"Ġdifficile":12209,"Ġbuff":12210,"Ġmadman":12211,"Ġsnails":12212,"ĠItaly":12213,"Ġrequested":12214,"eyed":12215,"Ġthickness":12216,"Ġposted":12217,"ĠCoictier":12218,"Ġventuring":12219,"Ġtube":12220,"Ġferme":12221,"Ġundressed":12222,"Ġpremiers":12223,"Ġsavez":12224,"Ġcherished":12225,"Ġmedicine":12226,"Ġodds":12227,"Ġclassroom":12228,"Ġrelieve":12229,"Ġreproached":12230,"Ġbilliard":12231,"Ġparlant":12232,"Ġshocks":12233,"Ġ181":12234,"Ġprofoundly":12235,"Ġknocking":12236,"Ġtropical":12237,"Ġenvy":12238,"Ġpolitique":12239,"Ġhistor":12240,"Ġfatigued":12241,"Ġurch":12242,"Ġgarn":12243,"Ġsingularly":12244,"Ġnouvelles":12245,"accord":12246,"Ġbowels":12247,"ĠministÃ¨re":12248,"ĠRodney":12249,"Ġresembling":12250,"Ġcontinua":12251,"Ġinnocence":12252,"Ġplein":12253,"Ġencourage":12254,"Ġcooked":12255,"ĠespÃ©r":12256,"Ġdazed":12257,"Ġseventeen":12258,"ĠfenÃªtres":12259,"ĠprofondÃ©ment":12260,"ĠMouque":12261,"Jeanlin":12262,"Ġcontemplated":12263,"Ġelderly":12264,"Ġwealthy":12265,"Ġindignant":12266,"Ġvapor":12267,"ĠBeauv":12268,"ĠFrancisco":12269,"Ġporch":12270,"Ġlacking":12271,"Ġshuddering":12272,"Ġfrankly":12273,"Ġtimbering":12274,"Speedy":12275,"Ġshroud":12276,"Ġwhispering":12277,"Ġapprehension":12278,"Ġgentleness":12279,"Ġoaths":12280,"Ġerrand":12281,"True":12282,"Ġweighing":12283,"Ġimplac":12284,"Ġtormented":12285,"Ġconsulting":12286,"Ġdevenu":12287,"Ġconcentrated":12288,"Ġpersec":12289,"ĠÃ©tonnÃ©":12290,"Ġdessert":12291,"Ġoutlined":12292,"Ġpoignard":12293,"Ġimpressions":12294,"Ġsourire":12295,"Ġwicket":12296,"Ġobedience":12297,"Ġoyster":12298,"Ġproblem":12299,"Ġabbess":12300,"Ġaccomplice":12301,"Twice":12302,"ĠRichmond":12303,"Ġsubdued":12304,"Ġtragic":12305,"Ġintrigues":12306,"Ġantechamber":12307,"Ġpyram":12308,"ĠBalloon":12309,"Ġcushion":12310,"Ġtragedy":12311,"ĠBurgund":12312,"ĠrÃ©pliqua":12313,"Ġanonymous":12314,"Ġinexpressible":12315,"Tomorrow":12316,"Ġearthquake":12317,"Ġterrestrial":12318,"Ġabreast":12319,"Aouda":12320,"Gu":12321,"Hush":12322,"Louis":12323,"Most":12324,"Till":12325,"bish":12326,"dre":12327,"ek":12328,"fou":12329,"fig":12330,"fold":12331,"gown":12332,"give":12333,"gement":12334,"ipt":12335,"lit":12336,"lÃ©e":12337,"mat":12338,"oque":12339,"tled":12340,"uart":12341,"uper":12342,"viz":12343,"Ġ0":12344,"Ġtab":12345,"Ġtips":12346,"Ġtumbled":12347,"inqu":12348,"ĠsÃ©v":12349,"Ġtheories":12350,"Ġwives":12351,"Ġmason":12352,"itors":12353,"Ġbother":12354,"Ġbask":12355,"ĠcÃ©":12356,"ĠdÃ®ner":12357,"Ġlined":12358,"ingle":12359,"ington":12360,"Ġnim":12361,"aters":12362,"ombe":12363,"Ġgroom":12364,"sey":12365,"Ġrecess":12366,"ston":12367,"Ġonze":12368,"iration":12369,"Ġrire":12370,"Ġstunned":12371,"Ã©ter":12372,"Ġseren":12373,"amitiÃ©":12374,"Ġanec":12375,"illot":12376,"ĠMade":12377,"ĠMars":12378,"usage":12379,"Ġlee":12380,"Ġleap":12381,"oresc":12382,"andy":12383,"anth":12384,"Ġfrantic":12385,"Ġjardin":12386,"Ġexem":12387,"osier":12388,"Ġorphan":12389,"Ġunworthy":12390,"Ġplum":12391,"akers":12392,"elled":12393,"ĠAges":12394,"Ġworried":12395,"ĠprÃ©par":12396,"Ġarea":12397,"ĠLea":12398,"ĠLaporte":12399,"ĠFOR":12400,"Ġprose":12401,"Ġcocher":12402,"ĠHannah":12403,"ĠHippolyte":12404,"ĠGrillo":12405,"Ġspoon":12406,"Ġsparks":12407,"loc":12408,"Ġknotted":12409,"Ġchoir":12410,"Ġboiled":12411,"Ġcanoes":12412,"Ġchast":12413,"Ġclaimed":12414,"Ġclaws":12415,"ĠDep":12416,"ĠentiÃ¨re":12417,"Ġbegg":12418,"Ġbegging":12419,"Ġserais":12420,"ignÃ©":12421,"Ġsmart":12422,"Ġglac":12423,"Ġglare":12424,"Ġhappier":12425,"Ġcommer":12426,"Ass":12427,"Ġdevice":12428,"Ġdevint":12429,"Ġrounds":12430,"Ġswung":12431,"Ġswinging":12432,"Ġ!'":12433,"ĠParsee":12434,"Ġuncomm":12435,"Ġcurve":12436,"aleen":12437,"Ġdepression":12438,"Ġouver":12439,"Ġfamille":12440,"Ġvisite":12441,"Ġsixteenth":12442,"ĠplacÃ©":12443,"amped":12444,"Ġirre":12445,"Ġsuffice":12446,"Ġmistr":12447,"Ġexciting":12448,"Ġelapsed":12449,"Ġmotives":12450,"Ġappropri":12451,"âĪĴâĪĴ\"":12452,"Ġrelating":12453,"Ġconstit":12454,"Ġquarrels":12455,"Ġresolve":12456,"should":12457,"ouvrir":12458,"ĠClaw":12459,"Ġtransm":12460,"Ġdipped":12461,"Ġmounting":12462,"Ġpatiently":12463,"Ġdestro":12464,"Ġpitied":12465,"Ġrequires":12466,"Ġshutting":12467,"eye":12468,",âĪĴâĪĴ\"":12469,"Ġsuccessively":12470,"Ġfancies":12471,"Ġnecks":12472,"ĠGuard":12473,"ĠNegro":12474,"Stay":12475,"ĠpensÃ©es":12476,"ĠvanitÃ©":12477,"Ġcreate":12478,"Ġsteamers":12479,"Ġfrequented":12480,"Ġchestnut":12481,"Ġprocured":12482,"Ġhonestly":12483,"Ġclasses":12484,"Ġaimed":12485,"Ġparla":12486,"Ġbehave":12487,"Ġattendant":12488,"Ġverses":12489,"ĠfaÃ§ade":12490,"Ġcampagne":12491,"Ġacquaintances":12492,"Ġjusque":12493,"Ġblessing":12494,"Ġgroan":12495,"Ġgracefully":12496,"Ġdefended":12497,"ichel":12498,"Ġinstinctively":12499,"Ġluncheon":12500,"Something":12501,"Ġmourir":12502,"Ġbouche":12503,"Ġfuel":12504,"Ġpoisoned":12505,"Ġarchitect":12506,"Ġdepends":12507,"ĠsoupÃ§":12508,"ĠmÃ©de":12509,"Ġstiffened":12510,"isphere":12511,"offic":12512,"Ġessay":12513,"Ġderived":12514,"Ġribbon":12515,"ĠderniÃ¨re":12516,"Ġcowardice":12517,"ĠIcelandic":12518,"Ġreplace":12519,"Ġmanufactured":12520,"elessly":12521,"Ġdistrust":12522,"Ġindicate":12523,"Ġassembly":12524,"colored":12525,"Ġgrosse":12526,"Ġdugong":12527,"Ġmeadows":12528,"ĠJustin":12529,"Ġcups":12530,"Ġsergeant":12531,"Ġsentinel":12532,"ĠCorinth":12533,"Ġnewspapers":12534,"Ġswayed":12535,"Ġlatest":12536,"ĠpÃ¢le":12537,"ĠgeÃ´lier":12538,"Should":12539,"Ġequipment":12540,"Ġslippers":12541,"Ġsustained":12542,"Ġexterior":12543,"Ġimprovement":12544,"Ġpreoccupied":12545,"Ġexclaiming":12546,"atrick":12547,"ĠCarnatic":12548,"ĠMiddle":12549,"Ġtapestry":12550,"ĠChampion":12551,"Ġdusk":12552,"Ġfertile":12553,"Ġforteresse":12554,"Ġunnecessary":12555,"Ġfauteuil":12556,"aterpillar":12557,"Ġanecd":12558,"',":12559,"._":12560,"Cons":12561,"Desp":12562,"Hum":12563,"Homais":12564,"LY":12565,"Long":12566,"ORE":12567,"Qui":12568,"Right":12569,"Rass":12570,"Tous":12571,"avery":12572,"bbed":12573,"dire":12574,"every":12575,"eep":12576,"fashion":12577,"mark":12578,"went":12579,"~!\"":12580,"Ġtint":12581,"inions":12582,"Ġwagon":12583,"erb":12584,"eral":12585,"ĠmÃ©t":12586,"isait":12587,"Ġcash":12588,"Ġfont":12589,"onner":12590,"Ġtops":12591,"Ġtooth":12592,"Ġpha":12593,"Ġpound":12594,"Ġpumps":12595,"orme":12596,"arg":12597,"Ġhosier":12598,"Ġheel":12599,"Ġnomm":12600,"Ġhay":12601,"Ġhaun":12602,"Ġhagg":12603,"Ġegot":12604,"Ġeastern":12605,"Ġgout":12606,"ica":12607,"icide":12608,"othe":12609,"vez":12610,"Ġult":12611,"lying":12612,"ettes":12613,"irg":12614,"Ġdeeds":12615,"Ġforge":12616,"Ġrice":12617,"Ġripp":12618,"Ġstag":12619,"Ġstab":12620,"Ġseigneur":12621,"amented":12622,"Ġvul":12623,"ĠMouse":12624,"ĠMongo":12625,"ĠMiller":12626,"Ġleva":12627,"anding":12628,"lio":12629,"outel":12630,"Ġconval":12631,"Ġcomedy":12632,"Ġshine":12633,"Ġshield":12634,"Ġshots":12635,"Ġshivered":12636,"Ġjol":12637,"Ġlawn":12638,"osa":12639,"ĠCraw":12640,"Ġnoises":12641,"ustible":12642,"ems":12643,"Ġorb":12644,"Ġmanquer":12645,"aprÃ¨s":12646,"Ġtrout":12647,"Ġtrump":12648,"ortable":12649,"Ġoutst":12650,"ĠSer":12651,"Ġarist":12652,"ĠBri":12653,"ĠBert":12654,"ĠLie":12655,"ĠFour":12656,"Ġproves":12657,"ĠHIS":12658,"ĠGl":12659,"ĠGen":12660,"Ġgrows":12661,"Ġgrotes":12662,"Ġgrotto":12663,"aison":12664,"avaient":12665,"Ġadieu":12666,"Ġadjo":12667,"Ġperdu":12668,"Ġblush":12669,"Ġchallen":12670,"ĠEnd":12671,"ĠEshton":12672,"ĠDent":12673,"ĠDess":12674,"Ġsurp":12675,"Ġunderground":12676,"Ġresource":12677,"Ġparap":12678,"Ġcrash":12679,"Ġimpenetr":12680,"Ġspell":12681,"Ġwatches":12682,"issime":12683,"Ġserving":12684,"Ġmarched":12685,"Ġaccost":12686,"Ġaccents":12687,"Ġaccursed":12688,"Ġjustly":12689,"Ġglancing":12690,"ĠÃ©tage":12691,"izes":12692,"Ġpouring":12693,"Ġcapture":12694,"Ġreturns":12695,"ĠVI":12696,"Ġsupple":12697,"Ġperspiration":12698,"ĠchargÃ©":12699,"Ġdevout":12700,"Ġdevast":12701,"ĠMaria":12702,"Ġinsulted":12703,"Ġinsupp":12704,"Ġindescri":12705,"uteur":12706,"Ġdites":12707,"Ã©rable":12708,"Ġmisunder":12709,"Ġdiscont":12710,"Ġdiscretion":12711,"Ġvend":12712,"Ġveille":12713,"ĠArab":12714,"Ġvieill":12715,"Ġillusions":12716,"toi":12717,"ĠStates":12718,"Ġbarrier":12719,"Ġbarrels":12720,"Ġcirconst":12721,"Ġjoking":12722,"Ġpolicy":12723,"ĠdÃ©fe":12724,"Ġapprove":12725,"Ġcentim":12726,"Ġoblique":12727,"Ġbony":12728,"Ġpropre":12729,"Ġanimation":12730,"Ġearthly":12731,"Ġconversations":12732,"Ġsnuff":12733,"shop":12734,"eaus":12735,"Ġbiting":12736,"Ġsprung":12737,"Ġvenu":12738,"Ġpatches":12739,"Ġpatients":12740,"ĠpitiÃ©":12741,"ogue":12742,"Alors":12743,"ĠrÃ©vol":12744,"Ġbellies":12745,"ugal":12746,"Ġdouleur":12747,"Ġcoasts":12748,"Ġtraveled":12749,"Ġtravelers":12750,"Ġdivide":12751,"Ġaccepting":12752,"Ġpermet":12753,"Chaval":12754,"Ġcomforted":12755,"Ġfaithfully":12756,"Ġadmiring":12757,"Ġpuiss":12758,"ĠInquis":12759,"Ġrenvoy":12760,"Ġ300":12761,"ĠLyons":12762,"Ġsurround":12763,"Ġcorde":12764,"ĠrÃ©pondre":12765,"Ġphilosophy":12766,"Ġcalculations":12767,"Ġbrigade":12768,"Ġsemblaient":12769,"Ġsickly":12770,"Ġpauvres":12771,"Ġpopulation":12772,"Ġcharmante":12773,"ĠSpaniards":12774,"Ġambassad":12775,"Ġfavorite":12776,"Ġcooking":12777,"ombard":12778,"Ġperforming":12779,"Ġconcerns":12780,"Ġinvention":12781,"Ġvoisin":12782,"uvache":12783,"Ġneighboring":12784,"Ġinfinitely":12785,"Ġgrip":12786,"Ġmineral":12787,"Ġadditional":12788,"abbÃ©":12789,"Ġwhitish":12790,"Ġdivert":12791,"Ġdischarged":12792,"Ġdispleasure":12793,"Ġfowl":12794,"Ġhelm":12795,"ĠPhilomÃ©ne":12796,"Ġfisherman":12797,"ĠÃ©trange":12798,"Outside":12799,"Ġpencil":12800,"Friday":12801,"Ġcrawling":12802,"Ġmaxim":12803,"Ġenvirons":12804,"Ġunfolded":12805,"Happily":12806,"Ġchagrin":12807,"Ġmantelpiece":12808,"Ġvoluptuous":12809,"Ġnobility":12810,"Impossible":12811,"ĠCesare":12812,"Ġbruised":12813,"Ġcolossal":12814,"Ġsuperintend":12815,"Ġwardrobe":12816,"Ġpoursui":12817,"ĠVoltaire":12818,"Ġsecrecy":12819,"Ġutensils":12820,"ĠLisbon":12821,"ĠMongolia":12822,"outeloup":12823,"ĠCrawley":12824,"\"--":12825,"Adele":12826,"Mart":12827,"Much":12828,"ND":12829,"OG":12830,"Put":12831,"Ro":12832,"UL":12833,"cs":12834,"cap":12835,"dress":12836,"eal":12837,"hill":12838,"hui":12839,"ik":12840,"mont":12841,"oking":12842,"rich":12843,"rÃ©t":12844,"tened":12845,"vitable":12846,"war":12847,"Ġtie":12848,"inement":12849,"Ġware":12850,"reation":12851,"has":12852,"erre":12853,"erve":12854,"Ġmouse":12855,"ithe":12856,"itÃ©s":12857,"Ġbiz":12858,"Ġdash":12859,"Ġfount":12860,"Ġfib":12861,"Ġtoken":12862,"Ġpang":12863,"escope":12864,"oras":12865,"Ġnaught":12866,"atri":12867,"Ġearthen":12868,"Ġgin":12869,"Ġgilt":12870,"Ġgamb":12871,"icism":12872,"ĠIr":12873,"imag":12874,"Ġreins":12875,"Ġrelease":12876,"ural":12877,"Ġdew":12878,"Ġdeme":12879,"quets":12880,"Ġrip":12881,"Ġrails":12882,"Ġrhy":12883,"Ġstal":12884,"Ġstare":12885,"Ġsticking":12886,"Ġsept":12887,"aintenant":12888,"roken":12889,"ĠMoor":12890,"Ġquivered":12891,"pending":12892,"chool":12893,"essart":12894,"Ġshirts":12895,"Ġupwards":12896,"Ġexac":12897,"Ġket":12898,"Ġnoct":12899,"oler":12900,"Ġplank":12901,"aparte":12902,"Ġabused":12903,"asser":12904,"Ġoutlet":12905,"Ġthereabouts":12906,"vened":12907,"ĠAre":12908,"ĠAng":12909,"Ġprair":12910,"ĠFort":12911,"ĠFelicite":12912,"ĠÃ§":12913,"about":12914,"Ġroast":12915,"Ġbrace":12916,"Ġknot":12917,"Ġreplies":12918,"avour":12919,"Ġoverth":12920,"ĠNever":12921,"ĠNanine":12922,"berge":12923,"Ġchased":12924,"Ġchacun":12925,"ĠEvery":12926,"Ġoffence":12927,"Ġhowl":12928,"Ġcontraire":12929,"Ġentit":12930,"ĠTuvache":12931,"Ġscant":12932,"Ġscale":12933,"Ġopinions":12934,"igner":12935,"Ġaccidents":12936,"Ġcarbon":12937,"Ġflint":12938,"Ġflashing":12939,"Ġflashes":12940,"mbres":12941,"Ġdistract":12942,"Ġmenace":12943,"Ġsupplic":12944,"ruly":12945,"Ġwrinkled":12946,"Ġrestaur":12947,"Ġchanger":12948,"Ġdeviner":12949,"Ġconfide":12950,"enez":12951,"Ġtalents":12952,"Ġnewly":12953,"Ġslant":12954,"Ġinterromp":12955,"Ġcondesce":12956,"Ġskies":12957,"Ġskirts":12958,"Ġfirearms":12959,"Ġgenoux":12960,"orrows":12961,"Ġlayer":12962,"Ġaffreux":12963,"Ġforesee":12964,"Ġbeauties":12965,"Ġenchant":12966,"ĠStuart":12967,"Ġhunch":12968,"uisse":12969,"Ġbarque":12970,"Ġbarley":12971,"Ġstandard":12972,"Ġraisonn":12973,"ĠdÃ©n":12974,"ĠdÃ©lic":12975,"Ġpetty":12976,"Ġoppon":12977,"Ġphosph":12978,"Ġexpressing":12979,"Ġsnatched":12980,"Ġsusp":12981,"Ġpaler":12982,"Ġvoyez":12983,"Ġemplo":12984,"Ġstrikes":12985,"Almost":12986,"Ġstudio":12987,"Ġvillages":12988,"Ġproducing":12989,"Ġjudged":12990,"Ġshops":12991,"Ġfixedly":12992,"ĠYour":12993,"Ġpassageway":12994,"Ġpigeons":12995,"Ġmagnet":12996,"Ġremarqu":12997,"Ġincluded":12998,"Ġdisturbing":12999,"Ġspoil":13000,"Ġgladly":13001,"ĠpensÃ©e":13002,"Ġvainly":13003,"Ġdreadfully":13004,"Ġnorthwest":13005,"Ġbrightly":13006,"Ġopposition":13007,"Ġhonourable":13008,"Ġmedium":13009,"Ġsouthwest":13010,"Ġnerve":13011,"Ġmorce":13012,"Ġcollision":13013,"ARRIS":13014,"Ġaffectation":13015,"Ġsafely":13016,"royable":13017,"chance":13018,"Gradually":13019,"ĠconnaÃ®tre":13020,"Ġdesigned":13021,"Ġspeechless":13022,"aurai":13023,"Ġconnections":13024,"Ġplunge":13025,"Ġproposition":13026,"Ġnegro":13027,"Ġthrusting":13028,"Ġrubbish":13029,"Ġhollowed":13030,"Ġdusty":13031,"Ġsubmers":13032,"coming":13033,"Ġscreamed":13034,"Ġturb":13035,"Ã¢telet":13036,"Ġshrugging":13037,"ĠPortugu":13038,"ĠreconnaÃ®tre":13039,"Ġessential":13040,"Ġtendency":13041,"uvre":13042,"Ġinevitable":13043,"Ġornamented":13044,"Ġtelescope":13045,"Ġbutterf":13046,"jourd":13047,"Ġstamping":13048,"Anyhow":13049,"Ġinsults":13050,"Ġgrieved":13051,"Ġindulgence":13052,"Ġdiversion":13053,"Ġromantic":13054,"ĠrÃ©cit":13055,"Ã©lÃ¨":13056,"Ġdistributed":13057,"Ġconjecture":13058,"Ġobligation":13059,"Ġuncertainty":13060,"Ġtelegrap":13061,"ĠBlack":13062,"ĠMillcote":13063,"Ġrifle":13064,"Ġprosperity":13065,"ĠBohemian":13066,"Ġperplexed":13067,"Ġalighted":13068,"Ġadministr":13069,"Ġincomprehensible":13070,"Ġdelirium":13071,"Ġthighs":13072,"Ġrefreshed":13073,"Ġcapricious":13074,"ĠÃ©videmment":13075,"Ġbronze":13076,"Ġeloquence":13077,"Ġscrutin":13078,"Ġchocolate":13079,"Ġraconter":13080,"ĠprÃ©cisÃ©ment":13081,"Agathe":13082,"ĠCatholic":13083,"ĠplutÃ´t":13084,"Ġclumsy":13085,"Ġfaculties":13086,"Ġnarwhale":13087,"Doubtless":13088,"Ġgrotesque":13089,"ĠDessessart":13090,"ĠPortuguese":13091,".;":13092,"Des":13093,"Mary":13094,"Off":13095,"Read":13096,"Sure":13097,"bors":13098,"came":13099,"course":13100,"even":13101,"iac":13102,"ko":13103,"made":13104,"mare":13105,"maker":13106,"pha":13107,"pher":13108,"uz":13109,"vres":13110,"yd":13111,"Ġtacit":13112,"Ġaime":13113,"haustible":13114,"Ġmien":13115,"Ġbough":13116,"Ġbaleen":13117,"enis":13118,"Ġcakes":13119,"Ġcities":13120,"Ġdint":13121,"Ġlug":13122,"Ġpulse":13123,"Ġparson":13124,"Ġpaternal":13125,"llais":13126,"Ġhoney":13127,"Ġheated":13128,"Ġnests":13129,"atcher":13130,"Ġreared":13131,"idity":13132,"Ġyacht":13133,"stones":13134,"Ġwhore":13135,"Ġwhipped":13136,"urable":13137,"Ġforwards":13138,"ĠrÃª":13139,"Ġnotary":13140,"Ġstalls":13141,"aciously":13142,"Ġattained":13143,"Ġmeur":13144,"Ġmelo":13145,"rient":13146,"riÃ¨re":13147,"Ġsabre":13148,"Ġshepher":13149,"Ġconverse":13150,"Ġupward":13151,"Ġjuge":13152,"estone":13153,"osait":13154,"ĠCaterpillar":13155,"Ġfeature":13156,"Ġlique":13157,"Ġorange":13158,"Ġunrolled":13159,"ĠPic":13160,"ĠPet":13161,"hang":13162,"Ġtrist":13163,"umer":13164,"umbered":13165,"ĠAsi":13166,"ĠBath":13167,"ĠBois":13168,"Ġprat":13169,"Ġintently":13170,"ntil":13171,"Ġamant":13172,"Ġamend":13173,"Ġcoals":13174,"Ġafin":13175,"Ġetes":13176,"Ġgrad":13177,"Ġlob":13178,"ĠJo":13179,"Ġknave":13180,"Ġponder":13181,"udently":13182,"Ġshaped":13183,"Ġadore":13184,"Ġloos":13185,"Ġcane":13186,"Ġcompare":13187,"Ġstrait":13188,"Ġstrings":13189,"orde":13190,"Ġapost":13191,"Ġapron":13192,"ĠparaÃ®tre":13193,"Ġcrabs":13194,"deck":13195,"Ġthrone":13196,"orns":13197,"ĠTha":13198,"inks":13199,"Ġretrait":13200,"iency":13201,"Ġlastly":13202,"Ġaccout":13203,"Ġceas":13204,"Ġavouer":13205,"Ġfling":13206,"ulier":13207,"Ġmonarch":13208,"Ġending":13209,"Ġapprit":13210,"Ġcourir":13211,"Ġcourte":13212,"enser":13213,"Ġnightmare":13214,"ĠVinc":13215,"Ġharbor":13216,"Ġcertainement":13217,"ĠrestÃ©":13218,"Ġacce":13219,"arrÃªta":13220,"Ġhorreur":13221,"Ġincons":13222,"Ġassault":13223,"Ã©cut":13224,"Ġcurate":13225,"Ġcurric":13226,"Ġinfant":13227,"Ġarrivant":13228,"Ġmothers":13229,"jected":13230,"Ġsouv":13231,"Ġsixth":13232,"Ġbedside":13233,"Ġmares":13234,"ĠFrom":13235,"Ġspeaker":13236,"atern":13237,"Ġhonoured":13238,"Ġsimult":13239,"Ġsimpl":13240,"ĠParisian":13241,"letons":13242,"Ġformation":13243,"Ġsunny":13244,"Ġbarometer":13245,"Ġdeepest":13246,"Ġphot":13247,"hog":13248,"Ġprovoked":13249,"ĠÃ©nor":13250,"Ġrug":13251,"Ġrealize":13252,"Ġtransfer":13253,"Ã®nÃ©":13254,"Ġvenerable":13255,"onnÃ©":13256,"ĠRochellais":13257,"Ġ24":13258,"Ġ26":13259,"Ġmusical":13260,"eyond":13261,"Ġbigger":13262,"Ġbataille":13263,"Ġdealt":13264,"Ġsimplement":13265,"pheres":13266,"Ġnaturalist":13267,"Ġclothing":13268,"Ġpeuvent":13269,"Ġdevilfish":13270,"Ġconductor":13271,"Ġflex":13272,"Ġwhispers":13273,"ĠtroisiÃ¨me":13274,"Ġpraying":13275,"Ġspeedily":13276,"Ġnobleman":13277,"Ġpeacefully":13278,"Ġmeditating":13279,"Ġtoutefois":13280,"Ġodious":13281,"Ġspectacles":13282,"Ġtourn":13283,"Ġcollege":13284,"Ġsorce":13285,"Ġdimly":13286,"Ġshocking":13287,"Ġaffections":13288,"Ġlitter":13289,"Ġfuneral":13290,"Ġbridle":13291,"Ġremoving":13292,"Ġglimps":13293,"Ġrobes":13294,"Ġchemise":13295,"ĠChristmas":13296,"Ġdiscoveries":13297,"Ġmingling":13298,"ĠValentine":13299,"Ġhandkerchiefs":13300,"Ġpleaded":13301,"Ġencouragement":13302,"Ġemerging":13303,"OUR":13304,"Ġworksh":13305,"ĠUs":13306,"Ġportraits":13307,"Ġseaman":13308,"ieties":13309,"Ġfragment":13310,"Ġdomestiques":13311,"Ġwickedness":13312,"Ġnortheast":13313,"Ġrebu":13314,"Ġattraction":13315,"Ġvapours":13316,"Ġvexation":13317,"Ġlocality":13318,"Ġkilo":13319,"Ġradius":13320,"Ġreverie":13321,"Ġparfaite":13322,"Ġcrimin":13323,"Maybe":13324,"Ġpretending":13325,"Ġcripp":13326,"Ġcorpses":13327,"Ġjuges":13328,"Ġdigging":13329,"Ġendeavouring":13330,"Ġrecommendation":13331,"ograph":13332,"Ġadresser":13333,"ĠXXX":13334,"Ġhussards":13335,"Ġdiscouraged":13336,"Ġbattles":13337,"Ġinexhaustible":13338,"Ġcautiously":13339,"Ġbarbarous":13340,"ouillefou":13341,"Ġgnaw":13342,"Ġteachers":13343,"Ġrebellion":13344,"ĠHarvey":13345,"ĠLiberal":13346,"ĠBlanÃ¨s":13347,"Ġdeposited":13348,"Ġunreason":13349,"Ġcourtisans":13350,"Ġfabric":13351,"Ġdialogue":13352,"Ġsymptoms":13353,"Ġwolf":13354,"atisfied":13355,"quarters":13356,"Ġimbecile":13357,"Ġaustere":13358,"ĠtÃ©mo":13359,"assassin":13360,"ĠVoilÃł":13361,"Depuis":13362,"ophie":13363,"ĠGervaise":13364,"Ġsabots":13365,"Ġminiature":13366,"Ġconsternation":13367,"Ġimplacable":13368,"Ġbaskets":13369,"orescent":13370,"Ġbeggars":13371,"fashioned":13372,"Ġimpenetrable":13373,"eausire":13374,"uzanne":13375,"ĠÃ©norme":13376,"100":13377,"Bl":13378,"Bessie":13379,"BLE":13380,"Beyond":13381,"Empe":13382,"Fif":13383,"IGH":13384,"Jup":13385,"Make":13386,"OT":13387,"Sans":13388,"bas":13389,"cot":13390,"dling":13391,"gie":13392,"jon":13393,"mast":13394,"nay":13395,"nous":13396,"rical":13397,"wain":13398,"Ġtact":13399,"Ġtipt":13400,"Ġachie":13401,"Ġsorrows":13402,"Ġmam":13403,"itan":13404,"Ġbait":13405,"issez":13406,"Ġcyl":13407,"Ġdwel":13408,"Ġdarling":13409,"Ġfag":13410,"Ġfure":13411,"Ġfaced":13412,"Ġlain":13413,"ĠlÃ©g":13414,"Ġpud":13415,"Ġpicking":13416,"arches":13417,"Ġhue":13418,"Ġheath":13419,"Ġnull":13420,"atching":13421,"Ġgarr":13422,"Ġbeak":13423,"Ġbearer":13424,"uty":13425,"sement":13426,"idays":13427,"stre":13428,"irai":13429,"Ġdearest":13430,"adj":13431,"ala":13432,"Ġstumbled":13433,"acr":13434,"Ġhermet":13435,"ilot":13436,"Ġanew":13437,"ĠvÅĵ":13438,"Ġsheer":13439,"Ġsuicide":13440,"ousias":13441,"alle":13442,"Ġjail":13443,"istinct":13444,"Ġlivery":13445,"ola":13446,"Ġunw":13447,"Ġunkind":13448,"Ġenn":13449,"Heaven":13450,"ĠPRO":13451,"assing":13452,"umÃ©e":13453,"orting":13454,"ĠSte":13455,"ĠSÃ©rÃ©n":13456,"ĠAfter":13457,"ĠBurns":13458,"ĠFirst":13459,"Ġprovidence":13460,"ĠGermain":13461,"Ġgrains":13462,"abat":13463,"Ġspire":13464,"Ġsponge":13465,"love":13466,"loir":13467,"Ġusage":13468,"fere":13469,"ĠNorm":13470,"Ġbohemian":13471,"Ġfoam":13472,"Think":13473,"Young":13474,"Ġstrides":13475,"Ġpartit":13476,"Ġparch":13477,"Ġparvenir":13478,"Ġimparted":13479,"ĠTell":13480,"Ġscour":13481,"Ġmarches":13482,"Ġheaded":13483,"Ġavar":13484,"cloth":13485,"Ġflan":13486,"Ġsonn":13487,"Ġmonk":13488,"ĠÃ©tat":13489,"Ġpresident":13490,"ensed":13491,"Ġhereafter":13492,"ivable":13493,"Ġattire":13494,"Ġperspect":13495,"Ġhorrid":13496,"Ġdrap":13497,"Ġguerre":13498,"Ġsideboard":13499,"oudre":13500,"Ġtread":13501,"Ġcurved":13502,"Ġgotten":13503,"Ġindistinct":13504,"Ġfiner":13505,"Ġsteer":13506,"Ġmaig":13507,"Ġcalmed":13508,"Ġdetest":13509,"Ġpromises":13510,"Ġexcused":13511,"ĠStras":13512,"Ġcircles":13513,"Ġsounding":13514,"Ġadvances":13515,"Ġpoles":13516,"vidently":13517,"Ġcape":13518,"Ġcares":13519,"Ġcaress":13520,"Ġcafe":13521,"Ġhelping":13522,"Ġextracted":13523,"ĠÃ©l":13524,"Ġimaginary":13525,"Ġeffray":13526,"Ġconversing":13527,"Ġmadly":13528,"Ġfifth":13529,"Ġgarder":13530,"ĠarrÃªter":13531,"Ġfrighted":13532,"ĠChina":13533,"Ġsecretly":13534,"Ġedges":13535,"Ġmalicious":13536,"Ġspray":13537,"Ġvenger":13538,"Ġ27":13539,"Ġhatch":13540,"Ġequipped":13541,"Ġdestitute":13542,"Ġfasten":13543,"Ġneighbors":13544,"Ġfreshness":13545,"ternational":13546,"Ġangles":13547,"Ġconseil":13548,"icians":13549,"Being":13550,"Ġviewed":13551,"ĠYvonne":13552,"Ġlimb":13553,"Ġlimited":13554,"Ġferait":13555,"Ġsensitive":13556,"Ġrainy":13557,"Ġhandsomely":13558,"Ġadmirably":13559,"ĠInternational":13560,"ouvez":13561,"Ġexecute":13562,"Ġmeditation":13563,"Ġfashionable":13564,"alousie":13565,"Ġstrolling":13566,"Ġtemperament":13567,"Ġmorality":13568,"ĠaimÃ©":13569,"Ġgrowled":13570,"Ġtraverse":13571,"Ġcordial":13572,"Ġprotector":13573,"ĠÃ©cus":13574,"Ġbrilli":13575,"Ġsuivant":13576,"Deux":13577,"Ġantiqu":13578,"Ġcustomers":13579,"Ġcalculate":13580,"Ġrevolver":13581,"Ġoperations":13582,"Ġrecollected":13583,"Ġauthorities":13584,"Ġreckon":13585,"flÃ©ch":13586,"Ġsighs":13587,"Ġappartement":13588,"ĠUnited":13589,"ĠCarol":13590,"Ġscreen":13591,"Ġhamper":13592,"ĠlaissÃ©":13593,"Ġ500":13594,"Ġdisplaying":13595,"Ġeternity":13596,"Ġfolks":13597,"Ġsentimental":13598,"escorte":13599,"Ġprospects":13600,"Ġardour":13601,"ĠderriÃ¨re":13602,"Ġabundantly":13603,"Ġunexpectedly":13604,"Ġjouer":13605,"ĠTrouillefou":13606,"ĠgaietÃ©":13607,"Ġtrifling":13608,"Ġunconsciously":13609,"Ġincessant":13610,"Ġascertained":13611,"ĠChamps":13612,"Ġrefusal":13613,"Ġshooting":13614,"Ġprotestations":13615,"Ġcompromise":13616,"ĠsinguliÃ¨re":13617,"Ġdissol":13618,"ylum":13619,"approcha":13620,"Ġimprisonment":13621,"Ġancest":13622,"Ġapplause":13623,"Ġshrieked":13624,"issement":13625,"Ġextending":13626,"Ġgorge":13627,"Ġperfume":13628,"Ġshilling":13629,"Ġfluttered":13630,"ĠCrab":13631,"Ġtravail":13632,"Ġholiday":13633,"Ġchapelle":13634,"Ġcritical":13635,"Ġtiger":13636,"Ġtirer":13637,"Ġforsaken":13638,"Ġmollusks":13639,"Ġterrace":13640,"Ġsqueez":13641,"Ġdiscipline":13642,"Ġextravagant":13643,"Ġeconom":13644,"Ġoutrage":13645,"cinq":13646,"ARDIEU":13647,"Ġmultiplied":13648,"iastical":13649,"ĠarrÃªtÃ©":13650,"ĠSwiss":13651,"ĠAmbrose":13652,"Ġbesieged":13653,"Ġapplauded":13654,"ĠPrefect":13655,"Ġdisease":13656,"Ġperpetual":13657,"Ġstooping":13658,"Ġaffliction":13659,"Remember":13660,"Ġracont":13661,"Ġelevated":13662,"Ġumbrella":13663,"Ġuninhabit":13664,"Ġdaresay":13665,"Ġpromontory":13666,"Ġinvariably":13667,"Ġzoophytes":13668,"Ġborrowed":13669,"Ġreleased":13670,"Ġimpotent":13671,"Ġninety":13672,"Ġambitious":13673,"Ġadjoining":13674,"Ġinsupportable":13675,"Ġbizarre":13676,"Ġsubmersible":13677,"Ġretraite":13678,"Ġcurricle":13679,"Empereur":13680,"Ġdwelt":13681,"ousiasme":13682,"ĠSÃ©rÃ©nissime":13683,"!âĢĻ":13684,";--":13685,"Aye":13686,"CK":13687,"Con":13688,"Col":13689,"Cel":13690,"Fine":13691,"Father":13692,"General":13693,"IC":13694,"Ludovic":13695,"Please":13696,"bled":13697,"bted":13698,"cune":13699,"dest":13700,"fro":13701,"fight":13702,"mill":13703,"mouille":13704,"olets":13705,"pres":13706,"phab":13707,"uen":13708,"hent":13709,"Ġale":13710,"Ġape":13711,"inous":13712,"Ġsour":13713,"Ġwan":13714,"Ġwipe":13715,"Ġmuseum":13716,"itations":13717,"Ġbolt":13718,"isher":13719,"Ġcinders":13720,"ĠcÃ©lÃ¨":13721,"Ġdigne":13722,"Ġdurst":13723,"Ġlum":13724,"Ġpell":13725,"Ġpine":13726,"Ġpane":13727,"orado":13728,"Ġhears":13729,"Ġinert":13730,"Ġhail":13731,"omie":13732,"lee":13733,"hate":13734,"othed":13735,"ĠIS":13736,"Ġreli":13737,"Ġthumb":13738,"cevoir":13739,"eties":13740,"irond":13741,"Ġdevenir":13742,"ader":13743,"Ġforcing":13744,"Ġrul":13745,"Ġasp":13746,"Ġstain":13747,"Ġstated":13748,"Ã©ress":13749,"amment":13750,"Ġank":13751,"Ġsaur":13752,"Ġvil":13753,"ĠMas":13754,"oored":13755,"Ġquaint":13756,"Ġsoap":13757,"Ġlever":13758,"Ġlecture":13759,"antime":13760,"Ġcompt":13761,"allic":13762,"Ġjagu":13763,"Ġjalousie":13764,"ulp":13765,"ĠCON":13766,"Ġnovels":13767,"Ġliver":13768,"Ġliking":13769,"olas":13770,"artment":13771,"Ġunnatural":13772,"Ġplague":13773,"Ġalco":13774,"Help":13775,"unesse":13776,"ĠPur":13777,"Ġworm":13778,"Ġarise":13779,"Ġarrog":13780,"ĠBern":13781,"eled":13782,"ĠLille":13783,"Ġprojet":13784,"ĠHad":13785,"ĠHug":13786,"Ġmoan":13787,"Ġspong":13788,"Ġspider":13789,"Ġsperm":13790,"ĠJussac":13791,"aisance":13792,"logne":13793,"Ġknitting":13794,"ĠRym":13795,"Ġlongboat":13796,"Ġbonds":13797,"Ġperfection":13798,"Ġpassenger":13799,"Ġcomprit":13800,"Ġpreuve":13801,"Ġprenait":13802,"rape":13803,"Ġpebb":13804,"Ġchapter":13805,"Ġduck":13806,"Ġdowns":13807,"Ġsurve":13808,"Ġsurly":13809,"Ã©tat":13810,"Ġparisis":13811,"Ġcrag":13812,"Ġquiver":13813,"ĠTe":13814,"ĠTours":13815,"Ġjeunesse":13816,"Ġavis":13817,"Ġmonkeys":13818,"Ġteaching":13819,"pera":13820,"Ġowners":13821,"ĠWarr":13822,"Ġaupar":13823,"Ġhousemaid":13824,"Ġminuit":13825,"Ġcertaine":13826,"Ġdrows":13827,"Ġsentit":13828,"Ġswing":13829,"ĠParliament":13830,"Ġeminence":13831,"ools":13832,"Ġinfernal":13833,"Ġengulf":13834,"Ġdepressed":13835,"Ġinterfere":13836,"Ġnamely":13837,"ĠOur":13838,"Ġindebted":13839,"Ġrecreation":13840,"Ġditch":13841,"Ġhumming":13842,"Ã©rÃªt":13843,"Ġlayers":13844,"tempered":13845,"Ġhunted":13846,"Ġengineers":13847,"Ġhopeless":13848,"Ġfootpr":13849,"Ġdemol":13850,"Ġquestioning":13851,"Ġreluct":13852,"Ils":13853,"Ġinviting":13854,"ĠÃ©pr":13855,"ĠÃ©vÃ©":13856,"Ġhorsemen":13857,"Ġstrongest":13858,"Ġmalice":13859,"Ġsolution":13860,"Ġdisappearing":13861,"Ġsquat":13862,"Ġwilder":13863,"Ġtorch":13864,"Ġoccupations":13865,"ĠTremouille":13866,"Ġdemands":13867,"Ġdealing":13868,"Ġthicket":13869,"Ġinnkeeper":13870,"Ġoccasioned":13871,"Ġtraveling":13872,"Ġcroit":13873,"vernoy":13874,"ĠReims":13875,"Ġpermis":13876,"Ġpeninsula":13877,"Ġsends":13878,"Ġdecline":13879,"Ġundoubtedly":13880,"Ġyelled":13881,"Ġspoilt":13882,"Ġpublicly":13883,"Ġchercha":13884,"ĠDuvernoy":13885,"Ġpursuing":13886,"Ġbearings":13887,"Ġvastly":13888,"Ġabbey":13889,"Ġstreaming":13890,"Ġpaths":13891,"Ġsummits":13892,"Ġtranquilly":13893,"Ġgypsies":13894,"Ġbreasts":13895,"ĠÃ©chapp":13896,"Ġstupor":13897,"Ġvaulted":13898,"Ġassistant":13899,"Ġcombien":13900,"Ġthroats":13901,"Ġfacing":13902,"Ġglee":13903,"Ġgleaming":13904,"Ġconnaiss":13905,"Ġdesigns":13906,"Ġinjure":13907,"Ġmirth":13908,"Ġharmon":13909,"Ġrejoin":13910,"Ġcustomary":13911,"Ġgrove":13912,"ESS":13913,"Ġnegative":13914,"Ġshelves":13915,"Ġheureuse":13916,"ĠdÃ©cid":13917,"Ġgeomet":13918,"Ġhealthy":13919,"Ġfailing":13920,"ĠZeal":13921,"Ġzone":13922,"Ġinquiring":13923,"Ġlabours":13924,"Ġsauce":13925,"Ġemerge":13926,"Ġdecked":13927,"Ġimproved":13928,"Ġliquor":13929,"Ġrigging":13930,"ĠGuardsmen":13931,"ĠPortsm":13932,"ĠSundays":13933,"ĠMouquet":13934,"Ġattractive":13935,"Ġdevotedness":13936,"Ġrumm":13937,"Ġrumour":13938,"Ġflags":13939,"Ġtotally":13940,"Ġenfants":13941,"ĠJesus":13942,"Ġcracking":13943,"Ġmaterials":13944,"Ġconvulsive":13945,"Ġconvulsions":13946,"ĠEgyptian":13947,"Ġspecimen":13948,"Ġgratified":13949,"Comment":13950,"ĠÃ©crire":13951,"ĠÃ©crivit":13952,"Ġcigaret":13953,"Ġresearches":13954,"ĠItalie":13955,"Ġpallor":13956,"Ġhorns":13957,"Ġharnessed":13958,"ĠaperÃ§":13959,"ĠChante":13960,"Ġexclamations":13961,"unsford":13962,"Ġreddened":13963,"Ġbattery":13964,"Ġcadavre":13965,"Ġoverflow":13966,"Ġinvoluntarily":13967,"Others":13968,"green":13969,"Ġslippery":13970,"spread":13971,"Ġgagner":13972,"Ġwhirling":13973,"Whether":13974,"Ġbolts":13975,"Ġconfidences":13976,"Ġinscription":13977,"Ġmendic":13978,"Ġpersonnage":13979,"ĠdÃ©vou":13980,"Ġcitizen":13981,"Ġfathoms":13982,"Ġpagoda":13983,"Ġsurviv":13984,"Ġverdure":13985,"Ġmournful":13986,"Ġbiscuits":13987,"Ġbeckoned":13988,"interested":13989,"Ġbuzzing":13990,"ĠAcademician":13991,"Ġvraiment":13992,"Ġpetticoat":13993,"Ġshovel":13994,"Ġhospitality":13995,"Ġphysiognomy":13996,"ĠPeninsula":13997,"Ġoiseaux":13998,"Ġprincess":13999,"Ġmattress":14000,"Ġembarked":14001,"Ġconflict":14002,"Ġserenity":14003,"Ġmistrust":14004,"Despite":14005,"Ġhaggard":14006,"Ġvulg":14007,"Ġoutstretched":14008,"Ġindescribable":14009,"ĠIrish":14010,"Ġnocturnal":14011,"Ġfureur":14012,
[...]
