#version: 0.2
Ġ d
Ġ l
e n
a i
e s
Ã ©
Ġ p
Ġ s
o u
o n
Ġ c
r e
Ġ a
q u
a n
Ġ m
Ġd e
e r
Ġ t
Ġ qu
e t
en t
ai t
i n
l e
Ġ f
i l
a r
i s
i t
Ġ n
Ġ v
e u
u n
â Ģ
Ġl a
Ġ et
Ġ b
e l
Ġ j
o r
âĢ Ļ
Ġl e
Ã ł
t e
ai s
o m
a s
Ġ r
Ġ un
ou r
ou s
an t
Ġ Ãł
Ġ h
u s
Ã© t
Ġqu e
u r
Ġ en
i r
m e
a t
h e
Ġl es
Ã ¨
a u
Ġa v
e m
Ġ g
Ġ re
an s
Ġp r
a l
eu r
c e
i on
c h
Ġ il
t re
Ġp ar
Ġa u
el le
Ġp as
Ġj e
es t
Ġs e
r i
Ġn e
a v
Ġd es
o i
Ã ª
Ġqu i
u i
Ġ Ã©t
a g
Ġp l
Ġ o
i en
s e
Ġt r
en d
ou t
Ġun e
ai n
an d
Ġc om
Ġc h
Ġd ans
- -
ai ent
Ġd u
ou v
Ġp our
m ent
on t
a b
Ġ in
Ġt he
Ã© e
Ġ w
o s
i e
on n
r es
Ġc e
Ġv ous
Ã© s
on s
o l
a m
Ġ M
Ġs ur
or t
e c
Ġm e
u t
a p
o is
qu e
Ġs on
d e
Ġl ui
Ã© c
f f
Ã© p
Ġpl us
er s
Ġ e
i m
p r
o ir
Ġs a
l es
i g
in g
a c
Ġ C
I l
Ġa n
eu x
Ã¨ re
et te
Ġt out
u is
ĠÃ©t ait
o t
n e
Ġn ous
Ġav ait
em ent
Ġ y
Ġav ec
on d
s i
Ġg r
Ġm ais
Ġs i
Ġt o
ar d
a d
Ġd it
Ġm on
o in
Ġ elle
i c
i er
Â «
ai re
i v
il le
J e
Ġ P
Ã© r
Ġt h
Ġa l
Ġo f
Ã ¢
Ġb ien
Ã §
Ġ on
u re
Ġc ette
Ã ®
Â »
Ġs es
Ġcom me
Ã¨ s
u l
u e
o y
Ġm a
i d
at ion
un e
ag e
u x
es s
i re
g e
il l
Ġ S
Ġ L
Ġd Ã©
Ġ ent
Ġd is
m es
Ã ´
Ġpr o
Ġc on
Ã©t ait
Ġ est
e au
Ġc r
ab le
e z
Ġf r
Ġ !
Ġb r
or s
Ġqu el
em p
l le
or d
Ġp eu
Ġ Ã©
u it
Ġe x
Ġa r
Ġl eur
Ġ ou
ou l
Ã »
o re
t er
ou p
Ġ A
âĢ ĵ
Ġs er
ou te
in e
b l
er t
Ãª tre
Ġde v
Ġr Ã©p
au t
Ġa s
en s
b le
it Ã©
Ġa p
ion s
Ġa t
is s
Ġde ux
Ġde m
Ġf or
Ġs u
our s
a y
. .
Ġm ar
Ġs ans
o tre
c he
Ġ B
Ãª me
Ġc es
Ġan d
om me
o p
Ã´ t
Ġ D
t r
o it
Ġgr and
Ã© es
Ġal l
Ġm oi
i eu
an g
Ġ E
Ġ F
end re
ag n
Ġf ait
ais s
en ce
Ġc ar
Ġh e
Ġw h
Ġc he
Ġa m
e d
an ce
Ġ ;
L e
Ġpas s
Ġ J
Ġm ain
an te
ap p
Ġpar t
on g
qu es
c c
al l
p l
on c
Ã ¹
i Ã¨re
Ġ N
Ġre g
end ant
Ġf aire
Ġ ?
om b
Ãª t
i eur
s t
v e
Ġ im
as s
Ġ R
Ã» t
v er
Ġen c
Ġf ut
Ġ Â»
Ġc el
u m
Ġ G
eu re
it e
ai r
Ġtr ouv
i f
Ġc ont
or te
Q u
Ġo Ã¹
an c
Ġr Ã©
Ġth at
Ġenc ore
Ã© n
Ġp ouv
ĠrÃ©p ond
Ġau x
c i
Ġj us
ig n
ar t
ain e
a ce
il s
Ġm es
Ġh is
r ent
Ġp uis
M ais
Ġv en
c t
Ġ I
oin t
Ġm an
Ġ V
it h
Ġp er
Ġs eu
Ġreg ard
ĠÃ©t Ã©
ch er
Ġ H
Ġt er
en c
Ġa us
av ait
Ġt emp
Ġw as
Ġm Ãªme
Ġp et
Ġre m
Ġ T
au x
i eux
Ġc our
Ġil s
p os
Ġd onn
Ġ Ã©c
ai l
Ġd ont
Ġdem and
o se
Ġm al
r a
in t
our n
es p
Ġl ong
Ãª te
Ġb e
Ġd ire
u p
Ġp oint
L a
Ġf em
Ġc ons
re m
Ã© d
i que
Ġd onc
t res
le ment
Ġj eu
av ais
t en
el les
Ġen f
Ġcom m
E t
Ã¨ rent
pr Ã¨s
onn e
Ġquel que
Ġr ien
Ġqu and
o d
Ġt ou
Ġcom p
Ġap p
Ġtemp s
Ġ Je
Ã© g
is e
o w
Ġd i
Ã© ri
v ous
Ġc oup
Ġs em
Ġj am
E lle
Ġ :
Ġaus si
Ġh omme
Ġa b
Ġs ous
Ġ eu
Ġt ous
ons ieur
Ġd Ã©s
oi re
i ch
b re
Ġre c
ant s
eur s
r ait
g n
is t
o le
Ġat t
v en
au v
Ġt oute
l i
Ġ Ã©p
Ġh ad
Ġd Ã©c
Ġc a
r Ã©
ri v
Ġre t
Ġent re
Ġf ort
Ġcel a
Ġm om
Ġv otre
Ġmom ent
Ġ ai
oin s
Ġf ois
a Ã®
et t
Ġh im
Ġ O
Ġ Ãªtre
av e
Ġ Â«
Ġv oy
Ġs ou
Ġv ie
Ġp os
r o
âĢ ¦
Ġjam ais
Ġp ens
C e
Ġf ais
Ġpar l
Ġf er
ĠrÃ©pond it
Ġs ent
us e
ec t
Ġl Ãł
Ġy eux
j e
Ġre pr
o b
e x
Ġtr ois
Ġfem me
ch es
Ġv oi
m in
a re
Ġc ap
i le
Ġb eau
i Ã¨
E n
Ġp ort
Ġj our
Ġv oir
Ġc l
Ġm ont
Ġpeu t
om p
at t
Ġv ers
ĠÃ©t aient
Ã© l
Ġtr av
Ġjus qu
i ers
Ġp ers
Ġp rem
a le
r t
j ours
Ġw ith
in s
a te
as se
Ġe ff
Ġse c
Ġquel ques
Ġf it
Ġs uis
l y
Ġv is
Ġr est
ui v
Ġtou jours
o c
ar g
Ġv oul
Ġde r
i ent
t h
Ġt u
ar r
se z
Ã¢ t
Ġn i
L es
Ġl aiss
Ġa cc
Ġy ou
Ġpet it
Ġa prÃ¨s
Ġc o
Ġo b
d re
ain si
it u
âĢ Ķ
o g
Ġa d
Ġh eur
Ġd ou
Ġleur s
Ġjeu ne
p s
Ġav oir
ie d
Ġm onsieur
et tre
i de
Ġ ainsi
Ġm oins
res s
ur s
Ġc ol
a me
Ġc ri
Ġp orte
Ġp e
Ġf l
om mes
il les
Ġb on
el l
r ai
Ġtout es
p t
Ġc or
Ġn ouv
Ġn ot
Ġc ou
r oit
au tre
Ġheur es
Ġs ont
ul ien
Ġwh ich
Ġpro f
Ġch am
p ort
Ġh er
Ġau tre
Ġa ff
Ġf in
Ġal ors
ai lle
i es
ent e
O n
Ġin t
Ġ is
n es
A rt
i ce
Ġd Ã©p
agn an
Ġch ose
Ġn otre
Art agnan
. Â»
Ġsem bl
Ġs ort
Ġm er
Ġt Ãªte
a ur
re t
ent s
Ġ it
Ġtr Ã¨s
p uis
Ġs t
Ġch er
Ġc onn
Ã©c ri
h t
Ġar riv
Ġc et
Ġm in
Ã©t ais
Ġb l
Ġb ou
i qu
Ġm ot
Ġdev ant
Ã ī
Ġt en
Ġv iv
Ġpouv ait
Ġm at
Ġr Ã©s
Ġav aient
Ġm y
Ã© m
Ġs uiv
o ch
Ġch ar
Ġpr is
Ġa ur
Ġ Il
Ġs o
e re
Ġsu p
Ġp ied
em b
ag es
u d
U n
Ġh eure
ten ant
et s
Ġter re
Ġn on
.. .
Ġcon tre
Ġl ors
Ã§ a
Ġen v
u es
Ġav ant
av oir
ab ri
er v
at h
ĠdÃ© j
Ġma Ã®
Ġp endant
o il
uit e
Ġcont in
Ġp le
Ġs al
at ure
Ġp u
oul d
ie z
Ġche z
i o
Ġs our
Ġtr op
Ġin st
ĠC h
Ġcap it
t ant
a que
Ġ emp
Ġs oir
Ġpr Ã©s
r it
Ġche v
i ment
r an
Ġf aut
at re
Ġn uit
Ġser v
Ġt omb
si ble
Ġas s
p endant
Ġgrand e
Ġvoi x
Ã§ on
Ġs ol
f in
Ġc ert
ir ent
Ġc Ã´t
Ġc ond
ation s
Ġa g
Ġcom pr
ĠJ ulien
Ġcon v
ous s
Ġd Ã©t
Ġmon de
it t
Ġe Ã»t
Ġre v
te ment
Ġs ais
Ġn om
Ãªt es
i Ã©
Ġv er
ĠP ar
it ion
or m
Ġh ave
ac t
Ġas sez
es te
Ġs p
Ġde puis
k e
Ġs he
Ġg ar
Ġj ours
ien ne
ur ent
Ġcapit aine
Ġt ant
Ã© ch
Ġpr es
Ġ ouv
eu s
Ġin c
ic i
n er
T he
Ġj et
u er
Ġs h
h eure
le v
te m
Ġpr Ã¨s
ail l
ou g
Ġv ol
ab les
Ġau c
' s
in c
Ã Ģ
Ġh ab
m er
Ġm ort
ang er
iv e
Ã©cri a
Ġmais on
Ġth is
Ġder n
im p
au d
Ġau tres
Ġb y
Ġc in
us s
Ġg l
z io
ĠM r
Ġs ouv
a de
abri zio
Ġcham bre
ai d
ĠE t
Ġm is
Ġp ay
ur es
omb re
i b
Ġ or
Ġcon f
Ġser ait
Ġseu l
Ġqu atre
Ġin d
oi gn
Å ĵ
N ous
Ġh aut
Ġpr Ã©
Ġb out
ien s
i x
c le
Ġfais ait
re r
g l
Ġf ille
ĠM ais
Ġent end
f ois
Ġmain tenant
Ġ âĢĵ
Ġqu oi
Ġc ent
Ġr ais
m Ãªme
qu el
Ġin s
i p
Ġc an
Ġ --
Ġf eu
Ġtrav ers
p ar
Ġpr om
Ġ es
Ġf ond
Ġbr as
Ġpr Ã©c
ĠcÃ´t Ã©
t es
Ġd oute
ai res
ĠM me
Ġn o
Ġeu t
Ġdemand a
Ġf ou
. "
Ġpe ine
Ġl iv
Ġrec onn
Ġm il
y r
Ġav ez
Ġmat in
z e
Ġr app
a h
Ġo ff
av ez
Ġcontin u
Ġs c
Ġap pr
Ġparl er
ing t
Ġm ille
om m
el f
Ġm ur
Ġmar i
Ġg o
V ous
A l
Ġp h
Ġpl ace
iss ait
a ch
le z
en ait
Ġpet ite
Ġl ieu
Ġpr endre
Ġp auv
l Ãł
Ġf all
Ġh ommes
ap pr
Ġ _
Ġv it
U ne
ard in
ĠL a
Ġsou ff
Ã© ment
Ġb ut
, "
Ġr end
n d
Ġc al
ac c
c oup
Ġs il
ouv er
Ġre f
Ġcert ain
A u
Ã® le
ar b
Ġdes c
ais e
oil Ãł
ri Ã¨re
Ġb as
Ġgr os
Ġn os
os es
ĠD ieu
ĠÃ© v
Ġ "
ĠmaÃ® tre
Ġmain s
Ġv rai
d ess
Ġb onne
enc ro
Ġpers onne
encro ff
Ġ W
oi d
Ġfr om
Ġm ieux
Ġdev ait
Ġ Qu
Ġper d
Ġmil ieu
m a
Ġr en
our d
aÃ® tre
Ġf ig
ĠF abrizio
Ġdi ff
re z
ĠdÃ©j Ãł
Ġt our
Ġle v
Ġan s
Ġenf in
u g
Ġt e
Ġb es
Ġdis ait
Ġcr ois
Ġn ature
pr it
ul t
Ġrepr it
Ġ esp
Ġf am
er ait
us t
yr us
on se
Ġven ait
c es
Ġim p
en ir
ĠO ui
Il s
Ġpied s
Ġcomp agn
ement s
et h
h omme
Ġcel ui
f ait
Ġm ad
Ġo cc
Ġpl ais
ig ne
Ġbeau coup
Ġ ord
Ġseu lement
in ce
Ġdis t
Ġv u
Ġh as
itu de
Ġnouv eau
Ġt ourn
ain t
es se
i el
Ġch aque
Ġeff et
Ġj ou
Ġwh o
u ch
Ġv ou
qu oi
ant es
on de
ĠV ous
Ġall ait
Ġche min
Ġv Ã©r
Ġf us
th os
tem ps
P uis
Ġf Ã»t
Ã©t aient
Ġch oses
Ġ air
Ġcom ment
ĠÃ©c l
Ġre p
Ġl oin
ig ht
! Â»
Ġl ar
Ġf a
Ġp o
D e
Ġinst ant
is te
ch Ã©
Ġdonn er
ient Ã´t
Ġs oit
in es
Ġg ens
r ir
Ġc am
j et
Ġob s
Ġ eux
Ġim m
Ġre ven
Ġcin q
m oi
Ġc as
ĠS m
Ġs oup
av ant
er Ã§
ĠP r
id Ã©e
en se
r ais
Ġv ent
i me
ĠP encroff
Ġsembl ait
Ã© v
ĠÃ© ch
Ġdi x
qu et
Ġr oute
Ġp Ã¨re
ĠdÃ© b
eu se
Ġ Ãªtes
ĠSm ith
Ġex c
oi e
u y
Ġd o
Ġv ingt
Ġam i
Ġ k
ab ord
ar qu
f l
ess a
Ġp ouss
Ġqu est
Ġpauv re
Ġ ici
Ġd roit
it er
Ġb ois
Ġau t
iÃ¨ res
ce v
ad y
Ġpro p
Ġh um
Ġbr uit
ĠG r
Ġb ord
an ge
Ġseu le
an e
Ġr ou
Ġpres que
Ġprem ier
Ġs aid
ĠdÃ© f
i ques
on te
h eur
an qu
Ġr oi
Ġcom pl
Ġm Ã¨re
Ã§ ait
Ġon cle
Ġaur ait
Ã¨ v
Ġco eur
Ġ elles
j out
Ġv ois
Ġex p
Ġan n
ĠL e
Ġpart ie
Ġsi x
Ġm ois
C ette
anc es
ct ion
Ġv i
Ġg en
Ġl o
dess us
Ġr este
Ġin ter
Ġt able
ent ion
Ġg ard
ĠÃ© l
ar c
Ġla qu
Ġpass er
Ġtrouv er
and e
Ġc elle
Ġg u
Ġdem i
end ait
an ch
ĠprÃ©s ent
Ġ ont
Ġ 1
Ġpay s
Ã¢ mes
Ġl ettre
Ã¨ res
ot s
Ġg re
ais se
Ġs ang
os t
ĠA r
Ġen s
aiss ait
s elf
on e
en n
Ġs orte
Ġm it
Ġv os
Ġcont r
Al ors
Ġlors que
elle ment
ir ait
and is
Ġr enc
Ġf ace
ĠC yrus
ire r
aille urs
ĠPar is
en f
Ġb ientÃ´t
ĠM ar
T out
Ġ emb
er ie
Ġw ould
Ġon e
ig e
Ġr ent
S i
u c
u ment
Ġprem iÃ¨re
Ġn oir
at s
Ġfig ure
Ġt a
eu t
Qu and
Ġprof ond
Ġ up
le ur
ol es
Ġ Ãī
Ġp ol
Ġo p
Ġre tr
Ġm en
Ġpr it
Ġsur pr
Ġr Ã©c
Ġab s
Ġf en
Ġr ap
ic t
Q ue
Ġl i
P our
Ġr iv
Ã© qu
el a
Ġr esp
Ġb ar
te d
Ġall er
ĠM il
Ġf urent
Ġw ill
Ġper m
Ġd om
Ġex tr
Ġlong temps
Ġcomm en
o k
Ġa jout
ĠÃ© g
ve ill
Ġt ard
ch ait
Ġrais on
Ġv ue
d i
Ġb elle
Ġcr oy
ĠdÃ© l
Ġm oy
Ġv ieux
Ġfall ait
Ġm or
ol l
Ġaut our
m Ã©
li z
om e
ĠdÃ© v
Ġtr anqu
ĠA thos
Ġsil ence
ĠCh ar
i ble
r as
Ġret ourn
a ff
Ġbes oin
Ġ Ã¢
u me
ieur s
anc s
Ġt on
Ġb al
ag ne
an che
ch ant
Ã´ te
Ġv oit
Ġauc un
Ġr o
.. ..
g r
r Ã©e
u le
em ain
Ãª n
Ġser a
Ġce pendant
Ġar r
Ġre l
ir a
Ġg Ã©n
Ã©p ar
i z
ri ble
ort h
Ġj ourn
ab eth
Ce pendant
T h
Ġp ut
Ġg al
Ġr ess
Ġcom b
Ġw ere
Ġgrand s
t Ã©
Ġf e
ĠE h
Ġl it
Ġin f
Ġquest ion
Ġs imp
re ux
Ġh or
Ġpro d
c l
Ġr am
ain s
Ġc eux
liz abeth
t u
Ġen d
Ġc ur
Ġs ign
id ent
Ġbe en
Ġlaqu elle
Ġ out
Ġin v
arb ert
Ġmad ame
Ġv a
Ġenf ant
Ġpos sible
Ġfor ce
ĠF r
g rÃ©
Ġa c
ien ce
il us
ot h
ous e
onn er
ac he
Ġam is
Ġf ai
Ġf ac
os s
aut ilus
g er
Ġn av
Ġfr oid
Ġtr ou
Ġt andis
ce pt
Ġman qu
b res
in d
p e
Ġtr ans
ab l
Ġv oilÃł
ĠD uch
Ġchev al
Ġs avoir
Ġsu b
ĠN on
ĠDuch essa
a qu
m ait
Ġcor ps
Ġsu ff
it Ã´t
Ġg ent
ut es
k ing
Ġlors qu
Ġven ir
Ġtrouv ait
Ġs ole
it Ã©s
Ġcher cher
Ġqu elle
Ġre d
Ġse e
Ġdis par
as t
Ġl Ã©g
Ġs Ã»
Ġcons id
ĠE n
Ġl um
Ġm ettre
Ġb our
Ġsouv ent
Ġc ardin
end emain
able ment
Ġauc une
ai gn
ou x
Ġf at
Ġp Ã¢
Ġhab it
au te
Ã©n ieur
id i
Ġca us
Ġthe y
ĠR Ãªn
Ġcardin al
ĠRÃªn al
Ġhim self
aur ais
p h
Ġc ouv
ier re
arg ent
es c
Ġa y
Ã©t Ã©
Ġfr app
og g
Ġdis c
ie re
el s
Ġfa Ã§on
r is
Ġex pl
Ġplus ieurs
N autilus
Ġvis age
Ġl endemain
ing Ã©nieur
Ġplais ir
Ġfam ille
ĠT h
Åĵ ur
Ġlaiss er
b les
er n
end s
Ġfem mes
Ġpens Ã©e
a lement
l a
Ġm auv
Ġt rem
av aient
Ġqu itt
en ez
Ġjeu nes
Ġenf ants
ath er
o h
er c
est er
res se
ĠS aint
r ant
Ġpar ce
aut res
Ġl itt
Ġpour tant
Ġmin utes
e ff
s s
ar de
Ġgar Ã§on
Ġapp ar
Ġvoy ait
Ġmot s
Ġsole il
ui re
ien d
Ġim pos
Ġdes s
Ġder riÃ¨re
port er
ĠA l
Ġr ac
Ã©ri eur
H e
Ġvoul ait
o v
Ġv e
Ġe ver
Ġpro pos
Ġl et
Ã© on
Ġp at
Ġs ens
Ġt ri
M on
Ġr endre
ĠB on
Ġpro v
orth os
ieu se
Ġvi ol
h ab
Ġp en
en er
Ġc iel
Ġv eux
Ġad m
Ġdiff ic
i ant
r aient
u v
Ġocc up
R E
ag in
ĠA h
ress ion
Ġqu it
Ġs at
Ġthe m
Ġtr ait
A h
Ġ ess
Ġmoy en
Ġm ous
o cc
Ġf ils
Ġf ix
oi x
Ġ Ã§a
Ġh uit
Ġpour quoi
I I
Ġpass Ã©
am is
qu i
ett es
Ġsent iment
appr och
Ġ ir
Ġs ommes
Ġr u
Ġw e
t out
Ġme me
Ġd ir
oy er
Ġsal le
e Ã»t
Ġd ay
ur a
Ġp ap
Ã® n
Ġs uite
end u
end it
onn eur
arr Ãªt
Ġliv res
ĠMil ady
Ġv int
Ġconv ers
Ġre Ã§
ic ul
ct eur
Ġrem arqu
Ġdern ier
Ġcontinu a
D ans
Ġb at
Ġpers onn
Ġp eur
Ġp are
ain es
Ġc ir
Ġm our
Ġm ouv
iss ant
Ġcour t
ou ill
Ã©c ess
ot t
ard s
Ġs auv
al es
Ġdis pos
Ġou bl
Ġnouv elle
o qu
Ġ (
ĠF ogg
ĠdÃ©s ir
l in
Ġs omme
Ġpar oles
Ġwh en
Ã¨ ne
Ġpouv ais
Ġtranqu ille
Ġd r
ai e
er a
Ġar ri
ĠrÃ©s ol
Ġv al
ĠN em
Qu el
ĠdÃ©c ouv
Ġ us
Ġt oi
Ã¢ ce
Ġdonn Ã©
ĠdÃ©c id
ad es
Ġpart ir
Ġes prit
ĠNem o
Ġthe re
m Ã©e
en ant
Ġn Ã©cess
ure r
Ġregard ait
ĠPr ince
Ġp Ã©n
il ett
les s
Ã¢ te
et er
eu f
ĠJ ane
in aire
Ġv ille
Ġr ue
aÃ® t
t on
v ent
Ġs ing
Ġc ents
al itÃ©
ĠR och
Ġt w
Ġb ri
Ã¨ se
ĠM onsieur
Ġajout a
h am
ch a
ĠH arbert
Ġdemand er
Ġvoy age
arg uer
b er
il es
Ġan im
Ġle quel
Ġent ra
Ġfr Ã¨re
Ġau tant
ĠO h
Ġbon heur
o ff
iÃ¨ me
Ġs au
ar s
om ment
n gl
Ġa re
Ġpl ut
Ġsur tout
ign or
arguer ite
ĠP h
Ġan y
Ġconn aiss
Ġd iv
Ġpro c
Ġcr u
ran ge
Ġsu cc
Ġv as
or me
C h
Ã ¯
in ter
Ġpar fait
Ġch ap
em ment
Ġg agn
ĠC onte
ĠmaÃ® tres
le y
Ġj oie
O ui
us ement
ĠP orthos
Ġpetit s
ĠC e
E h
Ġpar ut
Ġc ab
re d
em ble
ĠChar les
Ġcir c
i a
Ġmur m
Ġc Ã´te
Ġay ant
p art
Ġp al
onn Ã©
et e
or ge
Ġr Ãª
ate au
Ġrap id
b e
Ġn ombre
Ġs itu
Ġten ait
Ġenv ir
P endant
s es
Ġtr omp
Ġtrouv a
t ienne
Ġpar ole
Ġcr ain
ĠrÃ© g
Ġcoup s
r Ã¨s
Ġca use
omp agn
Ġcr oire
m i
Ġo bl
Ġmar in
ĠvÃ©r itÃ©
Ġav ons
Ġy our
Ġfr ancs
Ġman iÃ¨re
Ġcompagn ons
s itÃ´t
Ġv ais
Ġaus sitÃ´t
Ġconvers ation
Ġcomp te
Ġa fin
us si
ĠL ond
ass er
Ġsec ond
on ge
ut ion
En fin
il itÃ©
Ġsa c
it y
ĠS p
Ġentend u
v ille
Ġs avait
Ġm ore
Ġm Ã©d
Ġvie ille
onse il
h or
Ġd oi
en v
oin dre
Ġfort une
Ġb Ã¢t
Ġcam p
Ã¨v res
Ġpr ess
Ġpl ac
Ã® ner
h ui
v re
ri m
Ġent endre
arc y
Ġt elle
et re
am our
Ġmar qu
ow n
Ġv ert
Ġimpos sible
Ġd ur
an Ã§
em bl
iÃ¨re ment
Ġcomm enc
ol ie
Ġjus t
Ġplut Ã´t
Ġm anger
Ġr ire
am b
ĠgÃ©n Ã©r
a k
eau x
is h
f ter
Ġf our
Ġe aux
b es
Ġvoit ure
Ġconsid Ã©r
Ġm Ãª
Ġfen Ãªtre
ac k
all er
ĠLond res
Ã® mes
Ġl ib
is es
ĠÃ©t ions
Ġple in
Ġou i
Ġlum iÃ¨re
Ġter rible
Ġrec omm
Ġgar de
Ġb att
Ġgre at
Ġ idÃ©e
Ġc re
Ġlitt le
u te
Ġlong ue
P ar
Ġs oul
Ġpr Ãªt
iss ement
Ġpouv oir
Ġmal heure
Ġsat is
a z
ĠM arguerite
Ġvoul u
Ġt ent
Ġpuis s
Ġmal grÃ©
Ġref us
Ġp re
as ion
op p
Ġcol ons
i ait
Ġl ut
li ce
Ġlar ge
Ġs Ã©ri
Ġc Åĵur
cev oir
S a
p ect
es e
Ġfor m
Ã© an
ĠS ir
Ġapp el
ĠRoch ester
r ouv
Ġp iÃ¨
Ġf av
ag er
ĠSp ilett
N on
Ġch ac
ĠdÃ© g
Ġcon ven
oug h
Ġrenc ont
ar y
Ã©r Ã¨se
Ġcol l
Ġprof ess
act ion
j ourd
Ġcal me
ĠvÃ©r it
Ġrou ge
r Ã©s
Ġs ome
Ġqu in
ĠdÃ©s esp
Ġsouv enir
Ġrac ont
d er
Ġa ct
ill er
Ġs avez
Ġrem pl
Ġten ir
ah eu
Ġmon tre
Ġregard a
r y
Ġn u
Ġson ge
ten ir
Ġever y
b Ã©
Ġt ir
ac ieux
Ġpass ion
Ġret our
Ġvou lez
C omme
Ġd Ã¨s
Ġh ors
Ġpour rait
am in
ot te
Ġaff aire
Ġchar m
ĠÃ©t r
Ġint o
S on
n ous
Ġdem eur
ai me
et Ã©
Ġf il
Ġlar mes
ĠAr amis
? "
ĠE lle
Ġven u
Ġhas ard
Ġ X
Ġth an
ĠrÃ© v
Ġjourn Ã©e
Ġ if
Ġl Ã¨vres
au che
Ġap erÃ§
l us
Ġv ite
al ier
Ġab and
? Â»
A prÃ¨s
Ġbr is
es prit
ent es
Ġr ob
Ġpass a
ett ait
Ġemp l
Ġgr Ã¢ce
ĠÃ©p au
i an
er ai
Ġcomm un
Ã©g l
Ġeff r
y s
Ġd ame
ĠE lizabeth
Ġsal on
ĠprÃ©c ip
Ġrapp ort
Ġquit ter
u ge
on tre
Ġperd u
Ġvou d
Ġm illes
Ġch arg
si eurs
Ġfr ont
ĠR e
Ġtrav ail
ĠÃ©cl at
Ġobs erv
Ġb le
Ġmar ch
us qu
el y
Ġwh at
Ġheure ux
Ġfat ig
Ġd Ã®ner
Ġse pt
ing s
d es
oug ht
part out
J ulien
Ġfait e
Ġcri a
C es
Ġp ain
ĠC onseil
asse partout
Ġc ould
uit s
arr is
le x
Ġv ag
Ġrest ait
avant age
Ã¨ te
Ġbou che
it ions
ign eur
oc k
Ġm od
or g
Ġma de
ĠrÃ©pond re
Ġsh all
b out
o che
Ã¨ le
oy ez
Ġsour ire
O h
oup e
W h
de d
Ġdev en
Ġsort ir
Ġd os
am ment
ĠM a
Ġb less
ĠdÃ© m
Ġbr ill
Ġtrouv Ã©
Ġpris on
f r
Ġt el
Ġr oug
out er
Ġcr Ã©
Ġjus te
Ġsimp le
Ġrem ont
ect ion
ĠÃ©t range
Ġpuis que
Ġviv re
ĠÃ¢ me
Ġb o
ĠH en
ĠdÃ©c l
ou n
an ches
Ġrest er
Ġfou le
ĠN ab
Ġsol d
eus ement
Ġnav ire
h er
Ġf illes
Ġes c
ent ement
Ġpar mi
Ġdom est
I T
Ġd orm
Ġqu art
id es
Ġpass age
ex p
Ġsec ret
Ġcin qu
ent end
le m
Ã¨ ve
ri er
Ã´ le
Ġs us
ar m
us es
ĠN ous
I t
w ay
Ġs tr
ou ff
Ġt end
ic k
Ġpart i
Ġregard er
Ġf ri
ar ch
ist ence
Ġresp ect
Ġsing ul
e il
Ġd oit
Ã© rer
Ġj ug
Ġpr in
Ġdern iÃ¨re
Ġprop re
Ġmous quet
A v
y m
is ter
Ġme ille
ic ation
Ã´t el
Ġpart icul
Ġhis t
Ġlev a
f ace
re e
Ġe ven
ac le
iv er
Qu ant
Ġpos s
o od
Ġqu ar
Ã® t
D es
Ġs ait
Ġen n
Ġens emble
Ġf le
Ġg ouver
ĠN ed
Ġl ang
Ġt ort
Ġdoi g
c k
ai g
Ġc uis
an n
Ġtr es
Ġcam ar
Ġd est
Ġp ois
Ġa fter
it ation
Ġdit es
Ġso ci
ud ence
Ġdoig t
Ġ ÃĢ
Ġp ou
Ġh and
Ġh aute
os se
Ġvol ont
Ã§ ons
Ġmouv ement
u eur
Ġb asse
and ide
ĠÃ© m
l er
l nes
Ġtr aÃ®
Ġk n
Ġla m
oy Ã©
Ġcon se
ĠrÃ© f
ĠprÃ©s ence
ĠMr s
Ġrapp el
Ġtrem bl
occ up
Ġ K
ou bl
ur ait
onn a
Ġcour ant
Ġp us
er te
ri e
ĠM aheu
! "
c ur
o que
Ġf is
Ġparl ait
Ġf ur
ĠrÃ©p Ã©t
Ã©d Ã©on
ent re
Ġpour s
ment s
ĠM lle
ĠÂ» ,
Ġabs ol
d ire
m ma
Ġpas se
Ġe y
Ġsi Ã¨
Ġgrand es
Ġfais ant
Ġdou c
h ors
Ġdu c
ail les
are r
Ġet re
Ġquel qu
ather ine
Ġess ay
Ġh al
Ġch ant
iss aient
op e
ĠdÃ©p art
Ġenvir on
C H
v es
as si
Ġsu d
Ġam our
Ġapp ort
ob s
Ġtomb er
Ġs av
ais sez
Ġr is
Ġr ay
ig h
Ġgr av
ord s
Ġim port
in te
Ġpar d
Ġtr ente
ap erÃ§
Ġan c
Ġth Ã©
eau lnes
ex pl
Ġc av
Ġg auche
ic he
onc er
Ġens uite
Ġpro b
Ġvoy ant
ĠÃ©cl air
Ġmauv ais
t y
v ers
Ġs igne
it es
Ġfait es
Ġdonn ait
Ġmari age
fl Ã©ch
Ġobl ig
Ġthe ir
Ġth ese
Ġdemand e
ĠpÃ¢ le
f s
Ġl is
Ġs Ã©
Ġc oul
il de
ons t
Ġrenc ontre
Ġchac un
Ġs avais
Ġm Ã©t
Ġper dre
Ġdist ance
Ġup on
Ġarri ver
Ġgouver n
I n
a f
en g
ĠT rÃ©
oh n
re ur
Ġau jourd
if e
ath ilde
r on
Ġd avantage
Ġre porter
ic es
Ġatt end
ĠsÃ» r
eter re
Ġsur face
Ã©ri eure
Ġdiff Ã©r
Ġextr Ãªme
Ġs ombre
ol d
ĠÃ© n
Ġviv ement
o de
Ġj ardin
Ġon ly
Ġreg ret
Ġsent ait
Ġdist ing
ngl eterre
Ġd Ã©r
ĠdÃ© ch
Ġarriv a
Ġde bout
le d
Ġf um
it iÃ©
Ġch ien
Ġsurpr ise
g Ã©
j ets
Ġt ap
in si
Ġh Ã©r
Ġpar aissait
ill age
Ġfor me
Ġpass ait
ale ur
ou d
Â» ,
ĠrÃ©p onse
Ġcont ent
A P
Ġpr on
Ġim agin
enc es
E st
Ġ Y
er ver
it a
Ġvoul ut
ĠBon acieux
Ġm us
Ġcomm and
aur ait
n g
r omp
re use
Ġn our
Ġin qui
Ġbr Ã»
Ġsuiv ant
Ġprom en
r ons
Ġtr iste
ord re
Ġeff ort
Ġchev eux
Ġreven ir
y rt
ui e
ĠM ole
Ġsu jet
Ġouv ert
ĠmaÃ®tres se
yrt on
Ġsuiv re
f ore
p le
s on
Ġb onn
Ġtr ain
ĠD arcy
Ġver y
Ã© b
Ġt ime
Ġav ais
Ġrest a
Ġ 2
Ãªt res
Ġcol Ã¨re
Ġpu bl
Ġchev aux
u ir
ut ile
ĠS i
Ġvoi ci
Ġserv ice
C ela
Ġm iss
Ġen g
ĠrÃ© flÃ©ch
Ġvrai ment
Ġre lev
Ġarr Ãªt
Ġcomb ien
Ġm agn
he d
ing ley
Ġat te
Ġsem ble
Ġve ille
Ġqu ant
Ġav ions
Ġsa y
iv ement
Ġmar che
all y
Ġmes sieurs
Ġarriv Ã©
Ġcompr endre
ĠTh Ã©rÃ¨se
Q ui
Ġj oy
Ã¨ tres
am es
ois elle
ĠL and
Ġcar act
Ġregard ant
O r
n ing
Ġre pos
ĠG ran
Ġcour age
eus es
Ġtw o
Ġt aille
ing oire
tr u
Ġpos ition
Ġsh ould
Ġsitu ation
ĠTrÃ© ville
L ors
w n
Ġcontr aire
Ġm oit
ĠÃ©t onn
ĠL aur
ĠMar ches
Ġcinqu ante
Ġsec onde
Ġjet a
ĠGran ite
Ġfais aient
enn et
_ ,
l d
u ve
Ġall a
Ġpouv aient
Ġatt ention
Ġcan ot
Ġdroit e
Ġquin ze
Ġch ang
Ġfor c
ĠprÃ© v
Ġp ierre
at es
Ġimm ob
Ġs Ã©par
Ġv in
Ġla t
Ã¢ ch
ail s
Ġmy st
Ġd Ã»
Ġp ense
it ait
ĠS t
Ġar g
Ġdev in
ĠdÃ©j eu
Ġdesc end
Ġretr ouv
Ġprofess eur
h onneur
l les
Ġde hors
Ġdev oir
Ġdonn a
Ġmis Ã©r
Ġc ad
an Ã§a
Ġpar c
Ġdi able
Ġpens er
Ġemp ort
Ġend roit
Ġl og
Ġo re
ap rÃ¨s
Ġd anger
un es
he re
Ġcons t
Ġcomp t
h um
l am
n Ã©
er m
Ġch air
if ique
li qu
Ġgen oux
arrÃªt a
Ġmour ir
Ã¢te au
CH AP
l ait
in st
Ã©c l
ĠC atherine
Ġar m
ass Ã©
Ġport ait
Ġsup pl
H ouse
r ine
Ġ id
Ġpr Ã©par
Ġim pr
Ġmal heur
ĠJe an
Ġple ine
y p
Ã©t u
Ġcon c
Ġm ou
Ġf ir
Ġre ine
im es
ac re
ĠP our
Ġregard s
att end
Ġlet tres
Ġmoit iÃ©
ĠLaur ent
n ess
Ġp oit
Ġm et
Ġt Ã©m
ur Ã©
Ġth ought
Ġar bres
a uss
Ġs in
in dre
ĠFr ance
Ġcirc onst
ĠÃ©tr ang
S es
k ed
r ois
ou reux
Ġc oin
Ġm oindre
Ġv ain
Ġr oul
ĠG Ã©dÃ©on
s ement
Ġpl an
ĠC an
ĠA lice
ell ig
T u
ou is
Ã¢ tre
Ġdem eure
li a
quel s
ĠÃī tienne
ĠAl ors
ĠÃ©pau les
er ent
Ġf ol
ĠÃ©t ant
ĠP assepartout
ĠdÃ©p l
Ġmor ce
Ġcouv ert
ĠdÃ©cl ar
0 0
Ġn euf
ĠM eaulnes
ĠrÃ©pond is
Ġcertain ement
Ġsatis f
L Ãł
Ġv eut
el opp
ot ion
ĠN e
i ous
j est
Ġs oin
Ġa che
Ġde l
Ġn ord
Ġhab itu
ĠÃ©ch app
g ht
ord inaire
Ġpouv ez
Ġf ar
Ġj uge
Ġtrav aill
iqu er
Ġsp ect
Ġpours uiv
Ġai g
Ġlaiss a
Ġnouv elles
ĠprÃ© f
Ġquar ante
Ġc ours
Ġr ang
ri f
Ġter min
Ġab out
Ġlaiss Ã©
Ġrev int
Ġey es
Ġc ous
Ġv ient
el ton
ain tenant
ĠH arris
Ġdemand ai
Ġpens a
Ġli bre
Ġparfait ement
i ff
Ġentre r
Ġheure use
ĠdÃ©l ic
Ġdem ain
Ġ em
at eur
ĠÃ©c out
Ġliv re
Ġreconn aiss
Ġann Ã©es
le lia
ile as
i ance
Ġ Un
Ġn oire
Ġo ver
Ġapp art
Ġst up
Ã©gl ise
Ã¢ che
ĠÃ© lev
Ġser ais
Ġca ch
ĠO n
Ġsec ou
Ġrapid ement
V oilÃł
Ġo s
Ġo th
oir es
ue il
Ġcr is
Ġbe fore
Ġprem iers
ĠvÃ©rit able
Ġm ost
Ġh ers
ag Ã©
ass es
Ġvoy ez
usqu ement
Ġp ont
Ġt irer
me me
ĠÃ©t at
ĠM athilde
Ġag rÃ©
Ġlo ok
Ġfac ile
Ġpoit rine
Ġb ec
Ġne ver
o te
Ġfr anch
Ġai m
Ġd own
Ġm Ã©p
Ġt ete
onn ait
Ã¢ me
iz on
Ġprin ci
e orge
l ons
Ġ our
Ġs out
om pl
Ġpr Ã©t
ĠP l
ate d
Ġfin i
c on
Ġb el
ĠD e
ĠJ im
ĠV otre
Ġlong ues
Ġsuff is
Ġlib ert
Ġth en
Ġal lez
Ġadm ir
Ġdest in
Ġkn ow
an im
ol mes
ĠC andide
Ġyou ng
uss ent
A t
M me
Ġ Que
Ġl entement
Ġs oi
Ã©r Ãªt
Ġdonn e
S ur
Ġd ents
Ġl ife
is ion
Ġb ateau
Ã©t r
Ġau prÃ¨s
ĠrÃ© veill
Ġatt endre
Ġass is
Ġsp e
Ġesp Ã¨
ĠdÃ©jeu ner
A r
Ġd ress
Ġpr enait
am p
iv es
ĠL y
ay ant
Ġtrouv e
Ġmont er
Ã©l oign
Ġbl anc
Ġgent lem
Ġcamp agne
T ous
h Ã´tel
l and
Ġm ust
er ne
Ġb ais
au de
ce p
Ġreconn aÃ®tre
Ġf aud
am ille
ĠM ont
emp le
Ġag ain
Ã©ch app
Ġdiffic ile
F abrizio
f ul
Ġl arg
Ġh ur
Ġg out
Ġap res
Ã©d i
Ġph ras
.... ....
Ġmurm ura
Ġp av
Ãª ter
ĠL es
Ġar d
ĠÃ©c rit
Ġdire ction
Ġhaut eur
Ġquoi que
Ġhist oire
Ġfir st
Ġd im
Ġv aisse
ĠB ingley
Ġter r
IT RE
CHAP ITRE
C omment
Ġm ons
Ãª cher
if s
ĠÃ©p rouv
Ġcompr is
Ġpol it
A ussi
f ort
r al
Ġn ul
Ġre j
ri ce
Ã©r Ã©
app el
Ġsort it
N e
d ain
l ant
l ot
Ġ ait
Ġpr Ãªtre
Ġar t
Ġaff aires
c in
Ġc ord
ar riv
Ã§ ant
Ġtrouv ai
Ġfai m
ĠnÃ©cess aire
Ġp Ã»t
Ġg ui
Ġma ke
eus se
Ġf ont
Ã» mes
Ġdev aient
ieu sement
Ġquelque fois
Ġpe re
Ġress embl
Ġm ill
ir es
Ġw ay
ĠC l
ne d
od o
Ġjam bes
og ne
l et
o Ã¹
o eil
Ġb aiss
Ġpr ot
am ais
Ġfl am
Ġtrou bl
E lizabeth
g es
Ġd id
on ie
Ġb et
or n
Ġchar ge
Ġ z
Ġh app
ess ion
Ġcon tem
Ġfor Ãªt
Ġvis ite
Ġmer ve
iqu ement
Ġcompagn ie
Ġexc ell
esc alier
Ġdiffic ult
Ġrob e
T oute
Ġl igne
Ġp ist
er ies
Ġh Ã©s
Ġinst ants
ĠpiÃ¨ ce
o cher
ac es
Ġbr usquement
Ġpetit es
iel d
Th is
D u
is c
Ġv oil
ue ill
Ġman ge
Ġdou leur
Ġcou cher
u ait
Ġf oi
Ġb re
Ġch aud
Ġven ue
Ġcons Ã©qu
Ġlaiss ait
Ġgo od
ouver te
Ġsurpr is
A insi
Ġd out
ou er
Ġt al
le ver
Ġmal ade
Ġcl air
ĠPar ma
Ġriv age
Ġcommen Ã§ait
Ġprinci p
B ut
h ing
Ġav ent
ĠF ran
ĠrÃ© un
Ġfer m
th ing
Ġsup pos
Ġnature lle
enf ant
Ġpap ier
ĠreÃ§ u
Ġchap eau
Ġmarqu is
Ġsus p
b as
Ġa ch
ant Ã©
ien nes
ĠrÃ©p liqu
Ġfer me
Ġcrain te
ĠrÃ©f lex
Ġp an
Ġt or
Ġeu ss
Ġconn aÃ®tre
Ġoff ic
Pour quoi
M a
er cev
Ġb er
Ġw or
Ġall ons
Ġpens Ã©es
Ġcamar ades
Ã©tu de
Ġm Ã©l
om an
Ġent r
ret Ã©
Ġvas te
le ct
Ġla d
Ġj olie
Ġch aise
Ġpro jet
Ġgros se
Ġs aut
ĠM on
tr ait
Ġsem aine
Ġpens ait
Ġdou x
imp orte
Ġcaract Ã¨re
Ġr ass
Ġch Ã¢teau
ĠC omment
Ġan gl
ess es
ill on
ex c
Ġgl iss
Ġretr ouver
ĠmÃ©d ec
Ġsoci Ã©tÃ©
Ġoth er
c ul
Ġma ch
Ġcr aign
Ġex istence
Ġbl anche
ĠbÃ¢t iment
Ġn ow
Ġv eu
ab bÃ©
os itÃ©
Ġce ci
Ġma y
ĠGr ingoire
Ġache v
S ans
Ġm Ã©r
Ġf ourn
it s
Ġpl uie
Ġw ell
op h
app ar
Ġcond ition
Ġabsol ument
n ent
Ġv ap
Ġla c
Ġg este
Ġven aient
ĠH olmes
Ġapp e
Ġserv ir
Ġesp Ã©r
aff aire
Ġmauv aise
as im
Ġch ass
onn u
Ġfer ait
Ġport er
Ġgent il
Ġj a
Ġme re
Ġth r
Ġparl Ã©
Ġor g
De puis
ĠlÃ©g Ã¨re
Â Ĵ
Ġr es
ad ame
Ġprof onde
Ġdo cteur
ĠtraÃ® n
i lement
Ġd ois
il i
oin te
Ġmoment s
Ġcham p
Åĵ il
asim odo
Ã© f
Ġr iche
ol n
ĠC lelia
Ġdis ant
ĠD E
inc oln
Ġgo Ã»t
f t
Ġf ant
Ġcom e
Ġex amin
Ġcel les
Ġrepr Ã©s
Ġemb arr
Ġli ke
Ġsentiment s
Ġjust ice
Ġmalheure ux
Ġdomest ique
jest Ã©
c an
h ait
ar i
ar n
is er
un s
ĠC amille
Ġan g
Ġjus que
Ġret omb
Ġbeau x
Ġjet er
Ġimm ense
Ġcommen Ã§
Ġm eur
Ġb ons
Ġpr end
ri ers
ĠÃ©t roit
Ġmal ad
Ġdou ce
Ġtomb a
Ġlieu es
ĠpÃ©n Ã©t
b us
Ġm u
in ct
Ġv illage
em oiselle
Ġre pl
Ġth ree
Ġmes ure
Ġbe g
ist es
ere d
cur itÃ©
Ġid Ã©es
b on
Ġpour rais
id emment
Ġhe art
Ġtu er
Ġcri me
par avant
Ġfou nd
Ġocc asion
ĠCan ad
Ġc le
Ġc ess
Ġm ag
Ġm Ã¨tres
Ġh ow
Ġpo che
Ġlo ve
Ġcommen Ã§a
hor izon
c Ã©an
u Ã©
u mes
Ġ ke
in ion
Ġg uer
and s
Ġbr ave
Ġall aient
Ġcert aine
Ġdesc endre
Ġplais ant
Ġgen re
Ġrel ig
A thos
M aintenant
Ġl ire
us ion
Ġtant Ã´t
l Ã©
t ion
ri c
end ue
ĠC ont
Ġfr iss
ĠB ennet
Ġsou hait
ex tr
Ġfl ots
h ist
j ect
Ġl une
Ã© ress
Ġp es
Ġr av
Ġg ai
Ġre cevoir
Ġpr ix
Ġarriv Ã©e
ĠPh ileas
Ġconnaiss ance
a Ã¯
f orm
er ci
Ġr ich
Ġpar le
ri ere
Ġgr ave
Ġfor te
ĠF elton
Ġdouc ement
c re
o ve
Ġt ellement
Ġh onn
av ing
Ġch ange
Ã©r ation
id ence
Ġwith out
Ġsup p
O N
Ġm Ã©n
el on
Ġne z
ĠV er
Ġca me
Ġcroy ait
Ġtrans port
Ġsomme il
Ġm idi
Ġf oll
Ġch ois
Ġacc ompagn
ĠdÃ©j a
Ġdir ige
Ġble u
Ġhers elf
ĠmÃ©p ris
ĠCanad ien
p ent
Ġs oix
ent endre
Ġb elles
Ġch ance
Ġcon cl
Ġvoy ag
Ġbeau tÃ©
Ġvoul ais
Ġaur a
Ġimm Ã©di
Ġsimp lement
Ġp eau
Ġw ent
Ã©c ut
ĠÃ© qu
Ġsent it
Ġsembl a
ĠÃ©l oign
Ġgu Ã¨re
Ġeffr ay
e p
r up
Ġd ames
ol og
ign es
ven ir
dess ous
o eu
Ġv ict
iss ion
Ġver re
Ġrais onn
r age
Ġ Ã®le
is tre
ri d
ri Ã¨res
av al
Ġpl ant
ate ment
Ġdou ze
Ġautre fois
Ġgo ing
Ġriv iÃ¨re
Ġdispar u
ick ham
Ġimmob ile
Ġspect acle
r Ã©t
Ġj ol
or Ã©
Ã©t at
Ġcons ol
Ġdou ble
Ġta ke
Ġvoud rais
Ġpl ateau
Ġo is
ab and
Ã©r ence
Ġall um
ĠF ix
Ġfen Ãªtres
Ġdoigt s
k s
Ġt Ã´t
Ġb i
me d
Ã¨ g
Ã¨ me
ĠL ord
omb res
ĠrÃ© d
Ġco qu
Ġpris onn
Ġcond uis
Ġentend it
Ġno ble
Ġcompagn on
Ġretourn er
Ġgagn er
Ġau quel
ĠA v
are d
Ġarriv ait
Ġpol ice
Ġfav or
Ġfoll ow
Ġsoix ante
Ġp oign
an ou
Ġm ight
Ġv ig
ien nent
Ġch aleur
ge ois
Ġfait s
Ġfl ot
ĠdÃ©t ails
Ġord re
anch et
Ġlibert Ã©
Ġgentil homme
u b
Ġpar aÃ®t
av ons
Ġin n
ĠC r
Ġpers u
Ġsoir Ã©e
C yrus
Y ou
Ġm orte
Ġre cher
Ġpr ise
int Ã©rieur
Ġcond uite
ĠÃ©v Ã©n
approch a
Quel ques
Ġl ourd
Ġp ointe
Ġm ine
ĠG eorge
anc er
A s
i as
Ġf aute
Ġb ill
or c
ad m
emp l
Ġad ress
Ġcou leur
ere z
Ġfall ut
Ġbonn es
ĠrÃ©pliqu a
Ġp ier
Ġp itiÃ©
Ġs m
Ġf irent
Ġv ide
ri re
Ġsa w
Ġces se
Ġrec ul
Ġint ellig
Ġconv ict
ai m
in a
al ais
Ġmar cher
Ġconn ais
Åĵ bus
Ġgard es
Ġro om
Ġdess us
Ġvaisse au
Ã© lev
qu elles
Ġle ver
Ġapp uy
idi acre
en e
en aient
ai de
ou ille
it re
Ġh on
em bre
Ġpass ant
ĠI n
Ġport es
ĠrÃ©s erv
ĠrÃ©s ult
ov ary
Ġmontre r
A nd
Ġf ussent
Ġar ra
Ġind iqu
Ġquitt Ã©
Ġpare ille
Lors que
ĠespÃ¨ ce
) ,
E N
y pt
Ġp ir
Ġs ym
Ġr id
Ġh ard
Ġsa ur
ĠS ans
Ġdis p
Ġfr Ã©qu
Ġcour se
Ġso eur
Ġconv ain
ĠgÃ©nÃ©r al
entend is
Ġgentlem an
ĠreprÃ©s ent
E R
Ġ ignor
in et
ar p
Ġb arb
ain te
Ġy e
Ġar riÃ¨re
Ġman que
Ġrepr is
Ġbout ique
cep ter
Ġeuss ent
Ġguer re
D eux
b ut
Ġm ise
Ġf id
ri ez
onc Ã©
Ġsou dain
Ġ1 8
Ġbour geois
Ġdiv ers
ĠmisÃ©r able
Ġmerve ille
A m
o gn
Ġs able
Ġpeu ple
Ġser ai
Ġcor ral
Ġsup er
Ġextr a
ener al
Ġcontem pl
hist oire
c les
Ġf ine
ais on
au ff
ch Ã©e
ĠdÃ© n
Ġpro ch
Ġai me
Ġfin d
Ġord inaire
Ġhor rible
Ġrecomm and
A ngleterre
P lus
p er
p he
Ġm ent
ar re
at eurs
oi ci
Ġch asse
im agin
oir s
Ġth in
Ġdis s
ert es
Ġdev int
Ġreg arde
Ġdemand ait
Ã©l as
Ġnot hing
Ġouv erte
Ġvit esse
Ġchemin Ã©e
ĠMa jestÃ©
i Ã©e
s ons
Ġh un
Ġg ive
Ġmais ons
Ġcr ut
Ġentend ait
Ġpersonn es
Ġtranquille ment
cin q
f ield
z aine
Ġp ai
Ġm ers
Ġm ett
Ġt ur
Ġb Ãªte
Ġcom te
-- Â«
Ġin utile
onn Ã©e
Ġgr is
Ġto ok
Ġfr anÃ§
Ġsu ch
ass in
Ġbe ing
Ġgl ac
ument s
Ġro ches
Ġcur i
ĠrÃ©v ol
Wh at
ou nd
Ġm emb
Ġv Ãªte
Ġj al
ad is
ĠA yrton
ĠB ovary
Ġsent ir
Ġvoi le
Ġquest ions
Ġsign al
Ġarg ent
e ver
m ar
Ġm ettait
Ġt im
Ġb oute
om ie
Ġun s
aire ment
iv ers
Ġent iÃ¨rement
Ġsoup er
Ġfai ble
Ġpubl ic
t a
Ġp il
Ġp Ãª
Ġm urs
Ġt ante
ar es
ar ri
Ġr ide
our g
ouv rit
Ġw here
ĠB r
Ġs onn
Ã¨ tre
Ġpr enant
Ġcons c
Ġtrois iÃ¨me
Ġcond am
fl u
Ġanim aux
ĠdÃ©sesp oir
Ġparc our
ĠagrÃ© able
Ġ Une
qu er
Ġr omp
ri mer
Ġin fin
ĠÃ©p ouv
min ence
Ġpauv res
Ġnature l
ĠaperÃ§ ut
ĠcrÃ© ature
ĠÃ©n orme
Ġ er
Ġb ack
Ġav is
Ġpr iv
Ġpar fois
Ġau paravant
Ġson ger
Ġto o
oy ait
Ġbr av
ĠdÃ©s ire
Ġsec ours
Ġsuiv i
Ġjet Ã©
Ġsouff r
Ġexp ression
Ġprofond Ã©ment
arch idiacre
Ġcuis ine
C et
Ġd igne
Ġr are
Ġpeu vent
ĠÃ© b
Ġpuis qu
Ġint Ã©rÃªt
Ãī tienne
Ġimp at
Ġsoup ir
Ġemb r
Ġrap ide
b eau
h ommes
Ġ ut
Ġc it
re ment
Ġr ues
os ph
ĠL ouis
esp Ã©r
Ġatt ach
Ã©cri ai
ĠprÃ©c is
Ġmur aille
Ġnoir s
Ġoubl iÃ©
Ġenn em
Ġ ais
en sible
Ġc Ã©d
Ġqu ite
ag r
ap h
Ġan t
Ġfr aÃ®
ĠG eneral
Ġpuis se
Ġaff ir
Ġconn aissait
Ġmousquet aires
J amais
Ġl ueur
Ġf i
ap s
Ġon ce
Ġdi am
di a
o Ã»t
Ġl iqu
Ġp ot
re au
Ġm ante
Ġb ag
Ġb ond
Ġle ft
at te
Ġg iv
ĠÃ©t ud
Ġdu t
ĠS a
Ġex t
Ġser aient
ĠE mma
Ġatt endait
Ġret ir
Ġsou lev
Ġrepr endre
Ġs inc
Ġs omm
Ġla st
Ġj ur
as on
ol and
ĠL incoln
Ġdev enait
Ġcomp ter
Ġlaiss ant
ĠÃ©v idemment
eth er
Ġlam pe
Ġpersu ad
Ġs elon
ar ie
ul g
Ġar mes
ĠJ ohn
iÃ¨ vre
Ġrev oir
ĠW ickham
Ġpouss a
II I
Ġore illes
Ġaig u
i ze
er ve
Ġf ier
ag ement
ĠS ignor
Ġpart out
esp Ã¨re
Ġca f
Ġterre ur
Ġmen a
hab itude
u a
Ġm eu
Ġet c
us er
at ique
ri b
end roit
all ais
Ġcour ir
Ġlong s
ist ance
ĠÃ©p oque
Ġfin it
Ġaur aient
Ġobs erver
Ġmanqu ait
Ġtri omp
Ġlang ue
O U
R ien
s p
Ġcons ent
Ġob st
Ġenv ie
Ġmad emoiselle
Ã¨v re
Ġvois in
ĠrÃ©c it
M r
S he
r ite
Ġc ul
Ġm asse
us se
Ġpar v
Ã©r ir
Ġcap able
Ġst ill
Ġsour d
Ġtourn a
Ġrep as
iend rait
Ġviol ence
Ġtrait s
ĠmÃ©dec in
h an
i al
p res
Ġm Ã©m
er cevoir
au c
ĠS e
Ġport rait
Ġappr is
Ġpare il
ĠPh Åĵbus
Ġposs Ã©d
_ .
Ġr ive
au me
Ġsa me
ĠA u
Ġhe re
Ġsembl aient
Ġconf iance
ĠprÃ©c Ã©d
Ġcontinu ait
Ġph il
u les
w e
Ġs te
is me
Ġb u
Ġb Ã©n
ure ur
ĠrÃ©p and
agn es
Ġcar ri
Ġrem ettre
Ġins tr
Ġord res
Ġgal op
aqu in
Ġsau ver
Ġsac rif
ĠmÃª mes
Ġpromen ade
inst ant
Ġmorce au
ĠVer riÃ¨res
E mma
L E
Ġm Ã©c
Ġf o
Ġb oire
Ã¨ che
Ã©p au
Ġtout s
Ġfor ces
ĠE st
if ic
Ġatt endant
Ġsuiv it
Ġseul s
Ġfus il
Ġvent re
ĠdÃ©cid Ã©
obs curitÃ©
' t
o Ã¯
Ġl ande
Ġa way
Ġb and
ag it
emp ort
ĠV al
Ġter res
oid s
Ġcomb at
Ġeven ing
I f
P eut
Ġ âĢ¦
Ġl aisse
Ġp a
Ġs Ã©v
Ġm ir
Ġde t
ent rÃ©e
is hed
ont Ã©
Ġsi ff
Ġex ac
op le
ieu ses
Ġtrouv aient
Ġcol on
ip age
Ġappr och
oth er
Ġlut te
ĠMaheu de
Ġthr ough
ĠimmÃ©di atement
j our
ou est
as e
Ã¨ tement
ri que
ad ress
ĠP uis
Ġatt ent
Ġparl ant
Ã©l ic
Ġmin ute
erv ille
Ġcond uire
Ġop pos
Ġcroy ez
Ġretourn a
ĠÃ¢ ge
Ġfe w
occ asion
Ġbat tre
ĠdÃ©couv rir
Ġfle urs
ĠPl anchet
O cÃ©an
Ġp ur
el t
au fr
ion n
Ġcom pos
Ġth ose
Ġrep ouss
Ġgard er
Ġlad y
M es
a x
an it
Ġt endre
Ġn ame
Ġn aufr
eu lement
ĠC ela
ore ille
ĠR ou
ĠR aquin
Ġrest Ã©
Ġmin d
Ġtourn ant
uc king
ucking ham
E lles
m Ãª
Ã «
on Ã§a
it eur
te z
Ġg rim
Ġpr ol
oi de
ag issait
all Ã©e
Ġsem aines
Ġaff ect
Ġren vers
Ġdom in
ĠÃ©g alement
oll ins
Ġpier res
g ie
Ġp oids
in qui
Ġf Ã¢
Ġf osse
Ġv iens
or al
Ġr approch
Ġon ze
Ġam ie
ĠN otre
Qu oi
ĠT op
Ġder riere
emb r
rit ure
ib les
Ġinter romp
Ġcroy ais
Ġtrou ble
Ġanim al
Ġvag ue
Ġeffort s
Ġangl ais
! ...
O Ã¹
s ou
Ġs oyez
ou Ã©
an itÃ©
Ġf abri
Ġv Ãªt
Ġpar ents
av ent
Ġpl ain
endre di
Ġtemp Ã©r
ett y
Ġcher chait
Ġdern iers
ĠQu asimodo
ĠrÃ©g ul
Ġdeven u
Ġcirconst ances
D ame
h iver
p ir
Ġs ab
Ġm ang
Ġr uis
Ġent iÃ¨re
Ġex cept
Ġmar chait
Ġhe ad
ass a
ci eux
ĠT out
Ġsent ais
Ã©m itÃ©
Ġpay er
ĠW inter
Ġvolont Ã©
Ġcad av
Ġsupp ose
O u
Ġv aut
Ġh onte
Ã©t abl
Ġpl ate
ĠrÃ©p Ã©tait
ĠÃ©c ras
Ãī t
Ġjou er
Ġentra Ã®n
Ġfol le
p it
Ġ eur
Ġs ir
Ġr oy
Ġles quels
Ġpl ong
ĠM in
Ã©p arer
Ġto il
oy ons
id itÃ©
Ġdev enir
ĠD u
if ice
Qu elle
Ġmont ait
Ġviv e
Ġserv i
onse igneur
Ġgal erie
A N
t il
z o
Ġs antÃ©
ou re
ou che
on Ã§ait
an Ã§ait
Ġm Ã©ch
Ġg Ã©
Ġg orge
Ġpr ie
av enir
se ign
Ġwh om
ven u
Ġtoute fois
Ġsc Ã¨ne
Ġhum aine
ĠdÃ©l iv
ĠLy dia
Ġmemb res
Ġconsc ience
Ġphil os
J ohn
ai mer
Ãª que
Ġo ld
ĠÃ© te
ct ions
Ġvoy ais
Ġparl a
Ġmont agne
Ġtu Ã©
Ġacc ompl
Ġfaut eu
ĠÃī minence
Ġcaus er
Ġcrain dre
ĠrÃ©pÃ©t a
flu ence
ĠmÃ©m oire
g ment
u ill
le urs
om ais
Ġfr ais
Ġfr oide
ĠrÃ© uss
ĠÃ©c riv
Ġrec ouv
Ġai mÃ©
Ġaff ection
Ġconn u
Ġouv rit
ĠprÃ©c aut
Ġph ys
Ġren f
Ġprod uis
Ġfai bles
Ġsatisf action
A n
d en
Ġp ous
in ess
ur ant
ĠÃ©t ouff
Ġw oman
ig er
si Ã¨re
si ve
Ġent our
Ġex emple
Ġas ked
Ġfer a
are t
Ġprem iÃ¨res
Ġcond itions
Ġrent rer
ĠHen ry
ĠvÃªte ments
l o
Ġ Ã§
Ġl Ã¢
Ġav eu
Ã©c out
ĠÃ© d
Ġret ur
Ġsembl able
Ġfac ilement
Ġp uits
ĠÃ©t onnÃ©
Ġpl a
ie ce
ĠP ierre
Ġjus tement
Ã©ri c
Ġca cher
Ġob Ã©
Ġday s
ĠtÃ©m oign
Ġmante au
Ġphys ion
is tr
el ier
at er
ĠC ompagn
aiss aient
Ġcons erv
Ġcertain s
Ġprop ri
Ġprofond eur
Ġmalheure use
Ġroug es
ĠMarches a
E S
m oins
Ġs ure
Ġm as
Ġqu at
is Ã©
Ġpar aÃ®tre
Ġse rez
ĠM onseigneur
ĠS on
ĠA n
ĠN ap
Ġper f
Ġpos te
âĢ¦ .
Ġchar bon
ĠIl s
Ġind iff
Ġrend ez
arc ation
aperÃ§ us
M onsieur
P as
m osph
r ist
v ant
Ġd oul
Ġp iqu
Ġc at
qu is
ĠD ans
Ġam en
Ġcel l
Ġrem ar
The re
Ġhor se
Ġac cept
Ġdess in
Ã©an moins
Ġsold ats
ĠsiÃ¨ cle
Ġcaf Ã©
Ġcolon el
m en
r u
Â °
ou e
Ġh Ã¢te
Ã¨ de
Ġin j
Ġw ord
ĠR od
Ġcour ut
Ġcor de
Ġprom is
Ġsc ience
Ġcal cul
Ġperd ue
ĠlÃ©g er
Ġmeille ur
Ġray ons
Ġrencontre r
Ġcuri ositÃ©
G r
Ġd on
Ġs oign
Ã©t ant
Ġre ten
Ġo wn
ette z
ĠB uckingham
Ġdemand Ã©
Ġvie ill
Ġmont agnes
Ġreconn ut
Ġsouff le
Ġbes ogne
V ers
Ġ Ã®
Ġt ab
Ġt old
Ġle ct
Ġh aine
Ġre par
Ġne v
Ġtr ess
ĠC he
si b
Ġgr anit
Ġto it
ill ons
Ġven ez
Ġmont ra
Ġcri ed
Ġenv ers
Ġcompr it
Ġgl ob
Ġlaqu ais
Ġbat aille
Ġpois sons
Ġfum Ã©e
ĠMont sou
ĠFran Ã§
ĠfranÃ§ ais
A R
H arbert
n Ã©e
v ingt
Ġc out
Ġt re
it Ã©e
Ġb an
tre et
Ġne ige
se au
Ġtr ah
iss ent
ĠrÃ© ellement
Ã©ri que
Ġten ant
ĠcÃ´t Ã©s
Ġrapp elle
Al lons
Ġph arm
Ġgros ses
ĠÃ©v ident
Ġcompl Ã¨tement
ngl ais
Ġsatis fait
Ġprob able
Ġquant itÃ©
Ġmou ch
Ġpharm ac
P encroff
d ans
m ost
Ġd ange
Ġp un
Ġs im
re l
Ġt ira
is ions
Ġv ole
Ã¨ ge
os c
ul l
Ġou tre
Ġat tr
iment s
ĠdÃ©t r
Ġlev ant
Ġreven ait
Ġreconnaiss ance
Ġhonn Ãªte
Ġpai x
ĠÃ§ Ãł
ĠCompagn ie
v ue
Ã© h
Ġt ell
Ġau d
ĠÃ©t abl
ain ed
Ġch agr
art in
Ġrem it
Ġouv riers
Ġcur ieux
oun t
Ã©pau le
! âĢ¦
D ieu
r ont
Ġf olie
Ġr age
Ġh Ã¢t
ir ai
ri g
ac Ã©
ass ait
anc Ã©
Ġcomm iss
Ġai mait
Ġmont h
Ġcher ch
Ġass ise
acc ord
Ġtourn er
oh Ã©m
Ġvert u
Ġmyst Ã©ri
Ġfaud rait
er min
Ġf elt
Ġh ier
ĠA d
op ul
Ġam us
Ġret ard
ale ine
og ue
Ġvol can
Ġgl ace
Ġcent re
Ġjou es
Ġmoy ens
Ġfav eur
Ġcharm ante
Ġcharg Ã©
Ġfatig ue
Ġfri end
ĠMarches e
B ien
h uit
v aque
Ġ ide
Ġp eux
Ġs aint
ou reuse
Ġm aig
Ġde gr
Ġh aving
Ġch Ã¨re
Ġfr Ã©m
Ġche f
ĠI t
Ġret ent
att endait
Ġmy self
ĠpÃ©n ible
way s
Ġpou dre
Ġphras e
Ġcle f
, Â»
M il
k en
Ġf re
Ġen r
Ġpr ouv
ĠÃ©t ern
ag rÃ©
Ġw ind
onn ant
Ã©r ait
ĠÃ© lect
Ġap pl
Ġche m
ĠrÃ©pond ait
Ġcl asse
dre z
Ġpe ople
ĠprÃ© occup
Ġdesc endit
Ġdispos ition
Ġsouvenir s
Ġmagn ifique
Ġl ignes
Ġc er
is se
Ġre cev
Ġpr udence
Ġdis tr
emp Ãªcher
Ġpart it
Ġsou m
Ġautre ment
Ġsembl ables
Ġcontin uer
Ġsouff rir
Ġtoi le
Ġcab inet
ĠsÃ©ri eux
Ġsin on
Ġconvain c
e y
t oi
Ã ĩ
Ġ 3
Ġl u
Ġl ing
Ġp end
Ġqu eu
in rent
or b
Ġg az
Ġo d
Ġch anger
Ã©r itÃ©
ĠdÃ© d
ĠA ngleterre
tr od
ist ait
Ġpos t
Ġvoi e
Ġrend u
Ġprop res
Ġprod ig
Ġcur Ã©
ĠHen ne
ĠPour quoi
M oi
o ches
o ke
Ġl un
Ġc ost
Ġb ande
ĠM erc
Ġdem ie
Ġwh ole
ail li
Ġtour ment
iend ra
Ġpuiss ance
Ġdegr Ã©s
ĠHenne beau
d ie
m and
w ards
Ġl im
Ġde ath
Ġv ont
Ġv if
or es
te x
Ġr ose
ur ope
at ive
au l
Ġpr omp
ill Ã©
ore r
Ġtomb ait
Ġsil enc
ĠdÃ©v elopp
Ġimagin ation
Ġvap eur
Ġphysion omie
Ġ Qui
qu Ã©
Ġt aill
in v
it ant
Ġb ontÃ©
as h
Ġg ib
Ġw ords
Ġall Ã©
Ġmont a
Ġsort ait
Ġbou ill
Ġrend it
Ġesp oir
Ġsang l
ĠCl aude
Ġvoyag eurs
I S
r Ã©es
Ġp ure
er ais
Ġb all
om in
us c
Ġch oc
Ġch ute
Ã©c ole
ac er
ĠP ro
oy a
Ġent ier
Ġbr ouill
Ġar ch
bl i
Ġdev ais
iss ements
pl end
ĠR ob
La urent
Ġpens ais
Ġtrav aux
Ġcou che
Ġviv ant
Ġsuiv ait
Ġrais ons
Ġdo or
Ġretr ait
Ġpersonn age
Ġnu ages
Ġbless Ã©
Ġfauteu il
Mil ady
Ġc oute
Ġt as
Ġn erv
Ġr Ã´le
al itÃ©s
ĠÃ©t ais
ec i
im m
si er
ic o
Ġpro jets
oup es
aut ant
ang ers
Ġab ond
att endre
Ġouv rir
Ġrend ait
Ġref er
Ġreven u
Ġhum eur
Ġop inion
Ġpen sez
Ġdomest iques
Ġtoil ette
. --
Ġm uch
Ġf oyer
il om
Ġpr ince
Ġdes se
Ġan x
Ġpart ies
Ġman oeu
Ġregard ai
ĠJe han
Ġpens ai
Ġad d
Ġcham ps
Ġsup porter
ĠnÃ©cess itÃ©
Ġaim able
Ġavent ure
A yrton
D arcy
V oici
Ġp opul
Ġs l
as p
Ġr ade
Ġpr ud
al ors
ess ie
ĠÃ©c rire
int ure
Ġdire c
ĠÃ©p ous
Ġmont rait
Ġcou n
Ġmer c
Ġass ur
Ġsp Ã©c
ĠQu el
ĠdÃ©b arqu
Ġsee med
Ġdr ap
ĠmÃ©l anc
Ġveu ve
on fl
Ġt ours
Ġb ohÃ©m
Ġj adis
or able
Ġil l
-- --
ne au
op he
ĠH omais
Ġso on
ĠdÃ©t ourn
Ġgar n
Ġcompl et
ĠLe vaque
Ġrent ra
Ġmanqu er
Ġred out
eff r
ĠrÃª ve
Ġcompt ait
Ġpist ol
A d
I V
Ġm ouill
Ġf ather
or mes
Ġh igh
Ġg ave
ol phe
Ã» te
Ġpart is
Ġacc us
Ġint Ã©ress
ĠdÃ©p os
Ġsup Ã©rieure
Ġhabit s
Ġarri ve
ĠrÃ©sol ution
Ġsucc Ã¨s
ĠrÃ©v Ã©l
Toute fois
ĠprÃ©cis Ã©ment
Ġsomm et
D Ã¨s
Ġp ais
re g
er y
Ġf iÃ¨vre
il d
Ġb anc
ouv rir
Ġex tre
Ġentre pr
asse oir
Ġsal ut
ĠdÃ©b arr
ĠdÃ©f aut
Ġann Ã©e
ian a
ĠrÃ©flex ions
Ġextra ordinaire
Ġglob e
Ġqueu e
P r
Ã© te
Ġt els
Ġv Ã©c
el ui
or y
Ġpl aÃ®t
Ġch at
Ġgr ond
ĠdÃ©s ert
ex istence
Ġfin ir
Ġsort es
Ġtomb e
ĠdÃ©t ermin
Ġpo or
Tout es
Ġoubl ier
ĠrÃª v
ĠpiÃ¨ ces
ypt ienne
mÃª mes
ĠMerc y
h aps
Ġp Ã©r
Ġs ince
on ce
re aux
Ġm am
Ġn at
or ation
Ġr oc
us que
Ġre qu
Ġre tenir
av ance
Ġch auss
ut ation
ap e
Ã©c ile
Ã©r Ã©e
ĠS auv
oute z
ay er
Ġven ge
Ġter ri
Ġrem ords
esp oir
Ġad v
ĠdÃ©p ens
Ġsup Ã©rieur
inc onnu
ĠQu and
Ġrep ent
Ġk ne
Ġpouss ait
ĠdÃ©couv ert
ĠsÃ©ri eusement
Ġracont er
Ġjug er
Ġnev eu
Ġwind ow
, --
I N
a cher
Ġ Z
Ġ âĢĶ
Ġt onn
Ġf oss
ur st
Ġen lev
ir ation
ĠÃ©t iez
im ul
age ait
ĠV oilÃł
Ġcomp ar
Ġport Ã©e
arr Ãªter
Ġbl anch
Ġbou lev
Ġsoup Ã§
Ġsub it
Ġexpl iqu
Ġlet ter
Ġsonge ait
r ions
Ġd ra
it aire
Ġb ure
Ġr iant
al t
Ġpl omb
Ġch Ã¨vre
ic al
ĠP as
Ġbr anches
ong o
Ġob jets
aur ai
Ġenv oyÃ©
Ġsign if
ĠsÃ» re
Ġquitt a
Ġmarch and
Ġdorm ir
ĠmÃ©t ier
ĠdÃ©ch ir
Ġpav Ã©
Ġinn oc
M al
f ax
u ement
Ġt Ãªtes
Ġla b
Ã¨ nes
Ġpl at
ĠM ort
Ġgr Ã¨ve
Ġal ways
Ã® te
Ġap ercev
ĠJ ac
Ġcour ait
Ġret irer
Ġfer ai
Ġvoul oir
Ġacc ord
dre d
Ġord er
Ġinter v
enf er
Th at
Ġfe et
Ġval et
Ġdur ant
Ġsoul iers
con que
m idi
p es
u Ã©e
x c
Ġs oins
Ġa ction
Ġm ienne
or itÃ©
Ġtr ace
ĠM adame
im er
ble ment
ĠF air
Ġam oureux
Ġcri ait
Ġviv ait
Ġcompr ends
Ġcan al
Ġans w
Ġfus se
Ġparticul ier
Ġpard on
Ġoblig Ã©
ĠarrÃªt Ã©
ĠrÃ©sult at
Ġye ars
Ġexac tement
Ġeur ent
ĠFair fax
X X
l l
ai es
ou ch
us te
Ġre jet
ce iv
Ġtr ist
Ġsur veill
ne aux
ĠS ire
ĠL uc
ĠA m
ĠB el
Ġam b
ĠR oland
Ġenf er
Ġtou cher
Ġport ant
Ġfl ott
Ġinst inct
ĠdÃ©t ach
Ġhaut es
ĠprÃ© tex
Ġfeu illes
Ġcommenc ement
ĠconsidÃ©r able
Av ec
oud a
Ġcirconst ance
Ġlarg es
Ġhun dred
sib ilitÃ©
Ġs Ã©d
Ġs ienne
Ġm out
Ġqu alitÃ©
Ġf uir
Ġn ight
Ġh onneur
Ġh auss
Ġne w
Ġch and
im port
ne z
ic ule
Ã§ aient
ĠD ongo
Ġseu il
ĠdÃ©c ouverte
ro ck
Ġsour c
Ġsour iant
Ġrou nd
Ġdispar ut
Ġir r
Ġspe ak
Ġflam me
Ġgiv en
ĠsÃ©v Ã¨re
l Ã©e
Ġl oint
Ġp ic
Ġt Ã©n
Ġj ure
al les
ri pt
Ġbr uy
Ġex pos
Ġam ant
Ġrem erc
ra le
Ġpoint s
Ġcri er
Ġmat el
och ers
Ġmort s
Ġappr endre
Ġimp ression
Ġop en
Ġprod uit
Ġmouv ements
Ġval ait
Ġterr ain
Ġcadav re
Ġcommiss aire
Ãĩ a
y si
er ons
Ġt Ã¢
ent our
Ġh Ã´t
Ġh ouse
Ġdes p
ois se
ic ier
ĠP ac
ĠB as
ĠJ up
Ġcor on
Ġcham bres
Ġple as
ĠCh aval
Ġinc lin
gr am
Ġfe el
Ġdisc ours
ĠÃ©tonn ement
Ġois eaux
arri ver
Ġcit ad
h ous
m ment
y ing
Ġl oi
Ġs om
Ġn er
Ġv aleur
Ġdu re
Ġgr oupe
Ġbr ise
ine d
Ġreg agn
Ġvis iter
Ġreconn u
Ġnouveau x
Ġta ken
Ġbar on
Ġnav ig
Ġsauv age
Ġpois on
ĠdÃ©clar a
Ġexcell ent
Ġja une
Ġmalad ie
Ġbi bli
, âĢĶ
B ientÃ´t
v u
Ġd oc
Ġp ant
Ġt elles
Ġb iz
Ġr om
Ġg est
ri ff
av en
onn ement
Ġdis ais
ex amin
Ġsais it
Ġver d
Ġdern iÃ¨res
Ġjeunes se
eff et
ish op
Ġevery thing
Ġmousquet aire
Ġfle uve
Ġnaturelle ment
hous ias
v ement
Ġv ac
ur g
Ġpar lez
oy able
Ġcon gÃ©
Ġas si
ang l
Ġper haps
ole mment
Ġcontin ue
Ġfam il
Ġviol ent
Ġdemeur a
exp ression
ĠÃ©m otion
Ġatte int
Ġpa quet
A ut
R e
Ġ U
Ġp ret
ar a
it ect
un Ã©g
Ġau gment
ri es
ĠM oi
id ement
ert ain
ang le
ĠR assi
ign ait
ign ore
enc y
ĠT u
Ġcons tr
Ġsort ie
Ġcompr om
Ġpres ent
Ġinc ident
Ġno v
Ġvois ine
Ġvolont iers
Ġdouc eur
Ġcommand ant
Ġmorce aux
Ġthin k
k erville
qu ette
in Ã©
Ġf an
Ġen chant
ir ard
at ures
Ġre ad
Ġo eil
ĠM osc
Ã©c oul
Je an
ill ait
Ġex Ã©cut
Ġrem is
Ġlong ueur
Ġfais ais
Ġcou ches
Ġconn aissez
Ġinc onn
Ġfrapp er
Ġcre us
ĠRe ed
Av ant
ĠNe w
Ġfaud ra
Ġwor ld
mosph Ã¨re
Ġchagr in
Ġide a
unÃ©g onde
b y
m an
Â £
Ġm Ã¢t
Ġn ob
Ġav ert
end orm
Ġch al
ire d
ill a
ĠÃ© ner
Ġser ons
.. .Â»
ign ation
Ġapp are
Ġcor rid
Ã©ch elle
Ġvi olemment
ĠAr ch
ats on
Ġmor ning
ĠgÃ©n Ã©
Ġsingul ier
Ġgouvern ante
Ġphras es
Ġconvict s
Ġretrait e
V otre
Ġ el
Ġd ent
Ġp Ã©ri
Ġc ath
Ġde grÃ©
Ġn um
Ġr ight
Ġun der
Ġun til
Ġh yp
at if
Ġpr at
oi ff
Ġsa chant
ot tes
Ġal most
ter n
ĠF er
Ġacc our
Ġjet ant
aill it
Ġabs ence
inter romp
Ġrapid itÃ©
Ġform id
aperÃ§ ut
Ġprob ablement
ĠextrÃªme ment
ĠconsÃ©qu ent
Ġdiss imul
Ġboute ille
p ath
s ent
Ġ ombre
Ġc age
qu atre
ent rer
Ġf Ã©lic
ar mes
Ġla s
Ġb uv
Ġre b
ol Ã©
Ġth ing
ĠL ong
all ai
ĠI nd
ĠV endredi
Ġtemp Ãªte
Ġjet ait
Ġrep art
ĠPr inc
ĠÃ©l Ã©g
Ġjourn al
Ġsauv ages
az zo
Ġvag ues
Ġcamar ade
Ġnour riture
Ġgui de
Ġdifficult Ã©
Ġmach ine
Ġrelig ion
ĠÃ©vÃ©n ements
ĠÃ©pouv ant
f e
f orme
i Ã©s
j ou
en cieux
Ġm aud
Ġde dans
ent y
or de
Ġh our
Ġse en
ouv re
Ġpour ra
ers onne
ier es
Ã©r a
Ġth ir
Ã¢ tres
oy ant
Ġser ont
Ġmar chÃ©
Ġpass aient
app uy
art Ã©
ĠÃ©p Ã©e
Ġob tenir
og r
Ġren v
ĠPr udence
Ġnoir es
ĠSignor a
ĠMin ister
Ġdesse in
Ġtrist esse
i aient
Ġp ip
Ġs age
Ġt Ã¢che
Ġf ell
is ait
Ġav iez
Ġpr enez
out um
ot es
ĠE s
anc Ã©e
Ġsent is
Ġvis it
Ġsour it
The y
Ġtourn ait
Ġpat ron
Ġru de
ber ge
onge ait
Ġpre uve
ĠsiÃ¨ ge
Ġray on
Ġtap is
Ã©cl air
Ġbais er
ĠrÃ©flex ion
Ġmeur t
Ġsinc Ã¨re
Ġcoute au
ĠBas kerville
L ui
Ġ iv
Ġc erv
Ġm i
Ġm ult
er al
Ġf ive
Ġn Ã©gl
Ġau rez
av ec
av anÃ§a
Ġtr oupe
ĠM ou
ic able
ĠP ier
ĠÃ© veill
Ġmar Ã©e
ĠB er
agn ol
ver n
Ġman if
Ġper c
Ġbl anches
Ġheure usement
Ġpouss er
Ġperm is
Ġcommenc Ã©
org ueil
ann Ã©e
ĠrÃ©flÃ©ch ir
let on
Ġsym path
Ġjal ous
Ġbure au
ceiv ed
ĠMosc a
Q U
l ui
Ġd outer
Ġc iv
Ġc oiff
Ġm oqu
Ġf ureur
is on
Ġr ud
ap leton
ul te
ill Ã©e
Ġent er
ĠÃ©p uis
Ã©l Ã©g
ĠcÃ´t es
ĠW atson
Ġpays an
Ġnav ires
Ġdisc ut
Quel que
Ġbri g
Ch ar
Ġpal azzo
rim aud
Ġsold at
Ġvoil a
Ġfid Ã¨le
Ġcitad el
Ġner fs
en eur
Ġp i
Ġr af
ag Ã©s
res p
ĠM artin
Ã©p Ã©e
ers t
Ã® lot
che d
ĠB ien
ass ent
ĠrÃ©pond u
Ġpers on
Ġnom s
Ġprom ener
Ġreconn us
Ġram en
eff or
ĠAl lons
ov ico
Ġoccup Ã©
Ġremarqu Ã©
Ġany thing
Ġgagn Ã©
ĠrÃª ver
Ġdeven ue
ĠcommenÃ§ ai
ĠmÃ©n age
Ġjol i
ĠPac ifique
P h
S ouv
b ot
m or
o bl
v ed
Ġp Ã©t
an es
Ġm ess
Ġt es
Ġf Ã¢ch
ar me
Ġn age
Ġb aie
ag Ã©e
Ġpl up
onn ez
ol y
Ã©p rouv
ĠC ar
Ġpouv ons
ra de
Ã©g yptienne
Ġatt aqu
Ġprem iere
Ġsup port
Ġple ins
Ġserv ait
Ġsil encieux
Ġren ouv
Th Ã©rÃ¨se
ache d
Ġred oubl
Ġjug ement
Ġmeille ure
Lors qu
Ġdevin er
attend ais
anim al
Ġmons tre
ĠCont essa
Ġpais ible
Ġvenge ance
Ġplup art
h Ã©r
i ai
Ġp iece
Ġs Åĵur
ou c
Ġa ble
Ġf uite
our de
Ġg ig
al le
ch Ã©s
ĠM es
Ã©p ous
ĠC ette
ign it
Ġfer mÃ©e
Ġmin eurs
Ġmin istre
Ġsais on
Ġph ysi
Ġinter ro
ĠrÃ©c lam
Ġinf orm
Ġremont er
Ġtend resse
ĠsÃ© min
eng th
Ġinqui Ã©tude
Ġrej oindre
ĠIt al
c ar
Ġr ing
Ã¨ que
Ġpl aine
ab ilitÃ©
ĠC omme
si f
ĠL Ã©on
ĠrÃ©p u
ĠrÃ©p utation
ĠB essie
app elle
if ier
Ġman y
Ġdire cteur
Ġai lle
Ġrest Ã©e
Ġacc ent
Ġcou chÃ©
Ġint ention
Ġst at
... ,
Ġple urer
gl ise
Ġobs c
ĠGr ande
Ġtranqu ill
Ġend orm
Ġac qu
Ġac cepter
Ġfroid ement
Ġfrapp a
Ġprov isions
Ġrecomm en
Ġbo x
Ġhal f
tru ction
Ġmouch oir
v is
Ġl ois
en od
Ġc uir
Ġm assi
Ġn ette
Ġn iv
Ġr Ã¨g
au g
Ġpl ume
Ġch aÃ®
ol ique
Ġe h
ĠC ollins
ic ations
Ġth ings
Ġent rÃ©e
Ġcr oix
iss ante
ĠF a
ow er
ex t
Ġcri ant
Ġarriv Ã©s
Ġten aient
Ġchar me
Ġtomb Ã©e
Ġlo ge
ĠdÃ©v or
Ġro ad
Ġdisc uss
Ã®n t
Ġsucc es
Ġconven able
ĠaperÃ§ u
ĠK etty
Ġchang ement
Ġmyst Ã¨re
Ġmill ions
Ġprot est
ĠlÃ©gÃ¨re ment
extr Ã©mitÃ©
ĠprÃ©tex te
b ishop
n a
u Ã©s
qu ets
Ġm un
Ġm irent
ent endait
Ġf asse
Ġb Ãªtes
Ġh arp
Ã¨ bres
ĠC unÃ©gonde
ond s
ĠP irard
ire z
Ġas pect
app e
ĠR os
ĠÂ» .
Ġdonn ant
Ġca re
Ġacc ident
Ġenv elopp
orm ais
ach arie
ĠprÃ©sent er
Ã©qu ipage
ĠdÃ©v ou
Ġfrapp Ã©
Ġrencont rÃ©
Ġbo Ã®te
Ġcav al
Ġforc Ã©
Ġbill et
ĠFranÃ§ ais
Ġsim pl
Ġcorrid or
B on
M adame
Ġs oie
Ġc op
re lle
Ġde lÃł
in iÃ¨re
Ġf au
Ġle ave
Ġr as
Ã©t er
Ġen j
em m
Ġsa urait
ĠL E
ass Ã©e
Ġvie illes
Ġmont rant
ĠQu oi
Ġhor reur
Ġcab aret
Ġdemeur ait
........ ........
ĠVal enod
Ġchem ise
Ġdirec tement
ĠArch bishop
I ci
N otre
P assepartout
e k
g le
u in
Ġl ent
Ã© j
ir on
Ġre de
Ġpar u
si vement
ul s
Ã´ tre
Ġap ercevoir
ass eneur
ĠrÃ© gl
Ã©ri d
Ġco ff
Ġtomb Ã©
Ġdesc endait
Ġcrois s
Ġperm ettre
ĠrÃ©sol u
Ġplac er
Ġconse il
Ġjoy eux
Ġdim anche
Ġrich es
Ġpropri Ã©t
C l
H arris
i am
r ow
Ġp or
an Ã§on
Ġm oin
un t
Ġpr os
Ã® tre
Ġcr us
Ġcr ains
lle z
Ġhe ard
Ġcour te
Ġport ion
att ention
Ġmin ce
Ġsp ir
Ġtravers er
acc ompagn
ĠMil an
Ġhabit ants
Ġremarqu er
Ġdr Ã´le
Ġparfait e
ĠprÃ©cip it
Ġdisting uer
Ġtravaill er
Ġem pr
Ġnul lement
Ġressembl ait
Ġlect ure
Ġling e
ĠPrinc ess
d a
l otte
o ci
u ff
ai mait
Ġp oul
Ġs y
Ġs ombres
Ġm ol
Ġm oul
Ġm ode
Ġf act
om Ã¨tre
Ġg et
ag on
ap ercev
Ġan other
ĠS ur
Ġbr ut
ore l
Ġdev ez
Ġfor mer
Ġfor mait
Ġpass ag
ĠÃ©c outer
int ention
Ġca chÃ©
Ġret ira
Ġport Ã©
ĠrÃ©s erve
Ġass ure
inc lin
Ġprom esse
Ġcertain es
Ġren seign
Ã©v Ãªque
Ġappel er
Ġcharm ant
ĠÃ©tr anger
Ġenn uy
ĠÃ©chapp er
Ġcous in
arriv Ã©e
Ġoffic ier
Ġbeg an
Ġpous siÃ¨re
Ġpharmac ien
Ġkne w
a ques
Ġl oc
en u
Ġp ente
Ġm ut
Ġm ord
Ġt iens
Ġt imes
el er
Ġr ochers
ĠÃ©t al
Ġw ish
Ġce inture
Ġth ough
ĠL A
Ġex act
ĠA nglais
Ġmar ier
eure usement
Ġter mes
ĠT r
int es
Ġsent ier
Ġob ten
Ġob ject
Ġit s
Ġinc onnu
Ġsuff it
Ġessay a
ĠbrÃ» l
Ġchang Ã©
Ġlook ed
Ġadmir able
Ġdim in
Ġpolit ique
Ġtor rent
Ġfaibles se
Ġboulev ers
Ġsubit ement
Ġniv eau
J ane
Ã© veill
Ġp au
Ġm end
Ġv el
Ġun d
ous se
Ġpl af
Ġin trod
ac Ã©s
Ã©r able
Ġpro te
Ġar bre
Ġregard aient
Ġcons ul
od ovico
ĠdÃ©s irait
ich el
Ġrec ueill
Ġpens Ã©
Ġcompr end
Ġjou e
Ġk ilom
anche ment
ĠFr anc
oth Ã¨que
Ġir rit
Ch aque
Ġcirc ul
Ġaband onnÃ©
ĠsÃ© jour
Ġmus ique
Ġcous ine
Ġsoi ent
ĠmÃ©r ite
ĠfÃ¢ chÃ©
Ġexcept Ã©
Ġcell ule
ĠÃ® les
Char les
. ,
P ierre
h Ã´te
r il
Ġ utile
Ã© ant
Ġm aire
Ġm ass
Ġt ord
ent ra
ur al
Ã©p oque
ac les
Ġto wn
Ġ! âĢ¦
Ġquel les
Ġall ant
if iques
Ġman iÃ¨res
lement s
Ġcoup able
min Ã©es
Ġsol ide
Ġsol itude
ardin er
Ġsouff lait
ĠGr and
Ġvi ande
Ġsub st
Ġbour se
Ġcaus ait
Ġtir Ã©
Ġfri ends
Ġmet res
ĠHarris on
Ġhapp iness
Ġpist oles
Ġcost ume
* *
? ...
r at
s o
u eux
w h
Ġd irait
Ġl ant
Ġl aissez
Ġs et
Ġs ois
Ġc Ã©l
Ġa h
Ġt um
et y
Ġf aux
Ġles quelles
Ġre ason
Ġse igneur
ĠÃ©t inc
se pt
Ġch auff
ab s
Ã©c ur
ac itÃ©
ue z
age a
Ġsu bl
ĠB es
op in
Ġpass Ã©e
Ã©ri ence
ĠdÃ©s agrÃ©
ĠÃ©p aisse
Ġai mer
ro om
Ġfer mer
Ġacc ro
Ġemp Ãª
Ġserv ante
Ġinc ap
Ġconf ond
Ġmatin Ã©e
Ġpouss Ã©
Ã¨v es
ĠÃ©g ard
ĠgÃ©n ie
Ġress ent
ĠrÃ©sol us
Ġtw enty
Ġbri ck
Ġsau ter
Ġsucc Ã©d
Ġrappel ait
obs erv
Ġsaut a
Ġgai etÃ©
Ġintellig ence
ĠtempÃ©r ature
ĠprÃ©caut ion
ĠvÃ©c u
L eur
t ure
qu in
Ġm Ã¢ch
Ġv id
Ġg ir
ch eur
Ġse ize
Ġch asser
am a
ĠS orel
Ġex ces
Ġall ow
ĠH e
Ġacc ueill
Ġad roit
Ġad vers
Ġsort is
Ġbou ge
Ġcompr enait
Ġvois ins
ĠMar ie
Ġperm ission
Ġdir ai
Ġproc ure
ĠdÃ©m ar
Ġanc ien
ĠÃ©lev Ã©
orn field
ĠpÃ©nÃ©t rer
Am Ã©rique
Ġride aux
Ġsacrif ice
Ġcer cle
Ġconvainc u
Ġbibli othÃ¨que
E sp
i oc
l ande
Ġc Ã©r
Ġg a
al is
Ġtr aces
Ġdu quel
Ġin g
onn Ã©s
ac te
ier ge
ore ux
Ġser pent
ens ion
ass it
Ġper te
ĠH igh
En tre
Ã©l anÃ§a
Ġsec r
Ġob t
Ġfl amb
Ãī c
Ġten ez
ĠrÃ©s ister
Ġrapp ela
ĠpÃ¢ l
Ġsauv Ã©
Ġnombre ux
Ġrecomm enc
Ġinqui et
Ġatte indre
Ġber l
Ġennem is
Ġrade au
itect ure
C elui
S eulement
l ing
y re
Ġd one
Ġc aisse
Ġt ient
Ġv Ã©g
Ġv ulg
Ġb or
Ġpr ier
av ions
ab att
Ã©p ouv
Ġdis si
Ã´ ne
ĠV oreux
Ġdonn aient
ĠdÃ©s ormais
att es
Ġarriv Ã¨rent
Ġlev ait
Ġarr ang
ĠsÃ» retÃ©
Ġpat ience
ĠrÃ©sol ut
Ġenvir ons
hor reur
Ġempl oy
Ġcommun ication
Wh en
Ġdorm ait
Ġlat itude
ĠÃ©cout ait
Ġpolit esse
Ġappe ar
Ġproch aine
Ġprol ong
Ġpau p
N o
h on
o bre
Ġd or
en ch
Ġt int
Ġf Ãªte
as in
Ġh el
ol ier
Ġgr Ã©
Ġma king
ill iam
Ã´ me
app ort
Ġim b
Ġlong er
Ġab omin
ĠÃ©p ais
Ġai de
Ġsou ci
Ġsort i
Ġcher che
Ġmin uit
Ġbl ancs
emb arr
heure ux
Ġquoi qu
Ġfall u
ĠprÃ©sent a
Ġbal but
Ġtrans form
ĠTh ornfield
Ġprov oqu
Ġremarqu a
vent ure
Ġtent er
Ġlang age
Ġcav erne
Ġvict ime
Ġruis seau
Ġjalous ie
ĠBes anÃ§on
I s
Ġl ou
re inte
Ġm Ã©rid
Ġt ut
et res
Ġf Ã»mes
ais es
Ġr ig
Ġre ceived
Ġpr Ãªte
Ġch Ã¢t
Ġin fluence
ois e
Ġmon ey
ic aire
ul f
ĠS ainte
Ġent rait
Ġat ro
Ġall Ã©e
Ġpass ions
Ġcomm is
Ġrest aient
Ġcri min
Ġinc ess
imp at
ust in
ict ion
Ġmanqu Ã©
Ġlitt oral
Ġracont a
Ġbris er
Ġbless ure
ĠSt apleton
ĠmisÃ©r ables
Ġlog is
Ġore ille
Ġgout te
Ġoffic iers
Ġmach in
Ġorg an
Ġfant ais
ĠAd Ã¨le
angl oss
resp ond
a jout
d eux
j or
o x
y le
z y
Ġs ensible
Ġm ien
Ġt endit
Ġn ation
Ġv est
as pect
Ġun ique
Ġil lus
av is
Ġch iff
Ã©c ution
si bles
ad resse
Ġcr at
ĠÃ© mer
Ġwh ile
ĠH ans
Ġrem erci
ĠO Ã¹
Ġmer ci
Ġcond u
Ġcond uit
tement s
Ġsais ir
Ġte ars
Ġhum ain
ĠprÃ©sent ait
Ġgre ve
Ġperm et
ĠChar lotte
ast ique
ĠdÃ©cid a
ĠnÃ©cess aires
ĠCe pendant
Ġbatt ait
ĠÃ©pau le
Ġbel ie
Ġke ep
Ġproch ain
Ġsouffr ance
Ġrenf er
Ġvieill ard
Ġcout ume
ouch ure
a use
d ay
l iv
n Ã©s
Ġ '
Ġp aque
ent ly
Ġf eux
Ġv ari
Ġr out
Ġles s
ig in
Ã¢ ge
ĠÃ© bl
Ġfor g
Ġcar ess
omb r
Ġtrouv ais
ĠrÃ© alitÃ©
Ġcomm une
Ġab att
ist a
Ġpos a
Ġcl artÃ©
Ġvis ible
Ġcor respond
Ġaff reux
ret s
Ġconn aÃ®t
Åĵ uv
Ġperd us
Ġobs cur
Ġcas t
enn ui
Ġprofond eurs
Ġdom aine
Ġviol ente
ĠdÃ©cid er
off icier
ĠX I
Ġsingul iÃ¨re
Ġrappel er
Ġfur ieux
Ġchant er
Ġrelev a
ĠÃ©vÃ©n ement
Ġrid icule
ĠfrÃ©qu ent
ĠChe minÃ©es
ĠZ acharie
ĠJac ques
Ġbiz arre
Ġchal oupe
Ġgig antes
E urope
P eu
P ersonne
b t
i ante
Ġ ond
Ġ aise
Ġs ap
Ġc li
Ġc uiv
ar ing
Ġb oul
Ġj ud
te au
at tr
at ely
Ġgr ac
Ġto wards
Ġcons ult
Ã©g oire
Ġeu s
ĠdÃ©s erte
ett a
Ġcou leurs
ĠprÃ© venir
Ġph Ã©n
acc ompl
uc ation
resse d
Ġtromp Ã©
Ġpress ion
fr oid
Ġimport ant
Ġpron oncer
Ġlat in
ĠJean lin
aim ais
ĠIn gram
ĠMort imer
Ġchand elle
Ġplaf ond
' _
V oyons
W e
o Ã»te
Ã© li
Ġp omp
Ġs plend
Ġm id
er ce
ent ions
Ġf oul
ar ne
ar riÃ¨re
Ġv iennent
el Ã©
us age
Ġpar ven
ard es
Ã¢ le
ge d
ill y
Ġmar bre
Ġmar Ã©ch
tr y
ĠR asseneur
ĠG alais
ct obre
Ġcl oche
Ġaff l
Ġst ation
Ġass assin
Ġinc r
aid er
Ġconf us
Ġcan on
Ġcan ons
ĠGr Ã©goire
onner re
Ġpropos ition
Ġact u
appel ait
Ġgliss er
Ġappe ared
Ġprisonn iers
Ġfollow ed
Ġpir ogue
Ġmonth s
Ġnob les
N ab
i able
Ġl ourde
en ne
ar Ã©
ar itÃ©
Ġh id
Ġg aill
Ġg onfl
Ġpr oie
ce d
Ã©c art
Ġquel conque
ens itÃ©
Ġmar s
Ġmar chant
ĠB arr
ĠR ien
int ellig
int Ã©ress
Ġbe h
Ġapp elle
Ġatt endu
Ġai d
Ġpens ion
Ġrepr enait
Ġcl ose
Ġacc abl
Ġcontin ent
Ġcert es
Ġhab itude
uss itÃ´t
ah i
Au c
Ġhum ide
Ġay ez
Ġprov ince
Ġmurm ure
Ġplac Ã©
Ġprison er
Ġemport Ã©
00 0
Ġdestin Ã©e
Ġmu ette
Ġais Ã©ment
auc un
Ġfo ot
Ġformid able
Ġincap able
B ennet
e org
p p
r ure
x t
Ġa Ã®n
Ġt ire
in aires
Ġf ous
Ġn aiss
Ġb oy
Ã©t end
Ġen ough
Ãª le
am en
Ġsur v
ĠC or
si x
Ġgr otte
ad venture
ic itÃ©
Ã©r o
ess ay
Ġcr aqu
Ġquel s
Ã» ter
ĠA ussi
Ġall ong
Ġche re
Ġpass Ã¨rent
Ġven us
Ġper p
Ġjeu di
Ġtou chÃ©
Ġab ord
Ġcl erc
Ġnot ice
Ġcou de
Ġten u
Ġvol up
Ġdern iere
Ġsc ul
omm od
Ġbas e
Ġcas e
ĠAr mand
uc k
Ġred esc
Ġprov ision
ĠreÃ§ ut
ĠmÃ©d ioc
Ġcommenc er
ĠdÃ©g oÃ»t
Ġconven u
Ġposs ession
oubl ier
Ġpasse d
Ġlis iÃ¨re
Ġraisonn able
Ġphilos oph
Ġmaig re
ĠrÃ©pu gn
Ġpassag ers
ĠHigh ness
C andide
C eci
a king
b ourn
h onn
Ġl ux
Ã© fait
Ġp ian
Ġs ages
Ġc Ã¢
Ġqu alitÃ©s
Ġn Ã©anmoins
eu l
el Ã©e
me m
Ġg end
est rade
Ġpl air
end ez
Ġcom ing
ol ont
ol Ã©e
Ġfr Ã©g
Ġbr od
Ġfor tement
op inion
Ġcar tes
ĠrÃ© gn
Ġaux quels
Ġtou ch
Ġcher chant
Ġbl oc
oil es
Ġag ir
Ġins p
Ġfa Ã§ons
ĠÃ©ch elle
Ġ1 7
Ġabs ur
cept ion
Ġdispar aÃ®tre
Ġappar ut
ĠBon adventure
Ġru b
Ġcru el
Ġappel ait
ĠrÃ©f ug
ĠforÃªt s
Ġcrat Ã¨re
Ġscul pt
A lice
D Ã©j
H eureusement
V I
d le
f ord
h ier
r ut
Ġl ait
Ġl Ã¢che
Ġv il
Ġla ug
Ġj oign
as tr
Ġpr Ã©parer
Ġtr u
Ġch ans
Ġch anc
ol er
Ġe au
Ã§ ai
ĠS c
ĠB l
Ġpass Ã©es
Ġregard ais
ĠÃ©c art
Ġcomp an
Ġrepr ises
Ġint rig
Ġbou e
Ġsour ce
Ġcompr enez
appr ocher
Ġvrai e
Ġjou ait
Ġpo ing
Ġlum in
Ġtri b
Ġdoi vent
ĠgÃ©nÃ©r ale
Ġimport ance
Ġmons tru
ĠLong bourn
ĠvÃ©g Ã©t
ĠphÃ©n om
C ar
a ment
r Ã¨rent
Ġp urent
Ġs onner
Ġc y
an v
ent ends
in f
in ci
Ġf erez
Ġv anitÃ©
Ġb anqu
Ġh aie
Ġpr ai
Ġne ar
Ġpl ans
Ġtr anch
ac cepter
si de
ic an
ĠdÃ© fin
Ġsu c
ĠD es
Ġenc our
Ġtrouv ant
ĠdÃ©s irer
ĠdÃ©c embre
Ġmont Ã©
Ġeff ect
Ġenv oy
ĠdÃ©t ail
Ġsouff ert
ĠQu elle
Ġjou iss
ĠdÃ©b ut
Ġ1 6
iz zy
Ġappar ence
Ġconnaiss ais
Ġtromp er
anÃ§ ant
Ġprin temps
Ġagain st
Ġvap eurs
Ġdirige a
aband onner
Ġsaur ais
Ġimpat ience
ĠfraÃ® che
avent ure
Ġmang Ã©
Ġdange reux
ĠPro v
housias me
ĠcÃ©r Ã©m
H Ã©las
s el
Ġd am
Ġm ob
ar ret
Ġv endre
Ġh ope
Ã©t ud
Ġpr irent
Ġpar ois
Ġo h
am i
Ġsur n
Ġy ours
Ġbr usque
ĠA insi
tr a
ĠE yre
Ġcar rÃ©
tres s
Ã©ri e
Ġob jet
Ġarriv ant
Ġrev Ãªt
Ġins ol
Ġmari Ã©e
Ġcal led
acc us
ĠÃ©v iter
Ġfig ures
ug u
Ġsens ation
ĠdÃ©sir s
Ġpal ais
amb o
Ġchac une
ĠvÃ©rit ablement
Ġnu age
Ġtir ant
Ġris que
Ã©cl at
Ġpoursuiv it
appar tement
Ġment on
Ġimpat ient
Ġgest es
Ġaille urs
H is
S e
S o
l or
Ġ 6
Ġl aid
en ois
Ġp attes
Ġc ass
Ġn oyÃ©
un g
Ġet es
Ġr um
Ġr ares
Ġh ours
at mosphÃ¨re
Ġpr enaient
av oue
Ġch oix
Ġpour rai
os ait
Ġgr at
iv id
Ġal t
id ents
uit es
Ġmar ins
Ġrem uer
ĠT rÃ¨s
int Ã©rÃªt
ten ed
Ġvoul ant
Ġvoul aient
Ġdou bl
Ġdou bt
Ġher o
Ġnuit s
Ġind is
Ġappr it
appr endre
Ġref l
Ġesp Ã©rer
Ġrep e
Ġexp Ã©d
ĠÃ©l Ã©ment
Ġ1 5
Ġperm ettait
Ġbal le
Ġout ils
Ġdir ig
Ġsau f
Ġproc Ã©d
Ġpuiss ant
ĠprÃ©cip ita
ym ore
Ġgouvern ement
Ġsuppos er
Ġrecher che
ĠRod olphe
Ġfre re
Ġnat ural
Ġdra w
ĠtÃ©n Ã¨bres
Ġcath Ã©d
Souv ent
Ġsubl ime
anv ier
: --Â«
E U
b ourg
h Ã©s
i ale
x el
Ġ ...
en ier
Ġs ott
er se
ent r
Ġf ich
ar ra
Ġb est
or ze
Ġg all
ag ine
Ġtr oup
end us
Ġin ut
Ġin de
ĠC es
Ġent rÃ©
Ġcr Ã¢
ob Ã©
Ġco que
Ġco cher
Ġnouv el
Ġmat ter
Ġenv oyer
Ġperd ait
Ġfam eux
Ġsoup e
Ã©v anou
Ġpouss Ã©e
Ġbord s
ĠEn fin
Ġproc Ã¨s
Ġhand s
Ġconse ils
Ġanc iens
ĠthÃ© Ã¢tre
ĠÃ©trang ers
ĠdÃ©lic at
Ar amis
ĠFran k
Ġrepl ied
ĠCont i
Ġdivers es
Ġcarri age
Ġtab ac
Ġmanoeu v
ĠbohÃ©m ienne
Ġmam an
Ġterri bles
A b
d u
Ġ 5
en ais
Ġs avant
Ġm oll
er aient
Ġj up
Ġle ast
ab ly
ĠM ad
ĠP eut
ĠP angloss
Ã® me
ens es
Ġfor mes
ĠN ord
Ġven ais
Ġpos er
ob jet
ches se
Ġacc outum
Ġad resse
ĠdÃ©p it
Ã©cri re
ĠrÃ©s istance
Ġoff rir
Ġsc and
Ġbruit s
ĠAr onna
ĠMil ord
Ġress our
Ġinv ent
Ġbour g
Ġtrem p
Ġpersonn ages
Ġus ed
ĠrÃ©pÃ©t er
Ġris quer
ĠdiffÃ©r ence
Ġstup Ã©fait
Ġtroubl Ã©
Ġfriss on
Ġconduis ait
Ġsm all
Ġliqu ide
ĠdÃ©d aign
Ġpip e
Ġmanif est
Ġtranquill itÃ©
Ġvel ours
ĠAronna x
A pres
P l
T ant
f um
m on
o f
Ġl uc
en z
en ed
ou lez
on y
re ady
Ġf un
Ġla mes
Ġr an
ch on
Ġpl ay
Ġch iens
Ġch rÃ©t
ie f
Ã©p h
Ġe Ã»mes
ac ambo
all um
ĠG l
ĠG od
ĠG rimaud
ils on
Ġcour aient
ĠÃ©c oul
Ġcoup er
Ġsent ence
Ġsuiv is
Ġserv iteur
Ġsol enn
ĠdÃ©t resse
Ġgar Ã§ons
Ġtravers Ã©e
Ġno te
ust ice
Ġtourn Ã©
ĠdÃ©b ord
Ġexc urs
Ġdo es
Ġemb arcation
ĠÃ©g al
Ġarr Ãªter
Ġpress ent
Ġbris Ã©
Ġapport Ã©
Ġtermin Ã©
Ġsuffis ait
Ġbet ter
Ġvig oureux
we en
Ã©tabl ir
aul t
Ġsangl ots
Ġprud ent
Mal grÃ©
Ġdoc ument
Ġgir l
liv ier
ĠÃ©bl ou
O ne
o or
Ġs w
Ġc ult
Ġm ov
Ġt Ã©
ait es
Ġf onc
Ġf leur
eu le
Ġla p
or k
or ce
as c
Ġg ol
av es
ag g
ouv rait
Ġpour raient
ab li
Ġin qu
res c
Ġe v
ĠC rois
Ġgr ille
Ġsi de
Ġal ready
Ġbr ought
Ġmar ches
ĠF ar
Ġpouv ant
ĠÃ©p er
Ġint im
puis s
Ġbl Ã©
Ġmot her
Ġinst all
ĠprÃ©s ente
ĠPar ce
Ġfond s
Ġvit re
Ġvou drez
rais embl
ĠdÃ©f endre
Ġgard ait
Ġsang lot
ĠÃī c
Ġfe ar
Ġdess ous
Ch ap
Ġcab ine
onge a
ĠÃ©clat a
Ġbrill ait
Ġanc ienne
yp te
Ġbais ers
ĠÃ©prouv ait
Ġnul le
EN T
Ġretur n
Ġamen Ã©
Ġnette ment
Ġrout es
ĠfrÃ©g ate
A ussitÃ´t
N E
h ter
l ock
m ont
Ġ Åĵil
Ġ ombres
Ġd ign
Ġp el
Ġp ire
Ġc ig
Ġm ai
it ution
Ġv allÃ©e
Ġr ace
Ġpar fum
ri ques
ĠÃ©t age
ĠÃ©t endu
Ġpl antes
Ġpl anches
ie me
ec ted
Ġal so
ĠS an
ĠL ouvre
Ġdis aient
Ġpro port
Ġcr Ã©p
Ġsu eur
ĠE xc
omb ien
Ġven ant
Ġcomm erce
Ġfer mÃ©
Ġlaiss aient
Ġaur ions
Ġemp Ãªcher
Ġsp oke
Ġouv rage
ĠprÃ©c ieux
arb res
Ġemb arqu
Ġmen er
ĠrÃ©c ol
Ġred ress
Ġexpl iquer
uv es
Ġquit te
ber g
Ġsitu Ã©e
Ġrefus er
Ġlut ter
Ġform aient
Ġobserv ation
Ġesc ape
Ġparticul iÃ¨rement
Ġmiss ion
ĠprÃ©v Ã´t
Ġbet ween
Ġcraign ait
Ġachev Ã©
Ġinfin iment
ĠmÃ©c an
Ġindiff Ã©r
ĠSauv ages
ĠnÃ©gl ig
Ġdiscuss ion
O R
d res
o ol
r ante
Ã Ĭ
Ġs ien
on es
Ġt ig
Ġt onnerre
il y
Ġv us
as ions
Ġun if
Ġh ouille
at ifs
Ã¨ ches
Ġre mem
Ãª ne
out h
Ġgr ain
Ġgr oupes
ĠP ort
Ã©r up
ĠL izzy
Ġent rant
aiss es
all ait
Ġcont enait
Ġcomm ence
ĠdÃ©s ign
Ġport a
Ġad ded
emb ouchure
Ġemp ress
Ġsp ec
imp ression
Ġsc rup
appr oche
acc ro
Ġlev Ã©
Ġcompl Ã¨te
Ġtrans porter
Ġtromp e
Ġaband onnÃ©e
Ġris qu
ĠhÃ©r os
Ġbec ause
Ġride au
Ġmeu bles
Gr ingoire
vingt s
Ġpaque bot
) .
t ait
Ġd angers
Ġl ett
Ġp aille
Ġf uy
Ġn Ã©g
Ġj anvier
te red
Ġr aid
Ã©t ouff
ur y
at ri
Ġg Ãªn
al c
ag an
Ġtr ous
Ġtr ag
Ġtr onc
Ġin expl
am er
Ġe ach
iv itÃ©
aut Ã©
Ġcar r
Ġpass ai
ĠR oi
Ã©d ie
Ã©g rel
ist Ã©
Ġfer ais
ins tr
Ġcol le
autre fois
Ġsuiv ante
Ġnom mÃ©
Ġver rons
ip p
Ġgo vern
Al l
Ġpo Ã¨te
Ã©v rier
Ġmor ale
Ġrel ations
Ġprod uire
Ġcharm ing
ĠdÃ©r oul
Ġsuffis amment
Ġavent ures
Ġfollow ing
Ġhon our
Ġmett ant
ĠpÃª che
Ġplain dre
Ġcoun try
ĠsÃ©min aire
a j
i ais
n ait
u euse
en ard
Ġp Ã¢t
Ġp Ã´le
Ġs Ã©parer
ou quÃ©
Ġc ouverte
er nes
Ġqu ai
it able
Ġla ment
Ġg are
ch amp
ab or
ill ages
emp Ãª
Ġser g
Ġgrand eur
ĠT emple
Ġcons truction
Ġpos Ã©
Ġfer ma
Ġcl im
att ach
Ã©l an
Ġpers pect
Ġacc r
Ġint Ã©rieure
Ġaur iez
Ġjet Ã©e
Ġexp ri
Ġprofond es
Ġresp irer
Ġjourn Ã©es
cl ock
Ġinv itÃ©s
Ġru ine
arrÃªt ait
ilett i
Ġsecond es
ĠprÃªt s
Ġesc alier
Ġquart ier
Ġtrembl ante
Ġouvert s
Ġvin rent
ĠÃ©lev Ã©e
Ã©loign a
Ġpav illon
Ġprot Ã©g
ĠÃ©troit e
Ġhow ever
Ġsuper be
Ġtriomp h
Ġattent ivement
ĠÃ©te int
ĠÃ©lect rique
Ġrepent ir
Ġapercev ait
ertain ement
Ġcuiv re
ĠCrois enois
A fter
N ed
l ent
Ġ Ã´t
Ġ use
Ġd ict
Ġp orc
re f
ent endit
Ġf Ã®t
ar gn
el op
as tre
Ġr un
us tr
ir ons
Ġre ver
Ġre port
Ġse ver
Ġpour rez
onn aient
ĠM Ã©d
Ġcon g
Ġest im
Ġex ag
Ġex erc
ĠA ouda
ay e
ang es
ĠdÃ©s app
Ġca de
Ã©m otion
Ġpay Ã©
Ġcent aines
Ġmur ailles
Ġvit res
ĠW ilson
Ġren oncer
ĠÃ©ch ange
Ġperm it
aff ection
Ġram ener
Ġcheval ier
Ġexpl ication
Ġfix Ã©
inter ro
env oyer
Ġcre v
Ġappel Ã©
ĠRe ine
ĠdÃ©m on
oun ded
arch itecture
Ġappart enait
Ã©chapp er
Ġchamp ion
Ġconvict ion
ĠmÃ©c ont
Ġsilenc ieuse
ĠBel cher
Ġcerv eau
Ã©pous er
ĠBarr ymore
Ġnaiss ance
Ġpian o
Ġgol fe
? âĢ¦
D onc
M y
i Ã©tÃ©
Ġl oup
Ġl aine
en b
Ġp ages
Ġla ves
Ġb ale
el ait
Ġle d
au berge
Ġav al
Ġav ouer
Ġg Ã©m
Ġg one
al da
ag ir
Ġtr Ã©s
Ġch ir
ĠP i
ĠL oth
ĠÃ© glise
Ġser ious
Ġsu pr
Ġai les
Ġcl aire
Ġmont rÃ©
Ã©l Ã¨ne
Ġcher cha
Ġarriv aient
Ġchar p
Ġso eurs
Ġchev el
Ġtravers a
Ġgros s
ĠW est
Ġte int
Ġgen ou
ĠÃ©l Ã¨ves
Ġta king
Ġcroy ant
Ġgal ant
Ġbri ques
Ġlib Ã©r
Ġcoll ine
ĠHen ri
her be
her lock
Ġapport er
Ġdisting uait
Ġjoy euse
Ġsecou a
Ġwor k
Ġorg ueil
Ġtriomp he
Ġparv int
Ġproduis it
Ġmassi f
Ġobten u
Ġpaup iÃ¨res
ĠdÃ©fin it
ĠcathÃ©d rale
. )
F ogg
d el
l aient
Ġ 7
Ã© ge
Ġc ant
Ġm and
Ġde ar
Ġf ore
il is
Ġn aÃ¯
Ġv ides
Ġb Ã©g
Ġj Ã©s
av ers
Ġtr ad
Ġme ans
ap t
ĠL odovico
Ġmar que
Ġam ong
ĠJ ack
anc ien
Ġdonn ai
Ġvoi ce
Ġport aient
Ġco Ã»t
Ġad op
Ġst yle
ĠrÃ©s ign
Ġavant age
Ġsais i
mer alda
Ġref r
Ġtour b
Ġlev ai
Ġocc asions
Ġord ers
Ġbar que
Ġbal les
Ġfix ement
ĠrÃ©g iment
Ġpress Ã©
Ġact ions
ĠÃ©m u
Ġgouvern eur
Ġbonn et
Ġimpr ud
Ġsin istre
Ġvoil es
Ġcraign ais
Ġmag asin
Ġpoign Ã©e
ĠSans ever
Ġrare ment
Ġperf ect
Ġsoign eusement
ĠdÃ©vou ement
ĠpropriÃ©t aire
ĠLoth ian
ĠSansever ina
T enez
T rois
d ou
g arde
h ire
i um
r ouver
t Ã©s
Ġ 4
Ġp endre
Ġs onna
on om
Ġm ens
Ġm ention
Ġf Ã©vrier
Ġn ar
Ġv ins
Ġv oÃ»te
Ġb Ã©
Ġb av
Ġb Ã¢
Ġb ourd
Ġr oses
Ġr onde
Ġh Ã´te
us ques
Ġpr ouver
Ġpar is
Ġne xt
ĠÃ©t endue
Ġch aude
Ġch ild
ab e
Ġw al
im pos
ĠC ol
Ġy et
Ã® ch
Ġpro che
Ġcr oit
Ġcar te
Ġpouv ions
ra Ã®ch
Ġcons erver
Ã©d it
ow s
Ġab ove
Ġatt ir
Ġvoy ons
ob st
Ġcou ch
ret te
Ġaur ais
emb arcation
ouss es
aill ir
Ġconf ort
ĠdÃ©b ris
Ġrou es
Ġro cher
Ġbour reau
Ġcouv ent
Ġfix Ã©s
Ġus age
Ġesprit s
Ġplac es
Ġrapport er
Ġgrav ement
Ġlis ait
ĠÃ©tonn Ã©e
Ġem m
Ġsout enir
Ã©loign er
lant ique
ĠconsÃ©qu ence
Ġcess Ã©
olog ie
Ġbarb e
Ġboute illes
Ġbrav es
Ġdiam ants
Ġobst acle
ĠSe ine
Ġinstr uments
adress ant
Ãīt ait
Ġpromp tement
ĠLuc as
ript ion
Ġnov embre
Ġphysi que
Chap itre
T iens
o eur
p ens
s uite
v oir
Ġt ue
Ġqu ad
Ġn us
Ġla ter
Ġla ss
ais ait
om ac
em ort
se d
Ġch ances
onn emort
Ġal one
ĠL ow
Ġbr and
ĠA t
ert in
Ġdev rait
Ġwh ose
Ġmain ten
Ġ? âĢ¦
Ġim pl
Ġven ger
Ġregard Ã©
ĠT abor
Ġdonn ez
ĠdÃ©s ordre
auv re
ĠdÃ©c oup
Ġvie il
th at
Ġad ieu
ress ions
Ġsort ant
aur aient
Ã§a de
Ġver rez
Ġvol er
Ġvol ume
Ġconf ess
Ġref uge
Ġchemin Ã©es
Ġfa Ã§ade
Pour tant
Ġoccup Ã©e
Ġru in
ĠdÃ©sir ais
ĠdÃ©sesp Ã©rÃ©
ĠsiÃ¨ cles
Ġessay er
Ġgrav es
ĠhÃ©r iss
Ġcontent a
Ġmagn ifiques
Ġfranch ir
Ġadmir ation
Ġach eter
Ġchass eur
Ġmu et
ĠÃ©qu ip
adm iration
Ġsouffr ances
oure usement
Ġiv re
Ġyours elf
G E
T I
V enez
c s
c our
g les
v oix
Ġd Ã®n
Ġl ieux
Ġp ower
on f
Ġc asser
re ign
ent rai
it z
Ġv ir
or ies
Ġh ang
Ġse in
Ġpour p
ic ien
ĠP alais
ĠL id
Ġcr av
Ġcr ise
Ġou ght
Ġser ra
ens Ã©
iss ue
Ġmar ri
Ġam Ã©ric
Ġdonn Ã©e
od es
Ġcoup Ã©
ĠÃ©p oux
ĠdÃ©c our
Ġentre ten
Ġcl airement
asse z
Ġvis ites
Ġher bes
Ġserv it
Ġconv ient
Ġrev inrent
Ġcan n
Ġprom enait
Ġchemin s
Ġfus ils
Ġpo ches
Ġgu et
Ġta ches
Ġhist oires
Ġhal et
Ġhabitu des
land ais
Ġcord es
Ġangl aise
Ġembarr as
Ġmeur tre
Ġrecher ches
Ã©lev ait
Ġphilos ophe
Ġquat orze
Ġball on
Ġsympath ie
Ġobsc ure
Ġdissi p
ĠProv idence
A S
T o
o ques
r ance
u ant
Ġd re
Ġp is
Ġs end
Ġs ours
Ġs ci
Ġs treet
Ġc im
Ġc ave
Ġc aill
Ġa w
Ġt aire
Ġt irait
ar k
Ġv an
Ġr iait
Ġh aÃ¯
ur ch
Ġen em
Ã¨ bre
Ġav ou
Ġpas t
Ġse em
ĠÃ©t ourd
Ġpl aire
ab b
onn es
Ġson gÃ©
ĠC resc
ard ins
ue re
ill aient
Ġdis ent
Ġfr ay
Ġfr anchement
ĠrÃ©p Ã¨te
Ġpass port
ass Ã©s
Ġcoup le
Ġsent ant
Ġcap t
iqu ait
Ġsour de
Ġrev iend
Ġins pir
Ġoff ici
iter ran
Ġ1 4
Ġfat al
Ġpal iss
ĠbÃ¢t on
ĠprÃªt res
entend ais
Ġtap iss
ĠY our
Ġmagn ific
tru ctions
Ġdevoir s
appel er
Ġexcell ente
Ġconsol ation
Ġdisp ut
Ġordinaire ment
espÃ©r ance
ĠvÃªt u
lo ge
ĠmystÃ©ri eux
Ġgib ier
Ġansw ered
ĠEs meralda
ĠExc ell
Ġperspect ive
enb rock
ĠLid enbrock
A ux
C ertes
H ow
a w
g g
Ġd il
Ġl uis
Ġl ight
en ouill
Ġt y
Ġt itre
in ation
Ġn oy
Ġle cteur
ce au
Ġpar ent
Ġpar al
Ġpour vu
Ġe ight
pr op
ac ter
ĠC acambo
ard on
Ġcr aint
Ġser ions
app es
Ġpart s
ĠG riff
Qu asimodo
ĠÃ©c rite
Ġatt itude
Ġfort es
Ġrepr oche
Ġcol onie
Ġprof ound
Ġaff reuse
Ġint Ã©rieur
Ġconn ue
Ġsouff rait
ĠÃ©v anou
Ġexc use
Ġtranqu illes
Ġro che
ĠFr ench
Ġquitt ait
Ġappar aissait
hab it
Ġpap iers
Ġpuiss ante
ĠdÃ©g uis
Ġrencont ra
Ġobserv ations
Ġpois son
Ġimport ante
Ġoblig Ã©e
ĠÃ©n ormes
ĠhÃ©r it
Ġforc Ã©e
Ġarm Ã©s
Ġdemeure r
ĠprÃ©t end
ĠespÃ¨ ces
Ġgentlem en
Ġgout tes
Ġflam mes
ĠrÃ©un is
ogn a
Ġennem i
ĠcÃ©d er
Ġaigu Ã«
Ġvoisin age
ĠSe igneur
ĠpossÃ©d ait
Ġaveu gle
Ġdoul oureuse
Ġmerc ier
Ġfoss es
Ġpleas ure
Ġraf raÃ®ch
ivid u
Ġtroup eau
Ġcarr osse
G eorge
H ans
o ver
r op
Ġ -
Ġ Ãªtres
Ġd ura
Ġl anÃ§a
Ġs iens
Ġs ight
Ġc end
Ġc and
Ġc essa
Ġt ot
Ġv iend
Ġb ete
Ġh och
Ġque relle
ur aient
at tre
Ã¨ ce
Ġpr iÃ¨re
ouv ert
ois elles
Ã©c olier
Ġsa le
Ġbr un
Ġser rait
ith er
od eur
ich aud
ĠÃ©p argn
Ġvoy aient
Ġcl aqu
Ġacc ount
Ġsour iait
Ġsol itaire
Ġrev ient
Ġcontinu ellement
Ġappr Ã©c
eth ing
Ġplais ait
ĠÃ©cl ats
Ġreven ant
ige ait
Ġrent rait
Ġretourn ant
Ġress ort
Ġinf Ã©rieure
Ġsee ing
Ġconsid er
Ġpap e
Ġpare illes
Ġdispos Ã©
Ġnombre uses
Ġbatt u
az in
Ġparticul iÃ¨re
Ġessay Ã©
Ġstup Ã©f
Ġembarr assÃ©
Ġois eau
Ġye ar
Ġfo ol
Ġbrouill ard
ogr aph
Ġund erst
Ġluc arne
' ll
M aheu
P res
P orthos
S ir
d s
d it
i pl
u il
on Ã§ant
in fluence
ar mÃ©e
Ġn et
Ġla v
Ġre ally
al ie
ap on
ne y
Ġgr ise
Ġcon Ã§
ĠA xel
Ġsu m
Ġsu cre
ĠE die
Ġam itiÃ©
ĠG iletti
Ġtrouv ez
up port
Ġlaiss Ã©e
Ġdou zaine
Ġsal ua
Ġserv ices
Ġmis Ã¨re
Ġsoup Ã§ons
ĠÃ©ch ant
Ġexc lam
Ã¨v ement
Ġvoit ures
Ġinf ort
cept eur
Ġplac Ã©e
Ġrob es
Ġpus se
Ġey e
expl iquer
ĠÃ©clair Ã©e
In de
Ġlog ement
hum anitÃ©
Ġlook ing
Ġprincip al
Ġmag istr
ĠÃ©loign Ã©
Ġmise re
ĠÃ©b ran
espÃ©r ais
Ġaffir m
oÃ¯ s
Ã« l
Ġcat astr
Ġvole ur
ĠhÃ¢t a
import ance
aug hter
Ġmoul in
elop pe
Ġsever al
C onseil
J usqu
l is
t if
Ġp ale
Ġs ot
on ville
Ġa f
an i
Ġt ables
Ġf as
is sez
Ġn eu
Ġv Ã©n
te ct
Ġr oman
Ġun es
Ġun iquement
at ing
Ã¨ tes
ĠÃ©t oiles
Ġpl aign
Ġtr ot
ĠP o
ul Ã©
ill ant
ĠS eure
ĠS treet
ĠB ourg
ĠN ouv
Ġmal aise
Ã©ri eurs
Ġsou c
Ġavant ages
Ġsol l
Ġver r
Ġshe w
Ġconf ir
omm age
ust ri
Ġair s
ĠGr Ã¢ce
Ġgard Ã©
Ġpays ans
enn em
ĠrÃ©c omp
cl Ã©s
Ġgent ils
Ġconsid Ã©rer
ĠpÃ¢ les
Ġpare ils
Ġvas tes
ĠrÃª ves
env ie
Ġgreat ly
ĠvÃ©rit ables
Ġracont ait
Ġrempl i
Ġsonge a
Ġempl oyÃ©
Ġsingul iÃ¨rement
Ġlam pes
Ġcav alier
Ġreconnaiss ant
Ġfranch i
Ġlarg ement
ĠbÃ¢timent s
Ġke pt
Ġvoyag eur
ĠÃ©qu ipage
oeu vre
Ġtur ned
Ġterres tre
uill aume
Ġextre me
Ġdesp air
ĠdÃ©mar che
Ġing Ã©n
Ġfantais ie
ĠcrÃ¢ ne
ĠFrank lin
enz i
Ġchir urg
ĠCresc enzi
ĠSeure l
F elton
M e
M athilde
i ot
i Ã©es
o ad
o ok
r oss
Ġd aughter
Ġp it
Ġp aire
Ġs tre
Ġs Ã©p
Ġs Ã¨che
Ġc ole
Ġt one
in i
in qu
ar ine
Ġv Ã®mes
Ġb ottes
Ġj ardins
om en
Ġr os
Ġr Ã´
ous quet
Ġh arm
Ã©t ique
ur b
ir ais
au ght
Ġg uere
Ġpr ends
ion ale
Ġpar aissaient
Ġse iz
ĠÃ©t abli
Ġtr ue
Ġcom ble
Ġw rit
ap l
ĠC om
ne bres
Ġmon ot
Ġcr oir
Ġcr amp
Ġex h
Ġmar teau
ĠB onnemort
Ġam ener
ĠrÃ© ussi
Ġvis ages
Ġchar b
Ġrev ins
eus sent
Ġconf ier
gl out
Ġdesc endant
Ġdesc ente
Ġpouss ant
Ġtable au
Th en
Ġcrain tes
Ġprofess ion
Ġvag uement
Ġroug it
Ġendroit s
ĠtÃ©m oin
ĠÃ©trang es
Ġcach Ã©e
Ġrej oign
Ġretomb a
Ġbeg in
Ġpes ant
Ġvict oire
Ġplant ation
Ġprisonn ier
Ġfavor able
Ġpir ates
ĠrÃ©vol te
Ġromp re
Ġattach Ã©
auc une
Ġcarri ed
ĠRou en
Ġfabri quer
imm ense
Ġextre m
Ġmatel ots
Ġsom ething
Ġnum ber
ĠdÃ©sagrÃ© able
impat ience
Ġchans on
ĠtÃ© nebres
Ġcole re
T E
a us
y ant
Ġd ate
Ġs ulf
Ġc oins
Ġf if
is Ã©e
Ġv Ã´tre
Ġb ad
Ġj uin
Ġle Ã§ons
Ġr i
Ġr ican
Ã©t endait
Ã¨ ner
ri che
oi le
ien drez
Ġch Ã©rie
Ġw ait
Ġw ood
ĠM al
im pr
uis it
Ġbien veill
Ġar b
Ġsu gg
ĠG eorg
ĠÃ©c he
esp ace
Ġpens ant
Ġfer ons
Ġsec ousse
oc es
Ġint ime
Ġjet Ã©s
Ġor igin
Ġhaut s
Ġins upport
Ġfeu ille
Ġdist rib
Ġhum ble
Ġcompl ais
Ġexp rimer
ĠMar ch
Ġresp ons
Ġsimp les
Ġinv olont
Ġremarqu able
euf s
ĠrÃ©g ion
ĠgÃ©nÃ©r alement
Ġrefus a
Ġfil et
ĠcrÃ© atures
Ġtrembl ait
ĠdiffÃ©r entes
arriv ai
Ġdifficult Ã©s
Ġpan ier
Ġber ge
Ġentr ailles
Ġnaufr age
usc ule
Ġpant al
Ġenchant Ã©
Ġel se
Ġsubst ance
Ġtum ulte
intellig ence
Ġlett ers
Ġsupr Ãªme
Ġchevel ure
F or
t ing
Ġd ig
Ġp oil
Ġs uit
Ġs avaient
Ġc Ã©t
an k
Ġt ache
Ġn ue
Ġb ed
Ġh ont
Ġh ache
at ivement
at ives
he ad
Ġg il
Ġpr ia
Ġpl umes
Ġch aises
Ġw all
ĠC iel
Ġfr uits
Ġex ist
Ġser rant
Ġdev ons
ens er
ĠN ether
omb e
Ġfut ure
Ġaux quelles
Ġman oir
ĠT he
Ġcour ants
Ġtou ff
Ġatt endit
Ġeff ets
Ġcri mes
ell ent
rai ment
ĠdÃ©p ense
aur a
emb arqu
ĠdÃ©t on
Ġcan ne
Ġes cl
ust a
Ġcontr Ã©e
Ġrent re
Ġmen ace
Ġbar riÃ¨re
Ġtrait er
ĠreÃ§ us
Ġremarqu ai
Ch ac
Ġrapid es
ĠrÃ©g ions
vre use
ĠsÃ©ri euse
Ġhors es
ĠX X
Ġcharg Ã©s
Ġobserv a
Ġble us
Ġbrill ant
outer r
Ġsud den
ĠmÃ©t h
Ġrepos er
Ġos Ã©
Ġconduis it
Ġarra cher
Ġretir Ã©
Ġretur ned
Ġnerv eux
Ġappare il
Ġsecr Ã¨te
Ġgaill ard
Auc un
Ġextrem ely
ĠNether field
G Ã©dÃ©on
M lle
M arguerite
c ot
k es
Ġ Ã´
Ġ Ã©rup
Ġl ength
Ġs ut
re at
Ġm o
Ġt amb
Ġb aleine
te en
as te
Ġr ois
Ġr ente
Ġg ri
Ġg oth
ag eux
ag ue
Ġdans e
Ġw rite
Ġsur s
ap er
ap ercevoir
Ã©p uis
ond es
age d
Ġar me
ĠB ri
ĠB omb
ence inte
ĠJ amais
Ġmain t
ĠrÃ© jou
ct or
Ġper les
Ġrem ise
ĠT or
Ġcour b
Ġdi ables
Ġsou d
iÃ¨ te
Ġrest ai
oc at
Ġacc Ã¨s
Ġfl anc
Ġfl ancs
ell is
Ġcor n
Ġpris es
Ġaur ons
Ġgl oire
ĠW h
uy er
Ġinf Ã©rieur
Ġprod uits
Ġinv is
Ġpen chant
Ġfix e
Ġdispos itions
Ġproc urer
Ġchap elle
Ġgagn ait
Ġmod if
Ġcoul oir
ĠdiffÃ©r ent
Ġpron onc
hum eur
Ġbec ome
ĠtraÃ®n ait
Ġplaisant erie
Ġdiam ant
atte indre
ĠprÃ©caut ions
ĠNap les
Ġod eur
reg ellis
Ġsourc ils
Ġremerc ie
ĠrÃªver ie
Åĵuv re
Ġgovern or
ĠMÃ©d iterran
Ġsoll ic
ĠMÃ©diterran Ã©e
C ollins
K ong
O I
c ore
e cher
g s
m ons
n ight
r ages
u ction
Ġ irait
Ġs qu
Ġs aign
Ġs outerr
re uve
Ġde ad
Ġf ire
ar ned
Ġn id
Ġn ett
Ġv illes
Ġv irent
Ġb ig
Ġb aign
or age
us tement
ir rit
at ter
Ġg Ã¢t
Ġg org
Ġpr im
al s
al ent
Ġpar venir
av ouer
Ġo eu
Ġtr istes
Ġpour rions
Ġw ater
am ise
ig ine
ĠC our
Ġan ge
ĠP al
Ã¢ ter
Ġex iste
Ġfor mÃ©
ĠB eau
ĠD un
ĠF ouquÃ©
ĠN Ã©grel
ass aient
Ġtrouv Ã©e
Ġtrouv Ã¨rent
ĠV ir
ĠH ong
ĠT regellis
ra ham
riv et
ett ant
Ġparl aient
Ġsent i
itu des
Ġcol onne
Ġprof it
Ġst ood
Ġmin Ã©r
Ġbou g
Ġmot if
ĠCh Ã©lan
Ġsp end
Ġfou et
ĠQu ant
oth icaire
ern elle
Ġoccup ait
Ġir on
Ġrefus Ã©
ĠdÃ©sesp Ã©r
Ġrempl ir
Ġcharg er
Ġsecret s
Av ez
Ġcoul er
ĠdÃ©r ob
Ġpubl ique
ĠsÃ©par ait
ĠprÃ©par atifs
ĠrÃ©veill er
Ã©chapp ait
Ġbaiss a
Ġappuy Ã©
imagin ation
Ġer reur
inqui Ã©tude
Ġroy aume
Ã©cout ait
ĠhÃ´t es
ĠchaÃ® ne
Ġmoin dres
ĠFranc is
Ġlant erne
Ġadvers aire
Ġond ul
Ġdraw ing
Ġinde ed
ousquet on
ĠBomb ay
. '
L ys
M E
V a
b ber
g ne
Ã Ī
Ġ ign
Ġl Ã¢ch
Ġs k
ou ette
ou ci
Ġc ut
Ġc itÃ©
Ġf ull
ar bre
el et
Ġj urÃ©
or i
Ġle ad
ur Ã©e
Ġg e
Ġre lever
Ġpr atique
av iez
Ġo ctobre
Ġtr ott
and es
Ġpour riez
Ġth ous
Ġma jor
ĠdÃ© dain
Ġcon j
Ġbr une
Ġbr ume
ĠA s
Ġser iez
Ġdem oiselle
ĠD eux
app art
Ġpart age
Ġcont en
Ġcont ente
anc re
ĠV oici
ĠH Ã©las
ĠT amise
Ġdemand ant
Ġapp Ã©t
ĠdÃ©c ision
Ġvis ion
Ġprof iter
Ġmat Ã©ri
Ġcapit ale
Ġcert itude
Ġrev ol
ib ule
ĠW illiam
Ġocc ur
Ġpays age
ĠMar y
gr at
Ġcaus Ã©
Ġplaisir s
Ġappar tement
Ġsoul agement
ĠsÃ©ri e
Ġempl oyer
Ġmeille urs
Ġgrav itÃ©
Ġimmob iles
Ġdevin Ã©
ĠÃ©chapp Ã©
Ġsoi f
Ġard ente
Ġvaisse aux
Ġach et
ĠcommenÃ§ aient
Ġextra ord
Ou est
ĠÃ©criv it
ĠmystÃ©ri euse
ĠRob in
Ġsl ight
ĠmÃ©lanc olique
Aut riche
ĠÃ©ner g
Ph ileas
Ġrecommen Ã§a
Ġrenseign ements
ĠphÃ©nom Ã¨ne
ĠcÃ©rÃ©m onie
ĠcrÃ©p uscule
Ġcend res
Ġgentils hommes
I L
O M
S ous
a Ã§ait
h eurs
j ection
v el
Ġ 8
Ġ ec
Ġl ancÃ©
Ġl ugu
Ġp age
ou le
re bber
it ations
Ġn Ã©
Ġb ir
Ġb oss
Ġb asses
Ġj ette
Ġh aleine
Ġg am
ri Ã¨me
os pit
onn iers
am itiÃ©
ĠM ons
ĠM ason
ac Ã©e
ĠP ri
Ġser t
ens ions
ay ait
Ġhe ar
Ġpart ait
ĠR ich
Ġapp ela
Ġab bÃ©
Ġrepr oches
Ġport ail
Ġfl att
Ġcor p
Ġbl ood
Ã©m illy
Ġsuiv aient
Ġenv ah
itt y
Ġsh ill
Ġtravers Ã©
Ġoff re
Ġpo ings
Ġdroit s
Ġann oncer
Ġajout er
Ġmor ne
Ġarr ond
Ġac te
Ġtrem blement
Ġir rÃ©s
Ġdir iger
Ġany one
Ġsoul ier
Ġtent ative
Ġquin zaine
Ġremont a
Ġremont ait
entre pr
Ġpard onner
Ġoblig ed
Ġnour rice
Ġtravaill ait
Ġpoursuiv re
ĠespÃ©r ait
Ġchass eurs
Plus ieurs
Ġtur n
Ġsame di
Ġquat riÃ¨me
Ġindiff Ã©rence
Ġtress aillit
Ġdistr aire
Ġlu eurs
effr oi
Ġinconn ue
ĠÃ©ner gie
Ġmult ipl
QU E
Ġempr is
entra Ã®n
Ġplair a
ĠLow ood
M eaulnes
z iÃ¨me
Ġd og
ou dre
Ġc ot
Ġm em
Ġm asses
Ġf al
Ġf iÃ©
Ġb ur
om n
Ġr anc
Ġr ires
Ġh Ã´tel
Ġh iver
Ã©t range
Ġpar all
av ag
Ġw ished
am bre
ĠM aintenant
ĠM ichaud
ut h
ap othicaire
Ġto its
Ġal ong
ĠS ud
ĠdÃ© li
Ġex asp
ĠA nd
ĠD iana
Ġall ure
Ġtrouv erait
Ġcont enir
orte z
anc Ã©s
Ġdemand ais
Ġcoup e
Ġsent in
Ġrepr och
Ġmont ant
Ġcher chÃ©
Ġbou ff
Ġbou gie
Ġviv es
ere ur
Ġple urait
Ġver res
Ġsp ent
Ġind isc
ingt on
ĠGr Ã¨ve
Ġinter est
Ġextr Ã©mitÃ©
Ġjourn aux
Ġsign es
Ġmous ta
ĠdÃ©cid Ã©ment
anÃ§ aient
Ġconven ait
Ġaband on
Ġcoul ait
Ġretrouv a
Ġretrouv Ã©
At t
ĠrÃ©veill a
Ġlarg eur
Ġmill iers
Ġgliss a
Ġfourn ir
oph y
Ġja unes
Ġeffray Ã©
rÃ©t ion
Ġallum Ã©
Ġadress er
Mr s
Ġband es
Ġnaufr agÃ©s
ĠdÃ©liv rance
Ġremar que
Ġappl aud
Ad ieu
Ġremerc ier
Ã©lÃ©g r
Quelque fois
ĠMes sieurs
ĠItal y
Ã©cur ie
Ã©pouv ante
ĠmarÃ©ch ale
del Ãł
Ġchirurg ien
Ġthous and
Ġmousta ches
B ingley
W ith
o Ã®tre
u el
Ġl and
Ġp in
Ġp endu
Ġs orc
Ġc ache
qu Ã©rir
Ġm el
Ġt art
Ġt ente
Ġt endait
in q
is ant
Ġb us
Ã©t Ã©s
me mes
al ous
Ġpar s
Ġpar oi
Ġpar urent
Ġch im
ol ue
ol Ã©on
ĠC oqu
ot id
ille ment
ĠP et
ĠL heureux
ore d
op Ã©
tr ois
ĠE m
ĠF leur
ĠJ ock
ĠN o
ĠG ardiner
Ġlong itude
Ġjam be
Ġai der
oc ation
Ġvoul us
Ġbl Ã¢
Ġag ent
Ġag itation
ĠdÃ©t est
Ġvol Ã©
Ġconf usion
Ġoff rit
Ġlieu tenant
Ġrend is
Ġbes oins
Ġsoup Ã§on
Ġaut or
Ġlo ver
andis es
Ġriv al
Ġress emble
Ġval ets
Ġproc ureur
Ġfav our
Ġrempl acer
Ġaband onner
Ġmod este
Ġbrill ants
aig u
Ġsay ing
Ġrang s
Ã©tr anger
Ġspe aking
ĠespÃ©r ance
ove reign
ĠfrÃ©qu emment
Ġpersuad er
Ġinterromp it
Ġdoul oureux
Ġsilenc ieusement
ĠBer ks
Ġstat ue
abs ence
Ġimb Ã©cile
Ġdign itÃ©
Ġcade au
ĠExcell ency
ĠCoqu enard
A U
D o
D ites
T andis
d ge
d ix
g ypte
h aut
h ip
l Ã©s
p ool
u aient
y g
Ġd aign
Ã© lice
ou jours
Ġc ors
Ġm ets
Ġt Ã©lÃ©gr
ent ret
ar ter
Ġv ar
om pr
Ġen ch
at oire
Ġpr iÃ¨res
ch aient
ch eurs
av ou
av anÃ§ait
Ãª che
se aux
end e
os itÃ©s
onn ai
ĠM ousqueton
Ã©c outer
ac ement
ĠC itÃ©
ille z
Ã©r aire
ill Ã©s
ĠS herlock
Ġfr Ã¨res
Ġbr anche
Ġar mÃ©
Ġser rer
Ġas k
Ġas se
Ġat ter
ĠB ol
ĠB rock
ĠB azin
Ġcar esses
app are
ve il
ĠrÃ© ch
ĠH is
Ġdire ct
ow ed
ist ible
Ġrest Ã¨rent
Ġdou leurs
Ġviv ante
Ġsuiv irent
Ġchar iot
Ġserv ant
Ġouv rait
Ġvol Ã©e
Ġliv rer
Ġcal m
Ġobs curitÃ©
Ġexc l
Ġvingt aine
ĠGr ant
Ġcompl iment
ĠÃ©l Ã¨ve
Ġgre c
Ġresp iration
oll o
Ġgal eries
Ġfat ale
Ġpropos a
Ġmoyen ne
Ġpap er
Ġmarch andises
Ġfatig uÃ©
Ġfatig uÃ©e
occup er
Ġsav ants
ĠY ork
ĠrÃ©flÃ©ch i
ĠprÃ©par Ã©
Ġfar ouche
Ġard ent
Ġmons tres
Ġhapp y
Ġmerve illes
Ġmange ait
Ġchois i
Ġconcl usion
ĠAv on
Ġrecul a
Ġmerveille ux
ĠrÃ©vol ution
arri ve
Ġinstr ument
ĠRou ge
Ġgrim p
Ġgrim ace
rist an
Ġpistol ets
ĠdÃ©barr asser
ĠgÃ©nÃ© reux
Ġhyp oc
Ġdissimul er
ĠMou quette
Ġexcurs ion
ennem i
A g
I m
N ow
R oland
V oyez
d r
h Ã©m
h urst
r ay
Ġd en
Ġl ancer
Ġp itt
Ġs ain
Ġf Ã®mes
Ġf ash
il air
Ġv et
Ġv ents
Ġv este
Ġv iendra
Ġv raisembl
Ġb uis
Ġj oint
as sible
Ã©t al
Ã©t roit
Ġg ot
Ġre ached
ri ces
Ġne ed
av ancer
Ġdans er
ouv rage
Ġw at
Ġw omen
am us
ec te
ap res
Ġsa che
ill art
ĠS overeign
ĠL iver
Ġbr ul
Ġfor ger
Ġmain tenir
ĠN autilus
ass ur
Ġenf lam
Ġentre t
ett aient
ĠO r
ĠO livier
Ġrepr ocher
En suite
Ġwith in
Ġcor re
Ġst and
iqu Ã©
Ġag itÃ©
inc tement
Åĵ u
Ġcontinu ai
ach eter
acc ommod
Ġlev Ã©e
Ġjou ir
Ġk ind
Ġrent rÃ©
Ġbar re
ĠFr ilair
Ġfroid s
Ġsub s
Ġdispar aissait
ĠpÃ¢ leur
Ġcouv rait
Ġfrapp ait
Ġve ines
Ġsucc ess
ĠmÃª lÃ©
Ġbris Ã©e
exp rimer
Ġ2 0
Ġroul ait
At lantique
ĠÃ©prouv Ã©
Ġpan neaux
pent ier
ĠrÃ©d uit
ĠAv ez
Ġbill ets
Ġsm ile
ĠÃ©tud es
emport er
ĠentraÃ®n Ã©
Ġmanoeu vre
hÃ©r it
Ġsucces sivement
Ġrede v
Ġprocure use
Ġhel p
embarr as
Ġgend armes
Ġsuc ce
Ab raham
Ġmarri age
prop re
Ġpitt ores
L A
T ER
e lez
Ġl ord
ai bl
Ġp Ã©ch
Ġs ie
Ġde c
Ġf est
il ity
el hurst
om es
as min
Ġh av
Ġh old
ur ne
at he
at rice
Ã¨ les
Ġpr inc
Ġpar ages
Ã©c ras
ig r
ac ier
si ves
aire r
Ġof ten
id er
Ġfr ag
ĠA llez
Ġap ais
Ġat tem
Ã´t res
ass urer
ĠR ivers
ĠG uillaume
ign ant
ign eurs
Ġter rif
enc our
Ġlong uement
Ġcl ou
Ġcl er
att ente
Ġprof il
Ġfin issait
Ġmat iÃ¨re
Ġass urer
Ġpres ence
Ġsouv iens
Ġind ividu
Ġrapp elez
Ġoff rait
Ġappr Ã©h
Ġperd it
Ġjou Ã©
Ġabs orb
gr Ã¨s
Ġinv itation
ĠFr ollo
Ġfac ult
Ġmanqu aient
Ġtrans par
Ġpat ient
Ġpen sif
Ġproc ession
Par fois
Ġcoll ines
aime z
Ġeffr oyable
Ġvoud rait
ĠbrÃ» lait
Ã©b ran
Ġemport er
Ġcompt oir
Ġvain ement
Ġsecou ant
Ar riv
ful ly
fort un
ĠnÃ©cessaire ment
Ġachev a
ĠespÃ©r ances
erci ce
Ġchange a
Ġtransport s
Ġaccompagn Ã©
Ġprisonn iÃ¨re
ĠAv ec
Ġpoign ard
Ã©lev a
Ġregarde z
Ġsoulev a
Ġpersuad Ã©
Ġmena Ã§ait
Ġdomin ait
Ġsab ots
ĠmÃ©ch ant
Ġpla Ã§a
Ġtre ize
Ġflott ait
Ġmout ons
interromp it
Ġrecommenc er
Ġnotice d
Ġlux e
Ġindis pens
Ġrefr oid
clÃ©s i
Ġinsupport able
ĠBrock elhurst
ĠLiver pool
N i
N os
a Ã§a
h app
n euf
t he
v et
v res
Ġl oy
Ġp ommes
Ġs aill
et es
in Ã©e
ar res
is ed
ag ent
Ġw orth
os ion
ons es
uis e
oin e
Ġpro grÃ¨s
Ġcr ist
Ġfr ac
Ġex ig
ĠA b
ĠA prÃ¨s
Ġdev ient
ĠrÃ©p onses
iss ais
ĠB ert
ĠF lor
ass ant
ass assin
ĠR Ã©qu
Ġregard Ã¨rent
ĠH oll
Ġdemand ez
Ġcomm ode
Ġcomm ission
od y
Ġtou chait
Ġrec l
Ġca chait
Ġai mÃ©e
ob tenir
min istr
Ġcap rice
oc Ã©an
Ġst ud
Ãī v
Ġag i
Ġinc on
Ġind ig
Ġfille d
Ġins ensible
tes se
Ġappr ocher
appr is
Ġreven aient
Ġcontr act
Ġrent rant
Ġop Ã©ration
Ġsurpr endre
Ġabs or
Ġfroid eur
Ġsens ations
Ġwe ek
Ġdispos er
Ġdr ag
ĠdÃ©couv rit
Ġconnaiss ances
hor loge
Ġjust if
Ġcre ver
Ġtrembl ant
ĠÃ©clair ait
ĠbrÃ» ler
Ġouvert es
Ġouvert ure
Ġem men
ĠmÃ©p r
Ġbaiss ant
Ġveu lent
Ġja un
ili bre
Ġfant Ã´me
Ġang le
Ġplaisant eries
Ġsouhait er
Ġchois ir
ĠÃ©loign Ã©e
Ġjal oux
Ġext Ã©rieur
Ġmir acle
ĠrÃ©uss ir
ĠdÃ©tr uire
ĠRob ert
Ġrefer ma
Ġsourc il
Ġthir ty
Ġgall op
Ġempress ement
Ġaccr oup
Ġbav ard
ĠBol ogna
Ġfash ion
ĠRÃ©qu illart
C atherine
E m
N Ã©anmoins
i or
v an
w ard
Ġd us
Ġd ark
Ġc u
Ġc reux
er ley
Ġt iers
in form
ar l
Ġv aud
Ġv iendrait
Ġle aving
Ġun happ
Ġh ar
Ġh uss
at ic
Ġg riff
ch ons
ag u
end ed
Ġdu el
Ġin ten
onn ier
res h
ĠM ery
ort ue
ap it
ers on
ĠC Ã©cile
ĠP emb
ĠL ib
ĠdÃ© fait
Ġest ime
Ġcr Ã©dit
Ġar mÃ©e
ert ume
Ġdem oiselles
Ġmar cha
op Ã©ration
ĠD rebber
ĠE sp
Ġpart y
Ġtrouv erez
art y
Ġmal ades
esp Ã¨ce
Ġenf ance
ĠdÃ©s hab
ĠdÃ©c idÃ©e
Ġret int
Ġpos it
Ġpos sibles
ro te
Ġfer mait
Ġsec rÃ©t
Ġdou ces
rai d
Ġsort irent
Ġst opp
Ġbl ack
Ġbou nd
ĠprÃ©s ident
Ġass urÃ©
Ġentend ue
Ġoff ert
Ġoff ice
ĠW ardes
Ġfam illes
Ġimp Ã©ri
Ġ1 0
enn ent
Ġajout ait
Ġadm it
Ġthem sel
aime d
ĠX III
Ġvoud ra
Ġdest ru
Ġtrembl er
Ġsav ons
Ġpron oncÃ©
ĠprÃ©v u
Ġconst amment
Ġsuppl ice
Ġtermin Ã©e
Ġdress ait
ĠCl opin
Ġtroubl er
Ġtal ent
Ġhorrible ment
imagin er
Ġcombat tre
Ġsab re
ĠobÃ© ir
Ġsatisfait e
ĠmÃ©lanc olie
Ġregagn er
ĠFa usta
accompagn er
Ġsy st
Ġberl ine
Ġgrat itude
Ġsott ise
Ġcharp ente
ĠMery ton
ĠPemb erley
Ġthemsel ves
S t
V II
c ro
o z
u eusement
Ã ¼
Ġs we
ou ches
re uses
Ġt est
Ġt endu
in Ã©es
ar Ã©e
Ġb ancs
as ed
as con
our is
Ġh us
Ġh iss
Ġh Ã©las
Ã©t onne
Ġen seign
ch Ã©es
ĠÃ©t off
ab aiss
Ġw rote
ard i
ĠP ont
Ġma x
Ġent ered
Ġfr ott
Ġbr on
Ġas ton
Ġall usion
ĠF erv
Ġche fs
ĠR avers
Ġenc l
ci ous
art h
ĠI s
Ġaus tr
Ġdonn ent
ĠÃ©c us
ose d
ven ue
ett ent
Ġpos sibilitÃ©
ex Ã©cution
Ġcl os
att aqu
ins pect
Ġrest Ã©s
Ġbon homme
ell er
Ġnot es
Ġnot aire
Ġaff air
ĠdÃ©p ouill
Ãī gypte
Ġten ue
Ġviv res
Ġchar acter
Ġple ines
Ġtomb aient
ĠdÃ©t our
Ġsh ort
Ġins tructions
Ġgo Ã»ter
Ġfam ous
ĠdÃ©b att
Ġrou e
Ġcompl ete
Ġexp Ã©rience
Ġgen eral
Ġgu eule
Ġpol i
ĠChar m
Ġcomb att
ache ment
abl onn
Ġsuff i
iere ment
RE S
Ġmarqu ise
ish ment
Ġble ue
Ġsold iers
Ġmeille ures
ĠK ing
Ġmauvais es
ĠdiffÃ©r ente
Ġimagin er
Ġvain c
Ġcouvert s
Ġache ver
Ġprincip es
Ġpes ait
Ġcontempl er
Ġglac Ã©e
ĠbÃ©n Ã©f
Ġdet tes
Ġapproch ait
ionn aire
ĠrÃ©gul iÃ¨rement
Ġaccompl i
Ġrepar ut
Ġrecev ait
Ġnerv euse
Ġansw er
Ġirr itÃ©
ĠFer rier
ĠInd es
mor ency
mor row
ĠFa usse
ĠRos Ã©milly
Ġcoff re
Ġabomin able
Ġatro ce
Ġmachin alement
Ġgigantes que
Ġmid dle
Ġvolup tÃ©
Ġlumin eux
ĠÃ©lÃ©ment s
Ġscrup ule
ĠjÃ©s uite
Ġcim et
Ġcatastr ophe
Ġaf raid
Ġpantal on
Chac un
ĠVir g
ĠFerv aques
ĠRavers i
A llez
C lelia
L aissez
V oulez
b our
b at
h yp
i ants
t Ãªte
Ġl ost
Ġp ige
Ġs en
Ġa ge
Ġm Ã©f
Ġt Ã¢t
Ġf Ã©
il ier
ar ly
is tement
Ġn omme
Ġv ic
Ġla me
Ġb oit
Ġle Ã§on
Ġav irons
Ġg ants
Ġpr iai
ri ch
Ġpl is
Ġch oqu
ab io
ab Ã®me
Ġin exp
ĠM ill
Ġme et
ois es
Ã©p aiss
Ġgr ogn
Ġmon te
ille d
id Ã©
Ġdis trait
Ġcr it
Ġcr ach
ors ter
Ġex istait
Ġar range
iss able
Ġmar ine
ĠB ar
ĠD erville
ĠE T
ĠE urope
Ġcar g
Ġcar n
Ġcar t
Ġcar reau
Ġpass Ã©s
Ġpart ager
ass ins
Ġenc omb
ci de
ign on
Ġman che
Ġman ieres
ĠV ille
Ġmal heurs
Ġcomp agne
ow ing
ven ait
Ġfin ie
Ġst ri
Ġbl onde
ĠCh ap
ĠdÃ©t roit
Ġver ra
Ġver rait
Ġconf idence
Ġcent aine
Ġappr ouv
Ġdist inct
uy ait
ĠdÃ©f ense
Ġann onÃ§ait
Ġbar onn
ok en
Ġretourn ai
aff ir
ast on
ĠsÃ» rement
Ġfrapp ant
Ġve ine
Ġve iller
Ġquit tant
Ġtrait Ã©
Ġcru elle
Ġvas e
onge ant
Ġplac Ã©s
Ġdur ing
Ġlib res
Par mi
Ġtent Ã©
Ġcharg Ã©e
Ġmarch aient
ĠtraÃ® ner
Ġpard onne
Ġnour rir
Ġretrouv ait
hum iditÃ©
erm ain
Ġarm s
ĠdÃ©clar Ã©
Ġlibre ment
ĠLy die
ĠhÃ©s iter
Ġcraign ant
Ġexamin er
Ġmalad roit
ric itÃ©
Ġeffray Ã©e
phe w
Ġcondam nÃ©
OU R
Ġplong Ã©
Ġpropri Ã©tÃ©
ĠNap olÃ©on
ĠÃ©tern elle
Ġgib et
Ġexpliqu a
Ġnavig ation
Ġdiscut er
Ġlois ir
ĠmÃ¢ch oire
Ġbeh ind
Ġremem ber
Ġinexpl icable
ĠAt t
tect ive
ĠNouv elle
Ġtamb our
Ġgoth ique
' re
A nglais
B r
C r
C eux
F ix
T op
V III
b and
u al
u de
Ġl us
en eu
Ġc all
Ġt ar
Ġqu otid
Ġv Ã®nt
un ique
or Ã©e
or ie
or ifice
Ġr ong
Ġr ug
Ġr ather
Ġen l
at iques
Ġg if
Ġre al
eur re
Ġau th
oi es
Ġpl ats
se igneur
Ġch uch
Ġin ond
am ar
ap Ã©
de red
de vant
ff els
ac Ã©es
ac ide
ne ffels
Ġmon seigneur
Ã©r ations
Ġma jest
Ġent endant
Ġent housiasme
Ġcr Ãªte
Ġser rÃ©
ĠF orster
Ġam ours
Ġam ants
ed y
ass ement
ĠG aut
Ġcont act
ĠrÃ©pond s
Ġmes ures
ĠI V
Ġdonn erait
Ġcons ac
rem ment
Ġtou cha
Ã©g ard
Ã©ri oritÃ©
Ġcoup Ã©e
Ġsou nd
Ġcl oches
Ġlaiss ai
Ġint entions
Ġconn us
Ġarriv Ã¢mes
Ġten ais
Ġemp ois
Ġtomb ai
Ġtomb Ã¨rent
Ġconv uls
ouss ole
tem bre
Ġins c
Ġprom ont
Ġdesc endu
Ġdist inctement
ĠÃ©ch elles
ĠdÃ©f il
Ġann onÃ§a
Ġrent rÃ©e
Ġfen etre
He in
Ġadm ettre
Ġcru ellement
Ġvert es
ĠmÃª lÃ©e
Ġcoll Ã¨ge
Ġsonge ant
Ġfatig ues
Ġsept entr
Ġapport ait
Ã©b ert
Ġcaract Ã¨res
Ã©cl use
Ġcouvert ure
Ġfranch ise
Ġhapp ened
Ġraisonn ement
Ġconsol er
Ġcoqu in
Ġrecul er
ivers itÃ©
Ġut ter
ĠfraÃ® cheur
Ġfi acre
Ġbu ff
Ġcompos ait
Ġentour Ã©
Ġmas ter
Ġperf ection
Ġvole urs
Ġinnoc ent
Ġverd ure
ĠPier r
ĠPier ron
** *
Ġtru ands
Ġscand ale
ĠGriff on
Ġunderst and
Ġrecl use
ĠChap elier
C ombien
L incoln
R O
T rÃ¨s
T ortue
a ke
f eu
i est
p tembre
s h
s ter
t o
u z
v ert
Ã Ķ
Ġd in
Ġp ussent
Ġm Ã»
Ġm ug
in j
Ġn aÃ®tre
Ġv ienne
Ġb ott
Ġb eurre
te aux
Ġr ad
Ġh u
Ã©t onnement
au jourd
Ġg rie
Ġse igneurs
Ġne phew
Ġtr uth
Ġpour rons
ont in
Ġw ant
ie ces
am m
ec ter
Ã©p end
Ġe as
im itÃ©
Ġsa d
Ġsa ch
Ġgr ound
Ġto g
ĠP ol
id Ã©es
ĠS neffels
Ġdis ci
Ã´ mes
Ġfr ot
Ġpeu pl
Ġex am
Ġap l
Ġcar reaux
ass is
ĠV ol
ĠT our
Ã©d iction
Ġcomp Ã¨re
ĠÃ©p rouver
ĠdÃ©c rire
ĠO u
ell erie
Ġcor ne
Ġsembl ant
Ġviv aient
Ġmat iÃ¨res
Ġconv ul
Ġgar ant
Ġouv rier
ĠprÃ© cepteur
Ġreconn ais
Ġpauv retÃ©
Ġsil h
Ġgros siÃ¨re
Ġimp orte
Ġk ill
Ġcontr ar
enf ants
Ġhor izon
Ġfix er
ĠRoch elle
Ġtromp Ã©e
Ġcommenc Ã¨rent
Ġdeven us
Ġdeven aient
Ġbrill aient
Ġstr ange
Ġkn own
Ġfur ieuse
Ġhal te
Ġmus cles
ĠarrÃªt Ã©e
Ġappart enant
Ġsuffis ante
Ġdout es
Ġdout ait
Ġsusp endu
Ġres plend
rup tion
Ġflot tant
ĠintÃ©rÃªt s
Ġaffir mer
ĠÃ©d ifice
ĠÃ©d ucation
orb ert
Ġtaill is
ĠÃ©pous er
ĠspÃ©c i
Ġpistol et
Ġenlev Ã©
Ġinterv alles
ĠpÃ©ri ode
Ġhyp oth
ichel ieu
ĠcÃ©l Ã¨bre
Esp agne
Ġincess amment
Ġsages se
ĠindiffÃ©r ent
Ġcaill oux
ouvert ure
ĠÃ©chant illons
Ġsurs aut
Ġlugu bre
Ġattem pt
clÃ©si astique
Ġunhapp y
ĠsecrÃ©t aire
Ġdestru ction
eneu lin
. _
A ss
F r
I X
P auvre
a ussi
c ess
f rique
p or
r or
t ique
Ġ 9
Ġd irent
Ġl ouis
Ġp air
Ġp ieux
Ġp entes
Ġc uv
Ġm ount
Ġde al
Ġde uil
Ġt endant
Ġt abl
in o
il ence
is ation
Ġv ib
Ġr alent
Ġun ivers
ant z
Ġen lever
Ġen glout
Ġav enir
Ġav ril
ce aux
est ime
av ert
Ġo ss
Ġtr istement
onn Ã©es
ois eaux
Ã©c r
Ã©c is
si ers
ic ale
Ġdev rais
Ġas c
ay ez
Ġmar m
Ġmar ques
ĠB rÃ©s
ĠF abio
Ġcont rib
Ġmes se
Ġmes urait
Ġcour u
pos er
Ġdonn Ã©s
ra h
Ġcons entement
Ġenf onc
Ġbeau ty
iÃ¨ ce
Ġcl am
Ġcl ocher
Ġtrav erse
Ġcou chÃ©e
Ġint Ã©
Ã©cri ait
Ġbou cher
iqu a
ĠrÃ©s oudre
Ġcapit al
Ġtomb ant
Ġinc idents
Ġjet ai
Ġhab itÃ©
Ġor n
Ġconf id
Ġfrom age
De vant
ĠdÃ©b ou
Ġgu Ã©r
Ġbal con
ĠFr antz
Ġac ross
ast ille
Ġhabit Ã©e
Ġfrapp Ã©e
Ġappar ition
Ġrac onte
approch ait
cha uss
Ġbatt ant
Par ce
Ġrempl ie
Ġbrill ante
Ġstr ength
ĠÃ©m ue
Ġattend aient
Ġrelev ant
ĠsÃ©par ation
ĠÃ©trang Ã¨re
ĠrÃ©veill Ã©
Ġbre ak
ĠconsÃ©qu ences
ĠrÃ©un ion
Ġferm Ã©s
Ġach etÃ©
Ġprend rait
ove red
Ġjol ies
ĠCr om
Ġlourd s
Ġarra chÃ©
Ġignor ait
arre ter
mar in
Ġbag ages
Ġgiv ing
Ġjur Ã©s
ĠÃ©tabl ir
Ġill um
Ġenfer mÃ©
Ġrud ement
Ġpi Ã©t
oly te
Ġendorm i
Ġprote ction
ĠrÃ©gn ait
arret a
Ġmoll usques
Ġinvis ible
ĠirrÃ©s istible
Ġranc une
Ġinten se
Ġhus band
ĠCharm olue
Ġcarg aison
Ġbaronn et
Ġtog ether
ĠBrÃ©s il
" '
A L
D is
M aÃ®tre
R od
e ded
m ille
o on
r en
r irent
z ire
Ġ ira
Ġ issue
Ġd ommage
Ġl ouer
Ã© lever
Ġs ch
Ġc Ã´ne
is aient
it aient
it ut
Ġv end
Ġle arned
ant a
al i
Ġpar adis
Ġse ptembre
ri ve
ag ues
Ġw agon
os ais
am ener
Ġme an
im agine
Ġgr ains
ic le
Ġal lem
Ġbien s
Ġon gles
ĠS tr
ĠL ap
ĠL estrade
Ġcr osse
Ġbr ing
bl y
ble u
iss es
ay a
ĠB our
ĠB astille
ĠD el
Ġpart irent
all a
anc ienne
ĠV ierge
ĠH ume
Ġcons omm
Ġrec ond
Ġrec ogn
Ġfort s
Ġfl otte
Ġfl oor
ĠdÃ©p e
Ġmin ces
Ġviv acitÃ©
Ġsuiv ie
Un iversitÃ©
Ġenv oya
Ġple uv
Ġag itÃ©e
Ġnom mer
Ġinc ons
Ġtravers ait
Ġliv rÃ©e
Ġcal mer
Ġimp ertin
Ġocc ident
Ġfa Ã§
enf oncer
Ġop p
Ġbar reaux
ĠdÃ©l ire
Ġcur ieuse
Ġhabit ation
Ġcaus aient
Ġpen cha
Ġoccup ation
Ġru ines
Ġvert s
oche fort
Wh y
Ġsold ier
Ġquart s
Ġpou ces
ĠdÃ©r anger
Ġeng agÃ©
Ġsatisf aire
Ġbec ame
ĠhÃ©s ita
Ġprincip ale
ĠespÃ©r ant
Ġang les
Ġrich esses
Ġrecommand Ã©
Ġbag ue
Ġobst acles
emport a
embr asser
uill et
An t
Ġaveu gl
Ġreten u
Ġlim ites
Ġanx iÃ©tÃ©
Ġadd ress
Ġconstr uire
Ġbuv ait
Ġmaud it
Ġfell ow
Ġharp on
Ġkilom etres
ĠÃ©tinc el
Ġvulg aire
Ġeus se
Ġprai rie
Ġsurn ature
ĠrÃ©col te
ĠdÃ©sapp oin
Ġcann ot
ĠMarch iennes
A ouda
S E
d y
f er
g ues
o ach
s ait
Ġd alles
en ons
Ġp ag
Ġp ud
Ġp Ã©rir
Ġs pr
Ġc is
Ġa j
qu Ãªte
Ġt asse
Ġf ile
Ġn or
Ġb oussole
or ait
Ġr Ã´t
ant aine
al og
ch ose
Ġje alous
Ġse x
ri mÃ©
Ġch urch
ab ond
Ġw ife
am me
Ġsur r
Ã©c riv
uis ait
Ġy ards
ard eur
ad Ã©m
ĠP orte
ul aire
oy aient
ĠS ouv
ĠS uez
ĠdÃ© gr
Ġdis e
ĠD U
tr ai
Ġall ions
Ġcar rÃ©s
ĠN orbert
ĠR oy
ĠG aston
Ġcont er
Ã©n er
Ġseu les
ĠH Ã©
ĠH ouse
Ġrem or
ĠT ous
Ġcomm ettre
ole on
Ġfer rets
Ġsent aient
je ant
Ġrepr end
Ġmont aient
Ġaff am
ĠdÃ©p end
.Â» --
Ġbou cles
ud arde
Ġple urÃ©
Ġemp orte
itt ing
Ġgl or
Ġgl issait
Ġor ient
Ġprom it
Ġdesc ription
Ġesp ace
Ã©v iter
Ġhum ili
Ġcompl iments
Ġlo ved
ĠdÃ©v ers
aqu ette
Ġsuff oqu
Ġexpl ications
Ġtrem ble
Ġconvers ations
Ġsauv Ã©e
Ġdiv ine
Ġsitu Ã©
anÃ§ ai
Ġgreat est
Ġmalheure usement
Ġconven ir
Ġracont Ã©
Ġdemeur ai
ĠprÃ©cip iter
Ġesc ort
Ġstr uck
Ġtend res
Ġjug es
Ġconc ert
Ġhabitu elle
Ġpoursuiv ait
Ġstup eur
Ġart icul
Ġtal ons
ĠmÃ©l ange
Ġke en
Ġgai ement
Ġdirige ait
ĠrÃ©serv oirs
Ġdent elle
Ġmess age
inclin a
Ġconsul ter
wh at
Ġberl ines
Ġsap ins
ahi ette
ĠmÃ©dioc re
honn Ãªte
DÃ©j Ãł
Ġcompan ion
ĠexpÃ©d ition
Ġfonc tion
ÃĬ tes
Ġbale ines
ĠPi et
ĠdÃ©finit ivement
Ġabsor bÃ©
Ġsyst Ã¨me
inspect eur
' ve
, '
G ermain
H en
a ches
g Ã©e
j oux
n el
o lement
Ġ Ã¢mes
en fl
Ġs or
Ġs ainte
Ġm onn
le ep
Ġf Ã©r
it ter
Ġn iÃ¨ce
Ġla y
Ġb iÃ¨re
Ġr attr
us ez
Ã¨ des
Ġre ins
Ġpr Ã©d
Ġpar i
ag enouill
Ġch Ã¨vres
ab es
Ġw r
ĠC ertainement
ue ille
Ġent ire
Ġdis gr
emp orte
Ġser jeant
Ġdev ions
ĠrÃ©p arer
Ġsu jets
ĠB arb
ang oisse
Ġwh ether
app l
Ġim age
ver y
ĠG rivet
ĠG ascon
ĠrÃ© el
ĠV en
Ġrem ained
ĠÃ©c onom
Ġtou che
ĠdÃ©s astre
Ġpos Ã©e
Ġport iÃ¨re
Ġcl ois
Ġcl Ã´t
Ġob jection
Ġpe int
Ġfin es
Ġsour is
Ġsais ie
Ġsp ite
Ġpres by
Ġinc re
Ġmis tress
Ġcontinu aient
ĠLa ke
Ġrend ue
Ġfam ili
Ġimp assible
Ġtourn aient
Ġlar me
ĠGr ace
Ġann oun
Ġgard a
ĠÃ©l an
enf uir
liz a
aqu ets
Ġess ouff
approch ai
Ġmour ant
Ã¢te aux
Ġsau ve
Ġsucc ession
ĠmaÃ®tres ses
ĠconsidÃ©r ation
Ġbatt aient
Ġposs Ã¨de
Ġquar ter
aig nez
ĠdiffÃ©r ents
Ġregret te
Ġregret ter
ĠrÃ©flÃ©ch it
Ġdescend aient
Ġbaiss er
Ġmu ets
Ġcess er
Ġpriv Ã©
Ġsinc Ã©ritÃ©
Ġfier tÃ©
Ġmena Ã§ant
ific ations
Ġdet ails
ĠvÃªt ue
Ġroy ale
aimer ais
Ġpend ule
ĠpÃ©r il
Ġtonn eaux
Ġblanch eur
Ġamb ition
obl ige
ĠrÃ©clam er
Ġkilom Ã¨tres
ĠrÃ©pugn ance
ĠGeorg iana
ĠPal ace
appare il
Ġforger on
ĠCrom arty
ĠLap in
G ardiner
H Ã´tel
L eurs
W ell
b en
u ellement
Ġd urent
en ole
Ġp ans
Ġp up
Ġp ath
Ġp aid
Ġp omm
Ġp aquets
Ġc ire
Ġc aught
re lles
re intes
er on
Ġt it
in er
in ary
Ġf ailli
ar que
ar ge
is ph
Ġb assin
el ine
el aine
om ne
Ġun ion
our ir
Ġh all
ur n
ur Ã©ment
Ġen se
Ġav en
Ġre ve
Ġpar venu
av eu
Ġo eufs
Ġcom Ã©die
Ġch ron
Ġdu rer
Ġdu ty
Ġin fl
os a
ec he
ot ions
ure d
Ġfr at
Ġbr other
emp ire
Ġmar ais
ang Ã©
Ġcar ry
Ġcar acte
Ġwh ite
ve y
Ġim puiss
ĠR ome
orte d
anc Ã¨rent
Ġman ches
ĠH Ã©lÃ¨ne
ĠT om
Ġcour us
Ġeu e
Ġvoy ages
Ġpos ait
ex cl
Ġcl oÃ®tre
Ġco eurs
Ġcri aient
Ġcou chant
Ġis ol
ĠdÃ©p our
ĠdÃ©p Ã´t
Ġple urant
Ġsol idement
Ġver te
Ġouv rant
Ġsouv er
ĠprÃ© venu
acc ent
ĠÃ©v ent
ust om
Ġtourn ure
Ã©v Ã©n
ĠdÃ©f endu
Ġ1 3
Ġfac es
Ġtrans m
Ġexpl oit
ern el
Ġpat rie
Ġoccup er
ĠdÃ©couv ris
off rir
opp enole
Ġappel Ã©e
Ġempl oi
ĠprÃ©cip itÃ©
Ġrapport s
Ġesc al
exp Ã©rience
Ġtend er
ann Ã©es
Ġconse iller
ĠK itty
Ġpours uite
Ġforc er
Ġdescend irent
ĠÃ©trang ement
Ġfol ies
Ġspect ateurs
Ġdress er
cep te
ĠhÃ©s itation
Ġbre f
Ġdout ais
appar ence
Ġretomb er
Ġindiqu ait
Ġconvain cre
Ġtim ide
ĠÃ©tud ier
Ġexac te
ĠÃ©criv ait
angers on
Ġloint ain
ĠÃ©pouvant able
ĠsincÃ¨re ment
Ġharp onneur
Ġsimpl icitÃ©
Ġcondu cteur
ĠaÃ®n Ã©
Ġloup s
Ġpaliss ade
Ġdil ig
Ġbegin ning
Ġconten ance
Ġoccur red
Ġexcl aimed
ĠdÃ©sappoin tement
Ġcaracte re
D E
D I
L ord
O p
a Ã©r
g ate
p ied
r itÃ©
r um
t s
Ġ ours
Ġd ort
Ġl ente
Ġs ave
an Ã©ment
Ġde f
er ing
in trod
ar ted
is tres
Ġn ier
Ġv ice
Ġla ke
Ġb ous
Ġb are
Ġb ate
Ġb isc
Ġj uillet
om ot
Ġr oid
our agan
Ġh arn
us ions
ur ais
Ġg agne
Ġne cess
ĠÃ©t ages
and ais
Ġch Ãªne
Ġdans euse
am ie
ĠM iss
Ġson ore
ĠL ors
emp echer
Ġser rure
aut eur
Ġap art
ĠB al
ĠD ites
Ġfait h
Ġhe aven
app liqu
if Ã¨res
Ġcont enu
ĠrÃ© elle
ĠV and
ĠH all
Ġcour onne
Ġmal le
esp ere
Ã©g ul
Ġab oi
Ġfais ons
Ġrepr od
ob t
Ġco chon
Ġfl ung
Ġarriv ed
Ġchar itÃ©
Ġsoir Ã©es
ran era
Ġsol ides
Ġsh ut
Ġbout s
Ġcent im
Ġ-- ,
Ġfeu illage
Ġprom enant
Ġref use
Ġfa uss
Ġpo Ãªle
Ġexc uses
ĠÃī t
Ġriv ages
ok oh
ĠÃ©g ale
Ġmor al
Th ese
Ġhor iz
Ġsub ir
Ġtri ed
Ġdispos Ã©e
Ġtw el
env iron
Ġact es
Ġesc ap
Ġsus pect
occup ait
igh ted
Ġcontent er
Ġdescend is
Ġimpr udence
Ġroul er
Ġplan cher
Ġhabitu Ã©
ĠdÃ©lic ate
Ġhers ch
Ġspe e
Ġterr ains
Ġgui d
Ġpan neau
Ġlad ies
Ġrass embl
Ġignor ance
Ġmerveille use
Ġmett aient
ĠfranÃ§ aise
Ġoppos Ã©
ĠtempÃ©r ament
Ġdange reuse
Ġdistr action
Ġ3 0
Ġpopul aire
Ad Ã¨le
Ġentrepr ise
examin er
Ġfan al
ĠÃ©lÃ©g ante
Ġperc er
Ġramen a
ĠrÃ¨g ne
Ġtrib un
arra cher
Ġinut iles
Ġressour ce
Ġproport ion
ipp olyte
ĠtrÃ©s or
Ġmens onge
ĠstupÃ©f action
ĠLib eral
Ġcimet iÃ¨re
ĠPierr onne
Ġsilh ouette
okoh ama
F aites
h ue
n uss
t am
Ġ aient
Ġl ion
Ġl ive
Ġl aide
Ġp aie
Ġs elle
Ġs Ã©r
Ġs ill
re en
an que
Ġm enait
Ġt ach
in k
Ġf iÃ¨re
Ġv Ã©h
Ġr Ã©t
Ġr ond
Ġr ange
Ġr aide
Ã©t onnait
ur ai
at a
Ġre ch
Ġre ach
Ġau pres
Ġpl age
Ġtr a
Ġtr oupes
Ġw ret
Ġw ild
Ã©s ie
am ant
Ġsur g
ĠC H
si le
Ġgr en
Ġgr enier
Ġsi eur
oy ed
age ant
ĠS am
Ġbr ute
Ġex ige
Ġser ment
Ġfor Ã§
ĠB oul
ĠF ri
ĠF land
Ġam ies
ass ad
ass Ã©es
if ication
ĠV raiment
ĠH ar
ĠH um
Ġter m
ĠT ristan
pos sible
ĠdÃ©s ol
Ġret ire
Ġcap ric
att ends
Ġni ais
Ġco hue
Ġfl ac
Ġfin ally
Ġst art
Ġbou quet
Ġbou quets
Ġsoir s
Ġvol et
Ġhaut eurs
Ġmari Ã©s
Ġgo Ã©l
Au g
Ġesp agnol
Ġord inaires
Ġreven ue
Ġann oncÃ©
Ġgen er
enf uit
Ġabs ent
Ġperm ettez
Ġextr avag
Ġretourn ait
Ġlit s
Ġprod u
ache v
ris ie
Ġtri cot
Ġmous t
Ġcourt is
Ġdr aps
off rait
off ice
env elopp
ak nuss
ĠconsidÃ©r ait
ĠconsidÃ©r ables
Ġrefus ait
Ġrencont rait
Ġevery one
ĠÃ©clat er
ĠÃ©clat ant
Ġobserv Ã©
Ġbless ures
ĠdÃ©m ont
Ġsoci ety
Ġlam b
Ġchant ait
Ġapport a
ĠmÃ©t al
eng agea
ĠY okohama
Ġrelev Ã©
ĠtÃ©m oins
Ġvain cre
ĠdÃ©pl ais
ĠÃ©cout Ã©
Ġcach ot
Ġchaud es
Ġang oisse
ĠcommenÃ§ ais
Ġconcl ure
Ġcoqu ille
ĠdÃ©n ou
Ġpil ote
Ġsonn aient
Ġparcour u
Ġpriv il
Ġliqu eur
Ġpersuad Ã©e
inqui Ã©ter
Ãīt at
ĠÃ©lect riques
Ġgaz on
Ġredout able
ĠrÃ©vÃ©l er
reg son
Ġroc s
Ġsignif ie
Ġinconn us
Ġappare ils
ĠÃ©puis Ã©
ĠchaÃ® nes
ĠRos ings
ĠrÃ©gl er
Ġcroiss ante
Ġpros p
Ġmass ac
Ġallow ed
Ġbelie ve
Ġcast le
Ġgigantes ques
Ġpomp e
ĠcÃ¢ ble
Ġjouiss ance
Ġserg ents
Ġcant iniÃ¨re
Ġhang ar
ĠDun can
Ġentret ien
Ġfrac as
Rod olphe
ĠPiet ranera
Ġbate aux
Ġtwel ve
C inq
E very
l oc
p les
r lande
z z
Ġd ira
Ġd ignes
Ġp urs
Ġp ots
Ġs Ã©cur
Ġa qu
in ait
Ġf ie
Ġf resh
il itÃ©s
it ed
Ġla ve
Ġb ene
Ġb ailli
Ġj oindre
or igine
Ġr ag
Ġr abatt
Ġh y
ur ing
au ve
au rez
au paravant
Ġg ouff
Ġpar quet
Ġdes quels
Ġch Ã¢le
Ġdu chesse
ouv ris
ĠM erci
ff erson
ac cept
Ġto w
Ġma re
ĠS aknuss
ĠL ES
Ġent iÃ¨res
Ġpro bl
Ġbr ouss
uit Ã©
ter ie
Ġser rÃ©es
ert urb
Ġdev iend
Ġfor ge
Ġmar t
ĠB etty
ĠB Ã©bert
Ġall Ã¨rent
ĠF itz
aiss ant
Ġwh y
ĠR ichelieu
Ã©n orme
ĠH ope
Ġrem onte
Ġdi zaine
Ã©ri f
ich ambre
Ġfer iez
En core
Ġcl asses
Ġmont raient
arr ond
Ġpe indre
Ġfl Ã©t
Ġfl Ã¨ches
Ġsort aient
Ġbou d
Ġviv ants
Ġcontin ents
Ġfaut es
Ġconv ives
act ions
Ġouv rages
Ġprom ettre
Ġvit r
Ġsouff re
Ġsouff ler
ĠÃ©v Ãªque
Ġte inte
Ġbes ide
Ġcrois Ã©s
onde z
Ġrent rai
Ġop port
Ġli aison
Ġhabit ait
Ġdisc rÃ©tion
Ġpen chait
Ġsat in
Ġfix es
ĠrÃ©sol ue
Ġsing e
off re
ĠgÃ©nÃ©r ositÃ©
Ġcre ek
ĠdÃ©sesp Ã©rÃ©e
ĠX IV
ĠrÃ©v Ã©r
Ġmarch ands
Ġdorm i
Ġtend ue
entre tenir
obs erver
Ġsav ent
Ġrelev ait
Ġconst ater
CHAP TER
ĠdÃ©lic ieux
ĠprÃ©t endait
Ġdestin Ã©
Ã©chapp a
arriv ait
Ġtroubl Ã©e
Ġsusp endue
Ġtor ches
exc Ã¨s
extr Ãªme
Ġintellig ent
Ã©lev aient
Ġappuy Ã©e
Ġ18 6
Ġglac Ã©
Ġcondam nÃ©e
ĠDu chesse
Ġrecouv ert
ĠobÃ© it
Ġconserv Ã©
ĠFranÃ§ ois
Ġprouv e
Ġprodig ieuse
ĠtÃ¢ cher
endorm ir
Ġpor ion
Ġspir itu
Ġexces sive
apport er
ĠchÃ¢t iment
Ġvest ibule
ĠdÃ©licat esse
Ġinqu iÃ¨te
Ġspec tre
Pres que
ĠmÃ©th ode
ophy tes
Ġasse oir
Ġindispens able
Ġpromont oire
Ġbous cul
Ġmoust ache
. --Â«
E s
R A
S aint
g y
i ation
m ond
Ġs ons
Ġs ett
Ġc ic
qu ement
Ġm ors
Ġt ins
et Ã©s
Ġf uss
is Ã©s
un d
Ġb ah
Ġb orn
Ġj ac
Ġj urer
Ġr anim
me di
Ġav ance
Ġg old
Ġpr Ã©l
al m
Ġpar ap
Ġqui ck
Ġpl ante
Ġtr Ã©p
-- -
Ġin acc
Ġin Ã©v
Ġw on
ol iers
ĠM ai
ois eau
ois ses
ĠC oppenole
Ġgr as
Ġbien fait
age aient
ĠS es
Ġcr ay
Ġfr uit
emp ress
emp arer
Ġas p
ĠB ible
Ġwh ist
Ġam oureuse
ĠJ apon
ĠJ asmin
ve ille
um ul
enc re
Ġrem et
ĠÃ©c outez
ose z
Ġcomp tes
Ġatt aque
auv es
li ers
Ġca cha
ĠO ak
Ġcap ables
Ġport ier
Ġcl ai
Ġcl oth
Ã©l arg
Ġsec ousses
Ġrest era
Ġcol onnes
Ġpe ines
Ġfl atter
Ġcou des
Ġst ay
Ġst ate
Ġst one
Ġbou ger
Ġcontre fort
Ġrev iendra
Ġsais issant
aill ant
Ġhab ile
ĠprÃ© ven
Ġentend ez
Ġins ult
Ġmil itaire
Ġappr oche
Ġmur der
Ġfig ht
Ġbes ides
Ġdonner ai
Ġreven us
Ġcas quette
Ġdo ing
Ġpouss aient
Ġrou le
Ġvois ines
enf onÃ§ait
Ġfigure r
ĠÃ©g oÃ¯s
ĠdÃ©v orÃ©
ume d
Ġcaus es
Ġess uy
approch ant
Ã®n mes
arrÃªt ant
Ġconnaiss aient
Ġchap eaux
Ġobl ige
Ġfour m
ĠdÃ©g ager
Ġfil ets
Ġcommun iquer
Ġbo at
ĠrÃ©pÃ©t ant
Ġessay ait
eng ager
Ġcad et
ĠprÃ©par ait
Ġimpr Ã©v
ght on
Ġstup ide
Ġcris p
Ġard eur
exc ell
ĠÃ©troit es
Ġcess ait
Ġrich esse
Ġtransport Ã©
Ġfavor i
Ġvig oureusement
Ġhard i
Ġpil iers
Ġpil ori
Ġparcour ir
ĠdÃ©sire z
Ġais Ã©
Ġfi ancÃ©e
Ġext Ã©rieure
Ġnaufr agÃ©
ĠRou ault
ĠrÃ©uss it
Ġsoum is
Ġlun di
Re garde
Ġcomprom ettre
Ġlas se
Ġrepart it
Ã©prouv ais
Ġcaval iers
Cl ub
Ġfriends hip
ĠmÃ©rid ien
ĠmÃ©rid ionale
Ġcrimin el
essay ai
ĠcÃ¢ bles
DÃ©j a
Ġrum eur
Ġressour ces
Pl anchet
Ġinstall Ã©
Ġsci ent
Ġtapiss erie
Ġmagnific ent
Ġfas cin
Ġbienveill ance
ĠÃ©che v
Ġgil et
Ġcorp oral
Ġshill ings
Ġsentin elle
isph Ã¨re
ĠsÃ©cur itÃ©
D er
T oujours
U S
c ade
c ted
h us
i etta
j ourn
s eulement
t Ã¨re
z aines
Ã ¦
Ġ om
Ã© bre
Ġs ag
Ġc Ã©
Ġa unt
Ġm embre
Ġt un
Ġt Ã´le
Ġf air
Ġf ins
Ġf ug
Ġf ield
il ip
ar te
Ġn ou
Ġb apt
Ġj eux
Ġr Ã¢
Ġr onfl
Ġh om
Ġen orm
Ã¨ mes
Ġg er
Ġg aie
Ġg uise
al lez
Ġau berge
ri ver
ui f
ag euse
end ie
Ġcom es
Ġch en
ons tr
ĠM M
im age
ac y
ĠC ast
Ġan Ã©ant
Ġgr acieux
Â« --
Ã©r Ã©s
ure z
oy Ã©e
ĠS er
ĠS ablonn
ĠL is
Ġcr oss
Ġfr anc
Ġbr umes
aut omne
Ġfor ment
che v
Ġcar ref
ĠJ ustice
ĠR ochefort
ĠrÃ© al
Ġven ues
Ġtemp le
Ġrem Ã¨de
ĠT ur
ra w
ra Ã¼
ĠJe fferson
Ġdi pl
Ġcoup Ã©s
ĠO udarde
Ġvie w
Ġfl Ã¨che
Ġcor be
nes e
Ġmin es
Ġmin eur
Ġmot ifs
Ġaur ont
Ġsup Ã©rioritÃ©
ĠdÃ©t acher
Ġrev anche
Ġgl issant
Ġins ouci
ip ath
Ġplace d
appr ouv
Ġref erm
ourd i
fait ement
Ġmois son
Ġgu Ã©rir
Ġ1 1
ĠMar ietta
Ġresp ir
Ġprod uite
Ġsub ite
Ġcaus ant
Ġcouv rir
eff ort
Ġfix a
Ġir rÃ©
Ġdispos Ã©es
Ġarri ere
ĠpÃ©n Ã©tr
Ġbri dge
Ġchap el
ĠmÃª ler
Ġbatt it
Ġpre c
ĠpiÃ¨ ge
Ġconven ablement
Ġtir ai
Ġtir oir
Ġfri p
Ġpropre ment
Ġtort ue
Ġpou ce
Ġrappel ai
Ġabsol ue
Ġoblig Ã©s
Ġattend ez
ĠY onville
Ġcommand er
Ġcommand ement
ĠarrÃªt Ã©s
ĠSt angerson
Ġarg uments
Ġretrouv e
Ġthought s
ĠprÃ©f Ã©rence
ĠÃ©cout a
Ġappart ient
Ġoth ers
Ġpont s
Ġknow s
Ġz o
Ġachev ait
Ġexamin a
Ġbi joux
Ġinn ombr
EN D
Ġromp u
Ġinfin ie
Ġnaturel s
Ġapproch Ã©
Ã©lic itÃ©
Ġrepouss a
Ġtendre ment
Ġplong er
ĠmÃ©ch ante
Ġproduis ait
Ġreten ait
Ġlun ette
Ġlun ettes
Ġpromp t
Ġhauss a
Ġfeel ing
Ġthir d
Ġmess ager
Ġmun itions
Ġfau bourg
apercev ait
Ġbouge ait
Ġga oler
Ġcondu ct
Ġsplend ide
Ġabsur de
Ġinut ilement
ĠFar nese
Ġpel ouse
Ġfore t
Ġenem y
Ġfray eur
lis a
ĠBri ghton
Ġsorc iÃ¨re
Ġvet ements
assur ance
ĠVirg in
Ġauth or
Ã©ner gie
Ġfug it
Ġenorm ous
ĠSablonn iÃ¨res
raÃ¼ ben
A T
C he
C elle
D ix
U R
V ery
b onne
c ie
f re
f ran
h Ã´t
i emment
k et
p our
Ġ ***
Ġd ie
Ġd orÃ©
Ġl imp
en nes
Ã© lect
Ġs port
on Ã§aient
re usement
Ġm Ã¨ne
Ġt ais
Ġt iÃ¨
Ġf ic
Ġf ul
it oire
Ġv ant
Ġb iere
te ad
Ġr au
Ġr up
Ġr anger
Ġr accommod
ur ies
Ġg isait
Ġpr ennent
Ġpar oisse
est im
oi ct
ĠÃ©t endit
ag ut
Ġcom bl
Ġch ats
ol ution
ĠM ir
ĠM ahiette
ot er
Ġgr aisse
ad ier
Ġdit e
ĠP endant
Ã©r ance
Ġ! ...
Ġbr iller
Ġex alt
ĠA ug
ens iles
ĠB ah
ĠE ss
ĠF arr
Ġpass ants
app erÃ§
Ġim ag
ver b
ĠG ri
if orme
if ices
Qu atre
anc ement
ĠV enez
Ġter me
ĠÃ©c oute
Ġcoup a
ĠÃ©p ars
ĠÃ©p aisses
Ġsou ght
Ġtrav ailleurs
asse y
Ġfl Ã¢
Ġcou chait
ĠdÃ©p assÃ©
ĠdÃ©p assait
ĠrÃ©s ignation
Ġchar pentier
Ġsour ces
Ġrev ers
Ġnom m
Ġpres se
Ġconf iÃ©
Ġcent rale
Ġins uff
Ġins ista
Ġfeu ill
Ġprom ettait
ĠprÃ©c ieuse
Ġreconn aissait
acc abl
ust ensiles
Ġdonner a
ĠÃ©ch ouÃ©
Ġk illed
Ġgu inÃ©es
ĠprÃ©sent Ã©
Ġgre ff
Ġbal ustr
Ġcomb in
Ġout side
Ġinv itÃ©
Ġac quis
Ġred ing
ĠlÃ©g ers
Ġprov inci
Ġoccup Ã©s
arrÃªt ai
arrÃªt Ã¨rent
ĠdÃ©sir Ã©
Ġsing es
Ġentra Ã®ner
Ġdiv ert
amb ition
ĠsÃ©ri euses
ded ans
Ġroug issant
Ġsingul ar
Ġenn ui
Ġanc iennes
ĠsÃ© cher
Ġpron onÃ§a
ĠbrÃ» lÃ©
ĠSt one
inst inct
Ġcouvert ures
Ġjuge a
Ġrang Ã©es
ĠÃ©cout ant
Ġfourn it
ĠrÃ©serv Ã©
Ġsym b
Ġtim idement
ĠpÃª cheurs
ĠpossÃ©d er
Quoi que
Ġcadav res
Ġaccompl ir
ĠlÃ¢ cher
ĠNap oleon
Ġaccept a
Ġpharmac ie
ĠÃ©tern el
ĠÃ©pous Ã©
Ġhigh ly
Pr enez
Ġenlev Ã©e
Ġirr Ã©gul
Ġloint ains
ĠJup iter
Ġcontinue d
ĠU NE
Ġpret ty
Ġciv ilis
Ã©lÃ©g ance
Ġrenouv eler
Ġpaisible ment
observ ation
Ġappear ance
Ġhel d
accompl ir
Ġconfus Ã©ment
ĠrÃ©fug ier
Ã©tud es
Ġrepe ated
Ġlap in
Ġev ident
ĠÃīc outez
ĠJack son
Ġparis is
Ġconfort able
ĠCom o
Ġsudden ly
Ã©paiss eur
Ġmonn aie
Ġhoriz ont
loc ut
ĠSaknuss emm
oict ier
ĠFarr agut
H er
S eul
Y es
a ert
f ou
f or
j ali
v Ã©n
Ġp ul
Ġp endue
Ġp ieces
Ġs itÃ´t
Ġs onneur
on zo
Ġc ages
Ġc erc
an ne
an ine
Ġm iens
Ġm ettez
ent housiasme
it ies
Ġn ac
Ġn Ã¨g
Ġv ex
Ġv endu
Ġv ifs
Ġla ver
Ġb Ã»
Ġb arr
Ġle agues
ais ons
Ġr at
Ġh Ã¢ter
ir al
au be
Ġav anÃ§ait
al ter
Ġpar tez
est omac
ri bles
av ocat
ui es
Ġpl aid
Ġtr y
ĠM e
ĠC ay
Ã§ ois
Ġma jestÃ©
ge a
ĠS uis
Ġex emp
Ġdev riez
op es
Ġam er
app ui
Ġtrouv Ã¢mes
Ã©n Ã©tr
ign Ã©
Ġman usc
Ġcour tes
Ġdonn Ã¨rent
Ġsem Ã©
Ġatt irer
Ġentre v
ro g
Ġsec s
Ġvoul iez
Ġint ol
Ġsembl Ã©
iqu Ã©e
Ġenv oie
Ġple ura
ĠCh am
Ġass oup
Ġcompr enant
Ġrev iendrait
Ġnom mait
este d
Ġjet aient
Ġvol umes
Ġprom ise
Ġno ct
Ġfou dre
Ġappr end
Ġrend aient
Ġnature lles
Ġfam euse
ĠdÃ©f iance
Ġcontr aste
Ġli ps
Ġriv es
ĠÃ¢ gÃ©
Ġaucun ement
Ġarr est
Ġram p
Ġinv ari
Ġred outer
Ġdispar ition
Ġpen chÃ©
Ġess ent
ĠreÃ§ ue
off rit
Ġcirc um
Ġmurm urait
Ġtromp ait
Ġcre user
Ġact ivitÃ©
Ġsonge z
ĠRe form
Ġquart iers
Ġstr ong
Ġcuis iniÃ¨re
Ġregret s
Ġregret t
Ġdisting uÃ©
ĠdÃ©ch arg
ĠhÃ©r oÃ¯
Ġmet trait
Ã©tr ang
Ġgout t
Ġtal ents
Ġentr Ã¨rent
Ġang oisses
olog ue
ĠCr aven
Ġhard ly
Ġrecommand ation
Ġmeu bl
Ġoppos ite
avent urer
Ġplain tes
oure uses
ĠAn ne
ĠÃ® lot
Ġgarn ie
Ã©te ignit
Ġlab or
Ġinclin ation
ĠexÃ©cut er
Ġnum Ã©ro
tern ation
ĠfÃ©lic itÃ©
ĠpÃ©t rif
Ġnage oires
Ġspir it
Ġmend iant
ĠmÃ¢ch oires
Ġbalbut ia
ajout er
Ġillus ion
Ġrenfer mait
Ġabatt u
Ġgrac ieuse
Ġabsur d
Ġrub ans
Ġprai ries
Ġmob ile
Ã©ph ant
Ġclim b
Ġmagistr at
ĠsÃ©p are
Ġmonot one
ĠcÃ©t acÃ©
ĠÃ´ ter
Ġprim it
ĠappÃ©t it
Ġgam ins
ĠNo Ã«l
Ġvaud rait
Ġstopp ed
ĠGaut ier
Ġbuff et
Fr om
Ġconfid ences
ĠDel ouche
tam ira
ĠFri ar
ilip pe
vÃ©n ient
A frique
B e
B art
F aut
N ul
T RE
c ir
c al
h ood
u ai
u elle
w illiam
y n
y ez
Ġd Ã»t
Ġl iste
en fin
Ġs ter
Ġs otte
ou lement
Ġc auche
an a
Ġm aid
Ġde p
Ġqu al
ent er
Ġf ail
it aires
Ġn ine
Ġn arr
Ġn iece
Ġv ente
Ġv ierge
Ġv Ã©rif
Ġb ann
el ant
el age
Ġj ument
or ient
om Ã©t
ant h
au ph
Ġg Ãª
Ġg elÃ©e
ch et
Ġpar ess
Ġpar lement
ĠÃ©t reinte
Ġo g
Ġdu e
Ġdu retÃ©
ĠM ong
ut ta
ap ais
Ġson g
ot ique
iv resse
Ã©r ant
ge ait
ĠS h
ĠL Ãł
Ġent iere
Ġent hus
Ġdis m
Ġcon ce
Ġex amen
Ġar re
aut el
ens emble
Ġat mosphÃ¨re
che ment
ĠD eneulin
ĠF al
ĠJ ames
ass ura
Ġenc ad
ĠG ates
Ġtrouv Ã©s
ĠrÃ© veil
ign ons
art s
ĠV ic
Ġrem ettait
ĠT iens
Ã©d ucation
ique z
Ġcoup ait
Ġab ri
ich es
Ġentre vue
Ġrepr irent
Ġrepr enant
ex Ã©cut
Ġmont Ã©e
Ã©l itÃ©
Ġpers Ã©cut
ate ver
ly c
Ġlaiss Ã¨rent
ress es
Ġcri que
Ġst ory
Ġenv oyait
Ġemp e
Ġserv ants
Ġgl ance
Ġconf orm
Åĵ urs
Ġcent ral
Ġtravers ant
Ġliv ide
ah a
Ġoff er
Ġlieu e
ĠLa qu
ĠQu atre
Ġimp ressions
Ġsoup ira
Ġcompl ice
Ġexp ress
Ġtable aux
Ġgre l
di ff
Ġrel Ã¢che
Ġfac ilitÃ©
Ġmanqu a
Ġlum iÃ¨res
Ġlum iere
Ġbour b
esc ence
Ġdisc overed
Ġexpl oration
ern itÃ©
Ġappar aÃ®tre
Ġadm irer
Ġdiffic iles
Ġmous se
Ġmour ut
ouill er
Ġbri de
onge aient
Ġpuiss ants
Ġcoll Ã¨g
Ġcommun ic
Ġeffr oi
Ġrapport Ã©
Ġobserv ait
Ġmod est
Ġremont ant
Ġjug Ã©
Ġtort ure
Ġrappel ant
Ġfur ie
Ġabsol u
ĠÃ©clair Ã©
ĠmÃ©t all
ĠdÃ©r ange
oud ain
Ġnour r
Ġ2 1
Ġrepos ait
Ġemport ait
Ġconst itu
Ġconst ables
Ġid Ã©
ious ly
ĠprÃ©f Ã©rait
Ġtermin er
ĠMont morency
Ġressembl aient
Ġbet ray
Ġclair s
Ġgliss Ã©
ĠtraÃ®n ant
ĠDE S
Ġretomb ait
Ġrelig ieuse
Ġfavor is
Ġadress a
Ġroom s
Ġhon orable
Ġsym pt
Ġsoulev ait
Ġste p
Ġpa use
embr assa
ĠgÃ© ant
Ġpla ques
Ġreten ue
Ġban k
Ġaud ience
Ġretent it
Ġchoc ol
ĠdÃ©tourn a
ĠintÃ©ress ant
Ġadv ice
Ġfamil y
Ġaugment ait
ĠFer rante
ĠfÃ¢ch Ã©e
Ġinterro g
Ġendorm ie
Ġenvelopp Ã©
Ġlent eur
Ġlant ernes
ĠpÃ¢l it
Is lande
Ġaffl ig
Ġsurv iv
Ġaccoutum Ã©
Ġunif orme
ĠnÃ©g oci
Ġmand at
dou ard
Ġpourp oint
Ġcrav ate
Ġseem s
Ġexclam ation
tif ul
ĠrÃ´ d
Ġseiz ed
Ġcharb onniers
Ġri pos
ĠdÃ©ton ation
Ġsoud aine
ĠrÃ©ch auff
ĠmÃ©pr ise
ĠEsp agnol
Ġdisci pl
Hen ri
Ã©vÃ©n ement
Ġbare ly
Ġnecess ary
Ġgouff re
ĠVirgin ie
ĠGates head
F in
J im
J ustement
M Ãªme
M arie
M artin
N om
N euf
P er
b s
c omme
j ug
l ieu
n aire
o e
o op
t ions
v ois
w here
y l
Ġd ieu
Ġl anÃ§ait
en ar
Ã© fin
Ġp aill
Ġp yr
Ġs oyons
re urs
Ġa z
Ġm ouss
Ġt iss
Ġf oug
Ġn ues
Ġb ab
Ġb oth
Ġb urst
te re
Ġr all
Ġr attach
ant ichambre
Ġh ospit
Ã©t h
ir ond
at in
Ġre li
Ġre pt
Ġpr essa
al th
Ġau g
Ġdes quelles
end ues
ouv rier
Ġin Ã©g
ol it
ol ia
Ã©c id
Ã©c orce
Ã©p anou
Ġe ither
ac ule
Ġgr in
Ġto p
Ġmon ument
ic s
ĠP lus
Ã©r ine
Ġth erm
ess ayer
ill Ã©es
ĠS ilence
ĠL app
Ã´ les
Ã´ pit
Ġcr ue
lle m
Ġex prÃ¨s
Ġar ret
ĠA uc
Ġser rÃ©e
.. ...
Ġmar iÃ©
ĠB anque
ĠD er
ĠD onc
ĠE lles
Ġhe ight
Ġam Ã¨re
Ġpass ais
ĠG u
Ġcont ourn
Ã©n ore
ĠI m
pos ition
ose ph
int h
Ġab us
ĠdÃ©s olÃ©
Ġrec ours
Ġentre voir
Ġrepr ise
ex ercice
Ġvoi es
Ġbeau tiful
iÃ¨ mes
att acher
Ġtrav aille
th ough
Ġco gn
Ġint imes
Ġsembl ent
Ġit self
Ġst air
Ġchar mes
Ġchar ret
Ġenv eloppe
oil a
ran ch
Ġsol s
Ġinc ert
Ġgl aces
Ġconf ession
Ġfond re
Ġno eu
Ġliv ing
Ġsc ene
Ġsc Ã¨nes
Ġref let
Ġbas tion
Ġgros sier
Ġtour ne
Ġimp er
Ġfa usse
anch oly
ost at
Ġcontr ad
ĠÃ©g ypt
aff l
Ġhor ror
Ġram asser
Ġsub ject
ov ed
hab iller
Ġru inÃ©
oqu ence
Ġsing le
Ġcru autÃ©
Ġpal pit
Ġtromp ez
Ġpress ait
Ġmarqu ait
Ġdur Ã©e
Ġplein ement
Ġtent a
Ġpre vent
Ġcoll ier
Ġretour ne
Ġfil er
Ġeffr ayant
Ġmod Ã¨le
fr Ã¨re
ĠdÃ©cl are
Ġrespect able
ĠthÃ© orie
Ġgouvern ail
ĠÃ©tonn ant
ĠSt ates
ĠÃ©lev Ã©s
anim aux
Ġbais a
Ġcord i
Ġz Ã¨le
Ġdifficult y
Ġferm etÃ©
Ġsuppos ition
Ġeuss ions
ĠmÃ©dec ine
Ġorg ueille
ĠpÃ©nÃ©t rant
Ġrepl y
Ġeffray ante
Ġjol is
ĠreprÃ©sent ait
Ġcontempl ation
ĠBr ulÃ©
Ġsonn ette
Ġinterromp u
Ġeur opÃ©
ĠÃ©te inte
Ġaccept Ã©
Ġdessin er
Ġcherch aient
ilom ene
Ġmerc iÃ¨re
Ġassur Ã©ment
ĠbohÃ©m ien
Ã©te indre
ĠrÃªv ait
Ġinnoc ente
Ġnew s
Ġopen ed
Ã©coul a
Ġcreus Ã©
ĠÃ©veill Ã©e
Ġcaval erie
Ġfau ve
Ġobject ions
Ġadroit ement
Ã©pouv ant
Ġvil ain
ĠchrÃ©t ien
ĠGl enar
instr ument
Ġcolle ction
Ġserg ent
Ġrun ning
Ġpourp re
Ġparal ys
ĠrÃ©comp ense
Ġinvolont airement
Ġhont eux
Ġboug ies
Ġtrott oir
Ġextraord inaires
Ġmel ancholy
hyp oc
Cr oyez
Ġtabl ier
ĠVen ise
ĠFitz william
Ġopport un
ĠMai grat
Ġrup ture
Ġmanusc rit
Ġster ling
ĠMong olia
Ã©cid Ã©ment
H olmes
T r
W ickham
Y our
e ks
i aire
j on
j ud
o ge
r ures
Ġ Ãĩa
Ġd unes
Ġl iens
Ġp ac
Ġp ose
Ġp io
on fort
Ġc abri
Ġc assÃ©
Ġt ac
et imes
Ġf aillit
it ime
Ġb omb
Ġb orÃ©
el ess
Ġj ura
Ġr it
Ġr ab
Ġr aj
Ġh o
Ġh aies
Ã©t onna
Ã¨ ver
em men
Ġre z
ch age
est res
est ig
Ġpl uies
Ġo cÃ©an
and re
Ġcom tÃ©
Ġch ale
Ġin tr
onn ent
ons oir
ol et
am mes
ĠM is
Ġe le
ĠC alc
Ġan ony
uis sier
ic ules
Ã¢ ces
ill o
ĠdÃ© mes
Ġdis g
Ġser p
ĠB ob
ĠB inet
ĠE N
ĠF lam
Ġcar riÃ¨re
Ġim medi
ver se
Ġcont ient
ĠrÃ©pond ant
Ġven ons
Ġper ro
Ġter rit
Ġrem ous
int Ã©
int he
Ġdire z
Ġenf ou
ĠdÃ©s hon
Ġrec ette
Ġfort unes
Ġvoy ager
Ġpos ant
Ġparl ais
Ġtrois ieme
att itude
Ġrest es
Ġco at
dre w
Ġpe inture
ell Ã©
Ġprof ita
Ġis olÃ©
Ġis olÃ©e
ĠdÃ©p ort
Ġmin ut
Ġchar mÃ©
Un ion
Ġpres qu
Ġinc omp
heure usement
Ġvol at
Ġvol ets
Ġmort el
aud ace
Ġmis Ã©ric
Ġconf use
Ġins ensÃ©
Ġprom ets
Ġcontinu ant
Ġph oques
appr Ã©c
Ġrend rait
acc a
Au jourd
Ġpo ils
Ġhum aines
Ġhum ides
Ġinter m
Ġsurpr en
ĠrÃ©c onfort
ĠdÃ©l ices
Ġress er
Ġcomb ust
Ġinf orme
Ġsign Ã©
Ġfroid es
Ġdisc over
Ġviol ents
Ġoccup ied
Ġval oir
Ġchap itre
Ġcab ane
Ġcharm antes
Ġdos sier
Ġroug ir
Ġfri ght
Ġtrembl aient
Ġsav ions
expl ication
ĠbrÃ» le
ĠprÃ©v oir
ĠsÃ©par Ã©
ĠsÃ©par aient
Ġemport Ã©e
Ġfar ouches
ĠdÃ©lic ieuse
Ġsecou ait
ĠagrÃ© ables
ĠÃ©prouv a
appel ai
Ġressembl ance
Ġexamin Ã©
Ġrelig ieux
Ġvig ueur
Ġbill ard
Ġaime z
Ġthin king
ĠvÃªte ment
Ġromp it
ĠÃ©pouv ante
ĠÃ©pouv antÃ©
Ġbrav ement
Ġcul but
Ġste ps
AN S
ĠdÃ©liv rer
lo ok
Ġpiqu Ã©
Ġremar ked
ĠRod dy
ĠChe vreuse
ĠdÃ©tr uit
Ġlim ite
ĠdÃ©velopp ement
Ġabond ance
ĠdÃ©tourn er
ĠdÃ©faut s
Ġwindow s
Ġsignif iait
Ġenfer mÃ©e
Ġhauss ant
Ġexpos Ã©
Ġvac arme
Ġassi ette
Ġmult itude
Ġsimpl y
Ġga ze
Ġobt int
Ġbor nes
Ġincr oyable
Ġbanqu ise
Ġcult iv
ĠÃ©per d
Ġunif orm
Ġparal y
ĠBourg h
Ġwrit ten
ompr Ã©h
cro ft
Ġsen sibilitÃ©
ĠSouv arine
Ġentire ly
Ġdilig ence
Ġbene ath
Ġtow er
Ã©lect ricitÃ©
Ġbalustr ade
ĠCay lus
lyc Ã©rine
ĠGlenar van
ĠCalc utta
, _
B eau
C E
E x
L Ã©on
P ard
P art
S oudain
V E
V ingt
W est
a remment
f le
f les
h y
o ble
r n
Ã ¶
Ġ idi
Ġd ot
en ille
Ġp omme
Ġc ime
Ġc aisses
Ġa oÃ»t
ent in
Ġf ers
Ġf onte
it ablement
Ġn ap
Ġn orm
Ġn oces
Ġv icaire
el Ã©s
Ġj oies
Ġr us
Ã©t endre
ur ation
au m
au gment
Ġav ancer
Ġav ancÃ©e
Ġqui conque
Ġpl anche
Ã©s us
Ġsur pl
Ġsur prit
ut ions
ois s
Ã©p aisse
Ġsa ura
ĠC et
ĠC elui
Ġan ger
Ġgr oup
ic ales
ier ges
Â» .
ul ter
ĠS tu
ĠS ouris
Ġent raient
emp ara
ĠÃ© gl
Ġex Ã©cution
Ġat mosph
ĠD uv
ĠD iable
Ġall Ã©g
Ġpass ent
Ġpart ons
Ġim agine
Ġcont a
Qu els
Ġman aged
ĠT ant
Ġcons pir
Ã©d ifice
Ġcomm on
Ġtou chant
Ġcomp tÃ©
ĠdÃ©c riv
Ġca le
aÃ® nÃ©
Ġparl ons
Ġmont ai
Ġmont Ã¨rent
Ġrest erait
Ġacc omp
Ġad ieux
ame d
Ġfin esse
Ġarriv ent
Ġbl ouse
ĠrÃ©s ist
Ġsup erst
Ġass aill
Ġass assins
Ġag o
Ġrev ue
Ġgar s
Ġhab iter
Ġhab illÃ©e
Ġmis es
Ġind ignation
Ġind ustri
Ġbout iques
Ġentend Ã®mes
Ġcent imes
ip el
Ġno ce
Ġfou iller
Ġdiff erent
Ġtourn Ã©e
Ġjou ant
Ġimm enses
Ġk il
Ġhum an
ĠdÃ©f end
ĠLe fran
Ġinter locut
Ġgard ien
ĠÃ©l arg
Ġgu eux
Ġgu Ã©ri
Ġ1 2
Ġcontr Ã©es
ict ions
Ã©qu ilibre
Ġresp irait
Ġinf ern
Ġinv inci
ĠlÃ©g umes
Ġfat alitÃ©
els on
Ġexpl or
Ġquitt ai
ĠAl tamira
Ġoccup ations
Ġoubl iant
ignor ais
inter v
ĠbÃ¢t ons
rim able
ak en
Ġcre ature
Ġrencont rai
Ġquin ziÃ¨me
ĠX XX
Ġbris a
Ġeffr ont
Ġbless Ã©s
Ġbrill antes
exp Ã©d
Ġposs ess
Ġconse qu
entre ten
Ġjardin ier
ĠdÃ©ch arge
Ġimagin Ã©
Ġ2 5
Ġparc ours
Ġarm oire
Ġconc erne
attend is
Ġsatisf ais
Ġtermin a
Ġappart enaient
Ġcach et
Ġdress a
Ġhur lement
Ġhur lements
isc al
Ġmange a
Ġtal k
Ġexamin ait
Ġrav i
Ġhonn Ãªtes
Ġraisonn ements
Ġcoqu ins
ĠrÃ©sult ats
Ġsaur ai
Ġsaur ons
Ġdisp ers
mar ine
Ġattach Ã©s
ĠfraÃ® ches
Ġmena Ã§
Ġcul otte
ĠprÃ©cÃ©d ente
ĠrÃ©pand it
Ġrenvers Ã©
ĠfÃ¢ cher
Ġfabri qu
ĠlÃ¢ cha
Ġmas que
Ġtre es
Ġtrah ir
Ġcherch ais
ĠprÃ©occup Ã©
Ġabond amment
Ġassur Ã©e
Ġmam m
ĠdÃ©chir Ã©
ĠNew gate
ĠsÃ©min ar
apercev ais
Ġloc omot
Ġbor ne
hon orable
Ġprovoqu er
Ġchiff re
Ġforg et
Ġlaug h
Ġmonstru eux
Ġmonstru euse
Ġnatural iste
Ġfich u
Ġmov ed
Ġredress a
Ġtronc s
Ġquad rup
Ġvan ity
Ġty pe
Ġinfort un
Ġharm on
Ġge Ã´
Ġredev int
Ġchuch ot
ĠVol t
chauss Ã©e
Ġoccident ale
ĠdÃ©vers oir
Ġaboi ements
Ġimag ined
ĠStu art
ĠLefran Ã§ois
C I
C amille
C ertainement
D urant
G rimaud
H ere
S avez
T elle
b rois
k or
l as
m atique
o ted
w o
w ell
w ick
y ou
Ġd ors
Ġd ressed
Ġl ic
Ġl Ã¨vre
Ġp inc
Ġs n
Ġs Ã»t
Ġs Ã©ch
Ġs ense
Ġs leep
ou ge
on Ã§ai
re w
Ġa ri
an cher
Ġm ardi
Ġde cl
Ġde part
Ġt av
in ction
Ġf ure
Ġv ues
Ġb aissait
Ġb ored
om as
Ġr ail
Ġh Ã©b
Ġpr Ã©m
Ãª chÃ©
ĠÃ©t oile
ag itation
ag itait
Ġpl aie
Ġo w
end es
Ġin hab
os ant
onn ante
onn erie
ol i
ol Ãł
Ġsur mont
im s
ig es
Ġgr asse
Ġgr omm
Ġto iles
ĠP ap
Ġal tern
ue ils
Ġma j
Ġma kes
ĠS al
ĠL oir
ĠL Ã©nore
Ġcon ject
ors croft
iss antes
Ġfor mÃ©e
ĠE x
ĠF aites
Ġcar ab
Ġcar rÃ©e
ĠN elson
ci ded
ign if
ace d
Ġman iere
ĠV oyons
Ġper Ã§
Ġrem b
ĠT er
Ġcons tant
ĠdÃ©c or
Ġca h
aÃ® trait
ĠO l
Ġsou lever
ob ation
ex ag
Ġcap rices
Ġcl ous
ins p
Ã¢t elet
Ġcol d
Ġcou le
Ġcou cha
Ġaff aiss
ht on
Ġbl ond
Ġbl af
Ã©m itÃ©s
Ġple ure
ĠCh rist
Ġtomb eau
Ġass ister
Ġmort elle
Ġconf r
Ġind igne
Ġcan apÃ©
Ġfou dr
Ġsc ie
appr it
Ġsouff la
Ġrend ra
Ġlev res
Ġjou eurs
Ġsoup le
Ġexc itÃ©
Ġexp rim
Ġinter min
Ġtrouver a
Ġextr Ã©mitÃ©s
Ġajout ant
ĠÃ©g arÃ©
Ġtard a
ĠdÃ©v ouÃ©
Ġinf Ã¢me
Ġram pe
cept ible
Ġsuff ire
Ġir ons
Ġpap a
icul ous
ĠdÃ©couv ertes
Ġdemander ai
Ġpal p
hui le
Ġmarqu Ã©
Ġtent ation
Ġpre uves
Ġfatig uÃ©s
Ġroug eur
ĠdÃ©cl arer
Ġpasse port
Ġsav iez
ĠthÃ© ologie
expl oration
Ġeng age
ĠarrÃªt a
Ġchang Ã©e
Ġforc Ã©s
Ġtravaill Ã©
Ġcours es
Ġsuffis ant
Ġdestin ation
Ġmill ion
Ġbaiss Ã©
isc o
Ġbre ad
Ġprincip alement
Ġber ceau
exc us
Ġres ult
ĠtraÃ®n Ã©e
ili ps
Ġaccompagn er
Ġindiqu Ã©
Ġcondam ner
ĠdÃ©sire ux
Ġut iles
Ġjur ons
OU S
Ġrenvers Ã©e
ĠdÃ©liv rÃ©
ĠtÃ©moign er
Ġdessin ait
Ġinj ures
Gr Ã¢ce
Ġprouv ait
Ġpopul ace
Ġcomplet ely
Ġentrepr endre
ĠdÃ©pens es
Ġcompar aison
Ġrom ans
appuy ant
Ġramen Ã©
Ġattaqu er
................ ........
Ġarrang Ã©
Ġbelie ved
Ġforg ot
Ġcli ent
Ġredesc endre
ĠmÃ©cont ent
Ġimprud ent
ĠÃ©rup tion
ĠTor re
Ġoeu vre
ĠÃ©nerg ique
Ġparall Ã¨le
Ġbus iness
aigu ille
ministr ation
apit aine
Ġgrie f
Ġpud eur
Op Ã©ra
ĠVand ame
ĠgoÃ©l ette
Ġbrouss ailles
ĠGri anta
Ġreding ote
ĠDuv al
brois e
H Ã©lÃ¨ne
I E
M ENT
P ouv
R IS
c ation
f our
m ais
m outh
u bl
y th
Ġ QU
Ġ ustensiles
Ġd urs
Ġl ien
Ġl ie
Ġl ot
Ġl ier
Ġp endait
Ġs anc
Ġc iter
Ġc uire
qu ins
Ġm ac
Ġde ep
Ġde cided
et ier
Ġf ill
il t
it ure
Ġn appe
Ġv om
Ġv ocation
Ġv Ã´tres
Ġla w
Ġle gs
Ġr h
Ġh ant
Ġh oule
Ġen ce
at i
em and
Ġre ct
Ġpr un
Ġpr Ã®t
al ogue
Ġne igh
av y
av ril
Ġdes ire
oi gne
ag ard
ag ements
Ġpl ainte
ien ces
Ġtr aÃ®tre
ont est
Ġw ounded
ol ine
ĠM as
ĠM orm
ĠM aÃ®tre
Ġe vent
Ġsa cc
ac qu
ĠC al
ĠC arn
ĠC ombien
si re
Ġgr ises
Ġgr Ã¢ces
ad Ã©
ge ant
ĠS E
ĠS eulement
ĠL aissez
ĠdÃ© tective
Ġpro ven
Ġcon cevoir
Ġcr aignez
Ġser mon
che min
ĠD ou
ĠD jali
Ġgrand i
ĠF iscal
Ġcar c
Ġcar ton
Ġ? ...
um Ã©
Ã©n itÃ©
ĠrÃ©pond irent
Ġmes urer
Ġman ner
ĠV ern
Ġper che
Ġrem ain
ĠT rois
ĠÃ©c r
ĠÃ©c oliers
Ġdemand aient
Ġmal ice
Ġcomp atri
Ġab aiss
ĠdÃ©s olÃ©e
ĠÃ©p ouse
Ġret irait
Ġfort ress
Ġjour ney
Ġrest aur
Ġco Ã»ter
Ġad ouc
Ġdou zaines
Ġcri bl
Ġchar rette
Ġsal ons
Ġsour ires
Ġass ourd
Ġass oci
Ġass umed
Ġcompr ise
Ġconv al
Ġrev u
Ġver rai
Ġver ger
Ġinc omprÃ©h
aud s
uss ac
Ġind iquer
Ġind Ã©fin
Ġhaut ain
Ġentend us
Ġph osph
ust rie
Ġimp Ã©nÃ©tr
Ġhas tened
uch art
Ġpouss Ã©s
Ġexp Ã©ri
enf onÃ§a
ĠrÃ©c its
Ġtard er
ĠdÃ©l ai
ĠdÃ©v orer
aff aires
Ġarr anger
Ġfe atures
Ġram assa
Ġtrou bles
Ġcaus a
Ġcouv raient
Ġquitt Ã¨rent
ester day
Ġrac ines
Ġpropos Ã©
Ġtrait ait
Ġmous quets
ĠreÃ§ oit
Ġcourt ois
Ġdispos Ã©s
ĠdÃ©couv rait
Ġanim Ã©e
ĠPh ilippe
Ġdiv in
Ġsucc omb
Ġvas es
Ġpal ier
Ġcamp agn
ak er
Ġfour neau
Ġform ant
Ġcharm ants
Ġdemeur Ã©
ĠaperÃ§ ue
ĠÃ©clat ait
ock s
Ġmod erne
Ġbo euf
oun ted
Ġlam p
Ġconse ille
Ġris k
Ġforme d
Ġpromen ades
Ġ2 3
Ġchang ements
Ġdevin rent
Ġconc ent
Ġconc ern
Ġroul ant
Ġdel ighted
ĠprÃ©f Ã©rÃ©
Ġaim ables
Ġsout ane
Ġard ents
ĠÃ©crit ure
Ġterr asse
Ġsuppos ait
ĠtraÃ®n aient
Ġcle ar
Ġsouhait e
ON S
ĠVer gy
Ġaccompagn ait
ĠCr oix
ĠIn ch
ĠrÃ©serv Ã©e
Ġrid iculous
Ġhard ies
Ġfid Ã¨les
ĠpÃª le
Ġsoupir ant
Ġattach Ã©e
Ġbond it
Ġportrait s
ĠEst elle
Ġmir oir
Ġanglais es
Ġentour Ã©e
ĠlÃ¢ ches
ĠtÃ©moign ait
ĠDans aert
Ġamen a
ĠÃ©tabl ie
Ġsoum ettre
Ġadd ressed
ĠdÃ©barqu ement
ĠdÃ©barr assÃ©
ĠdÃ©termin Ã©
ĠSauv age
Ġadv ance
Ġfoss Ã©
ĠAm Ã©rique
Ġinstinct s
Ġmatel ot
entour ait
Ġvac ances
Ġcerv elle
Ġredoubl ait
Ġprotest ations
Ãīc oute
Ġcherche z
ĠÃ©mer veill
Ġnobles se
Ġphilosoph ie
Ġeffect ivement
Ġtrag ique
ĠtrÃ©s ors
ĠcoÃ»t Ã©
Ġnar ines
Ġenem ies
Ġfif ty
ĠMons ignore
ĠRich mond
Ġstand ing
ĠpÃ©ch Ã©
Ġfacult Ã©s
Ġworth y
Ãīv idemment
Ġbron ze
ĠintÃ© ret
Ġsex e
Ġsurr ounded
Ġharn ais
ĠÃīt ats
ĠrÃ©vÃ©r end
Ġzo ophytes
END RE
Ġinsuff is
ĠgÃª ner
rn est
ĠÃ©gl ises
A M
C ent
c ote
f a
f ais
p re
p Ã¨re
w al
Ġd at
en lev
Ġp ill
Ġp ock
Ġp ick
Ġp Ãªcher
Ġs un
ou Ã¯
Ġc ouss
Ġc ueill
Ġde ter
in n
in diff
Ġf ert
il etÃ©
ar is
ar tement
it Ã¨rent
Ġn Ã´tre
Ġb oc
el iers
Ġj oin
or esc
Ġr aille
Ġr iaient
Ġh air
Ġh ost
Ã©t iez
ir aient
at ig
Ġav ancÃ©
Ġg Ãªne
Ġpr ime
ch al
av iron
Ġtr ac
Ġcom ique
Ġch ope
ol ence
ec d
Ã©c riture
Ã©p reuve
ĠC oictier
Ġgr ad
iv al
Ġal iment
Ã¨s es
ĠL omb
Ġpro g
emp ereur
ĠrÃ©p Ã©tÃ©
iss eurs
ĠB at
Ġall iez
Ġall Ã¢mes
ass ion
ĠG regson
ĠG onzo
ign Ã©e
ĠI I
ĠI II
Ġper ron
cher ie
ĠH orscroft
enc ontre
Ġtemp es
Ġtemp Ãªtes
Ġrem uait
ĠT oute
Ġpoint es
Ġcomm od
Ġcomp art
Ġapp orte
Ġab Ã®me
Ġatt ached
ro ad
ob in
ex asp
are ment
omp tu
Ã©l Ã¨ve
Ġco Ã»te
Ġcor ons
Ġst op
Ġst arted
Ġbl Ã¢me
Ġbou ches
iqu ette
Ġviv ais
och et
Ġchar n
Ġnon e
Ġple urs
Ġsal es
Ġinst itut
ĠCh Ã¢teau
Ġemp reintes
ĠprÃ©s ents
Ġserv aient
Ġass omm
Ġrev iens
Ġsais is
ĠPar vis
Ã©ch al
Ġind ulg
Ġcan ots
Ġfond it
Ġsc int
omm ages
Ġcal ma
Ġref aire
ĠW ar
Ġexc Ã¨s
Ġprop ose
Ġinter pr
Ġpasser a
Ġ1 00
Ġpol iment
ĠrÃ©c rÃ©
Ġbar res
Ġretourn Ã©
Ġbal ay
Ã©par gn
Ġinf ir
Ġram enait
Ġend ur
oss Ã©
Ġsuff ira
Ġlitt Ã©r
Ġdess ert
hab itation
Ġtrait Ã©e
Ġsauv Ã©s
Ġoubl iez
Ġpal m
hor rible
env ah
ĠconsidÃ©r a
Ġbatt ue
Ġcoll et
Ġact ive
ĠrÃ©v Ã©rence
Ġobserv ed
ock ed
ree k
Ġcuis ses
ĠthÃ© ories
ĠÃ©clair s
Ġeng ourd
ĠprÃ©v oy
ĠsÃ©par Ã©s
Ġdescend us
Ġroul aient
Ġjuge ait
Ġhur la
fort une
Ġrej oint
Ġbet es
ĠhÃ©s itait
ĠrÃ©un ir
Ġferm Ã©es
Ġsusp ic
Ġtor p
oph ie
Ġappe lez
Ġfriss onnant
Ġsouhait ait
ĠmÃ©n ager
ĠÃ©loign Ã©s
rid ge
aband onnait
Ġallum Ã©e
Ġlourd ement
ĠreprÃ©sent ant
Ġignor ant
Ġ18 1
Ġtur ning
Ġtim iditÃ©
Ġsoupir s
Ġembr asser
Ġobst in
ĠrÃ©pand re
Ġdet te
Ġrepouss er
mÃª le
ĠÃ©cras Ã©
Ġroy al
Ġrenf erm
Ġcalcul s
Ġpun ir
Ġcherch ai
ĠprÃ©occup ation
Ġassur ance
ĠrÃªv Ã©
ĠtÃ¢ chait
Ġbiz arres
ĠU N
Ġpresent ed
ĠgÃ©nÃ© reuse
Ġaccour ut
Ġmaud ite
ĠMou que
ĠÃ©veill Ã©
ext Ã©rieur
Harris on
Ġsy ll
Ġmol le
Ġrecueill ir
Ġcircul aire
Ġadvers aires
ĠrÃ©solut ions
Ġprolong er
Ġsensible ment
Ġchiff res
Ġincr Ã©d
Ġsott ises
Ġwal ked
Ġmainten ait
Ġimpl ac
ĠÃ©tourd i
Ġhoch a
Ġneu ve
Ġstre ets
Ġwait ing
Ġrespons abilitÃ©
Ġrevol ver
ĠblÃ¢ mer
Ġpittores que
ĠHoll andais
ĠdÃ©fait e
ĠÃ©toff es
Ġmount ains
ĠLors que
Ġspee ch
Ġtribun al
Ġtra jet
Ġwret ched
Ġcray on
Ġdipl om
ĠtiÃ¨ de
ĠOl iver
........................ .....
ENDRE DI
D emain
N ot
P AR
S uiv
c ol
g ong
l Ã©es
n ement
en r
Ġp elle
Ġs ui
Ġs ister
Ġm Ã®mes
Ġm oque
Ġm ordre
Ġm Ã¨che
Ġt act
Ġt iend
ent ine
in ier
Ġf Ã©ro
Ġf auves
il iser
is m
it ieux
Ġn appes
Ġv oÃ»t
Ġv endredi
Ġla te
el Ã©es
Ġr aill
Ġr aies
Ġr approcher
Ã©t ourd
Ã©t onner
ur ier
Ġen ver
Ġpr Ã©p
Ġpr enais
al ien
oi ent
Ġpl um
Ġpl aint
Ġpl aines
Ġpl antÃ©
Ġtr ent
Ġtr acÃ©
Ġdu gong
Ġin attend
ut ely
ap he
im b
ĠC raw
ĠP aquette
oy en
ĠS oyez
ĠS acca
Ġdis ons
Ġcon te
Ġfr Ã´
Ġbr anch
ĠA ustri
Ġser re
Ġser as
oute d
ĠrÃ©p ar
Ġas tr
ens Ã©e
Ġdeux iÃ¨me
Ġmar ry
ĠB ut
ĠD i
ĠD uc
Ġpass erait
ĠJ ustin
ĠJ oseph
Ġpart ant
all Ã©es
all ongeait
ĠN orm
ĠN anine
ve red
Ġfut ur
Ġtrouv ent
ĠrÃ© alis
ci es
ign er
ĠV a
Ġrem ua
ĠÃ©c ole
Ġtou x
Ã©g er
Ġab rit
ĠÃ©p is
ĠÃ©p reuve
ĠdÃ©c is
ĠdÃ©c lin
Ġfer aient
ex emple
ex istait
Ġcl ub
Ġmont rai
Ã©l Ã©r
ly s
Ġco q
Ġco quet
Ġfl or
Ġcor ner
aur iez
Ãī glise
Ġmy ster
Ġnon chal
erv aise
Ġemp ire
Ġtomb Ã©s
Ġcompr enais
ĠdÃ©t ours
Ġver n
Ġinc l
ici ous
Ġjet Ã¨rent
Ġsh outed
Ġvol t
Ġconf ection
Ġins tead
Ġreconn ue
Ġrapp orte
Ġoff ered
Ġsc ore
Ġsc ud
ach t
Ġrend us
Ġrend irent
Ġcal mes
acc rois
Ġimp it
Ġdonner ais
ĠPr enez
Ġhum ains
Ġgard aient
Ġgu ard
Ġ1 9
Ġcontr ari
ĠÃī lisa
Ġpol ic
Ġfen etres
Ġriv iere
Ġrel ativement
Ġred ou
Ġcouv re
Ġcouv rit
Ġprov idence
Ġbat tements
Ġval u
Ġdiv an
Ġgagn a
embl Ã©e
ĠmÃª lait
Ġnu ances
Ġsonge ais
Ġvoud riez
Ġbo ok
Ġprob abilitÃ©
ĠsÃ© journ
Ġarriver ait
Ġpron onÃ§ait
Ġpromen a
Ġbonn ets
Ġatte ign
Ġlat ter
inst aller
Ġsuppl iant
Ġpoursuiv i
ĠdÃ©lic ates
Ġos a
ĠDe puis
Ġdestin Ã©s
Ġspe edy
Ġgui chet
Ġz one
Ġhapp en
Ġcontem pt
Ġmange ant
Ġprincip aux
Ġferm ant
Ġoffic er
ĠmÃ©r it
appar ition
Ġpes er
Ġdirige ai
ĠmÃ©pris er
Ġconcl ut
Ġplant er
ias m
Ġindiqu aient
ĠreprÃ©sent er
Ġcontempl ait
Ġglac ial
Ġinfin i
Ġut tered
Ġaffir ma
Ġsoulev Ã©
Ġconsent it
ĠsÃ©v Ã©ritÃ©
Ġmir acule
Ġsiff lement
Ġattent if
ĠtÃ©moign age
Ġlect eurs
Ġchagr ins
Ġmaig res
ĠdÃ©velopp ait
Ġadd ition
Ġpopul ation
Ġsl ow
Ġsoon er
Ġmouill Ã©
Ġtonn eau
ĠsoupÃ§ onner
Ġlab our
Ġsurveill ance
ĠdÃ©tach ait
ĠsÃ©vÃ¨re ment
Ġpant ou
Ġavert ir
Ġdent elles
ĠEs hton
Ġvisit eurs
Ġmeurt riers
effor Ã§ait
Ġredoubl a
ĠdÃ©vor ait
emm ener
Ġempr un
Ġboulevers Ã©
ĠFranc isco
Ġexces sivement
impat ient
Ġrub an
Ġjouiss ances
ĠrevÃªt u
EU R
allum er
Ġsolenn el
ĠmÃ©can icien
ĠdÃ©sapp oint
interro ger
ĠamÃ©ric ain
Ġoffici al
Ġparent Ã©
Ġshew ed
Ġdig ue
Ġescl ave
Ġoeu vres
ĠmatÃ©ri el
ĠfiÃ© vreuse
ĠEm per
Ġden iers
Ġbuis sons
Ġsucce eded
Ġsaill ie
Ġencl os
Ġinexp rimable
ĠMill cote
Ġmeet ing
Ġcrit ique
appl aud
ĠclÃ´t ure
Ġense vel
Ġsouver ain
ustom ed
Ġclai riÃ¨re
ĠÃ©goÃ¯s te
Ġtun nel
Ġrau que
ĠAug ustin
ĠEss arts
Ġnac elle
ĠSuis se
Ġintol Ã©rable
Ġenthus iasm
Ġbourb ier
Ġpyr am
ĠCarn atic
ĠLomb ard
ĠfÃ©ro ce
ĠCraw ley
A yant
D Ã©cidÃ©ment
F ort
L odovico
R ouge
b ien
h Ã©lice
i us
i ales
i ary
o ctobre
s er
t aient
u ette
v onne
Ġd alle
en h
Ã© rez
Ġp ince
Ġp iste
Ġp ity
Ġs itting
Ġm ic
Ġm Ã¨tre
Ġt is
le b
Ġf ly
Ġf arde
il ing
il ote
ar Ã©s
un itÃ©
un iforme
el oup
Ġj aill
Ġr aff
Ġr iz
Ġr onf
ous es
Ġh ut
Ġh Ã©lice
Ã©t a
Ã©t ions
ur Ã©s
Ġen gr
Ġav ouÃ©
Ġg our
Ġg Ã¢teau
Ġpr iÃ©
Ġpr iait
Ġpr iest
av anÃ§ai
ĠÃ©t ude
Ġtr ack
Ġtr Ã´ne
end icul
out eloup
Ġch ers
Ġch assÃ©
Ġch auve
am Ã©li
am ertume
ĠM eu
ĠM us
ap arte
Ã©c arter
les te
ac adÃ©m
ĠC o
ĠC ons
ĠC ertes
ul ar
ul ation
ue d
ĠS avez
ĠL iÃ¨vre
ĠdÃ© riv
Ġent housias
Ġpro gram
Ġest omac
ĠA ss
Ġas pir
iss ure
ĠD an
ĠD ent
Ġgrand ir
ang oon
ĠF Ã©licitÃ©
Ġpass Ã¢mes
Ãªt Ã©
ĠR angoon
ĠG en
Ã©n ormes
art he
ĠV oulez
ĠH av
Ġmal trait
ra te
Ġenf oncÃ©
Ġtou chÃ©e
Ġcoup les
Ġab attre
ĠdÃ©s ord
Ġport ent
Ġmont ure
att aque
Ġvers a
Ġvoul urent
Ġtu Ã©s
arr anger
Ġlaiss Ã©s
Ġco vered
Ġob ey
Ġcor ail
Ġcor nes
Ġaff aibl
ĠdÃ©p asser
ĠdÃ©p Ãªche
Ġmer cre
aur ons
Ġbl ott
Ġbou le
Ġchar mÃ©e
Ġenv ahi
Ġemp h
Ġserv ent
Ġserv irait
Ġconv oit
inc endie
Ġmort es
Ġentend s
Ġes qu
Ġsc rut
Ġsc Ã©lÃ©r
Ġcertain ly
Ġperd ues
Puis que
ĠGr illo
Ġinter d
Ġgard en
ĠÃī douard
ĠrÃ©c ifs
Ġperm ettaient
Ġcroy aient
Ġram es
ache ver
Ġdispar aissaient
ĠEn gl
arde d
Ġpat te
Ġpen chÃ©e
uv ache
Ġoubl iÃ©e
ĠpÃ©n it
ĠPh ilomene
Ġsac rÃ©
env ol
ĠbÃ¢t i
Ġpress er
Ġmarqu er
Ġvert us
ĠconsidÃ©r Ã©
ĠconsidÃ©r ant
Ġbatt le
Ġtent atives
Ġpuiss antes
Ġpre p
Ġrempl is
Ġnu ance
Ġpassion n
Ġbris Ã©s
ĠprÃ©cip itait
Ġremont Ã©
Ġdorm aient
Ġcinqu antaine
oubl ie
Ġchant ier
expl osion
ĠÃ©n ig
ĠdÃ©r ang
Ġfum er
Ġmus eau
Ġinqui Ã©tudes
Ġcaract Ã©r
Ġroul a
ĠdÃ©clar ation
Ġhabitu el
Ġaig us
Ġsecou er
Ġadmir ablement
Ã©loign ait
Ġart icle
Ġtroubl ait
Ġz ones
ĠmÃ©dec ins
Ġmach ines
Ġembarr assÃ©e
ĠpÃ©nÃ©t rait
ĠpÃ©nÃ©t rÃ©
ĠrÃ©d uite
Ġrecher cher
Ġappuy a
Ġhard iment
Ġmett ais
mar ines
ĠcÃ©d Ã©
Ġant ipath
Ġparv ins
Ġsourd s
Ġband its
ĠVal entine
Ġsiff let
Mes sieurs
Ġrapproch Ã©
ĠÃ©touff Ã©
Ġremar k
Ġinj uste
Ġsoign er
Ġmouch oirs
Ġaud acieux
ĠÃ©tabl issement
Ġamus ant
ĠfrÃ©m issement
Ġchem ises
Ġtourment e
---- ,
ĠdÃ©pos Ã©
Pr udence
Ġgrond er
ĠdÃ©termin er
ĠdÃ©pens er
Ġexpliqu ait
Ġlab yr
ĠBel g
Ġmout on
ĠhÃ´t els
Ġsom n
Ġsom etimes
Ġnov ice
Jean lin
ĠmÃ¢t s
Ġpip es
Ġmoqu er
Ġrud es
Ġbrig adier
Ph Åĵbus
ĠCar oline
Ġstat ues
ĠrÃ¨g le
ĠrÃ¨g les
Ġenj amb
Ġpor ions
ĠprÃ©cipit Ã¨rent
Ġbrut al
Ġchauff er
Ġaccro chÃ©
observ ai
Esp agnol
Ġarrang ement
Ġprolong Ã©
Ġillus tre
Ġgrac ieusement
Ġaid Ã©
Ġperp endicul
Ġbloc s
Ġjoign it
Ġinsol ent
Ġrepe at
Ġdirig Ã¨rent
Ġjup e
ĠMad emoiselle
Tant Ã´t
Ġcig are
Ġremem b
Ġtriomph ant
Ġrever rai
Ġtourb illon
Ġperfect ly
dou zaine
Ġattir Ã©
ĠÃ©quip ages
ograph ie
Ġplaign ait
Ġcroir ait
ĠgÃ¢t Ã©
Ġondul ations
ĠPri ore
Ġmem es
yg Ã¨ne
Ag athe
ĠapprÃ©h ensions
Ġcrist al
Ġpige ons
Ġclam eur
ĠsÃ©r Ã©nitÃ©
Ġprobl Ã¨me
Ġparap et
Ġcontrefort s
ĠLis bonne
Ġinnombr ables
Che z
Ġgreff ier
ĠnÃ¨g re
Ġgrel ott
Ġsympt Ã´mes
Ġdiscipl ine
Ġtherm omÃ¨tre
Ã´pit al
Ġele ven
Ġanony me
Ġsurpren ante
Ġcombust ible
Ġparaly tique
ĠVolt aire
Ġence inte
Ġimplac able
ĠEmper or
Ġprogram me
Ġmercre di
A ng
B ah
I nd
I ÃĪ
M ar
M erci
S oyez
T el
a ordinaire
b ert
d om
i Ã¨rent
o om
p en
p pe
u ct
u euses
Ġ 000
Ġd oll
Ġl ine
Ġl ance
Ġl ow
Ġl ancÃ©e
en l
es sible
Ġp oup
Ġs el
Ġs ourn
Ġs onnait
on omie
Ġc ure
Ġc endre
Ġc ott
Ġt iennent
Ġf es
Ġv ile
Ġb ul
Ġb ass
Ġb old
ais ance
om mer
Ġr approcha
Ġr ouvrit
Ġun c
Ġh ame
Ã©t endue
ur ante
at icable
Ã¨ lement
em an
em pr
Ġg ain
Ġg ate
Ġre ady
Ġpr Ãªter
Ġpar Ã»t
Ġpar esse
Ġne f
Ãª mes
Ġpl un
Ġpl ier
Ġtr on
Ġtr ains
Ġch Ã©t
Ġch aux
Ġch oeur
Ġw ine
os ity
onn Ã¨rent
onn ements
ĠM er
im um
les se
si fs
Ġgr otes
ic ables
Je han
ĠP aul
Ġal though
Ã® tes
ul er
ul itÃ©
oy ables
ĠL ady
Ġent rÃ©s
Ġcr ises
Ġbr an
Ġbr oc
Ġbr oad
Ġbr oken
emp ar
Ġpeu ples
aut oritÃ©
Ġmar g
ĠD on
ĠD ANS
Ġall Ã©es
ĠF ont
ĠJ Ã©sus
ante d
um p
ĠG rim
ĠG ervaise
Ġcont enant
anc y
anc iers
art iste
Ġman omÃ¨tre
ĠV ict
Ġper Ã§ant
Ġper ru
Ġcour r
ĠÃ©c arter
Ãªte ment
Ġdire ctions
Ġapp aremment
Ġentre tenir
ex poser
Ġcap s
Ġport s
Ġcl assi
Ġrest ant
Ġtu y
arr Ãªte
Ġco che
Ġheur ter
Ġcou chÃ©s
Ã©cri Ã¨rent
Ġarriv al
Ġmin i
Ġbl as
Ġsal uer
Ġinst ance
ĠCh ine
ĠCh enille
ĠdÃ©t este
Ġinc ontest
aill ons
Ġhab illÃ©
mer gÃ©
Ġmis Ã¨res
Ġind ice
Ġbout ons
Ġins ist
Ġins ignif
acc ident
Ġren omm
Ġfig urait
Ġlev Ã¨rent
Ġte intes
Ġdist inction
ĠÃ©ch auff
ĠdÃ©f aill
Ġcompl Ã©ter
Ġann once
Ġinter dit
Ġcontr aint
ĠrÃ©c onc
Ġbar aque
Ġajout ai
ĠdÃ©v ast
Ġbal anÃ§ait
Ġgal ib
Ġress ais
Ġram er
cept ibles
Ġsuff irait
aign Ã©e
Ġay ons
Ġdisc ret
erc er
Ġappar urent
ov ision
Ġadm is
Ġru elle
Ġpersonn elle
Ġcourt iers
Ġtw ice
Ġanim ation
Ġsau rez
env eloppe
Ġcamp ement
Ġvert ige
Ġsome one
Ġsome what
Ġtir oirs
Ġpassion nÃ©
Ġfil ait
Ġrapport ait
lex ible
org an
Ġbless er
Ġbless Ã©e
fr act
her bes
Ġenn uis
Ġlang ues
Ġvolont airement
ĠÃ©m otions
Ġfur t
Ġpard onnez
aperÃ§ ois
ĠdÃ©ch aÃ®
led ge
Ġjoy eusement
ĠprÃ©v iens
Ġarg ument
Ġcompt ais
ĠprÃ©par Ã©e
Ġimpr aticable
ĠprÃ©f et
ĠprÃ©f Ã©r
Ġrang Ã©s
Ġtermin ait
Ġem otion
Ġcach ette
Ġlibert y
Ġdress Ã©
ĠLy ons
Ã©chapp aient
Ġsuppos ant
Ġrass urÃ©
ĠmÃ©r itait
Ġfant astique
uns ford
Ġmeur tr
extr aordinaire
Ġconcl u
Ġconcl us
Ġlourd es
ouille fou
Ġhon or
Ġfid Ã©litÃ©
Ġcondam n
ĠcÃ©d a
Ġconsent ir
ĠprÃ©cÃ©d ent
adress ait
Ġoppos Ã©e
ĠvÃªt us
ĠrÃ©gul iers
Ġruis sel
Ġexcept ion
ĠmÃ©ch anc
ĠmÃ©ch ants
ĠgÃ© olog
Ġpous se
Ġsure xc
Ġvieill ards
Ġtrah ison
Ġattr act
ĠpÃ©nible ment
Ġrefer mer
Ġaccus Ã©
Ġapercev ant
Ġaccord er
XX X
Ġamb assad
Ġbruy ante
Ġmatel as
Ġpleas ant
Ġinclin Ã©
Ġcomprom is
Ġrenv oyer
Ġciv il
Ġvieilles se
Ġennuy eux
ĠbrÃ»l ante
Ã©veill er
Ġemploy Ã©s
Ġremerci ements
Ġpomp es
ĠaÃ®n Ã©e
Ã©tend aient
ĠCor inth
Ġredesc end
Ġgend arme
Ġchanc elier
Ġnear ly
Ġinsol ence
Ġdoubl er
ĠCes are
Ġmanoeuv rer
Ġfun este
Ġpressent iments
Ġcult ure
Ġwal k
Ġbrand y
ĠamÃ©ric aine
Ġentreten ue
Ġnoy Ã©s
Ġtot alement
Ġpale fr
ĠPo ole
apl omb
Ġpesant eur
ĠPri me
ĠPet it
Ġwat ch
Åĵu f
Arriv Ã©
Ġindig Ã¨nes
Ġtest ament
Ġaustr al
feu ille
uz anne
Ã©pend ance
Ã©cis Ã©ment
Ġsurnature l
Ġbisc uits
Aug ustin
apperÃ§ us
Ġevident ly
Ġserp ents
ĠmisÃ©ric orde
Ġdepart ure
ĠimpÃ©nÃ©tr able
Ġhardies se
Ġpock et
indiff Ã©rence
Ġtrent aine
A I
B es
I ER
I rlande
L et
L ouis
O L
O ur
O livier
R AN
S ince
b ord
g h
g o
h aleine
i Ã©n
m pe
r ain
s mouth
u Ã¨rent
u ositÃ©s
v ie
Ġ ident
Ġd ro
Ġd auph
Ġl ose
Ġp s
Ġs li
Ġs Ã¨ches
Ġc asse
Ġc oc
an Ã¨s
Ġt all
Ġt aisait
Ġt etes
Ġqu ais
in fin
Ġf ag
Ġf ain
Ġf arc
il Ã©e
Ġn ations
Ġn uire
el ois
el ettes
Ġj urait
Ġj uments
Ġh op
Ġh atre
Ã©t off
Ġg au
Ġg oy
Ġpr act
al a
tre at
Ġse re
Ġpl ains
Ġpl aies
Ġcom est
Ġch an
Ġch Ã¢
Ġdu pe
ouv raient
Ġin it
Ġw ar
onn ais
onn ance
ĠC onst
ĠC ON
ĠC eci
Ġan ecd
ot el
Ġy esterday
Ġgr att
ad or
ad Ã¨re
ic ol
ic ate
ĠP ard
Â» ;
oy ai
ill ai
ill ot
ĠS he
ĠL ille
Ġcr ow
Ġbr ac
emp reinte
Ġex al
Ġex quis
Ġou est
Ġat elier
ĠD Ã©s
Ġpart ageait
all ure
ĠN i
ĠN or
ass ai
ĠR E
Ġjus tes
ĠV I
ĠV ieux
ĠV oyez
ĠV ENDREDI
Ġper le
ĠH ug
ĠH urst
ĠH unsford
ĠT ours
ĠT uvache
Ġcour urent
ĠÃ©c um
ĠÃ©c uries
Ġmal in
Ã©g ation
Ġab Ã®
gn es
ist oc
Ġatt ente
Ġatt rib
Ġatt achement
ett ing
Ġpens ions
Ġfer v
Ġfer ont
Ġfer mes
Ġport eur
Ġport ions
Ġcl in
Ġvers er
Ġvers ant
Ã©l ancer
Ġpers iste
Ġacc ost
Ġacc ueil
Ġfl ux
Ġfl anqu
ell ing
Ġfin ira
Ġbl us
Ãī E
Ġag ents
Ġsp h
Ã©ch auff
ici p
Ġor ph
Ġor dered
Ġrais ins
Ġfeu tre
Ġcontinu Ã©
Ġsc reen
Ġcal c
Ġplais ante
ĠÃ©cl airer
Ġpo Ã©sie
Ġobs tru
Ġpouss ai
Ġhum il
Ġbord Ã©e
ange d
Ġrou lement
Ġexp res
Ġann onc
ĠMar ia
ĠMar sh
Ġpol yp
Ġretr ouss
Ġmen aces
Ġarr Ãªte
Ġva ches
oss ais
Ġgent ille
Ġsee king
ph ab
Ġpat ernelle
ĠBon aparte
Ġpen sive
Ġwe ak
Ġbat tement
Ġcourt s
Ġthere fore
ĠRoch elois
ĠPh ilips
Ch aval
Ġsecond s
Ġdur ait
Ġjust ifier
ĠconsidÃ©r ais
Ġsoul agÃ©
Ġpuiss ent
Ġrefus ed
ĠdÃ©g out
Ġrencont rÃ¨rent
Ġprofess ionn
Ġpassion ate
ĠaperÃ§ us
Ġbris Ã©es
Ġble ues
exp ri
Ġrespect s
Ġhist or
Ġpou mons
Ġvolont Ã©s
occup a
Ġfur n
Ġabsol utely
Ġlis ant
Ġcoul aient
Ġfum ait
Ġfum Ã©es
Ġinqui ets
Ġlat Ã©r
Ġdevin ait
Ġemport Ã©s
Ġconst at
Ġsuppl ie
Ġimpr ison
Ġfir m
attend aient
ĠdÃ©clar ait
Ġhabitu Ã©e
ĠÃ©chapp ait
Ġfar ine
Ġos c
Ġdestin Ã©es
Ġard emment
Ġressembl ent
Ġsurpris ed
Ġwor se
Ġrass urer
appar ut
Ġchange ait
Ġchois it
Ġallum a
Ġcoqu illes
Ġflot ter
adm irer
empl issait
Ġadress Ã©
ene v
Ġsuper bes
Ġparcour ut
Ġbrav oure
Ġant ique
Ġjur y
Ġste amer
Ġinstr uit
inqui Ã©tait
ĠrÃ©gul aritÃ©
Ġruis seaux
ĠÃ©d ifices
ĠAn na
Ġvolcan ique
Ġconvainc ue
Ġmouill er
Ġrequ est
enfer mer
Ġsurveill er
Ġpic s
Aut ant
Ã©coul Ã¨rent
interromp re
ĠÃ©lÃ©g ant
Ġattaqu Ã©
Ġrecommen Ã§ait
Ġbox eur
Ġcoff res
ĠprÃ©cipit amment
Ġpoul s
ĠTr ouillefou
Ġdimin uer
Ġintrod uit
Ġtord ait
ĠempÃª chÃ©
ĠdÃ©mar ches
Ġdor Ã©s
Ġabomin ables
Ġremerci a
Ġvisible ment
Ġjud ges
Auc une
Ġallong Ã©
Ġtru and
ĠcÃ©rÃ©m on
ĠprocÃ©d er
Ã©vanou it
Ġjup es
Ġaccoutum Ã©e
ĠÃ©coul Ã©
Ġcig aret
ĠPort smouth
Ġfuy ait
Ġlament able
ĠprotÃ©g er
Ġcong Ã©d
Ġgalant erie
ĠlibÃ©r al
Ġnar wal
ĠhaÃ¯ ss
Ġavou a
abb esse
abb aye
Ġinspir Ã©
ĠÃ©vanou ie
ĠhÃ©rit age
oÃ¯s me
Ġros Ã©e
Ġrejoign it
aus ire
ĠcÃ©t acÃ©s
ĠdÃ©ton ations
Ġnid s
ĠlÃ¢ch etÃ©
Ġec clÃ©siastique
Ġbir th
Ġbir ds
Ġboss u
ĠMons ignor
Ġfal se
Ġsucce ed
ĠBert he
Ġcu iller
Ġadmit ted
Ġvainc u
ĠfÃ© min
ĠBar one
Br usquement
ĠspÃ©ci alement
por ion
ĠpiÃ©t in
Ġpag ode
ĠfÃ©r oces
Ġpresby tere
ĠforÃ§ at
Ġterm s
Ġflac on
Ġauthor ity
Ġcircum st
ĠcollÃ¨g ues
ĠEspagnol s
Beau coup
Ġkil ogr
Ġlocomot ive
ĠprÃ©p are
Ġlabyr inthe
Ġsourn ois
A p
B y
G eorg
H omais
J usque
M iss
R est
S h
V eux
c o
f leur
h ouse
l ier
m Ã©t
p ere
Ġd ying
Ġl ents
Ġl iÃ©
Ġl ancÃ©s
Ġp onc
Ġp ile
Ġp Ã©tr
Ġs onnÃ©
ou ise
ou illes
re v
qu it
er es
Ġf Ã©c
Ġf entes
il Ã©
ar ante
it ch
Ġv aiss
Ġv are
Ġv illages
Ġb ain
Ġb ody
el ons
or ace
om te
as bourg
Ġr endant
Ġr onds
Ġh au
Ġh ome
Ã©t endit
at an
Ġpr Ã®mes
elle d
Ġqui et
ĠÃ©t endus
ag Ã¨re
Ġo v
Ġtr oop
Ġpour v
Ġin erte
onn ade
onn ettes
res ted
ol iques
am s
ĠM aur
Ġson ges
ac ity
uis ant
ot ait
Ġy acht
ad o
ad Ã©e
ad ing
Ġmon uments
oin tements
ĠP AR
Ġth or
Ġal ar
Ġon agg
ul ations
ill erie
ĠS w
ĠL ui
ĠdÃ© ment
Ġdis iez
Ġpro ce
Ġest abl
Ġfr anche
Ġfr Ãªle
Ġfr oiss
Ġbr usques
Ġar c
Ġar rested
oul er
Ã» ment
Ġdev oted
iss ons
iss ions
Ġmar Ã©c
op pos
ĠD um
ĠD ak
Ġcar ap
Ġwh is
Ġwh atever
ĠJ ussac
app ela
ong ue
pl y
Ġim ages
Ġtrouv ions
Ġcont entement
Ġper Ã§ait
ĠT enez
Ġcour be
ĠÃ©c or
Ġdemand erait
Ġenf erm
Ġcomp ose
Ġcomp tant
Ġapp ellent
ĠÃ©p ing
ĠÃ©p Ã©es
ĠÃ©p ave
ĠdÃ©c om
ĠdÃ©c ol
ex h
att endant
att ache
asse yant
Ġvis iteur
Ġrest erai
th er
Ġacc ustomed
Ġco ol
Ġad or
ide d
Ġcol oss
Ġcri Ã©
Ġfl ight
Ġcor ri
Ġcham b
ĠdÃ©p endait
Ġheure uses
ĠCh ante
Ġass ist
Ġcond esc
Ġcond uits
Ġag on
Ġver me
ĠPar lez
ĠPar faitement
ici lement
Ġpay ait
Ġconf ident
Ġoff res
Al zire
Ġsouff rant
Au tre
Ġperd aient
ma jor
Ġren oncÃ©
Ġlev Ã©s
Ġcrois Ã©es
ult Ã¨re
Ġord onna
Ġreven ez
Ġcas aque
ĠdÃ©b auche
Ġaut oritÃ©
ĠdÃ©f endait
Ġgen e
Ġtrouver ai
oles c
Ġop in
Ġresp ecter
Ġperm an
aff aiss
Ġmanqu ent
ind ignation
Ġsub t
ĠlÃ©g itime
Ġhabit ant
Ġexpl osion
Ġdess erv
Ġpropos ait
Ġremarqu Ã©e
Ġdispos ait
Quel qu
Ġbri quet
Ġmurm urer
Ġobl iquement
Ġsac rÃ©e
env oie
env oya
Ġdur Ã©
Ġfour reau
Ġrouge Ã¢tre
Ġhasard er
Ġaband onnÃ©s
Ġrob uste
ĠprÃ©cip itÃ©s
ĠRe ims
Ġstr aig
Ġlang u
Ġafter wards
Ġrappel ais
Ġpard ieu
Ġprob ably
Ġcoul oirs
af aud
Ġmus ic
Ġnour ri
ĠrÃ©flÃ©ch is
Ġarm y
ĠprÃ©par a
Ġfol ly
ĠdÃ©pl orable
Ġcous ines
ĠdÃ©lic atement
Ġappart enir
Ġos er
Ġfranch it
ĠPl uchart
Ġdim ensions
Ġcord on
Ġcharge a
ĠhÃ©s itant
Ġsusp endus
ĠmÃ©r itÃ©
ĠmÃ©r iter
Ġfourn i
ili ation
ĠgoÃ»t s
ĠÃ©troit ement
Ġbleu Ã¢tre
Ġplant ations
Ġappuy ant
ĠfrÃ©qu entes
Ġsuper f
Ġcontempl ant
Ġrecommand a
Ġpriv Ã©e
Ġretir Ã©e
Ġtriomp her
ĠprÃ©cÃ©d Ã©
oÃ¯ se
Ġband it
emport ait
Ġrapproch Ã©s
Ġplong Ã©e
ĠAn drew
ĠRod ney
Ġaud it
accord er
Ġamus ing
Ġvolcan iques
Ġide as
Ġenr agÃ©
Ġpure tÃ©
Ġanx ious
Ġdirec te
ĠspÃ©c ial
Ġrequ in
ĠsupÃ©rieur es
Mal heureusement
Ġrejet a
Ġmout h
Ġchand elles
Ġloint aine
Ġassi ettes
Aut our
Ġenchant Ã©e
ĠBer wick
Ġperc Ã©
Ġbrig ade
Ġbrig ands
ĠfÃ¢ch eux
Ġbrut alement
Ġboulevers Ã©e
Ãīc outez
ox ygÃ¨ne
Ġrenfer me
Ġsap in
Ġboul ets
Ġassassin Ã©
Ġplair ait
ĠBl anc
ĠBl anÃ¨s
Ġintrig ues
ĠvÃ©gÃ©t ation
Ġenvoy Ã©e
Ã©tud ier
ĠprocÃ©d Ã©
Ġmanoeuv res
ĠÃ©coul Ã©e
Ġexcurs ions
agg i
Ġporc elaine
Ġlass itude
Ġvir t
Ġreviend rai
Ġwood en
Ġorigin al
Ġcomplais ance
Ġinvolont aire
embarqu er
Ġign oble
omn ie
hÃ©m isphÃ¨re
Ġvraisembl able
Ġcorre ct
hÃ©rit age
Ġprinc es
Ġincon vÃ©nient
ĠimpÃ©ri eux
Ġswe ar
Ġaston ishment
ĠdÃ©batt ait
Ġseptentr ionale
Ġdin ner
ĠguÃ©r ison
ĠStr asbourg
Ġwr ong
Ġclois on
Ġfamili ar
aÃ©r ostat
Ġcentim Ã¨tres
ĠHar vey
Ġprivil Ã¨ge
Ġmart yr
ĠcÃ© leste
Ġchocol at
irond elle
Ġterrit oire
Ġinforme d
Ġinterlocut eur
ĠgeÃ´ lier
rnest o
Ġscud i
Ġfarde au
ĠmÃ©chanc etÃ©
Ġhatre d
Ġstraig ht
! ...Â»
' m
A ustr
H ippolyte
J ac
M ichel
P E
R Ã©
U X
W here
Y onville
a os
b o
c y
h arm
k j
k n
k ar
l on
m Ã¨re
m ouille
r ation
s a
s her
t te
Ġ urg
Ġ ombr
Ġl or
Ġl os
Ġl ouÃ©
Ġl ying
Ġl Ã©ge
en is
en ver
es cl
Ġp Ã©c
Ġs quel
Ġs ots
Ġs aute
Ġs iennes
Ġs omptu
ou as
re int
re uves
an x
Ġm ans
Ġm iennes
Ġt i
Ġt oises
et a
in fortun
Ġf aint
Ġf ast
Ġf oncÃ©
Ġv ow
un k
Ġj agu
or as
Ġr ats
Ġr Ã©tabl
Ġque relles
Ġen rich
at aire
Ġg amin
Ġre cteur
est ion
Ġse ven
ri ent
ag ons
ag ger
ag onie
Ġpl aque
se c
Ġch ante
Ġin side
Ġw it
ĠM ichel
Ġsur l
Ã©c or
Ã©c ume
Ġan neau
uis s
Ġy outh
Ġgr inc
ic ile
ic alement
ic ally
ĠP eu
Ġal iments
Ġbien venue
Ã® tres
ul tes
ul aires
oy ablement
id ente
ĠS ac
ĠL ade
Ġcr oc
Ġcr ypte
Ġbr unes
Ġex ter
Ġdev il
Ġdev ine
Ġdev ins
Ġdev iennent
iss ance
Ġfor Ã§ait
ĠB elle
ĠB ois
ĠB outeloup
ĠD onnez
Ġall Ã©s
Ġam as
Ġam ertume
all on
ĠR Ã©g
ĠR ym
ĠG arde
ĠG raÃ¼ben
Ġcont rai
Ġmes sire
Ġven ions
Ġman ie
ĠH ay
ĠÃ©c olier
Ġdemand es
Ġmal encontre
int rig
esp Ã©rer
Ġcons iste
Ġcomp ort
Ã©g uÃ©s
Ġcoup ables
ĠdÃ©s ar
Ġatt acher
Ġentre coup
Ġfort y
Ġfort un
Ġai ment
ro b
Ġvoi ent
Ġbeau tÃ©s
Ġport ais
Ġport Ã©s
Ã©l Ã©phant
Ġlaiss erait
Ġacc idents
Ġacc umul
og u
og ues
og ether
Ġcol or
Ġcol lect
Ġpe ign
Ġfl ui
Ġfin alement
Ġint ensitÃ©
Ġbl Ã©s
iqu ant
ĠrÃ©s idence
ature lle
ĠCh er
Ġass istance
Ġag enouill
Ġrev is
Ġver m
aill ot
inc r
aud itoire
Ġgl ass
ib res
ĠprÃ©c ision
Ġcontinu el
Ġph ot
Ġfall en
Ġbas al
Ġgros siers
Ġdiff icilement
Ġesp ion
Ġimp Ã©tu
Ġord onnÃ©
Ġpo teau
Ġexc av
Ġprop retÃ©
Ġexp ressions
Ġreste z
Ġinter rup
Ġtrouver ons
Ġgu illot
ĠprÃ©sent ant
one y
Ġcontr ainte
Ġrent es
Ġmen u
aff reuse
aff aibl
Ġhor ribles
Ġend less
Ġsign aux
Ġsign ature
Ġfac il
Ġfac iles
cept ions
Ġsub i
Ġpat r
Ġadm irait
Ġdir ais
Ġoubl ia
Ġoubl iait
Ġus er
Ġconnaiss ons
Ġcru elles
onge z
Ġpress Ã©s
Ġplac Ã©es
Ġfour neaux
Ġtent Ã©e
Ġpre fer
Ġpassion nÃ©e
amin et
Ġmod es
ĠdÃ©m ol
Ġesc arp
Ġcinqu iÃ¨me
aig ne
Ġarriver a
eng ageait
ĠTrÃ© mouille
Ġregret tait
ĠY ou
Ġrelev Ã©e
Ġatte inte
ĠÃ©tonn ante
Ġmyst Ã¨res
Ġdescend ue
Ġlog er
Ġlog ique
Ġconst itution
Ġarm Ã©es
Ġsuppl ia
Ġcouvert es
Ġaig re
ĠprÃ©f Ã©rer
ĠprÃ©f Ã©rable
Ġrang Ã©e
Ġprinci pe
Ġsout enait
Ġsout enu
Ġknow ledge
Ġdress Ã©e
ĠÃ©crit es
Ġterr estres
Ġflam ands
Ġferm aient
exc use
Ġmalad ies
Ġplaisant er
Ġrav ie
Ġaccompagn Ã©e
aband on
ĠCr abe
Ġadress ait
Ġhon est
Ġindiqu a
Ġbarb are
Ġmerveille usement
Ġrecommand er
Ġmett ent
Ġtim on
Ġfaible ment
ĠpÃª cheur
Ġliqu ides
ĠÃ©tud iÃ©
Ġext ase
Ġsoulev ant
OU T
Ġste am
Ġsacrif ier
Ġsiff ler
Ġsiff lant
Ġattent ive
Ġpur it
Ġcompos Ã©
Ġrepouss ait
Ġprol ongeait
Ġaffect ions
Ġrapproch ait
Ġtoil ettes
ĠDu vern
Ġrecouv rer
AR RIS
ĠfrÃ©m issant
Ġprodig ieux
ĠPro ctor
---- --
Ġgrond ement
Ġchauss ures
Ġtonn elle
ĠAm Ã©ric
ĠAm broise
ĠtÃ©n Ã©bre
Ġbruy amment
Ġexpos Ã©e
Ġconstr uit
endorm it
Ġformid ables
appuy ait
ĠMou quet
obl iger
Ġmut uellement
Ġmord ait
entra Ã®ner
Ġbouge a
Ġcorrespond ance
Ġjud ge
Ġparven ait
Ġperp lex
Ġinsp irait
Ġ17 9
Ġcompan y
Ġenvoy Ã©s
ĠcarrÃ© ment
Ġrefl ets
Ġsw ord
Ġintim itÃ©
Ġtrag Ã©die
empÃª chait
Ġexpri mait
ĠgÃ©m issement
ĠdÃ©cour agement
Ġservit eurs
Ġhalet ant
Ġmagnific ence
Ġroman es
inqu ante
Ġseiz iÃ¨me
ĠinfÃ©rieur es
Ġextraord inary
Ġcot on
ĠdÃ©li b
ĠtÃ©lÃ©gr amme
entret ien
Åĵu fs
Ġsie cle
assassin at
Em p
ĠbÃ©nÃ©f ice
ĠmÃ©f iance
Ġseptentr ion
Ġcrosse d
Ġspr ang
Ġcis eaux
Ġannoun ced
Ġessouff lÃ©
ĠBoul ogne
assey ait
ĠbÃ» cher
ĠLaqu elle
Ġripos ta
llem agne
Ġtac it
Ġvolat iles
Ġinvinci ble
Ġneigh bour
Ġcarc asse
Ġpantou fles
Ġrememb ered
Ġimprison ment
Ġvaiss elle
Ġonagg as
ĠDak kar
Ġopin ions
aggi ore
ĠDuvern oy
B onsoir
C onte
H E
H ier
L y
M ont
M ad
P rÃ¨s
V ois
Z Ã©l
a oÃ»t
b Ã¢
d is
f ant
f em
i k
k y
n aient
n aires
r oi
r and
r aire
r ines
r Ã¢mes
r issement
u ent
u cc
Ġl an
Ġl in
en lever
Ġp ains
Ġp ack
Ġp aces
Ġs ailli
Ġc ing
Ġc ity
qu eur
an y
Ġm ul
Ġt ill
Ġt ree
Ġf ate
is ien
it ez
Ġn it
Ġn oyer
Ġn oise
un ion
un der
Ġb ont
Ġb aisse
or ne
Ġle an
Ġle arn
om ing
Ġr approche
our pr
ous ly
ant ique
Ġh ide
Ġh anches
Ġh aillons
Ġav iary
Ġg Ã¢teaux
Ġre ign
eur ent
ce ive
ch ai
ch ent
Ġpar ait
Ġpar chemin
est aminet
ag Ã©es
Ġpl u
Ġpl uv
Ġpl ates
Ġpl ongea
out res
Ġch in
Ġch ic
Ġch Ã´
ab eau
Ġw and
os tes
Ã©p ave
im pl
ĠC rÃ©
Ġan al
ot he
oin d
iv ely
ĠP ersonne
ĠP ilote
Ġal erte
oy ais
Ġma Ã§
ess ai
ess ions
ill usion
ĠS UR
Ġent am
Ġex ec
Ġar pent
ore iller
Ġser rÃ©s
ĠrÃ©p ondez
ens eur
ay s
ĠB e
ĠB ern
ĠD ire
Ġall ai
ĠF our
ĠF rid
Ġam ont
Ġam ateur
ong es
ong er
ĠN orth
ass oup
ĠR om
um er
um ber
ĠG io
ĠG ib
ĠrÃ© ception
Ġman ch
enc l
ĠT ais
ĠT ostes
ourn isien
Ġapp erÃ§
Ġab b
Ġab Ã®mes
ĠdÃ©s ertes
ist ol
Ġatt est
Ġca chant
Ġfort night
Ġai e
aÃ® nÃ©e
ĠO cÃ©an
Ġfer ment
ob jets
ex alt
ex ception
Ġport ai
Ġcl aires
Ġcl ochers
Ġmont Ã©s
Ġeff leur
arr ange
Ġlaiss ent
Ġlaiss ais
Ġacc ents
Ġacc ommod
itu er
Ġad j
Ġcri ai
Ġcou d
Ġfin al
Ġint act
ret agne
Ġbou c
Ġbou cl
Ġmat hÃ©m
ĠrÃ©s istÃ©
Ã©m er
Ġterre urs
Ġemp reinte
ĠprÃ©s erver
Ġchev et
Ġjet Ã©es
Ġvol ait
imp rimer
Ġgl issaient
Ġsouv int
Ġsouv enait
ade d
Ġind Ã©c
Ġhaut aine
Ġrais onner
Ġins pect
Ġprom esses
Ġsc aph
Ġsouff lant
Ġsouff let
acc Ã¨s
acc rut
Ġperd is
ug ais
ug al
Ġcrois Ã©e
Ġimp erturb
esse d
Ġpo Ã¨tes
ĠÃ©ch ang
ĠdÃ©b it
Ġexc lus
fl ons
Ġbois age
ĠdÃ©f i
ĠdÃ©f ie
Ġinter ruption
Ġgu ess
Ġgre w
Ġgre et
enn uyait
enf ance
ĠMar Ã©chal
Ġprofond s
Ġbar ils
Ġbar omÃ¨tre
Ġretourn Ã©e
ĠÃ¢ gÃ©e
Ġcur ious
Ġsign er
Ġsign alement
ĠlÃ©g ende
ĠpÃ¢ te
Ġexpl ained
Ġpat ri
Ġpat iemment
Ġviol entes
Ġoccup e
ĠreÃ§ ues
Ġbat terie
Ġpersonn el
Ġus ual
Ġanim Ã©
Ġchap it
Ġmurm urant
ĠrÃ©g lement
onge d
Ġsac s
ĠbÃ¢t ir
Ġpress Ã©e
Ġmarqu Ã©e
Ġtir Ã©e
Ġbris ait
Ġvoud ras
Ġvag abond
org ue
Ġbrill iant
Ġfle g
Ġtort ues
Ġcuis son
Ġpou tre
ĠK e
oubl iez
Ġfis se
Ġimport un
Ġpard onnÃ©
expl iqu
Ġsigne d
Ġcoul Ã©
Ġfum ant
Ġatte ignit
Ġimpr ov
ĠJean ne
Ġmou che
Ġmou flons
ĠCan on
Ġdel ight
Ġappart enu
ĠÃ©lev Ã©es
Ġcach al
Ġour agan
ĠDe v
Ar mand
Ġhur lant
Ġfont aine
ĠhÃ©s itÃ©
Ġsaut ant
exc user
Ġveu ille
Ġfourn issait
ĠlÃ©gÃ¨re tÃ©
Ġfant as
Ġchois is
Ġdirige ant
Ġeffray er
Ġcoqu illages
ĠAv ant
Ġvig oureuse
Ġindiqu ant
Ġindiqu Ã©e
Ġrid icules
Ġfind ing
Ġpil ier
Ġpot ence
Ġjur ant
ĠpossÃ©d ais
ĠbÃ©n it
ĠrÃ©pand ait
ĠrÃ©pand ue
Ġrenvers a
Ġinterromp ue
ĠÃ©te indre
ĠÃ©touff ait
ĠlÃ¢ chÃ©
Ġtab ou
Ġattr aper
Ġprouv Ã©
Ġod ieux
Ġsangl ante
Ġrefer mÃ©e
Ġprud emment
Ġcoun t
ĠdÃ©barqu Ã©
Ġredout ait
Ġredout ables
Ġaccus ait
Ġpais ibles
ĠdÃ©sert s
Ġchauss Ã©e
Ġchauss etier
Ġboulev ard
ĠsoupÃ§ onnÃ©
Ġdra wn
Ġsignif ication
Ġaccord Ã©
ĠLuc y
Ġbruy Ã¨re
entour aient
Ġpresent ly
Ġel der
Ġcath olique
ĠÃ©puis Ã©e
Ã©prouv ai
Ġenj oy
Ġcroiss ait
Ġpor che
Ġtorrent s
ĠcÃ©l Ã©b
ajout erai
ĠmarÃ©ch al
Ġactu ellement
Ġgonfl Ã©
intÃ©ress ait
pp ed
Ġsurv int
Ġperp Ã©tu
Ġclerc s
Ġbrod Ã©
Ġsculpt ures
Ġjoign ant
Ġintrig ue
obÃ© ir
Ġtig re
accro chage
ĠintÃ©rieure ment
Ġserious ly
ĠrÃ©sign er
Ġtourb illons
Ġchild ren
impos sibilitÃ©
TI ON
Ġguet ter
Ġdre w
Ġaw ait
Ġfool ish
Ġsouc ier
Ġsulf ate
Ã¨ner ait
Ġmo elle
Ġsqu ales
Ġgorg Ã©e
ĠBeau vois
Ġslight ly
QUE L
Ġapplaud issements
Ġcors age
Ġvar ious
Ġvraisembl ablement
Ġhav eurs
Ġprinc esse
ĠAb bot
Ġaccroup i
Ġgriff es
Ġarrange d
ĠAtt endez
Ġhypoth Ã¨ses
Ġincons ci
Ġjealous y
ĠdÃ©gr ad
Ġorient ale
Ġhersch euse
Ġlamb eaux
Ġnoct urne
ĠmÃ©tall ique
Ġimmedi ately
Ġincomp ar
expÃ©d ition
Ġconval escence
Ġcouss in
ĠvoÃ»t es
acadÃ©m icien
ĠGrim pen
Ġmini ature
Ġrenomm Ã©e
Ġkilogr ammes
Jac ques
aturelle ment
Ġsailli es
Ġbont Ã©s
ĠGio v
3 0
D on
L O
R em
S ud
S ix
T wo
U r
U IT
W ill
b ys
h uissier
k er
l ie
n u
n ier
o ce
u ce
u Ã©es
u ced
w in
Â º
Ġd and
Ġl Ã©
Ġl anÃ§ant
en j
en sive
en quÃ©rir
ai mes
ai led
Ġp oin
Ġp ull
Ġs abl
Ġa sile
an ime
Ġm Ã¢
Ġm aux
Ġm ounted
Ġt Ã©t
Ġt ol
Ġt ex
Ġt ailles
in ant
in Ã©raire
Ġf art
Ġf iers
Ġf ente
it ary
Ġn Ã©ant
Ġv aill
Ġv Ã©cut
or ado
Ġle ague
Ġr use
Ġr ame
Ġr ase
Ġun fortun
our ce
Ġh a
Ġh anche
Ġh aches
Ġh agard
Ġen qu
Ġav anÃ§a
Ġpr oud
Ġse par
ri ed
ri ani
Ġo ath
Ġtr ap
Ġch o
Ġw ound
Ġw agons
am user
ĠM an
ĠM iller
ec clÃ©siastique
de hors
Ã©c iles
Ġe qu
pr Ã©f
ing er
ĠC ord
ĠC apitaine
Ġgr Ã©v
ic a
iv a
iv et
ĠP ardon
Ġth us
Ġth Ã¨se
Ġth reat
oy eux
Ġcon gr
Ġcr oupe
Ġbr Ã¨ve
Ġar med
Ġfor ward
Ġmar ines
Ġmar ked
ĠB ath
ĠD om
ĠD emain
tr ons
Ġall iance
ĠF O
Ġam Ã©li
Ġpass es
Ġpass ing
Ġpass ages
ante ment
onc ert
ass ure
Ġenc abl
um ph
ĠG asc
ĠrÃ© action
ign aient
ĠV II
Ġregard ent
ĠH er
ĠH am
ĠH ert
ĠH amb
Ġrem irent
ĠT ourn
Ġcour rier
int imitÃ©
Ġcomm erÃ§
ĠdÃ©s intÃ©ress
Ġatt ack
ĠÃ©p arp
ĠÃ©p erons
ĠdÃ©c ro
ĠdÃ©c ide
Ġfort ifications
Ġparl ai
Ġparl ent
Ġparl Ã¢t
ex amen
Ġcap ri
Ġpers Ã©v
ins on
Ġeff ic
Ġrest Ã¢mes
arg ile
Ġvoul Ã»t
Ġlaiss ons
Ġlaiss Ã¢t
Ġad vant
Ġcor romp
ĠdÃ©p artement
aur ions
Ġmin erai
iqu itÃ©
Ġso fa
... ?
ĠCh at
ĠprÃ©s erv
ran chement
Ġserv ie
Ġserv antes
Ġag ree
Ġag itait
Ġsouv ient
gl om
Ġsc iences
Ġsouff l
Ġsouff les
Ġsouff lÃ©
Ġrend s
acc user
Ġsil ent
ĠW e
ĠW ater
Ġesp Ã©rÃ©
Ġimp assi
Ġjou aient
Ġrep asser
Ã©v ent
Ġk ang
Ġprop er
Ġexp ect
ĠprÃ©sent aient
Ġrent raient
ĠpremiÃ¨re ment
ĠrÃ©c l
Ã©qu ip
ĠÃ©g yptienne
ĠdÃ©l Ã©guÃ©s
aff ect
Ġrel Ã¢
Ġrel ation
Ġmanqu erait
Ġtrans f
Ġdispar urent
ast iques
ph y
Ġlaisser a
Ġdess Ã©ch
Ġpat rons
Ġremarqu ait
Ġmour ante
Ġval ent
Ġval ise
ĠpÃ©n ibles
Ġmore over
ĠbÃ¢t ie
Ġfour ch
Ġform Ã©s
Ġrencont rÃ©e
Ġrencont rÃ©s
Ġracont ai
Ġrempl it
Ġdemeur aient
Ġfil a
ĠX V
Ġcommun s
ĠprÃ©cip itation
Ġrapport a
ĠÃ©clat aient
Ġrester ent
It alie
Ġstr at
Av ait
Ġpou le
Ġconse illa
Ġrappel Ã©
oubl iais
Ġhal age
Ġlis ten
ĠsÃ© ance
Ġcommand ait
ple in
Ġeng agement
Ġeng agÃ©e
Ġrelev Ã©s
Ġconst ante
Ġsuppl Ã©
ĠPour tant
ĠCan ivet
Ġfol les
ĠdÃ©clar ant
Ġtravaill aient
Ġcous ins
ĠagrÃ© ablement
ĠprÃ©t endre
ĠprÃ©t endu
Ã©loign ement
Ġhur rah
Ġart s
Ġart iste
Ġbaiss Ã©e
Ġach arn
Ġfriss onner
ĠimmÃ©di ate
Ġallum er
empl oi
empl oyer
Ġintellig ents
Ġment i
Ġment ir
Ġcuri osity
Ġsonn Ã¨rent
Ġfi ancÃ©
Ġpot age
atte red
Ġsourd ement
agit aient
adress er
Ġaffect ueux
Ġfabri cation
ĠrÃ©gul ier
ĠÃ©cras Ã©s
Ġservi ette
Ġfauteu ils
An ne
ĠÃ©touff Ã©s
lo o
istr y
Ġconserv ation
quis iteur
Ġinj ustice
Ġtress aillir
Ġban que
ĠÃ©tern ellement
Ġpend aient
Ġpromp te
Ġarch itecture
eci ally
Ġdesse ins
Ġgarn i
Ġmouill Ã©e
ĠrÃªv eur
Ġrequ ins
IN G
ĠMort on
ript ions
Ġpoison ed
Ġdoc tr
Ġread er
Ġcreus ait
Ġprat icable
ĠInd iens
orde aux
appuy a
Ġmeurt rier
Ġpaysan ne
effor Ã§a
effor Ã§ant
Ġobsc ures
Ġmun is
Ġenvelopp Ã©e
Ġcoff ret
Ġmoin e
Ġennuy Ã©
Ġdimin uait
Ġmass acre
quin ze
Ġsecr Ã¨tes
Ġflamb eaux
Ġdissi per
Ġparven us
Ġhid den
Ġaccabl Ã©
Ġvolup tu
Ġlaug hing
ĠBl anche
Ġlumin euse
Ġcass Ã©es
Ġalt ogether
Ã©vanou ir
Ġplay ing
ĠchrÃ©t iens
Ġproport ions
ĠmÃ©can ique
Ġtig es
Ġrisqu ait
ĠÃ´t a
ĠÃ´t Ã©
Ġeight y
Ġverr ous
Ġescl aves
Ġgri ma
Ġtart ine
ĠtÃ©lÃ©gr aph
Im possible
Ġpittores ques
Ġfrag ile
Ġabsorb Ã©e
Ġhuss ars
Ġeas y
Ġcontrar ier
Ġcuv elage
Ġenglout i
Ġrecogn ised
ĠfaÃ§ ades
ĠBarb one
Ġfaith ful
Ġprosp Ã©ritÃ©
Ġfuss ions
Ġquick ly
Der riÃ¨re
ĠSer ene
Ġcarref our
Ġcorbe ille
Ġcivilis ation
Ġparess eux
Henri etta
ĠDer bys
Ġcontrad ict
hypoc risie
Ġopportun ity
emmen a
ĠMis tress
Ġinterm itt
Ġmamm ifÃ¨res
Ġtav erne
Ġintermin able
Ġcourtois ie
Ġdeter m
Ġsui cide
ĠAustri an
Ġplun ged
Ġcircumst ances
Austr alie
Mad emoiselle
ĠCrÃ© ateur
ĠgrÃ©v istes
ĠWater loo
ĠDerbys hire
B essie
G o
G reat
L ady
S itÃ´t
T oi
V endredi
V raiment
a wn
b r
b ans
c ast
d emain
f ol
i Ã©r
i antes
m al
m aha
n ant
p ain
p ers
r Ã©p
r ouss
s ol
t ent
u ctions
y ond
y kj
z en
Ġ ignore
Ġ ÃĶ
Ġd an
Ġd un
Ġd ared
en ess
Ġp Ã¨
Ġp ict
Ġp oupe
Ġp outres
Ġs elf
ou Ã©e
ou cher
ou red
Ġc ils
Ġc ouver
Ġm ond
Ġm eurs
Ġm Ã¨res
Ġm ailles
Ġm Ã¢le
er g
Ġt ang
Ġt iendrait
Ġt inrent
Ġf oin
Ġf Ã©b
Ġf ibres
ar ct
ar aignÃ©e
is a
Ġn Ã©s
Ġv rais
Ġv ices
Ġb Ãª
Ġb osse
Ġb itter
el aur
Ġj onc
Ġle g
as es
Ġr Ã©tr
us tes
Ã©t onnant
Ã©t oiles
Ġen iv
at is
Ġav anc
Ġav ances
Ġav ocat
ans Ã©n
al ait
Ġpar ier
Ġse arch
Ġdes per
Ãª nes
Ġpl onge
Ġo vert
se ct
Ġtr ying
end ons
and iÃ¨re
Ġch est
Ġch Åĵur
Ġch aos
Ġpour ront
ab at
Ġin ouÃ¯
os ier
onn able
ol a
ol Ã©s
ol aine
am an
am ende
ĠM A
ĠC ours
ot ente
ond elaur
Ġgr Ãªle
ard er
ĠP at
ĠP ic
ĠP Ã©r
ĠP auvre
ĠP AS
Ã©r aient
ĠS ophie
ĠS uzanne
ĠL uz
ĠdÃ© ception
Ġdis que
Ġpro ject
Ġcon qu
Ġcr y
Ġbr anc
Ġbr oke
Ġex empl
ens uiv
iss ants
Ġfor Ã§a
ay ons
Ġmar ty
ĠB os
ĠB oug
ĠB ulg
Ġgrand ement
Ġall ais
ĠE l
ĠF or
aiss ent
Ġcar esse
Ġam onc
Ãªt etÃ©
st on
ĠR uss
um m
ĠG are
ĠG ulf
ĠG ondelaur
if iÃ©e
Ġpouv iez
ĠrÃ©pond aient
ĠV III
Ġtemp ete
Ġcour ageux
Ġdonn Ã©es
Ġbe ff
Ġbe yond
Ġcomp assion
Ġapp ui
Ġapp oint
Ġrec our
ist ers
ist Ã¨re
Ġentre vu
Ġfais iez
Ġcl oses
att endu
ale d
ins c
Ġeff ar
ly mpe
oc itÃ©
Ġvoul ons
Ġacc lam
Ġacc rois
itu Ã©
og es
Ġheur tÃ©
Ġcri Ã¨rent
Ġporte feuille
Ġprof itÃ©
Ġfin irent
Ġfin irait
Ġis olement
Ġsembl Ã¨rent
Ġconn ues
Ã©cri er
Ġbl onds
Ġmat ch
Ġmat ins
Ã©m ence
Ġsup Ã©rieurs
ud ule
ĠCh ant
ĠCh Ã¢telet
Ġemp oign
Ġsol ution
Ġag ile
Ġconv ent
Ġrev it
Ġsp oken
Ġpres c
Ġsh ot
Ġsh owed
Ġhab ite
Ġhab ilement
Ġgl ad
Ġor age
Ġtravers aient
Ġfond u
Ġcontinu elle
ach arn
Ġbut in
ĠÃ©v al
Ġperd s
Ġren once
Ġfig urÃ©
De v
Ġexc ent
Ġexc itÃ©e
Ġpouss iere
Ġbord ure
Ġexp ans
arc ely
Ġtrouver ais
Ġcontr ast
Ġrent rÃ¨rent
Ġnoir Ã¢tre
Ġop Ã©rer
Ġop Ã©rations
Ġmen Ã©
ĠrÃ©c emment
Ġtard ait
Ġinf atig
Ġram assÃ©
Ġcur ieuses
Ġsign ific
Ġinv estig
Ġsub alter
ĠlÃ©g Ã¨res
Ġbour ru
Ġfrapp e
ĠTh unes
Ġappar ences
Ġappar aissaient
ĠAl zire
Ġtri ple
Ġtri umph
Ġoccup aient
Ġtrait ement
approch Ã¨rent
Ġpap ers
Ġpersonn elles
Ġmour ait
Ġsauv a
Ġdr Ã´les
Ġcru che
Ġpress ant
ish ing
Ġpre v
Ġappel ant
ĠdÃ©g Ã¢t
Ġrencont res
ĠdÃ©sesp Ã©rait
Ġrempl acÃ©
ĠX ury
ĠprÃ©cip itant
Ġcharg Ã©es
ĠRe ykj
Ġmarch ions
lex ion
arm oire
Ġfri gh
Ġparticul ar
Ġhand ed
Ġfur ieusement
Ġfur ther
Ġchant ant
Ġsav on
Ġimport ait
Ġcoul ant
Ġmus ket
Ġcommand Ã©
Ġouvert ures
Ġ2 2
Ġpubl iquement
Ġrelev ai
Ġimmob ilitÃ©
erm ite
Ġsuppl iait
Ġhabitu Ã©s
Ġhabitu ellement
Ġjuge z
Ġappart iennent
Ġstup id
Ġadmir ables
Ġhur ler
Ġpav Ã©s
Ne ver
Ġgui der
Ġmill i
Ġprot Ã©ge
Ġz Ã©ro
Ġexcell ence
Ġbre vet
Ġdout Ã©
Ġferm ier
ĠrÃ©pliqu ai
Ġferme ment
Ġentr Ã¢mes
Ġsaut Ã©
Ġretrouver ons
appar aissait
Ġres ignation
ĠtraÃ®n a
ĠreprÃ©s ente
Ġbons oir
ĠpÃ©nÃ©t ra
Ġbeg un
Ġmag ie
Ġfriss onnait
Ġgai ety
Ġhonn eurs
Ġjol iment
ĠrÃ©d uire
Ġadress Ã©e
Ġintellig ente
Ġpir ogues
ĠreprÃ©sent ation
Ġ18 2
Ġbourgeois ie
Ġtim bre
Ġsonn ant
Ġer rer
Ġembr assa
Ġant arct
Ġdiam Ã¨tre
Ġdiam onds
ĠSignor ina
Ġmeu ble
Ġconsent i
Ġrenvers er
Ġrapproch aient
ĠÃ©cras Ã©e
ĠgÃ© ants
Ġaccompl ie
ĠrÃ©uss issait
Ã©cout ai
Ã©cout ais
Ġsure ment
Ġpiqu ant
Ġdon jon
Ġsaint s
agrÃ© ment
isse d
Ġsoum ission
Ġbouill ir
Ġarch itect
Ġanx ieux
ĠQuel ques
Ġdrap eau
ĠintÃ©ress ante
ĠrÃ©vÃ©l ation
Ġsince re
ĠsoupÃ§ onne
ĠdÃ©tach a
Ġgest icul
Ġassi d
Ġavert i
Ġreb ond
Ġreb rouss
Ġenter rÃ©
Ġinterro ger
ĠrÃ©clam ait
ĠItal ian
Ġsucces sives
Bon jour
Ġcop ie
inclin ant
Ġmend iante
Ġprote cteur
Ġirrit Ã©e
Ġtum ult
Ġobt ain
Ġtransform er
Ġmachin eur
Ġpermet trait
Åĵuv res
Ġboul et
Ġactu el
honn Ãªtes
Ġlaug hed
Ġchanc elant
Ġtrib ord
ĠphÃ©nom Ã¨nes
Ġcy cl
Ġtranch Ã©e
Ġmob ilier
hÃ©s ita
Ġmanifest ait
ĠÃ©per on
Ġintim ate
ĠmÃ©cont entement
ĠnaÃ¯ ve
ĠbÃ© bÃ©
Ġemm ener
Ġty ran
ĠÃ©vanou i
ĠÃ©pargn Ã©
ĠÃ©bran lÃ©
ĠBourg ogne
Ġsouc ie
ĠingÃ©n ieurs
inqu iÃ¨te
Ġfif teen
Ġmo eurs
entraÃ®n a
Ġhypoc rite
Ġjoint es
Ġbrul ait
Ġcler k
Ġcler gÃ©
Ã©bran l
ĠFlor ence
inform er
arl ate
Ġhuss ar
Ġeas ily
Ant oine
Ġapart ment
Ġfie vre
Ġmors ure
Regarde z
Ġscient ifique
ĠrÃ©al iser
Ġexalt ation
Ġprovinci al
Ġexemp les
ĠCham ps
ternation ale
Ġcauche mar
lieu e
ĠPap ouas
Ġforgot ten
Ġobstin Ã©ment
Ġronf lement
ĠHav re
Ġprep ared
infin i
ĠHug o
fleur ie
ĠChante fleurie
Ġsurl endemain
Ġtimon ier
Ġfart her
ĠrÃ©cl ame
Ġdeterm ined
ĠGondelaur ier
? '
A cc
C om
D O
D Ã©s
D uring
E xc
E OR
H uit
H ave
L LE
M O
N ext
R I
V iens
V oila
a Ã§ant
b ots
c ans
c ase
d ent
f ive
f ords
g ent
j ut
r ot
s tr
t Ã©e
u f
v oie
w ise
z a
Ġ *
Ġ ÃĬtes
Ġl if
Ġl ines
Ġl ower
ou j
Ġc assa
an Ã©
Ġm ista
Ġde ign
Ġt ordre
Ġt asses
in ze
Ġf Ã©e
Ġf uc
Ġf iche
ar se
ar nÃ©
it ai
it ures
Ġn Ã©e
Ġv aine
Ġv oc
Ġv Ã®t
Ġv allÃ©es
un ivers
Ġb Ã©t
Ġb amb
el in
Ġj apon
Ġj ansÃ©n
om et
as ant
as hed
Ġr hum
Ġr Ã¢le
Ġun is
Ġh Ã¢
Ã©t ernitÃ©
Ġque rel
ur Ã©es
ur iers
at or
Ġav idement
Ġg is
Ġg arr
Ġg Ã®te
Ġg Ã¢ter
Ġg ogu
Ġpr enons
al led
ch air
tre am
Ġpar ie
Ġpar ade
Ġne ither
oi ement
ag Ã¨rent
ag iter
ag eusement
Ġtr uite
and esc
Ġch ants
Ġch arr
ab ouss
ab aissait
Ġin opin
Ġthe atre
am iral
ĠM arthe
Ġsur p
ut ilitÃ©
Ã©c rit
Ã©p rouver
ig u
ĠC omm
ĠC OM
Ġan gr
Ġgr aines
ad ultÃ¨re
ic ieux
Ã® ne
oy ers
oy eurs
ĠS av
ĠS oit
Ġdis l
Ġbr och
ord onnance
ter ies
Ġser mons
Ġdev ise
aut ion
Ġas t
iss er
Ġmar ron
ĠB rig
ĠB ournisien
tr ais
tr aient
tr ont
Ġgrand issait
Ġhe in
Ġam p
Ġam Ã©n
Ġam ph
Ġam ple
Ġmain tes
Ġpart aient
pl ace
Ġreg istre
ve re
ass ister
ĠG EOR
Ġtrouv Ã©es
if iÃ©
Ġcont es
Ġcont ad
Qu arante
Ġven iez
ĠI er
Ġman ne
Ġman ier
ĠH ARRIS
ĠÃ©c ueil
Ġmal les
Ġcons ole
od ie
Ġcomp as
ĠÃ©p oques
ĠdÃ©c oncert
aÃ® tra
Ġpos ted
ro ch
Ġsent iers
min ent
iÃ¨ vres
Ġrest Ã©es
Ġrest Ã¢t
Ġlaiss Ã©es
Ġcol Ã¨res
Ġporte z
Ġfl air
rai lle
Ġcor b
Ġher mÃ©t
Ġaff ront
Ġfin is
On ce
Ġis landais
ĠdÃ©p Ãª
Ã©cri ant
Ġarriv Ã©es
Ġviv andiÃ¨re
Ġsuiv ants
Ġemp ourpr
Ġsol aires
Ġconv oi
ke y
Ġouv re
Ġjet ter
Ġsh o
Ġsh ore
Ġsh ow
Ġvol cans
Ġpay ing
ib oud
Ġor igine
Ġind ique
ĠMais on
Ġentend irent
Ġrais ed
Ġcan ards
Ġappr enant
Ġappr oach
Ġgo es
Ġrend ent
Ġrend orm
ĠÃ©v ap
Ġcrois ant
igne d
Ġjou issait
Ġpo teaux
De hors
Ġreven ge
erÃ§ ait
ĠÃ©ch ouer
Ġpouss Ã¨rent
Ġhum blement
Ġrou x
heur es
Ġgard ant
Ġgu en
enn uie
Ġriv er
ĠÃ©g aux
Ġarr os
Ġgal ets
Ġcomb ats
Ġcur ieusement
Ġsign s
Ġinv raisembl
ĠEn tre
ĠEn core
Ġquitt Ã©e
ĠAl l
Ġfix Ã©e
Ġfix ed
Ġwe eks
Ġpersonn ellement
ĠrÃ©sol ument
off ici
Ġconnaiss ant
Ġnombre use
Ġobl ique
Ġcamp agnes
ĠmÃª laient
Ġlib raire
Ġpuiss ions
Ġpre te
Ġconven ances
Ġrencont raient
ĠdÃ©sesp Ã©rer
Ġsonge ai
Ġdemeur Ã¨rent
Ġempl issait
Ġcommun es
ĠÃ©clat Ã¨rent
Ġobserv ant
Ġmod Ã©rÃ©e
Ġremont Ã¨rent
Ġstr anger
Ġsingul iers
Ġcuis se
ann oncer
Ġsoci Ã©tÃ©s
Ġvolont aire
Ġrappel aient
oubl iait
Ġfur y
Ġessay ant
expl oit
Ġcav eau
Ġlis se
Ġfum aient
Ġtap age
Ġpron onÃ§ant
Ġcommand a
ĠbrÃ» lant
Ġ2 4
Ġeng ager
ĠrÃ©flÃ©ch issant
ĠLand riani
ĠsÃ©par Ã©e
Ġarg ot
Ġcad re
Ġore iller
erm ettez
Ġconc ours
ness es
Ġsin istres
Ġabout issait
ĠÃ©lev ant
Ġcach aient
Ġsecou Ã©
Ġsecou Ã©e
Ġsout en
Ġbel ong
Ġknow ing
ĠrÃ©veill ai
ĠrÃ©veill ait
Ã©loign ant
Ġhur lait
Ġexcell ents
Ġmange ai
Ġferm iers
Ġprojet ait
Ġprojet Ã©e
Ġrass it
Ġachev Ã©e
Ġembarr ass
Ġheart s
Ġplaisant ait
ĠCont in
ĠÃ©qu ilibre
ĠÃ©loign er
Ġeffray Ã©s
Ġcoqu ette
Ġpoign ets
As ie
adm ir
Ġarra cha
Ġregarde d
ĠBr istol
ĠÃ©b ah
Ġmante aux
Ġbond issait
atte ign
Ġretir ant
ĠrÃ©pand u
Ġdet ail
Ġapproch a
Ġprol ongea
ĠfÃ¢ chait
Ġinterromp re
ĠentraÃ®n ait
ĠMin istry
AN T
Ġrecouv rait
Ã©cout a
Ġrepar aÃ®tre
Ġgranit ique
Ġtrah i
Ġfriend ly
Ġsoum ise
Ġpend us
Ġpost ure
inv itation
Ġcoute aux
Ġanx i
ĠdÃ©barqu er
Ġkne es
Ġcompar able
Ġrejet er
Ġamb itieux
Ġfamil ier
ĠFer r
Ġaccour ait
ĠfÃ©lic itations
appuy er
Ã©clair c
Ġcoiff Ã©
ĠrÃªver ies
Ġsupport ait
ĠrÃ©pu bl
Ġdiscuss ions
Ġprotest a
Ġmun i
appe ared
Ġcare fully
Ġpros pect
Ġmol les
ĠbrÃ»l aient
Ã©veill a
Ġirrit ation
rat ign
Ġvid er
Ġga ol
Ġdor Ã©e
Ġbalbut iait
Ġfantais ies
Ġvari Ã©tÃ©
Ġcaress er
Ġcaress ait
ĠXI X
Ġsplend ides
Ġincr ust
Ġcraqu ement
Ġredesc endit
ĠmÃ©dioc rement
oublier ai
Ġlaid eur
hÃ©s itation
Ġpressent iment
ĠÃ©per du
Ġscrup ules
atri ck
Ġclim at
ĠÃ©teint s
Ġexerc ices
ĠPi olaine
ĠlibÃ©r aux
Ġtrad ition
ĠbÃ¢ bord
Ġreviend rons
aw ik
ĠaiguÃ« s
Ġviend rais
Ġhoch ant
Ġexclam ations
Ġverr ou
ĠsÃ©p ul
Ġwall s
Ã©puis able
ĠWh at
Ġsollic itude
Ġiron ique
appart ient
entrepr ise
Ġexasp Ã©rÃ©
Ġindisc ret
Ã©troit e
Ġwat ched
amus ait
Ġfacult Ã©
Ġloy al
ĠBert aux
attaqu er
Ġunivers elle
avert ir
Ġrecond uire
ĠRoy ale
Ġaffam Ã©
ĠLiberal s
ĠdÃ©nou ement
Ġvitr aux
Ġinacc essible
Ġcloth es
ĠFal aise
exÃ©cut er
ĠamÃ¨re ment
Ġorgueille ux
Ġpio che
Ġchale urs
Ġgromm ela
Ġconject ures
ĠMas lon
ĠincomprÃ©h ensible
ĠToute fois
ĠprÃ©voy ance
Ġinattend ue
ĠEngl ish
Ġdoll ars
Ġpoup Ã©e
Ġcott age
Bes ides
Ã©toff e
Ġgoy ot
Ġvare ch
Ġcarap ace
ĠdÃ©com pos
oras off
ĠRÃ©g ie
fem me
ĠBeauvois is
Ur ville
ĠDom aine
ĠHert fords
ĠHamb ourg
Ġcapri cieux
ĠpÃ¨ ler
ĠReykj awik
ĠHertfords hire
: --
A IN
B ref
C an
G ood
O S
S ais
b is
c ome
d ers
g u
h u
k ss
l ots
m Ã©s
n n
o ached
p as
r oute
r aine
r ales
t our
u ally
v reux
x ford
y res
Ã İ
Ġ Åĵuvre
Ġd omp
Ġd ied
Ġd ensitÃ©
Ġd agger
Ġl ions
Ġl Ã¨ve
Ã© um
Ã© od
Ġp y
Ġp ow
Ġp ins
Ġs od
ou rer
Ġc ort
Ġm ist
Ġde tective
er tement
Ġt ie
Ġqu ille
et Ã©e
ent i
Ġf ree
Ġf ancy
is quette
it ted
Ġn aus
Ġv igne
eu m
Ġb ol
Ġb ac
Ġb ic
Ġb aud
Ġb otte
Ġb aies
Ġj ets
or ant
as ons
as ter
Ġr ise
Ġr ails
ant ly
Ġh Ã©l
Ġh uge
Ġh ommages
Ã©t age
Ġen ded
Ġav ers
Ġg age
Ġg ob
Ġg ages
Ġg etting
Ġpr ost
al iment
ch Ã¨rent
ch Ã¢t
est ation
Ġse at
ri kss
av er
ui le
ui fs
Ġpl i
Ġpl Ã¢tre
end oz
and ie
and res
Ġch Ã¢teaux
ĠM oul
Ġsur ch
Ã©c u
Ġe arth
ac cepte
ĠC elle
ĠC ap
ard ie
ad a
ic les
ic ot
ic ated
iv re
ĠP H
Ã©r Ã©es
Ġth ick
Ġal ourd
Ġal tered
Ġal phab
ul y
oy ante
Ġma uss
ill is
ĠL ion
ĠL ec
ĠdÃ© Ã§
Ġpro of
Ġcon cur
Ġcr am
Ġbr ass
Ġex il
Ġex ercice
Ġou Ã¯
ĠA mer
Ġser raient
ĠrÃ©p rimer
Ġas h
Ġmar k
ĠB aker
ĠD Ã¨s
ĠE d
ĠE ust
Ġcar bon
Ġhe aring
Ġam enait
Ġpass ager
ĠJ oe
all ons
ĠN euf
ĠR Ã©
ĠR et
air s
Qu elles
ĠrÃ© seau
Ġregard ions
ĠT here
ĠT ank
Ġcour bÃ©
Ġdonn Ã¢t
ĠÃ©c ueils
Ġdemand Ã¨rent
Ġbe at
Ġcons erve
Ġcons istait
Ã©d ulitÃ©
Ġcomp ens
Ġdi ab
Ġab at
ĠdÃ©s ignait
Ġrec ouverte
gn Ã¨s
Ġatt ard
riv ois
Ġentre z
ĠÂ« --
Ã©l is
Ã©l ine
Ã©l oge
Ġvis itÃ©
Ġacc oud
Ġco ach
Ġco chons
Ġdou Ã©
Ġpe ignait
ell o
pt on
Ġfin ished
Ġint Ã©rieurs
Ġarriv ions
Ġmin istÃ¨re
Ġviv ent
Ġsuiv ez
Ġaur ai
ere au
Un is
Ġsal aire
ĠCh as
ĠCh amp
Ġchev au
Ġass ises
Ġag it
ke ley
Ã©ch ange
Ġouv ertement
Ġinc end
Ġinc andesc
aill Ã©
aill er
aill ait
inc ident
ĠprÃ© al
Ġfou illÃ©
Ġreconn aÃ®t
Ġoff ensÃ©
Ġappr enait
Ġprendre z
appr end
acc r
acc orde
Ġfig urais
Ġesp agn
Ġhas ards
ĠÃ©ch anger
ĠÃ©ch elons
Ġexc iter
Ġdo ci
Ġbois son
Ġprop h
ange au
Ġpremier es
ĠdÃ©f aire
ĠdÃ©f Ã©rence
Ġexp er
ĠLe quel
ĠLe ah
enn y
enn uy
Ġrent rÃ©s
Ġsurpr enant
Ġsurpr ises
Ġli anes
Ġriv ale
Ġbar ric
Ġbal s
Ġbal ance
Ġrel ais
Ġress usc
ache z
oss es
Ġcaus ed
Ġfrapp Ã©s
Ġexpl os
Ġquitt aient
Ġpropos itions
RE N
Ġfix ait
Ġpap illons
Ġdr agon
Ġus Ã©
ĠdÃ©cid ait
ĠpÃ©n ins
ĠrÃª vant
Ġtromp ais
Ġcompte z
ĠLond on
Ġpress aient
Ġfour rÃ©
Ġfour rure
ĠconsidÃ©r ablement
Ġrecomm ence
Ġbatt us
Ġlut t
Ġtir Ã©s
Ġhasard a
ĠaperÃ§ urent
Ġfatig uer
Ġvag ab
Ġmod ifier
Wh o
ĠcrÃ© ation
Ġbo Ã®tes
Ġsoci al
Ġsoci ale
Ġpou les
ĠtraÃ® ne
ĠsÃ© ant
Ġattend ue
ĠdÃ©ch irer
Ġmus Ã©e
Ġ2 6
Ġ2 7
Ġ2 9
Ġmiss ionnaire
ĠrÃ©flÃ©ch issais
ĠÃ©tonn Ã©s
Ġdevin a
Ġdescend Ã®mes
Ġretrouv ant
Ġcompt a
Ã©cl airer
ĠdÃ©pl aisait
ĠprÃ©f Ã¨re
ĠdÃ©lic ats
ĠÃ©cout aient
Ġcach Ã©s
Ġaim ant
ĠprÃ©t ention
ĠrÃ©veill Ã©e
Ġdress ant
Ġdress aient
ĠLy nn
Ġbet ises
Ġmange aient
Ġchaud s
Ġtor che
oph es
Ġexamin ant
can io
Ġprend rais
extr action
Ġrav issement
ĠÃ©loign Ã©es
aval iere
ĠrÃ©d uits
ĠCr oss
ĠCr oyez
Ġsm iling
ĠrÃ©sult a
Ġbarb ares
Ġsuper ior
Ġrecommand ations
imagin ais
Ġjal ouse
Ġparcour ait
Ġbrav er
Ġut most
Ġennem ie
Ġliqu eurs
Ġsomm ets
Ġmena Ã§aient
Ġbu ilt
ĠbÃ©n Ã©diction
Ã©pau les
adress a
Ġdomin ation
Ġrapproch ant
Ġhead s
Ou tre
ĠentraÃ®n Ã©s
ĠÃ©touff Ã©e
Ġremar ques
Ġtab at
Ġtrah issait
ĠhÃ¢t ait
Ġdistr actions
Ġod d
Ġtourment Ã©
ĠdÃ©velopp er
Ġpure ment
Ġarch ers
Ġabond ante
Ġhigh est
ĠdÃ©pos er
Ġentrepr is
ĠpÃ©r ille
Ġplat form
Ġaccord ing
Ġrejet Ã©
Ġsurveill ant
ĠsÃ©d uit
ĠsÃ©d uire
import ant
Ġloint aines
Ġopen ing
Ġbibli othe
examin ai
Ġaugment a
Ġconstr uite
Ġinconn ues
Ġavert is
endorm is
Ġlas ted
ĠÃ©pouvant Ã©s
ĠnÃ©gl iger
ĠÃ©veill er
Ġraf ales
Souv arine
obl ig
Ã©prouv ait
Ġinform ation
Ġcop y
ĠLE QUEL
Ġcabaret s
uls ion
Ġcroiss ant
accompagn ait
ĠprÃ©cipit ai
apercev ant
ĠÃ©tal ait
Ġund ert
Ġrecueill i
ĠempÃª chait
ĠsuccÃ©d aient
ĠpÃ¢l issait
Ġemploy ed
apport a
Ġtransform Ã©
Ġtransform Ã©e
Ġatro cious
Ġmid night
Ġhid euse
Ġbeh av
Ġallong Ã©e
Ġtranch ant
accus Ã©
obÃ© is
Ġjup on
ĠMad onna
Ġmov ement
ĠprÃ©vÃ´t Ã©
ĠdÃ©roul ait
ĠpÃ¢t Ã©
Ġexpri mÃ©
ĠprotÃ©g Ã©
Ġgross eur
Ġcouch ai
ĠhÃ©riss Ã©
Ġhalet ante
ĠGriff e
ĠdÃ©guis ement
Ġtot al
ĠapprÃ©c ier
ĠconÃ§ u
Ġsulf ure
Ġrespons able
Ġexist ences
Ġachet a
Ġshill ing
Ġarrond ie
Ġmem ory
Ġcache m
Ġhypoc risie
encour ager
ĠÃ©toff e
Ġaston ished
ĠbÃ©nÃ©f ices
ĠMill ie
Ġconvuls ion
Ġconvuls ions
Ġapl omb
ĠTour angeau
Ġopp ress
Ã©criv is
Ġremor se
Ġdisgr ace
ĠÃ©conom ies
Ġincre ased
urn s
Ġaven ue
excl ama
Ġescal iers
Ġhersch euses
Ġcapric ieusement
ĠdÃ©plais ir
ĠinÃ©v itablement
ĠimprÃ©v u
Ġcerc ueil
Ġarre ter
Ġbetray ed
Ġraj ah
Ġatmosph Ã¨res
interv alle
ĠmenaÃ§ ante
ĠperÃ§ ants
Ġphosph oresc
ĠBat aille
Ġcompart iment
ĠChÃ¢teau pers
ĠrÃ©crÃ© ation
Ġmyster y
Ġattract ive
Ġdauph in
Ġhop ed
Ġcomest ibles
icol as
Ġthor ough
Ġlangu age
anx iÃ©tÃ©
ZÃ©l ande
ĠFrid rikss
Ġencabl ures
Ġmarty re
ĠBulg ares
Ġbeff roi
Ġmista ke
ĠGEOR GE
Ġguen illes
endoz a
ĠTank adÃ¨re
Ġbibliothe que
A c
A llemagne
C ons
C ert
C ome
D om
D iana
D enis
F er
H irondelle
I ON
I LE
J up
L ong
P ardon
S herlock
V os
V ict
Y ork
a jou
b ons
b ed
c is
c om
e ce
g on
h and
h ospit
p ubl
r ue
u aire
v ely
w art
x p
y ard
y cl
Ġ i
Ġ irez
Ġd ieux
Ġd ures
Ġd enier
Ġl ard
ai le
es qu
Ġp Ã©
Ġp oi
Ġp Ã»mes
Ġp once
Ġs aine
Ġs ables
Ġc id
Ġc assÃ©e
Ġc Ã©li
Ġa Ã©ri
Ġm Ã©s
Ġm io
Ġm ondes
er rer
er esse
Ġt au
Ġt Ã¢ch
et ait
et age
le ine
Ġf able
Ġf Ãªtes
Ġf aill
Ġf oie
Ġf oyers
ar mer
Ġn Ã´tres
Ġv aines
Ġv iendrez
eu illez
Ġb os
Ġb ell
Ġb uy
el ette
el aines
el den
Ġj ump
or a
as i
Ġr ib
Ġr ash
ant on
Ġh enn
Ġh anged
Ã©t inc
ir aud
at cher
Ġles t
au mes
Ġav ar
Ġav ide
Ġav oue
Ġg oul
Ġg ives
Ġg athe
Ġg isaient
Ġre tenant
Ġre asons
Ġpr est
Ġpr enne
Ġpar ente
Ġse quins
ri me
ri mÃ©e
Ġne iges
av anÃ§ant
av ancÃ¨rent
Ġpl iss
Ġcom Ã©d
Ġcom tesse
Ġdans ait
Ġdu p
ouv rirent
ab el
ab ad
ab attre
Ġin attendu
Ġw in
onn antes
ĠM ail
ĠM ade
ĠM arqu
Ġsur m
Ġsur hum
ec oeur
Ġme as
de rer
Ã©c ations
Ã©p onge
Ã©p roch
Ġe d
Ġe p
im o
ac ieuse
ĠC oad
Ġan ges
ad ministration
ĠP rÃ©
Ġal arm
oy ants
ĠS ON
ĠL ux
ĠL eurs
ĠL atin
ĠdÃ© bl
Ġpro ble
Ġpro cl
Ġcon fin
Ġfr onÃ§a
Ġbr ou
emp ois
ĠÃ© lever
Ġex igeait
oul Ã©
ĠA gnÃ¨s
Ġdev enant
Ġdev iendrait
iss eur
iss age
Ġfor b
Ġmar aud
ĠB u
ĠB ill
ĠB onne
ĠB Ã©th
ĠB ordeaux
op t
ĠD o
ĠD ie
ang ile
Ġhe alth
Ġam ateurs
Ġpart en
all Ã©
onc le
ass irent
ĠR h
ĠG isquette
Ġjus tesse
ign y
art Ã©s
art icul
ĠI X
Ġper form
Ġregard Ã©e
ĠH ippolyte
Ġaus tÃ¨re
Ġrem uant
ĠÃ©c u
ĠÃ©c artÃ©
Ġmal ais
int on
int ensitÃ©
Ġcons ide
Ġdi alogue
Ã©ri es
Ġcoup ant
Ġsem Ã©e
Ġeu es
ist ique
ole ons
ven us
Ġsou fre
Ġfais ions
Ġparl Ã¨rent
ob ins
min ation
Ġcl artÃ©s
Ġmont res
Ġvers ait
Ġsec ure
Ġrest ais
arg ne
Ġtu b
Ġad ministr
Ġfl ore
Ġnouv ellement
Ġher b
ĠdÃ©p la
Ġbl ow
Ġbou gÃ©
Ġbou illon
Ġmy ri
Ġchar itable
Ġple ase
Ġinst ances
Ġinst aller
Ġemp echer
Ġemp arÃ©e
rit es
Ġserv is
Ġtomb ereau
Ġass aut
Ġass omb
Ġass istÃ©
Ġsol id
Ġsol itaires
Ġver ras
ĠPar si
eus s
Ġinc ome
Ġsh arp
heure use
inc ert
Ġgl aÃ§ait
Ġpay a
Ġpay e
Ġconf uses
Ġind ications
ĠprÃ© jug
Ġbout on
Ġtravers Ã¨rent
ĠprÃ©c ieuses
Ġliv rÃ©
Ġcontinu els
Ġmur derer
appr Ãªt
appr obation
Ġcal Ã¨che
acc ueill
Ġfrom ages
Ġesp ecially
Ġord inary
Ġdist urb
Ġtourn Ã©s
Ġrep utation
Ġpo e
Ġcam b
Ġcas cade
ĠPr Ã©cisÃ©ment
ĠÃ©ch o
quet e
Ġbord Ã©
Ġroi de
Ġcompl ot
Ã¨v ent
Ġexp ir
Ġann onÃ§aient
Ġsix iÃ¨me
Ġgard erai
Ġpasser ent
Ġtrouver aient
Ġgu ir
enn uyer
Ġcontr at
ĠMar ini
ĠÃī liza
Ġli Ã©s
Ġperm ettent
oll ing
ĠdÃ©v oil
ĠdÃ©v otion
aff reux
Ġbal anÃ§ant
Ġram enant
Ġout rage
Ġinv ention
Ġfai led
oss er
ind Ã©pendance
pe ine
Ġsee k
Ġfrapp aient
Ġexpl ique
ĠTh omas
Ġappar tements
Ġimpos ant
Ġve illait
Ġpropos er
Ġtri ck
Ġtri angle
Ġviol et
Ġess ai
Ġfix ant
arrÃªt aient
Ġremarqu ables
ouill ait
Ġsauv eur
oqu er
Ġbri que
Ġconnaiss ent
Ġdiv iser
Ġdiv orce
ĠrÃª nes
Ġterrible ment
Ġcre use
Ġsoul ager
Ġtent ac
Ġlut tes
Ġconven ables
Ġcoll Ã©
Ġevery where
Ġaband onna
Ġcommun iqu
Ġmod ernes
ĠdÃ©m onstr
ĠcrÃ© Ã©
oun g
entend aient
Ġrespect ueusement
Ġparticul iers
Ġparticul ierement
Ġgouver ner
aig re
Ġdest r
ĠtraÃ® neau
Ġkn ife
Ġtrembl a
ĠK orasoff
Ġfur ious
Ġapport ant
Ġsav ante
Ġgrav ir
expl ique
expl iquait
Ġattend ions
Ġattend irent
ĠÃ©n orm
Ġdisting ue
ĠdÃ©ch irait
Ġtap er
Ġinqui Ã©t
ĠbrÃ» lÃ©e
Ġ2 8
ĠrÃ©flÃ©ch issait
ĠSt an
Ġemport ant
Ġchair s
Ġsuppl ier
Ġroul age
ĠdÃ©pl acement
Ġreconnaiss ante
hÃ´tel ier
ĠÃ©prouv Ã©e
Ġpolit iques
Ġcord ons
Ġcharge ait
Ġcontem por
Ġexcell entes
Ġdout eux
Ġtal king
Ġlac s
Ġchass ait
Ġres erv
Ġretomb aient
Ġfriss ons
Ġtransport Ã©s
olog y
Ġplant Ã©e
Ġfavor ables
Ġrecul Ã©
aim iez
ĠrÃ©serv es
ĠrÃ©serv ait
Ġarra chÃ©e
Ġarra chÃ©s
Ġfid Ã¨lement
Ġcuri ositÃ©s
Ġsonn et
Ġer rant
Ġais Ã©e
Ġext ent
Ġretir Ã¨rent
Ġaigu illes
Ġmeu te
Ġcul p
Ġcul ottes
Ġattent ions
Ġaffect Ã©e
Ġdomin os
avent ures
ĠTout es
Ã©tabl issement
Ãīt oile
ĠgÃ© omÃ©t
Ġdoul oureusement
Ġpromis ed
Gr and
Ġdange reuses
Ġpun i
Ġsim il
ĠhonnÃªte ment
Ġtell ing
ĠAd ieu
ĠfrÃ©m issante
Ġenr agÃ©s
Ġcost umes
Ġtourment Ã©e
imm ensitÃ©
ĠspÃ©c iale
ĠQuel que
ĠrÃ©vÃ©l ait
ĠdÃ©couvert s
Ġblanch Ã¢tre
Ġblanch Ã¢tres
Ġdra me
Ġinnoc ence
ĠLuc ie
Ġflott aient
ĠdÃ©tach Ã©
Ġirr Ã©proch
Ġdesp ot
ĠU sher
Ġaugment er
Ġcreus Ã©e
endorm ait
Ġrepart ir
ĠÃ©pouvant Ã©e
ĠBer keley
Ġcoiff Ã©e
Ġmoqu ait
effor Ã§ai
ĠfÃ¢ch euse
Ġmassi fs
Ġprotest ant
ĠrÃ©gl Ã©
ĠpropriÃ©t aires
ĠprÃ©cipit aient
Ġpoul et
Ġbrut alitÃ©
Ġmut isme
Ġmord it
ĠTr ou
Ġcircul er
Ġressent iment
Ġaccueill it
Ġobt ained
Ġillus ions
Ġfoul ard
Ġactu ally
Ġhid eux
Ġgaill ards
Ġcraqu er
Ġabord er
ĠrÃ©gn er
Ġsculpt Ã©
Ġchans ons
ĠSc atcher
ĠvÃ©gÃ©t al
Ġnatural istes
entr ain
Ġhands ome
Ġ5 00
Ġtremp Ã©s
Ġmov ing
Ġsanglot ait
berg iste
ĠnÃ©glig Ã©
ĠgÃªn Ã©
instr uments
empÃª cha
Ġdict Ã©e
Ġcade aux
ĠbÃ©g aya
ĠrÃ©sign Ã©e
Ġtourb ill
Ġimprud ente
ĠdÃ®n Ã©
onf Ã©rence
ĠÃ©pargn er
ĠÃ©chant illon
Ġinfort une
ĠvÃ©n Ã©rable
Ġwrit ing
Ġmonot onie
Ġexh ib
impr udence
ĠGeorg es
Ġgil ets
irrit ait
Ġgorg es
entrepr endre
Ġfal aise
ĠfiÃ© vreux
Ġbouff Ã©es
Att ends
ĠdÃ©test able
Ã©tal ait
hÃ©rit ier
Ġfest in
Ġinsensible ment
Ġdrag ons
Ġemmen Ã©
Ġbavard age
St apleton
Ġmax imum
Ġfrott a
Ġfrott ait
Ġgrogn ement
inj ustice
Ġsach iez
Ġallem and
Ġrattr aper
Ġclois ons
Ġescap ed
Ġcic atrice
Ġrespir ant
hÃ´t esse
Ġsymb ole
Ġnarr ow
ĠvÃ©rif ier
apais er
Ġtiss u
ĠÃ©gypt iennes
Ġcabri olet
Ġperro quet
Ġfright ful
Ġnap oleons
ĠTer re
ĠÃ©merveill Ã©
Ġsuspic ion
PAR T
ĠMeu ng
ĠpÃ©nit ence
Ġbran le
Ġfurt ivement
Ġpalefr enier
Ġcigaret te
Ġponc tu
ĠpÃ©tr ole
Ġenferm Ã©s
harm onie
infortun Ã©
Ġtabou ret
Ġunfortun ate
Ġcho ose
Ġadvant age
Ġkang our
Ġdan ois
Ġfrigh tened
Ã©branl able
Ġfuc us
ĠbÃ©t ail
Ġcort Ã¨ge
Ġbaud rier
Ġmauss ade
Ġtabat iÃ¨re
ĠFridrikss on
Ġcid re
ĠcÃ©li bat
Ġgathe red
ĠMade leine
ĠScatcher d
; --
A GE
C ontin
E ux
I EN
M ieux
N anÃ§
P oint
R et
R Ã©p
S ignor
S eule
b ilitÃ©
c er
d ela
f Ã¨vre
g ar
h omie
k o
l s
l ind
m n
m Ã©tique
r av
r Ã¢t
s ur
u alitÃ©
Ġ ,
Ġ .
Ġd are
Ġd rive
Ġd awn
en glout
Ġp int
Ġp ique
Ġp ures
Ġp Ã¨se
Ġp ignons
Ġs ors
Ġs arc
Ġs ys
Ġs tern
Ġc ierges
re me
re rait
an Ã¨de
er ence
er land
Ġt ons
ent endant
Ġf iÃ¨rement
il uv
il ty
is olement
Ġv eau
Ġv ains
eu ne
el ves
Ġj uif
or ph
as ins
Ġr ation
Ġr ouss
Ġr ides
Ġr Ã©tablir
Ġh ach
Ġh oll
Ġh iÃ©r
Ã©t it
Ã©t iques
at oires
at iquement
Ã¨ nent
Ġg un
Ġg endre
Ġg ame
al er
al ph
al arme
elle ct
av o
av anÃ§aient
Ãª ques
ui gn
Ġpl ongeait
Ġpl ongeant
end er
end ur
Ġch ene
Ġdu rement
Ġpour voir
os tr
Ġce ased
ol le
am use
ĠM au
ĠM and
ĠM OI
ĠM endoza
Ġsur cro
Ġson der
Ã©p ais
Ġe arly
ig ue
ĠC reek
Ġgr ace
iv oire
ĠP Ã¢
Ġth rew
Ġal gues
Ã§ ais
ul Ã©e
ul ie
oy Ã©s
id ait
ge on
ill ers
ĠS and
ĠS pe
ĠS usse
ĠS elden
Ġent assement
Ġent Ãªtement
Ġcon vey
Ġcr ust
Ġfr ayer
Ġbr uis
Ġbr ille
Ġbr asses
Ġbr uns
ĠÃ© chÃ©
Ġar istoc
oul ait
ert y
ĠrÃ©p art
Ġat trait
iss ac
iss iez
ĠB un
ĠB rit
ĠD Ãī
tr Ã©
Ġcar til
ĠJ em
ĠJ uste
app Ã©tit
Ġpart agÃ©
all ing
Ġreg iment
Ġim par
ass aut
ĠG an
ĠG reat
Ġcont our
Ġcont ours
Ġcont ents
Qu inze
ace y
ĠI N
ĠI ci
Ġper vers
Ġtemp er
Ġcour bes
Ġdonn erez
ĠÃ©c ri
ĠÃ©c ossais
ail y
Ġmal Ã©diction
Ġbe ar
Ġcons ist
Ġtou ched
Ġatt ire
Ġatt aques
Ġatt elÃ©
Ġatt itudes
ĠÃ©p aiss
ĠÃ©p anou
ĠÃ©p reuves
Ġca hier
Ġentre prit
ett ons
Ġvoy agÃ©
Ġpos itions
Ġfer ions
Ġsent ez
ect or
ex iste
ex ercer
Ġcap ture
En t
omp ierre
Ġpers iennes
Ġeff arÃ©
Ġsec ourir
Ġtu iles
Ġad orable
Ġfl Ã©ch
Ġbon jour
Ġbon homie
ell erai
Ġcor v
Ġaff reusement
Ġst age
Ġbl Ãªme
Ġviv rait
Ã©m or
Ġsuiv Ã®mes
Ġaur as
Ġso bre
Ġsup reme
emb ourg
ud itÃ©
Ġavant ageux
Ġsal uÃ¨rent
Ġemp li
Ġemp arÃ©
Ġtomb es
Ġag ilitÃ©
Ġag ita
Ġver ges
Ã©ch o
tem p
Ġor ages
Ġor ange
Ġor nÃ©
Ġind ienne
Ġentend ions
Ġprom ettez
Ġfond Ã©
Ġoff rant
Ġsc arcely
Ġvit rÃ©e
acc outum
Ġgros si
ĠÃ©v itait
ĠÃ©v idente
ĠW ash
ult ure
Ġimp ul
Ġimp rimÃ©
Ġmad ly
Ġhas te
ĠdÃ©b r
ĠdÃ©b au
Ġaut eur
ĠdÃ©f av
ĠdÃ©f ier
ĠdÃ©f unt
Ġexp ected
Ġgen res
Ġreste rez
Ġinter p
ĠÃ©l oqu
arc ations
Ġgu ettait
Ġgu ilty
Ġpol ie
Ġmen Ã©e
Ġresp ire
Ġbar il
Ġextr Ãªmes
Ġcroy ance
Ġmor alitÃ©
ĠdÃ©v ore
ĠdÃ©v ote
Ġretourn Ã¨rent
iz ed
Ġgal ette
Ġgal ants
Ġquestion ner
oth ing
ache min
ind iquait
Ġtrans vers
Ġconsid Ã¨re
Ġbour ras
Ġprov ed
RE M
Ġtrait e
Ġbat ailles
Ġmour rai
Ġcourt ier
Ġsauv etage
Ġbri e
ars h
ignor ait
Ġdiv isÃ©
Ġcirc ons
Ġcirc onfÃ©rence
Ġpal et
Ġtromp Ã©s
ĠrÃ©g ime
Ġsac rist
ĠgÃ©nÃ©r ations
Ġgarde z
Ġpre ach
ĠdÃ©g agÃ©
Ġcoll Ã©e
Ġact eurs
Ġrempl issait
Ġfil Ã©
ĠX VI
?Â» --Â«
Ġcharg es
ĠRe garde
ĠÃ©clat ante
ĠdÃ©m Ã©n
ĠcrÃ© er
ĠcrÃ© anciers
IT Ãī
Ġsus ceptible
arch ipel
Ġrespect ueux
Ġparticul iÃ¨res
Ġeven ings
ĠK ent
ĠrÃ©pÃ©t ai
entre v
ĠsiÃ¨ ges
Ġchant iers
CH E
Ġsav ed
Ġoblig ation
Ġlis ez
eng ourd
ĠsÃ»r s
ĠÃ©n erv
Ġdisting uai
Ġcontent ait
Ġbonn ement
Ġeng aged
Ġtaille ur
Ġvin aigre
ĠSt ate
Ġlog ette
Ġsuppl Ã©ment
Ġimpr Ã©g
Ġvain queur
Ġsout ien
ĠprÃ©t endit
ĠprÃ©t entions
Ġbel ow
land aise
Ġhur l
ĠÃ©crit s
appel ais
Ġcord ial
Ġressembl er
Ġbaiss Ã©s
Ġz Ã©b
isc ara
Ġbre ath
Ġtal us
Ġber ger
Ġchass Ã©e
Ġriche ment
ĠgoÃ»t Ã©
Ġprend rai
Ġmag ique
Ġchange d
Ġchange ant
ĠmÃ©n agÃ©
Ġchois ie
ĠimmÃ©di at
olog ique
Ã¨g res
Ġfavor ite
Ġpoign et
Ġpoign Ã©es
Ġrecul ait
imagin ait
Ġglac iale
ĠrÃ©vol tÃ©
Ġconsc ien
Ġcondam nÃ©s
Ġembr assait
Ġut ilitÃ©
Ġut ilis
ĠcÃ©d ant
Ġbag uette
Ġbond issant
Ġparv inrent
ĠprÃ©cÃ©d ait
Ġcarri ole
Ġsacrif ices
Ġoppos ition
Ġcompos Ã©e
Ġrepouss ant
Ġaffect ait
Ġaffect ation
Ġrapproch Ã©e
Ġsab res
Ġsab bat
Ġruis s
Ġsuppose z
ĠlÃ¢ chait
ĠlÃ¢ chant
Ġpla Ã§ai
ĠAn t
quis ition
ru ct
Ġtress aille
AR D
ĠhÃ¢t ai
Ġamus ed
Ġretard er
ĠfrÃ©m ir
Ġrecev ant
Ġtaill er
IS E
Ġtas te
imm enses
Ġprud ente
ĠspÃ©c im
Ġgarn ison
Ġmouill Ã©s
Ġaccus ation
ĠdÃ©pos a
Ã©te ign
ĠdÃ©termin ation
ĠdÃ©pens Ã©
Ġinterv alle
Ġrejet ait
Ġsurveill ait
Ġinstinct ivement
ĠtÃ¢ chant
ĠhÃ´t ellerie
Ġassi Ã©g
Ġfamil iÃ¨re
Ġfan f
Ġread ing
ĠexÃ©cut Ã©
Avant age
by e
Â£ ,
Ġnob ility
Ġprat iques
ĠInd ien
Ã©clair ait
Ġperson al
Ġredoubl aient
Ġinform ations
Ġbox eurs
ĠdÃ©vor Ã©s
Ġcop ies
Ġmol lement
Ġbrut ale
Ġexact ly
Ġexact itude
ĠTr acey
Ġintrod uire
Ġprote ct
Ġreason able
sept iÃ¨me
Ġaccueill i
Ġadroit e
alis ed
Ġvulg ar
Ġvulg aires
Ġemploy Ã©e
Ġimb Ã©ciles
Ġrig ueur
Ġatro ces
Ġcrimin els
Ġvest ige
Ġaccabl Ã©e
amen a
Ġallong Ã©es
Ġinsp ire
Ġinsp ired
Ġcy lind
Ġdam as
Ġdam nÃ©
ugu en
Ġ5 0
Ġinvent Ã©
Ġtremp Ã©
ĠstupÃ©fait s
ĠdÃ©daign euse
Ġran k
ĠÃ©blou issant
Ġmai rie
ĠnÃ©glig emment
Ġtig res
ĠdÃ©sign ant
Ã©touff e
ĠdÃ©roul aient
aj oux
ĠpÃ¢t ur
Ġcharp entes
impos sible
ĠCol omb
Ġquad r
Ġpower ful
itz erland
ĠhaÃ¯ r
ĠrafraÃ®ch ir
Ġcand eur
Ġressort ir
ograph ique
Ġunderst ood
ĠconÃ§ ue
Ġsum mon
Ġcharb ons
Ġtouff es
Ġnett oyer
ĠCour t
Ġlead ing
ĠAs canio
ĠappÃ©t its
Ġslight est
IL L
entraÃ®n ait
Ġdaign Ã©
Ġbuis son
Ġsubs istance
ĠapprÃ©h ension
ĠHoll ande
Ġstud y
Ġemmen a
arl ier
Ġposit if
Ġrad ieux
Ġfrot tant
Ġgarant ir
ĠdÃ©bou chait
Ġpleuv ait
Ġimpertin ence
Ant in
Ġsurnature lle
Ġglor ieux
enfl am
Ġsor row
Ġrattr ap
Ġpeint ures
Ġpresby tÃ¨re
eron imo
Ġcarry ing
Ġreach ing
ĠFland ers
arrond issait
Ġsett led
ĠprÃ©l at
Ã©larg issait
Ġfair ly
Ġronfl ait
ĠCast anÃ¨de
Ġinsouci ance
ĠirrÃ© v
Ġful ly
ĠhÃ©roÃ¯ que
Ã©trang ler
Ġmodest ie
Fin ally
Per le
Ġmouss eline
Ġhospit al
ĠAuc un
ĠAuc une
ĠIm possible
Ġstair case
Ġnoeu d
Ġnoeu ds
Ġcordi alitÃ©
Ã¶ r
Ġidi ot
Ġaccomp an
Ġinfern ale
entreten ait
Ġbored om
Ġsanc tu
Ġcribl age
ĠexpÃ©ri ment
Ġsyll abe
ĠDuc a
Ġnonchal amment
Ġslow ly
ĠLombard y
ĠCo ombe
ĠMer ri
Ġgalib ots
iÃ©n arde
Ġdro ve
ĠchÃ¢ ss
ĠDÃ©s ir
ĠMarsh al
Ġalar med
ĠSw itzerland
Ġvirt ue
Ġlor gn
Ġflui de
Ly dia
ĠDire ction
imprimer ie
ĠGiov ann
ĠtÃ©t ras
prÃ©f et
Ġcouver cle
Ġinfatig able
jut or
Ġgaol ers
Ġsod ium
Ġbic ycl
ĠLux embourg
ĠBÃ©th une
Ġtentac ules
ĠirrÃ©proch able
NanÃ§ ay
Ġsurcro Ã®t
ĠSpe edy
Ġbicycl ette
A xel
B el
B uckingham
D iable
E die
G rivet
G enev
H aut
J ames
L oin
L aisse
N Ã©grel
S ire
T a
T Ãī
b i
c Ã©
d on
d ing
e ply
g nez
h m
h es
i our
i ast
k a
l ation
l ow
p oint
r ui
r Ã¨te
s alle
s ouris
u ets
u ted
v ing
w orth
z ag
Ã Ļ
Ġ ice
Ġl od
Ġl iter
Ġl onge
en berg
ai mÃ©e
Ġp Ã¨res
Ġs els
ou tre
ou lements
on ade
Ġc red
Ġc lever
re ad
qu ent
an al
Ġm Ã©g
Ġm iel
Ġde g
Ġde fin
Ġde eply
Ġt in
Ġt ille
Ġt urent
in iers
Ġf ui
Ġf inger
ar o
ar in
is Ã©es
it ables
Ġn as
Ġn ois
Ġn oix
eu ve
Ġb ot
Ġb org
el ets
Ġj on
Ġj aillit
as tres
Ġr ust
Ġr ule
Ġr yth
ous seau
ant iÃ¨me
Ġh at
Ġh uguen
Ã©t able
Ã©t ang
ur ique
ir st
Ã¨ dent
Ġg ourde
Ġg onds
Ġpr oue
ch ing
Ġpar aissez
Ġau m
Ġau ber
av age
Ġtr aqu
Ġtr appes
Ġtr ombe
Ġune as
Ġch opes
Ġch Ãªnes
ab sent
Ġin k
Ġin anim
Ġin ext
Ġin Ã©puisable
Ġw id
Ġw ore
Ġw arm
os p
onn ette
onn erait
onn aissez
Ġce int
ol ent
ĠM ac
ut enberg
Ã©c he
Ã©c oute
im on
ig o
ig zag
Ġan neaux
Ġan fract
uis ed
ot ant
Ġgr Ã¨s
ad ieu
ad ouc
ĠP er
ĠP itt
Ã©r on
Ã©r Ã©ment
ĠS ing
ĠS oci
ĠL anc
ĠL iÃ©narde
Ġent rem
Ġent iers
Ġent rouv
Ġent assÃ©s
Ġbr um
Ġbr aise
Ġex ch
Ġar cs
ĠA ub
ĠA pres
ĠA pp
Ġser en
Ġdev raient
ĠrÃ©p rim
Ġas king
ay es
ay ed
che z
ĠB en
ĠB isc
op odes
ang lant
aiss ons
Ġcar af
Ġhe avy
Ġam arr
ĠJ usqu
ĠJ uif
Ġpart irait
Ġpart Ã®mes
ĠR oad
ĠR alph
um s
ĠG eronimo
ĠG utenberg
if iquement
anc ier
ĠrÃ© verb
Ã©n ith
Ġjus ant
art ifice
art illerie
Ġmes d
ĠV ani
Ġper cepteur
Ġrem ue
ra ted
Ġpoint u
Ã©d ictions
Ã©d iluv
Ġapp Ã¢t
Ġapp ointements
Ã©g oÃ¯sme
Ġsem er
Ġab as
Ġab rup
Ġab ritÃ©
ich Ã©
Ġatt ira
ĠÃ©p in
Ġret ired
Ġfort h
Ġmoment anÃ©ment
Ġsou bre
Ġsou cieux
Ġrepr oach
iÃ¨ ve
Ġmont rÃ©e
omp tion
asse d
Ġvoul ions
Ġtu erait
arr estation
Ġlaiss Ã¢mes
Ġacc orde
Ġco te
Ġfl an
ell a
ell erait
Ġcou dre
Ġfin issaient
Ġsort ent
Ġit alien
Ġst ick
Ġarriv Ã¢t
Ġchar ri
ĠmaÃ® tr
Ġsal ade
Ġsour iante
tant in
Ġemp arer
Ġserv ed
Ġtomb ent
Ġag itant
Ġconv ert
Ġconv ention
Ġconv iendrait
ĠdÃ©t ra
Ġinc ur
Ġinc omm
Ġsh ocked
inc es
inc on
Ġhab iles
Ġhab iletÃ©
Ġmort ellement
imp otente
Ġsouv enez
Ġmis fortune
ib us
Ġind ici
Ġind Ã©cis
Ġins u
Ġins ur
Ġcan aille
Ġbras ier
Ġliv ra
Ġreconn aissez
ah abad
Ġappr ovision
Ġappr oached
Ġvit rage
Ġesp aces
Ġimp rimer
fait es
Ġjou eur
Ġrep ose
!Â» --
Ġimm ens
Ã©v ÃªchÃ©
ĠÃ©ch ou
ĠdÃ©b and
Ġexc it
Ġexc usez
Ġdo ors
Ġdroit es
Ġcompl ices
Ġann oyed
Ġvi andes
ĠÃ©l oquence
ĠprÃ©sent Ã©e
Ġgre y
Ġgre lot
enf u
Ġemb ras
Ġsurpr enait
ĠrÃ©c iter
ĠÃ©g arÃ©s
ĠÃ©g ratign
ĠChar pentier
Ġinf am
Ġinf id
Ġhor loge
Ġram ures
Ġsign or
Ġinv itÃ©e
Ġforce d
oss a
Ġmanqu era
ind ustrie
Ġtrans c
Ġcouv rant
Ġdisc ontin
Ġappar ent
Ġviol ences
hab illait
hab illa
hab illai
Ġfix itÃ©
Ġpare r
Ġus ages
Ġpartir ai
ignor ance
Ġcru els
Ġrapid ly
anÃ§ ais
ĠgÃ©nÃ©r aux
ĠconsidÃ©r ations
Ġform ation
Ġform Ã¨rent
Ġfav eurs
Ġrencont rent
Ġrencont rant
Ġmontre z
Ġnu Ã©es
Ġtir aient
Ġdemeur Ã©e
Ġthan ks
Ġif s
ĠaperÃ§ Ã»mes
Ġcommun ications
ys er
ĠRe publ
Ġmarch ing
Ġroug is
Ġremont aient
Ġdorm is
Ġdorm ant
entend ez
Ġtend aient
Ġtort ures
ann onÃ§ait
Ġhal les
Ġapport Ã©e
Ġapport Ã©s
Ġapport Ã©es
Ġray onnement
Ġimport antes
expl iqua
Ġarriver ent
In st
In utile
In ternationale
eng ouff
Ġattend ais
Ġattend ri
Ġimagin ations
Ġnour rit
Ġcanot iers
Ġforc Ã©ment
Ġdescend ions
Ġcad ran
Ġlog eur
Ġconc ession
Ġroul is
ĠÃ©chapp a
Ġaig uis
Ġreconnaiss ais
Ã¢che z
Ġaim aient
Ã©tr anges
Ġspe ed
Ġdim anches
Ġrej oind
Ġart icles
Ġgui des
Ġz igzag
Ġz Ã©nith
Ġbre aking
Ġchaud iÃ¨re
Ġdout a
Ġtal on
Ġsusp endre
Ġber ges
Ġappe ars
Ġthr ust
Ġres ol
Ġprend ra
Ġcle arly
Ġfriss onna
Ġpes ante
Ġvict imes
Ġraisonn ables
aband onne
aband onna
Ġallum ettes
empl oyÃ©
ĠrÃ©serv oir
Ġhard is
Ġthin ks
Ġhun ter
Ġsignal Ã©
ĠBr ay
Ġsouffr ante
ĠLouis a
Ġais ance
ĠcÃ©d ait
Ġant Ã©rieure
Ġfi anÃ§
Ġbag ues
ĠÃ©tud iant
Ġretir Ã©s
Ġsacrif iÃ©
Ġoppos er
ionn aires
Ġname d
Ġgrim per
Ġfabri que
Ġfabri quÃ©
Ġmang ent
Ġsuppose d
ĠÃ©cras er
ĠentraÃ®n Ã©e
Ġplong Ã©s
Ġproduis aient
Ġentour aient
Ġaveu gles
Ġretur ning
Ġphysion om
Ġmas qu
ĠAn n
Ġpiqu ait
Ġinj ur
Ġrepar u
Ġretent irent
Ġretent issement
ĠprÃ©occup er
Ġrose aux
inv iter
ash ire
imm ob
Ġabond antes
ĠdÃ©tourn Ã©
Ġcomplet ement
ĠintÃ©ress Ã©
ĠrÃ©vÃ©l Ã©
Ġsalut aire
Ġgrond ait
Ġrequ ire
IN S
Ġtonn es
ĠdÃ©chir ant
Ġinterv int
Ġinterv ention
ĠsÃ©d uction
Ġnew sp
Ġexpos er
Ġpleas ed
Ġfeel ings
Ġregagn ai
Ġregagn Ã©
Ġcontinue z
Ġrenv oya
Ġmanif ester
Ġcoiff ure
Ġraf ale
Ġnage oire
Ã©prouv e
ĠItal ie
Ġaspect s
appe lez
Ġcabaret ier
Ġrede venu
Cl aude
Ã©veill ait
Ġintrod uisit
ĠdÃ©sagrÃ© ables
Ġressent ait
ĠsuccÃ©d Ã©
Ġvid a
Ġvid ait
abatt it
Ġprolong Ã©e
Ġdor Ã©es
ĠgrÃ© ement
Ġsouci ait
Ġprovoqu Ã©
Ġcrimin elle
Ġorgan isÃ©
Ġabatt us
Ġcli quet
accompl issement
Ġsplend eur
Ġhid ing
Ġaid ant
Ġboy au
Ġabord Ã©
Ġphilosoph es
honn ÃªtetÃ©
ĠvÃ©gÃ©t aux
Ġmob iles
accus ation
Se igneur
Ġrefl ux
Ġdirig Ã©
ĠFrank land
Ġinvent er
Ġfun Ã¨bre
ĠchrÃ©t ienne
Ġlap ins
asc ension
Ġembarqu er
ĠmÃ©can isme
ĠindiffÃ©r ente
Ã©rup tion
Ġfuy aient
Ġraid es
Ġraid eur
Ġinexpl icables
Ġuse ful
Ġcong Ã©n
Ġexerc er
ĠbÃ©g ayait
ĠjÃ©s uites
ĠcoÃ»t a
Ġadop ted
ĠbÃ© ante
Ġbourd onnement
Ġcann ib
habit ants
ĠhÃ©rit ier
Ġviend raient
Ġclaqu aient
Ġaffirm ant
Ġextreme ment
ĠingÃ©n ieux
Ġstre t
ĠrÃ´ der
apl at
Ġsulf urique
Ã¨ner ai
impr Ã©v
ĠÃ©che c
Ã©puis ement
Ġmaint ien
Ġprononc Ã©e
Ġsouterr ain
Ġnett etÃ©
ĠdÃ©sespÃ©r Ã©ment
ĠdÃ©rob er
Ġempris onnÃ©
Ġreproch ait
Ġsain tes
Ġsie ge
Ġhav eur
ĠFlor entin
Ġaccroup ie
Ġgriff e
ĠIs landais
ĠKing ston
Ġpige on
Ġboit eux
Ġchoqu Ã©
affir me
Ġquotid ien
Ġquotid ienne
Ġmajest ueusement
Ġbott ines
Ġhu Ã©es
Ġpeupl iers
ĠgrossiÃ¨re ment
Ġhypoth Ã¨se
Ġralent it
Ġcontrib uÃ©
Ġenfonc Ã©e
Ġbreak f
ĠBour bon
Ġconsomm ation
Ġpup itre
Ġhall uc
Ġchron omÃ¨tre
ĠdÃ©pour v
ĠdÃ©pour vu
aÃ©r age
ĠFland re
ĠflÃ©t rie
Ġvitr ines
Ġbienfait eur
Ġessuy Ã©
ĠanÃ©ant i
Ġcarref ours
Ġcorbe illes
hÃ´t ellerie
Ġsport s
Ġrept ile
Ġrept iles
look ing
Pard ieu
Ġassaill ants
Ġexplor ateurs
Ġconsequ ence
ĠsÃ©minar iste
ĠsÃ©minar istes
Ġquadrup Ã¨des
kor o
Ġclient Ã¨le
Ġrh ume
ĠMorm on
ĠVern on
Ġadvance d
Ġinfir me
ĠlittÃ©r ature
ĠdÃ©cis if
lys Ã©es
Ġredou blement
ĠCons tantin
ĠAss urÃ©ment
ĠscÃ©lÃ©r at
IÃĪ ME
Ġhame au
ĠchÃ©t ive
ĠVict oire
Ġtuy au
ĠCorinth iens
Ġanecd otes
Ġhumil iÃ©
Ġcondesc end
Ġaudit eurs
Ġcontrai res
Ġsteam ers
ĠchÃ´ m
ĠBe ausire
ĠBern ajoux
Ġimperturb able
Ġstrat ag
Ġhurrah s
sect es
ensuiv it
Ġmilli ards
Ġinopin Ã©ment
Ġcorb eaux
ĠFerr ara
ĠMoul in
Ġcram ois
Ġdiab olique
ĠprÃ©al ablement
accr oup
Ġdoci le
Vict or
ĠCoad jutor
incert itude
ĠPÃ¢ ques
ĠWash ington
Genev iÃ¨ve
Ġborg ne
Ġauber ges
ĠLanc ashire
ĠVani koro
) ;
C our
F ouquÃ©
H Ã©
H on
H aving
H olÃł
I G
L entement
L IV
O rient
S ource
S tream
U N
U NE
V al
V ite
a ust
a quet
b ing
b ury
c ope
f all
g ue
g lement
h auss
h Ã´pital
i pr
i aux
k ins
l u
m y
m ante
n on
n otes
o tement
o quet
p et
r os
r ence
s our
u ous
u ine
u pl
v etÃ©
w ood
Ġ Åĵuvres
Ġd ose
Ġd ense
Ġl oud
en sez
en sibles
en quÃªte
ai ment
Ã© bÃ©
Ġp este
Ġp aires
Ġp iles
Ġp oindre
Ġp aÃ¯
Ġp ias
Ġs uites
Ġc i
Ġc ite
Ġc uill
qu ier
an Ã©ant
Ġde cide
er d
Ġt yp
in ah
ar che
ar pe
is si
is ely
is las
it o
it ecte
Ġn arqu
Ġn ager
Ġv or
Ġv endit
Ġla ud
Ġb ours
Ġb if
Ġb Ã©l
Ġb aume
or ique
or raine
âĢĻ Â«
om on
Ġun ie
us ac
Ã©t ain
Ã©t ernel
ur opÃ©
ur rah
Ġen h
Ġen quÃªte
ir t
ir ont
ir ate
at hed
Ã¨ ges
Ġav are
Ġav ancÃ©s
Ġg ant
Ġg ues
Ġg asp
Ġg lycÃ©rine
Ġre but
Ġre ceive
Ġpr Ãªtes
Ġpr iant
Ġpr ologue
al lem
ch ief
Ġpar apl
est iboud
ĠÃ©t ang
ag asin
Ġpl iÃ©e
Ġtr anches
Ġtr Ã©b
Ġtr Ã©te
end ing
out ils
and a
Ġch av
Ġch oux
ouv oir
Ġpour ras
Ġin intellig
Ġin Ã©branlable
Ġw ors
os en
os ai
ons hire
am onde
ĠM oir
ĠM oin
ĠM ille
ĠM ex
ĠM oor
Ġme ant
ut s
de z
Ã©c onomie
Ã©p endant
Ġe arlier
ĠC avaliere
Ġan te
Ġgr illes
ad i
ad er
Ġmon arch
iv ant
iv ert
ĠP Ã¨re
Ã©r ables
Ã¢ cle
ill ais
ĠS te
ĠS atan
ĠL ieu
ĠL ouise
Ã´ ve
Ġpro x
Ġcr urent
Ġcr iniÃ¨re
Ġcr ochet
Ġbr aqu
Ġbr oche
Ġbr Ã¨che
emp oign
Ġex ister
Ġex Ã©cr
oul a
ore illes
ĠA rt
Ġdev otion
ĠrÃ©p it
aut or
aut rui
iss ures
Ġmar ble
ĠB or
ĠB ass
ĠB uns
ĠB urns
ĠD anton
Ġall ures
ĠF eu
ĠF ort
aiss er
Ġam user
Ġam oureuses
ed ing
Ġpass ablement
ĠJ os
ĠJ ustement
ĠN Ã©anmoins
ĠN icolas
omb rage
st airs
Ġim mergÃ©
ass ade
ĠR u
ĠR iscara
ĠR ousseau
ĠG i
ĠG and
ĠG alles
ĠG reen
ĠG udule
air ain
Ġtrouv Ã¢t
if t
if ici
Ġcont Ã©
Ġcont enaient
ĠrÃ© b
ĠrÃ© veille
Ã©n Ã©
rent e
Ġman ants
Ġman uf
ĠH ill
Ġrem uÃ©
ĠT e
ĠT an
Ġdemand ent
Ġbe aring
Ġcons ter
Ġcons cious
Ã©d Ã©
Ġenf ui
Ġenf oncer
Ġenf onÃ§a
Ġcomm ande
Ġdi agon
Ã©ri ques
Ġab oyer
ĠÃ©p ris
Ġai le
ĠO lympe
ĠO ÃĻ
Ġsou de
Ġpos ai
Ġpos tÃ©
Ġpos sib
ro be
Ġsent ences
ex act
Ġcl oud
att irer
Ġvers Ã©
Ġpers ons
Ġpers istance
ins omnie
Ġeff ond
Ġvis a
Ġrest ions
Ġtu ai
og ly
Ġad h
Ġad olesc
Ġheur ta
urs day
Ġcor aux
Ġnot er
Ġnot able
Ġint ended
Ġint ellect
ĠdÃ©p assaient
.Â» --Â«
Ġmot ion
Ġten iez
ĠrÃ©s erver
ĠrÃ©s ulter
Ġsuiv ais
Ġemp ty
ĠprÃ©s ume
Ġchev illes
Ġag gr
Ġag onie
Ġag uets
Ġcompr enaient
Ġconv iens
Ġrev oyait
Ġnom ma
Ġnom mÃ©e
Ġver rais
act ivitÃ©
Ġsp as
Ġouv rez
Ġsh out
Ġsh ud
Ġvol aient
Ġvol Ã©es
Ġvol aille
imp ertin
aud ience
Ġind ist
Ġind Ã©pend
Ġind ignÃ©
Ġind Ã©pendant
ĠâĢĵ ,
Ġrais e
Ġins iste
Ġprom Ã¨ne
Ġfond ait
Ġliv rait
Ġmil itaires
ah usac
Ġoff raient
Ġoff ices
Ġappr ouver
Ġparler ait
Ġsouff rais
Ġbut te
Ġcal mÃ©
Ġbas alt
ĠÃ©v adÃ©
ĠQu els
Ġren ards
Ġlev aient
Ġlev iers
Ġimp un
Ġimp ie
Ġimp ud
Ġdist ri
Ġtourn ai
ĠÃ©cl aire
Ġrep orted
Ġvent ured
Ã©v ation
Ġdix iÃ¨mes
ĠdÃ©b Ã¢cle
Ġdo zen
abord er
Ġbois Ã©e
ĠdÃ©f orm
Ġcompl iqu
Ġens anglant
enf erm
Ġemb au
Ġemb ouchure
Ġemb arcations
Ġta kes
Ġpol y
Ġop ul
Ġop aque
ĠrÃ©c ipr
Ġresp ecte
Ġajout Ã©
ĠÃ©g ay
ĠÃ©g arÃ©e
ĠdÃ©l ab
ĠÃ¢ pre
Ġrel ief
Ġress ac
Ġinf ailli
Ġinf amie
Ġram Ã¨ne
Ġram pes
Ġcur Ã©s
Ġinv ol
Ġac cep
ind er
Ġsole mn
Ġbour reaux
Ġexpl ain
ĠTh ursday
ĠSaint s
Ġdess ins
Ġtri ang
Ġprov inces
hab its
Ġpen cher
Ġadm ire
Ġtrait a
Ġfix Ã¨rent
ĠreÃ§ urent
Ġdernier es
Ġbat iste
Ġmouv oir
Ġoubl i
Ġoubl ie
Ġdr opp
ĠdÃ©couv re
Ġbri oche
Ġanim ait
Ġproc urÃ©
Ġmurm ures
ĠrÃ©g iments
ĠmÃ©d iter
ĠmÃ©d itation
Ġplac ide
Ġcommenc ent
ak s
ĠmÃª lÃ©s
Ġbatt ante
ĠprÃªt Ã©
ĠprÃªt ait
az ur
Ġrefus ez
Ġpre ter
Ġlut tait
ĠdÃ©g agea
Ġconven ue
Ġnu Ã©e
Ġretour nez
Ġaband onnant
Ġaband onnÃ©es
Ġfront ier
Ġble me
ĠdÃ©m ons
ĠcrÃ© neaux
Ġtend us
Ġtend ance
Ġrespect ueuse
Ġfle d
aig le
aig uill
Ġlam beau
oubl i
Ġchant a
Ġchant aient
assi ers
Ġgrav ures
Ġimport ants
Ġanc Ãªtres
ĠthÃ© Ã¢tres
Ġcav itÃ©
Ġcav itÃ©s
eng age
ĠÃ©n um
Ġdisting uÃ©e
Ġtap ait
Ġmus c
Ġmarche pied
Ġshould er
ĠsÃ©par ent
ĠmisÃ©r ablement
Ġemport a
Ġlog Ã©
Ġdanger ous
Ġconst able
Ġcompt aient
Ġmou e
Ġpoit rines
Ġmet tra
ĠtÃ©m Ã©raire
ĠÃ©chapp Ã©e
Ġspect acles
ĠprÃ©f Ã©ra
ĠagrÃ© ment
Ġsout enaient
ĠPl ace
Ġlibert in
Ã©chapp e
Ġhur t
Ġart ifici
Ġcord ages
Ġprot ester
Ġcharge d
Ġchaud ieres
Ġprincip ales
ĠrÃ©un i
ĠrÃ©un ies
Ġsusp endues
Ġwor king
Ġveu illez
Ġfourn aise
Ġchass ant
Ġthr own
Ġmeur ent
Ġmag asins
Ġrelig ieuses
Ġsouhait Ã©
Ġsouhait ais
extr avag
Ġaccompagn Ã©s
Ġbi jou
Ġconduis ant
Ġvig il
empl acement
Ġsm art
Ã©lev ant
Ġdisp ute
Ġdisp enser
Ġbourgeois es
Ġhun g
Ġglac Ã©s
Ġglac Ã©es
ĠÃ©b rÃ©
Ġembr assÃ©
Ġcit oyen
Ġant Ã©diluv
ĠfraÃ® ch
Ġaffir mait
Ġpot asse
Ġbag at
Ġbag age
Ġaigu ille
Ġgalop ait
ĠsÃ©v Ã¨res
Ġsiff lait
Ġthrough out
ĠPuis que
Ġrenvers Ã©s
ĠÃ©cras ant
Ġservi ettes
den ly
Ġpous si
Ġentour Ã©s
Ġpla Ã§ait
Ġpiqu a
Ġaccept ait
Ġcalcul Ã©
ĠfranÃ§ais es
Ġsatisfait s
Ġvole use
Ġattr ist
ĠdÃ©tr uite
accord ait
Ġretent ir
Ġretent issait
Ġfre res
Ġprouv a
ĠprÃ©occup ait
Ġtaill Ã©
Ġball et
Ġarch idiacre
effr ayait
Ġaccus ations
Ġgrond a
Ġgrond ant
Ġgrond ements
ĠpÃ©r ils
enfer ma
Ġhauss ait
Ġbruy ant
ĠhÃ´t esse
Ġrom ane
Ġverd Ã¢tre
Ġassi Ã©ge
Ġfamil iÃ¨rement
Ġcomprom ise
ĠmÃ¢t ure
ĠgÃ©nÃ© reusement
Ġprat iquer
Ġprat iquÃ©
Ġaccour aient
ĠÃ©lÃ©g ance
Ġthir teen
Ġrenv oyÃ©
Ġperc Ã©e
Ġcoiff e
Ġperson age
obl igeait
Ġattaqu a
ext ase
Ġcare ful
Ġcaval ry
................ ................
Cl oud
Ġpoul pes
Ġmoul ins
Ġassure d
ĠempÃª che
Ġvid Ã©
Ġing Ã©nieur
Entre z
Ġarrang ements
Ġincess ante
Ġremerci ai
Ġvari Ã©es
Ġvari Ã©tÃ©s
Ġcli ents
Ġparven ue
Ġaffl iction
Ġfoot man
ĠaÃ®n Ã©es
Ġcraqu ait
Ġcraqu aient
Ġvolup tÃ©s
ĠrÃ©fug iÃ©
Ġsculpt ure
Ġvil aine
ĠÃ©cart ant
Ġbanqu ier
Ġtranch ait
Ġencour ager
Ġimpatient e
ivid us
Ġindis pos
EU X
ĠdÃ©licat esses
ĠdÃ©daign eux
of ond
ĠÃ©coul Ã©es
puiss ant
ĠnÃ©glig ence
ĠdÃ©sign Ã©
Ġfuy ant
Ġclim ats
attach ait
Ġexpri ma
ĠÃ©change aient
interro ge
Ġcrev Ã©
Ġaval Ã©
ĠgÃ©m issements
ows ko
Ġmarri ed
Ġsend ing
Ġclaqu er
Pres ently
Ġinfort unes
Ġaffirm atif
Ġfas tened
Ġneu ves
Ġharm onie
ĠThe y
Ġtouff e
ĠÃ©rup t
Ġprononc Ã©s
Ġsouterr ains
ĠminÃ©r alog
appart enait
IL LE
Ġbur ning
ĠAnd ry
Ġinterest s
Ġland l
Ġtart ines
Ġench antement
Ġenflam mÃ©
Ġsuccess eur
Ġposit ive
abaiss er
Ġcombatt ants
hyp oth
Ġcarn et
affir mer
Ġrug issement
Ġgarant ie
Ġcontrar iÃ©
Ġcuv ette
Ġenfonc Ã©s
Ġorn ement
Ġorn ements
ĠdÃ©bou cher
Ġallem ande
ĠrÃ´t i
Ġaffam Ã©s
Ġemporte ment
Ġpup ille
Ġpomm ettes
Ġtit le
Ġtransm ettre
Ġbisc uit
appliqu er
Ġfauss es
ĠvÃ©h icule
Ġboud oir
Ġranim a
ĠimprÃ©v ue
Ġfield s
Ġtais aient
Ġfic elle
Ġvant er
ĠMir acles
accabl ait
Ġcerc les
Ġramp ant
Ġinvari ablement
Ġmeubl Ã©e
ĠpÃ©trif iÃ©
Ġclimb ed
Be fore
Ġconce al
ĠVic ar
Ġcommunic atif
ĠidÃ© al
ĠrÃ©chauff er
Ġpaill asse
Ġaz otique
Ġcharret tes
ĠborÃ© ales
Ġintr Ã©p
Ġperro quets
Ġsatisfais ante
kor ff
Ġari de
Pouv ez
ĠDou bs
Ġcompatri otes
Ġsuccomb Ã©
Ġconcern ait
Ġinsuffis ante
inn oc
Ġfert ile
Ġinstitut rice
Ġassomm Ã©
Ġvern is
accrois sait
Ġcontrari Ã©tÃ©
ĠMus Ã©um
Ġconvoit ise
Ġremark able
Ġgrelott ait
Ġfes ait
ĠFont ana
Ġperru que
Ġambassad eurs
Ġsli p
Ġexal tÃ©
ĠcÃ©rÃ©mon ies
ĠpiÃ©tin ement
Ġcool ness
Ġcorri ger
Ġverm oul
incr Ã©dulitÃ©
Ġbasal te
ĠAmÃ©ric ains
Mont morency
Ġpluv ieuse
Ġcachal ots
ĠDev onshire
Ġincompar able
Ġtex te
phy x
ĠPAS SE
ĠRuss ie
ĠhermÃ©t iquement
Ġanxi ety
ĠsÃ©pul cre
Ġtie de
Ġexper ience
hospit alitÃ©
ĠDo ctor
ĠStan islas
Ġkangour ous
ĠSusse x
ĠirrÃ©v oc
ĠchÃ¢ss is
Ġsoubre tte
enfu irent
ĠfianÃ§ ailles
Ġcliquet is
Ġbreakf ast
ĠConstantin ople
Ġpias tres
Ġgues sed
allem and
Ġparapl uie
estiboud ois
ĠMoir od
ĠBass ompierre
Ġmanuf act
! '
1 5
A B
A LE
C ompr
D Ã©p
F F
G G
G arde
G raÃ¼ben
I R
J uste
L uc
L ook
M ou
M aman
N aturellement
N othing
P le
R assi
R asseneur
T rouv
T ristan
Z acharie
a Ã§aient
b ack
c tement
d im
h l
h all
i aires
k ir
l im
l ight
m ine
m ars
m Ã©di
o an
s et
s or
t ah
u gn
u ettes
v in
x ton
y eux
Ġ ul
Ġ Ã´te
Ġ omn
Ġd une
Ġd ust
Ġd resse
Ġd Ã´me
Ġd ashed
Ġl ith
Ġl och
Ġl ierre
en ions
ai les
Ã© ole
Ã© veil
Ġp ond
Ġp ieuse
Ġp ires
Ġp ector
Ġs oute
Ġs onne
Ġs illons
ou chÃ©
Ġc ords
an o
an um
Ġm ast
Ġm ousses
Ġm igr
Ġde li
er reur
Ġt ienne
Ġt yr
Ġt ired
Ġqu Ãªte
et Ã©es
in alement
in vent
in ded
in ox
in quisiteur
le ve
le urer
Ġf out
Ġf ired
Ġf ault
il iers
il ib
ar at
is oire
Ġn ageait
Ġn uditÃ©
Ġv oire
Ġv ind
Ġv ast
eu blement
un o
Ġb it
Ġb ore
Ġb erc
el as
el aient
Ġj aillir
or ous
or ps
or ger
or ia
Ġr ain
Ġr ot
Ġr Ã©cri
Ġr ach
Ġun n
Ġun anime
ous t
ous ed
Ġh es
Ġh ait
Ġh ommage
us tre
Ã©t re
Ġles tement
Ġg ay
Ġg ouss
Ġg amb
Ġg oud
Ġg isant
Ġre treat
Ġpr ide
Ġpr Ã©dit
Ġpar us
Ġpar aisse
Ġpas sive
ri ght
ĠÃ©t oil
ag o
ag gr
Ġo t
Ġo se
se yez
Ġtr af
Ġch ief
Ġdu ll
Ġdu vet
ont en
ab rit
Ġin flu
Ġin temp
Ġin sectes
Ġw ide
Ġw anted
ie vre
onn eux
Ã©s ar
ĠM or
ĠM ON
ĠM aug
ec ch
ap es
Ġson d
Ã©p ines
Ġe ar
im a
im Ã¨tres
Ġsa f
ing Ã©n
ac ted
ĠC R
ĠC as
ĠC ad
ĠC op
ĠC omp
ĠC ler
ĠC inq
ĠC Ã©line
Ġan th
uis h
ot tÃ©
Ġgr ose
Ġgr ange
Ġgr own
Ġgr appes
Ġgr ogna
ad op
ad vers
ic ie
iv ait
ĠP R
ĠP ouv
ĠP ied
ĠP ousse
ĠP alla
Ġal ter
Ġbien fais
Ġon es
ul Ã©s
oy antes
ill ent
ill iers
ĠL issac
ĠdÃ© rive
Ġent rent
Ġdis ple
Ã´ nes
Ġpro ches
Ġcon quÃ©rir
Ġcr oient
Ġfr onc
Ġfr Ã©n
Ġbr in
Ġbr Ã©v
Ġbr ains
Ġbr own
Ġbr ises
ĠÃ© minence
Ġar retÃ©
Ġar abes
ĠA p
ĠA th
ĠA mi
Ġser ve
iss ables
ay aient
Ġmar is
Ġmar ks
ĠD ub
Ġall Ã¢t
Ġall ongeait
ang aÃ¯
ĠF l
ĠF ig
ĠF oss
ĠF ern
ĠF ox
aiss Ã©
Ġcar rÃ©es
Ġam usement
Ġam az
Ġam aig
Ġam iral
app ed
Ġpart ner
ĠN Ã¨gres
Ġenc ombre
anc iens
ign a
ign itÃ©
ĠI rlande
Ġman age
ĠV in
ĠV au
ĠV oila
Ġper n
ĠH orn
ĠH eureusement
Ġrem part
ĠT imes
Ġdonn ais
Ġdonn ons
Ġdemand Ã©e
Ġfem elle
Ġcons p
Ġcomp are
Ġcomp lex
Ġcomp arer
Ġcomp osed
Ġcomp rimÃ©
Ã©g al
Ġsem elle
Ġjam bon
Ġab st
Ġab hor
Ġsous c
ĠdÃ©s honneur
Ġrec alled
ĠdÃ©c rit
ĠdÃ©c onten
ett ais
ĠO xford
Ġpos tes
Ġparl ions
Ġfer rÃ©s
Ġsent ent
ex pos
ex ist
ex ige
Ġcap ote
En v
Ġport ugais
Ġcl out
Ġcl ap
Ġcl ouÃ©
Ã©l anÃ§ant
ins truction
ins olence
Ġeff acer
Ġeff arÃ©e
Ġrest ent
oc oc
Ġtu Ã©e
Ġtu be
arr ang
Ġad orait
Ġcol la
Ġcri es
Ġpe in
Ġcou rez
Ġprof itant
ĠdÃ©p assa
ret tes
Ġst orm
Ġmin istres
Ġbl ue
Ġviv if
Ġviv antes
Ġsuiv ions
Ġchar pent
emb ranchement
Ġple ur
ĠCh ut
ĠCh urch
Ġserv itude
Ġass ura
Ġag iles
Ġrev ois
Ġrev iennent
Ġver ve
Ġsp ot
Ã©ch ine
Ġouv raient
Ġinc ompl
aill Ã©e
Ġgl aÃ§a
Ġor nÃ©e
Ġor nÃ©s
Ġconf Ã©rence
Ġconf itures
Ġind ien
Ġins ais
Ġfond Ã©e
Ġfou ett
Ġmatin ale
Ġsc r
Ġappr oches
Ġparler ai
appr Ã©h
acc ueil
Ġref ait
Ġren ard
Ġren verse
ourd in
Ġcrois a
Ġcrois aient
Ġimp rim
Ġcompagn es
Ġcompagn ies
Ġtourn Ã¨rent
Ġfus ion
ĠÃ©cl abouss
De bout
ĠÃ©ch os
Ġdix iÃ¨me
Ġbois seaux
Ġprop ice
Ġprop erty
Ġrou ille
Ġexp ert
Ġexp ressed
Ġgen ievre
Ġgard Ã©e
Ġgard iens
Ġtrouver ont
ĠprÃ©sent Ã¨rent
Ġgre d
Ġsang lant
Ġsorte z
Ġta quin
Ġop Ã©rÃ©
Ġmen aient
Ġrap et
Ġresp ira
Ġaller ent
Ġdom ine
Ġextr ait
ĠÃ©g ales
ĠÃ©g org
di ble
Ġmor nes
Ġretourn ons
Ġrel ie
Ġput ting
Ġfe ign
Ġinf er
Ġinf Ã©rieurs
Ġinf ranch
Ġout r
Ġenfant ine
Ġfai bl
Ġmanqu ant
ind is
ind ividu
Ġtrans at
Ġdispar aÃ®t
ĠEn suite
Ġdisc our
ris seaux
ĠTh at
ĠTh ib
Ġquitt es
Ġquitt Ã©s
Ġquitt Ã¢mes
Ġappar ente
Ġappar ently
ĠAl tesse
Ġrac es
Ġwe aring
Ġwe alth
Ġmour rait
Ġcourt yard
oqu Ã©
Ġwhen ever
Ġdr unk
Ġval aient
ĠdÃ©cid Ã©s
Ġcab anes
Ġmurm urai
ĠrÃ©g al
hor se
env ir
env oyai
Ġvert icale
ĠconsidÃ©r Ã©e
ĠmÃª le
Ġsoul agÃ©e
ĠprÃªt ant
Ġpuiss iez
Ġrefus ant
ĠdÃ©g agÃ©e
Ġcoll ait
Ġact ivement
Ġrempl issaient
Ġrempl aÃ§ait
ĠX II
ĠX VIII
ĠaperÃ§ oit
Ġrob ber
Ġempl oyait
Ġvoud raient
Ġcharg ement
ĠRe ading
ĠÃ©clat Ã©
Ġmarch ai
Ġmarch ais
Wh ile
ĠdÃ©m ission
Ġbrill a
Ġroug issait
Ġtend ues
Ġtend resses
Ġjug ements
Ġprin ted
ym n
Ġposs essed
Ġquar rel
Ġfle uves
Ġlang uiss
ann once
Ġpou d
Ġhand ker
ĠtraÃ® tres
occup e
occup aient
oubl iai
Ġabsol ute
Ġhal leb
Ġprob itÃ©
Ġlis tened
Ġdisting ua
Ġdisting uÃ©s
ĠY vonne
Ġpromen ais
Ã©b Ã¨ne
tru ct
ld orado
Ġchang Ã©s
Ġlat itudes
Ġretrouv Ã¨rent
Ġarm oires
Ġconc entrÃ©e
Ġsin uositÃ©s
Ġroul Ã©
ĠdÃ©pl aise
Ġneuf s
Ġsatisf ied
ĠNe pt
Ġdel icate
Ġhabitu els
Ġsecou ai
ĠprÃ©t endant
Ġbel onged
Ġdestin y
Ġdress Ã©s
Ġhur ried
Ġgout s
ĠÃ©prouv aient
Ġdifficult ies
ĠhÃ©s it
Ġferm ai
Ġsuppos Ã©
Ġprojet Ã©
Ġsaut ait
Ġother wise
Ġcraign it
Ġorg anes
Ġres tre
Ġfant Ã´mes
Ġcess Ã¨rent
Ġaccompagn a
Ġdirige aient
ĠÃ©qu iv
Ġdouble ment
Ġallum ette
ĠrÃ©sult ait
Ġarra chÃ©es
Ġpareille ment
ypt us
Ġhard es
Ġsaur aient
Ġsaur iez
ĠfrÃ©qu ents
Ġbourgeois e
Ġmerveille uses
Am iens
Ġcontempl a
imagin ai
Ġhun ger
Ġpublic s
Ġparcour ue
Ġpriv ate
ĠÃ©b oulements
Ġimpat iemment
espÃ©r ait
Ġant iques
ĠÃ©tud iait
Ġretir ai
emport ai
Ġlaisse rez
Ġsiff la
Ġpur se
Ġcompos aient
Ġrepouss Ã©
Ġgrim aces
Ġdomin er
Ġdomin ant
Ġrapproch Ã¨rent
Ġmang Ã©s
Ġsir op
Ġentour ait
Ġpla us
Ġpla Ã§ant
Ġconserv ait
Ġamen Ã©e
Ġdessin aient
Ġcalcul er
ĠÃ® lots
Ġlect ures
Ġtoit ure
Ġpun ition
Ġaud ace
Ġcherch ent
Ġvertu eux
ĠmystÃ©ri euses
Ġmaig reur
ĠfrÃ©m it
Ġprodig ieusement
Ġtaill Ã©s
Ġbouill ie
Ġabond aient
Ġassur ances
Ġgarn is
Ġpistol s
ĠdÃ©pos Ã©e
Ġentrepr ises
Pr ends
ĠrÃªv ais
Ġenlev a
Ġbure aux
ĠdÃ©chir Ã©e
Ġenfer mer
Ġregagn a
Ġnavig uer
Ġnavig ateurs
Ġrom ain
aven ue
Ã©coul ait
Ġprat iquÃ©e
Ġreb ord
Ġfell ows
Ġiv ro
ĠPier rat
Ġsympath ique
Ġenter ing
Ġbrig and
ouc ester
Ġinterro gÃ©
Ġinform Ã©
Ġobsc urs
Ġenj oyed
uin Ã©e
Ġpermettre z
Cl opin
Ġempr unt
uff s
Ġrenseign er
Ġloc ataire
Ġmord u
Ġcomprend ra
Ġcircul ait
Ġcircul ation
rat ie
Ġchauff ait
room s
ĠsuccÃ©d a
Ġaccueill ir
Ãīc osse
Ġrig ide
ajout ai
Ġkeep ing
Ġpaque bots
Ġcaress ant
Ġcli ente
Ġgrac ieuses
Ġgonfl ait
olont iers
Ġtouch aient
Ġjoign ait
ĠSc ott
inf Ã¢me
Ġimpatient Ã©
Ġgrat uit
Ġalt Ã©rÃ©e
Ġplay ed
ĠGl oucester
Ġsolenn itÃ©
ĠÃ©blou i
ĠÃ©blou issante
ĠtÃ© les
Ġdign ity
Ġproport ionn
ĠgÃªn ait
instr uire
Ġporc s
Ġexag Ã©rÃ©
interro g
Ġcrev ait
ĠdÃ©finit if
ĠdÃ©finit ive
ĠnaÃ¯ f
Ġtrad uire
ĠrÃ©sign Ã©
Ġrefr ain
Ġquad rum
Ġbrand issant
Ġmainten aient
Ġcasser oles
Ġcrav ates
Ġdissip a
Ġdissip Ã©
Ġcapt ivitÃ©
Ġdil at
Ġluis ant
Ġty ph
Ġnoy Ã©e
ĠapprÃ©c iÃ©
Ġconsider ation
Ġconsider able
Ġsouc is
ĠrÃ©comp enser
Me me
impr ov
Ġdistrib uer
Ġhont euse
Ġexist ent
Ġgri Ã¨vement
ĠrÃ©jou ir
Ġsouterr aine
Ġsouterr aines
ĠdÃ©sespÃ©r Ã©s
Ġempris onnÃ©s
Ġbouff Ã©e
Att endez
Ġpars em
Ġench aÃ®
Ã©cras er
Ġfrag ments
Ġapais er
Ġapais Ã©e
Ġtranspar entes
Arriv Ã©s
Ġexig Ã©
Ġexig ences
assassin er
Ġincon ven
Ġcontract Ã©
Ġvaud ra
Ġbound s
Ġgeneral s
bour ne
ĠfÃ© od
Ġvic omte
idÃ© al
Ġcarn aval
Ġstri ct
Ġempois onnÃ©
ĠdÃ©fil Ã©
ĠmÃ» r
Ġhu Ã®tres
ĠPol ice
ĠPol ogne
Ġexam ple
Ġunivers el
Ġclam eurs
Ġpleuv oir
Ġspr ing
Ġaj oute
Ġsuffoqu Ã©
aveu gle
Ġisol Ã©s
Ġours elves
ĠBal di
ĠrÃ©t abli
Ġexige ant
Ġflac ons
Ġcourtis ane
ĠprÃ©ven us
Ġroule au
excell entes
Ġscient ifiques
Ġfascin ation
effort s
Ġlimp ide
Ġvant ait
ĠMir ou
Ġcombin aisons
Ġvex Ã©
Ġlabor atoire
Nul le
cal yptus
Ġcauche mars
ĠSh angaÃ¯
Ġnourr issait
Ġafflig Ã©e
Ġincert aine
ĠÃ©gypt iens
ĠborÃ© al
Ġho quet
ĠFlam el
intÃ© ret
Ġenfou ie
Part out
aum Ã´ne
Ġsurpl omb
Ġinfortun Ã©
Ġinhab itÃ©e
insp irait
Ġblaf arde
excus a
Ġprun elle
Ġcompatri ote
Ġrestaur ant
ĠindÃ©fin iment
Ġpick ed
Ġprog res
Ġindulg ence
Ġtorp eur
Suiv ant
Ġplum age
ĠNorm andie
Ġbook s
Ġhappen ing
ĠdÃ©sappoint Ã©
Ġpyram ide
Ġaspir ations
Ġantipath ie
Ġgrotes que
Ġressais ir
Ġfag ot
Ġfarc eurs
ĠConst itution
ĠNor v
Ġsournois ement
Georg es
rev ecoeur
ĠDum ont
affaiss a
Ġsuperf icie
kn own
Ġlos ing
Ġjagu ar
ĠdÃ©sar mÃ©
Ġfacil iter
Ġtacit urne
ĠmaÃ§ onnerie
Sud denly
Ġpoin ted
ĠMan on
ĠCord on
Ġcongr Ã©gation
ĠFO GG
ĠGasc ogne
ĠsupplÃ© er
ĠrÃ©tr Ã©c
ĠBoug ival
Ġinvestig ations
DO RES
ĠSav ille
Ġamph ib
Ġinvraisembl able
Ġvarech s
ĠPH ILE
ĠEust ache
Ġcoach man
Ġmyri ades
Ġpoe le
ĠcÃ©libat aire
cer cle
ĠMOI DORES
Ġcrust acÃ©s
ĠGan ache
Ġsanctu aire
ĠMerri pit
hm korff
Ġabas ourdi
imprÃ©v u
Ġlaud anum
ĠbÃ©l ier
ĠBuns by
ĠRu hmkorff
ĠindÃ©pend ante
ĠPousse pain
ĠbrÃ©v iaire
ococ urante
ĠPHILE AS
" -
2 5
8 2
A D
A i
A pp
A yres
B our
B onne
D ire
E l
E rnesto
G ive
H ad
H ermite
K etty
M ES
P et
P ier
P rÃ©s
S erait
T e
T on
T ais
U E
W ould
X L
Y vonne
a ol
b ras
b Åĵuf
d o
d Ã©s
f ond
g lycÃ©rine
h aha
i ositÃ©
j ust
l ique
m Ã¨tre
n ique
o a
o Ã®
p eu
p Ã´t
r Ãªte
r ations
s c
s he
t able
v ents
v idemment
Ġ Ã©r
Ġ Åĵufs
Ġl oyer
ai bli
es le
Ã© remment
Ġp eaux
Ġp aume
Ġp erturb
Ġs it
Ġs Ã©c
Ġs igh
Ġs agement
ou ettes
on el
Ġc itait
Ġc Åĵurs
qu art
qu iÃ¨me
an Ã©e
Ġm att
Ġm eth
Ġm ove
Ġm Åĵurs
Ġt uez
Ġt ongue
et on
ent ours
in ond
in ets
in iere
Ġf ass
Ġf riv
Ġf aille
Ġf endu
Ġf iles
Ġf arm
Ġf assent
il a
il Ã©s
ar rÃ©
ar ies
is ent
is ive
it ieuse
it ely
Ġn ie
Ġn ich
Ġn Åĵ
Ġn ettes
Ġn oyait
Ġv aur
Ġv aillant
Ġv ierges
eu n
Ġb is
Ġb oir
Ġb id
Ġb Ãªt
Ġb ob
Ġj arres
or ables
or igin
as pir
Ġr Ã¨
Ġr ondes
Ġr acheter
ous in
ant el
Ġh Ã©
Ġh ot
Ġh oup
Ġh ouses
Ġh uile
Ġh arsh
Ã©t Ã©r
at elier
au ch
au bergiste
Ġav oid
Ġg arg
Ġg uns
Ġg osier
Ġre hauss
Ġpr iÃ©e
est es
Ġse ction
ri ven
ri mait
ri pp
av oine
ag erie
ag ric
Ġpl iÃ©
Ġpl ia
Ġo l
se y
Ġtr Ã¨
Ġtr anche
Ġtr appe
Ġcom fort
Ġch atte
Ġpour r
Ġpour ch
ab out
ab Ã®
ab st
Ġin ex
Ġw ond
os er
os aient
ol s
am ing
am ph
ĠM Ãªme
ĠM ah
ĠM orgue
ort er
Ġme d
ois on
Ġson ores
Ã©c rir
Ã©c ris
Ã©c onom
ff Ã¨
Ã©p eron
Ġe at
im iter
Ġsa ys
ĠC on
ĠC ent
ĠC ity
ĠC ook
ĠC ahusac
ĠC revecoeur
uis aient
ard a
Ġmon tez
ic ient
ĠP RO
ĠP REM
ĠP ococurante
Ġal ive
Ġal entours
Ã® les
ul a
oy d
oy ens
ess uy
ill ante
ĠS ch
ĠS erv
ĠL ang
ĠL aisse
ĠL estiboudois
Ġent ertain
Ã´ ter
Ġpro ver
Ġpro venait
Ġcon quis
Ġcon quÃªte
Ġcon ifÃ¨res
Ġest imer
Ġcr Ã©t
Ġcr acher
Ġcr oÃ»te
Ġcr oÃ®tre
Ġbr utes
emp e
emp t
ord onne
Ġex qu
oul is
ĠA ide
ĠrÃ©p Ã©taient
ĠrÃ©p erc
ĠrÃ©p lique
ens Ã©s
Ġfor est
Ġfor ma
Ġmar b
ĠB arn
ĠB ishop
op ri
op lex
op Ã©rer
ĠD ame
ang Ã¨re
ĠF org
aiss ance
Ġam Ã¨ne
Ġam icalement
ed om
ĠJ oiselle
ĠJ uifs
Ġpart irez
all aient
all onger
ĠN il
ĠN ul
Ġreg le
Ġreg ular
ass Ã¨rent
ass istance
Ġtrouv ons
Ġcont ag
ĠrÃ©pond rai
ci a
ĠI f
Ġman Ã¨ge
ĠV euillez
Ġper chÃ©
ĠH om
ĠH inton
Ġter n
Ġrem ains
ĠT a
ĠT rouv
ĠÃ©c arlate
Ġmal s
esp ion
Ġfem elles
Ġcons ens
Ġcons tructions
Ġenf uie
Ġcomm otion
Ġtou relle
Ġapp ortez
Ã©g alitÃ©
Ġcoup Ã©es
Ġcoup let
Ġab e
Ġab r
Ġab ords
Ġab user
Ġrec on
Ġatt irait
Ġatt ends
ven ez
li ps
ĠÃ©p aves
ĠdÃ©c ombres
rÃ© f
Ġpos ter
Ġpens aient
Ġsent ie
Ġtrav elling
ins pir
Ġeff acÃ©
Ġvis ions
oc king
Ġacc ords
Ġco arse
Ġob v
Ġad hÃ©r
Ġcol our
ell ow
Ġfin est
ĠdÃ©p asse
Ġsort ais
Ġsort ies
aur as
aur ore
Ġst ir
Ġst ric
Ġconn ut
Ġconn aisse
Ġarriv ez
Ġbou ght
Ġbou chÃ©e
Ãī lysÃ©es
ĠrÃ©s iste
emb ras
Ġple uraient
Ġsal etÃ©
Ġsal uait
Ġsour iaient
Ġinst allÃ©e
Ġass embl
Ġsol aire
Ġag glom
Ġconv ince
Ġsais issait
este z
Ġsp ace
Ġgar enne
Ã©ch Ã©
Ã©ch afaud
Ġsh y
Ġsh own
Ġvol utes
Ġdern iÃ¨rement
uss iens
Ġgl oom
aid ait
Ġmis aine
Ġmis ery
Ġpay Ã©e
Ġconf esse
Ġind ustrie
Ġind ividus
ĠprÃ© jud
Ġbout iqu
Ġcent ury
Ġcent iÃ¨mes
Ġdoute z
Ġoff ense
Ġappr obation
Ġfall ing
acc umul
ĠÃ©v itÃ©
ĠW ell
Ġren fl
Ġfig uraient
Ġdiff orme
Ġcrois er
Ġnouveau tÃ©
Puis qu
Ġobs erve
ense igne
Ġvent res
Ġvent ure
ĠÃ©ch angÃ©
Ġexc ited
Ġdroit ure
Ġbois Ã©es
ĠGr Ã¨ce
Ġbord Ã©es
onte z
Ġann onÃ§ant
Ġpasser ai
Ġpays ages
ĠAr riv
enf uyait
ĠMar low
Ġemb usc
Ġpol aire
Ġmen uis
Ġmen acÃ©
Ġmen acÃ©e
ĠrÃ©c ita
Ġli Ã©e
Ġbar i
Ġbar ons
Ġperm Ã®t
Ġcommen Ã§ant
ĠÃ¢ cre
Ġbal anÃ§aient
ule ux
ule use
Ã©par p
Th omas
Ġinf us
Ġinv iter
Ġac cepte
ind iqu
ind ulg
Ġtrans ition
Ġsub issait
Ġsub til
Ġgent iment
Ġred oute
Ġhabit ent
Ġexpl iquez
la w
eff ect
eff acer
Ġimpos Ã©
Ġve illÃ©
Ġpat ern
Ġprov oc
Ġpen chaient
Ġadm ettant
agin eux
Ġdr am
ĠnÃ©cess itÃ©s
Ġconnaiss ions
Ġconnaiss iez
Ġproc uration
Ch rist
Ġcab ines
ĠrÃ©g Ã©n
Ġsac rÃ©s
ĠmÃ©d itait
Ġvert Ã©b
anÃ§ Ã¢mes
ĠgÃ©nÃ©r ation
ĠmÃª l
Par lez
az z
Ġtent ations
Ġpuiss amment
Ġpre par
Ġappel aient
Ġappel Ã©s
Ġconven ance
Ġcoll er
Ġcoll ets
Ġprofess eurs
Ġact if
Ġact rice
Ġnu que
Ġsonge aient
Ġhasard ai
ĠX L
Ġthan k
Ġcommun autÃ©
Ġcommun iqua
Ġquitter ai
lex ions
Ġsingul iÃ¨res
Ġenn uie
Ġtort urer
ĠtraÃ® nÃ©
Ġtrembl ing
Ġpours uit
Ġdouc eurs
Ġchant eur
Ġris ing
Ġris ques
Ġris quÃ©
ĠÃ©clair aient
ĠÃ©clair Ã©s
Ġcoul Ã©es
Ġarriver ons
Ġattend ent
ĠdÃ©ch ire
ĠdÃ©ch iqu
Ġcontent Ã©
Ġinqui Ã©tant
Ġpromen aient
Ġpromen eurs
ĠSi oux
Ġeng ins
Ġmagn ifiquement
Ġsemble z
ĠprÃ©v isions
ĠsÃ©par a
Ġretrouv ai
Ġcad res
Ġconc essions
ĠÃ©trang lÃ©e
ĠdÃ©pl aÃ®t
ĠdÃ©pl acÃ©
ĠdÃ©pl oya
Ġfar ce
Ġtravaill ai
Ġspect ateur
ĠÃ©lev a
Ġcach Ã©es
Ġbec s
Ġbec oming
Ġfranch is
Ġfranch ie
Ġaim Ã©s
ĠprÃ©t endez
anim ait
Ġdim ension
Ġpolit ical
cin quiÃ¨me
arriv a
Ġway s
Ġcharge ant
Ġvoil Ã©e
Ġbre bis
ĠrÃ©un it
Ġsuppos itions
Ġoffic ers
Ġber g
Ġrass ura
exc iter
Ġgliss ai
Ġretrouver ai
Ġachev ant
Ġchamp ions
Ġexamin ation
ĠÃ©troit s
Ġbeg ged
Ġcess aient
Ġpes aient
Ġrav ages
Ġconsol ait
Ġappuy ait
ĠrÃ©serv ant
Ġhard ie
ĠreprÃ©sent aient
Ġignor Ã©
Ġbarb ouill
Ġ18 4
Ġ18 5
ĠdÃ©n onc
ĠdÃ©n oncer
Ġgris ou
Ġgris Ã¢tre
Ġtim id
Ġsonn ets
Ġsonn erie
ĠÃ©b oulement
Ġembr aced
Ġaigu illon
Ġobst ination
Ġcul te
ĠprÃ©cÃ©d Ã©s
Ġste al
ĠbÃ©n isse
Ġapproch ant
Ġaffect ueuse
Ġrenvers ant
inqui Ã©ta
embr assait
embr assai
ĠrÃ©gul iÃ¨re
Ã©tabl it
aimer ai
ĠÃ©criv ant
Ġban al
Ġattr ap
ĠdÃ©tr Ã´
Ġconvainc us
Ãĩ Ãł
Ġ3 00
Ġgaz ing
Ġtourment ait
Ġtaill Ã©e
Ġbouill oire
Ġanx ieuse
Ġgarn ies
Ġredout ais
ĠintÃ©ress ants
Ã©te ignait
Ġnat al
Ġexpliqu Ã©
Ġsignif ier
ceiv ing
Ġround s
Ġexpos Ã©s
ĠtÃ¢ ter
Ġinclin Ã©s
examin a
angl ais
ĠexÃ©cut Ã©e
ĠexÃ©cut Ã©s
Ġdissimul Ã©e
ĠfÃ©lic ita
Ġbuv eurs
Ġrenv oyÃ©e
ĠtÃ¢che z
Ġcoiff es
Ġinterro gea
Ġacqu it
Ġacqu ise
Ġacqu Ã©rir
Ġcaval cade
Bon acieux
Ġras c
ĠpropriÃ©t Ã©s
Ġmol Ã©c
Ġennuy euse
Ġwish es
Ġrecueill ie
Ġtord it
ĠÃ©tinc elle
ĠÃ©tinc elait
Ġconfond re
ĠsuccÃ©d er
ĠsuccÃ©d Ã¨rent
Ġaccueill ie
embarr assait
Ġbalbut iant
Ġlou anges
Ġcrimin al
Ġorgan isation
Ġabatt ue
Ġcorrespond ant
ĠfrÃ©quent er
Ġmid st
arne y
ĠBarr ington
intÃ©ress er
Ġaid ait
Ġclose d
Ġbrod eries
Ġtouch ante
ĠSc ala
Ġcompan ions
Ġlumin euses
Ġmonstru euses
inf amie
Ġdam nÃ©e
ĠrevÃªt us
ĠrevÃªt ir
Ġdoubl Ã©
ĠexpÃ©d ient
Ġtremp Ã©e
ĠstupÃ©fait e
Ġmanifest Ã©
enz a
allum a
ĠÃ©coul Ã©s
Ġsentence d
Ġsolenn ellement
ĠdÃ©bord er
Ġbetter aves
Ġsw ift
Ġfonc tions
asc enseur
puiss ance
ĠÃīc oute
Ġparfum s
Ġembarqu Ã©s
Ġquitte rez
ÃĬ tre
accro Ã®tre
ĠnÃ©g atif
Ã©touff ait
empÃª che
Ġestim Ã©
Ġestim ait
ĠnaÃ¯ vetÃ©
ĠbÃ©g ayant
avers ion
apt iste
Ġmens onges
obst acle
Ġconfort ablement
Ġmainten u
Ġconfess er
ĠhÃ©riss Ã©e
ĠdÃ®n ait
ĠdÃ®n ers
ĠdÃ©cour agÃ©
Ġcaill ou
Ġdisput er
Ġdisput aient
aw l
Ġluis aient
Ġluis ante
Ġcraint ive
Ġprofound ly
ĠdÃ©guis Ã©
ĠSeigneur ie
Ġcand le
Ġcand id
Ġtot ale
Ġcatastr ophes
ĠNouv eau
Ġconfir m
Ġintime ment
ĠmÃ©th od
ĠBri xton
Ġmaint int
ĠWh ite
Ġinvis ibles
OI RE
Ġbaign er
irrit er
ĠÃ©nerg iques
ĠRich ard
Ġempris onnement
Ġbur ned
Ġsentin elles
Do es
Ġvar iÃ©
avou erai
Ġgrec que
Ġjoint s
Ġcorre ction
Ġhold ing
Ġtranspar ence
Ġindispens ables
Ġcrist aux
Ġindig Ã¨ne
ĠextÃ©rieur es
Ġhiss er
Ġcombatt u
Ġvainc us
Ġscrupule use
Ġdistinct ly
Ġgif les
Ġmajest ueuse
Ġconsac rer
ĠdÃ©fil aient
Ġgrie fs
Ġsach ette
Ġfrot ter
Ġexam ine
Ġapl at
Ġresplend issait
Ass is
Ġoss eux
ĠdÃ©pe ches
Ġimpertin ent
Ġaveugl Ã©ment
Ġtremble ments
Ġkeen est
Ġdisgr Ã¢ce
Ġfrat ernelle
pied s
introd uire
obt ins
Ġguid Ã©
Ġgren iers
ĠdÃ©sol ation
Ġcourtis ans
Ġspiritu el
Ġspiritu elle
Ġfuss iez
alm aggiore
Ġinacc outum
ĠÃ©chev ins
Der riere
Ġraccommod er
Ġcombin aison
Ġregrett able
Ġgoutt iÃ¨res
Ġprimit ive
Ġog ives
Ġafflig Ã©
yl an
Ġfoug Ã¨res
Ġrall ier
Ġrattach ait
Ġchale ure
ĠFlam ands
intÃ© resse
Ġdiscover y
ĠÃ©perd ument
ĠdÃ©criv ait
Ġcale che
Ġsuperst ition
Ġlic ence
ĠhÃ©b Ã©tÃ©
Ġaltern ativement
Ġmaj oritÃ©
ĠSal omon
Ġcarab ine
Ġblaf ard
Ġconfr Ã¨re
Ġhant Ã©e
ĠMorm ons
ĠexpÃ©ri ences
Ġcueill ir
ĠDi ane
Ġcoquet terie
Ġhut te
Ġgour m
ĠBelg irate
Ġperpendicul airement
Ġincontest able
Ġcondamn ation
Ġgau cherie
Ġinit iales
ĠPard ieu
Ġsph Ã¨re
ĠhaÃ¯ss ait
Ġtroop s
Ġmusic iens
Ġti Ã©d
Ġexcav ations
ĠprÃ©fÃ©rer ais
Emp ereur
Ġnit ro
umber land
exalt ation
ĠrÃ©glement aire
Ġfleg matique
ĠKe arney
ĠpersÃ©v Ã©rance
Ġimpassi bilitÃ©
ĠrelÃ¢ cher
Ġfourch ette
Ġdoctr ine
Ġcontradict oires
ĠPÃ©r ouse
Ġvoc if
Ġbamb ous
ĠjansÃ©n iste
Ġgogu enard
Ġcontad ini
Ġmanne quin
Ġsho es
ĠChamp agne
Ġthorough ly
Ġmio ches
Ġjump ed
Ġbrou haha
Ġperform ance
ĠÃ©norm Ã©ment
PART OUT
Ġpint ad
Ġpalet ot
Ġconscien c
ĠpÃ¢tur ages
cÃ© ans
Ġcaraf e
ĠRepubl ic
Ġimpun Ã©ment
Ġpoussi Ã©
Ġlandl ady
ĠPASSE PARTOUT
Ġdeli ber
ĠCas almaggiore
ĠFoss oyeurs
Ġpein tre
Ġcharpent iers
ĠNorv Ã¨ge
Ġmatt ers
Ġmeth od
ĠnÅĵ ud
ĠForg es
. -
; Â»
A G
A IT
B RE
B retagne
C Y
C elles
C omm
C unÃ©gonde
C acambo
D eneulin
E ff
G eneral
O E
O maha
P angloss
Q uit
R os
S onge
S cot
T ake
V ain
V oyant
X I
a Ã©t
b ody
b allon
c ou
c ement
c tr
e v
f au
f ils
g et
g Ã©s
h Ã©e
h old
l ain
n ers
n ded
o o
o eufs
p on
r ing
v iÃ¨me
w ich
x pl
z on
z ard
Ġ ult
Ġd aily
Ġl ouv
Ġl inc
Ġl ongeait
en es
en able
en chant
en rich
Ã© tement
Ġp ace
Ġp iller
Ġp inte
Ġp illage
Ġp eche
Ġs ob
Ġs ell
Ġs aph
Ġs aillir
Ġs ablonn
Ġc ais
Ġc ieux
Ġc up
Ġc ow
Ġc itÃ©s
re c
qu Ã©e
an as
Ġde pos
Ġt ension
ent ed
in Ã©s
in itÃ©
Ġf ours
Ġf Ã©es
Ġf endre
Ġf issure
Ġf lexible
Ġf iÃ¨vres
il er
it ais
it ue
it imes
Ġn ose
Ġn iche
Ġn ames
Ġn ouÃ©
Ġv endue
un ately
Ġb Ã©c
Ġb ise
Ġb Ã¢che
Ġb aÃ¯
or ine
or iques
or fÃ¨vre
as tes
Ġr if
Ġr asseoir
Ġun b
Ġun cle
Ġun less
Ġun just
ant erie
Ġh am
Ġh ill
Ġh oche
Ã©t ernelle
ur nes
ur ally
Ġen de
ir ant
me z
at orze
Ġav erse
Ġg ond
Ġre ceiving
Ġpr iver
al f
ch im
Ġpar ter
Ġpar aissant
Ġpas sez
ri en
Ġne arer
oi c
oi gnez
ĠÃ©t onner
ĠÃ©t endues
ag erait
ag Ã¨res
Ġtr am
Ġtr ancher
Ġune xp
Ġch ol
Ġch lor
Ġch aste
Ġch osen
Ġdans es
ment iÃ¨res
Ġin eff
Ġin off
Ġw ed
Ġce rem
am enait
am abilitÃ©
ĠM ur
ĠM ol
Ġsur venir
Ġsur venu
Ġe re
Ġe arn
ig ate
ĠC alais
ĠC resp
si p
Ġgr ow
Ġgr asses
Ġgr atif
Ġgr amm
Ġgr oom
Ġsi re
ad ou
ad ore
ad iers
ad jud
ic is
ic ieuse
ier zon
Ġal entour
Ã§ art
oy al
ess ard
ge aient
ill Ã¨rent
ĠS ix
ĠS ongez
ĠL ub
Ġent ÃªtÃ©
Ġpro ve
Ġcr oie
Ġcr uc
Ġcr oqu
Ġfr onÃ§ant
Ġfr ank
Ġbr it
emp s
Ġex ile
ĠA U
ĠA ch
ĠA ngl
ĠA mand
oute ville
Ġas leep
ens ionn
ble d
Ġap t
Ġat eliers
Ġmar teaux
ĠB Ã©
ĠB Ã©r
ĠB ientÃ´t
ĠB ouj
op ium
op poser
ĠD ix
ĠD esc
ĠD odo
ĠD inah
tr ation
Ġgrand issant
Ġall ongeant
ang ue
ĠE liza
Ġam ount
Ġam ical
Ġpass eur
ĠJ ud
app Ã¢t
app ellent
all ongeaient
onc k
ĠN E
ĠN ov
Ġim iter
ass ements
ĠR ats
Ġenc re
ĠG al
if Ã¨re
if ormes
ĠV ierzon
ĠH olÃł
Ġrem inded
ĠT romp
ĠT oujours
ĠT HE
Ġcour ent
Ġcour ier
ĠÃ©c ailles
ĠÃ©c oeur
up on
Ġpoint us
Ġcons igne
Ġcons ternation
ten ance
od ger
Ġapp rivois
Ã©g arer
Ã©ri le
Ġcoup ai
Ġsem elles
ich on
Ġrec onstr
gn ant
ĠdÃ©c amp
Ġca ffÃ¨
Ġentre l
Ġfort eresse
ro que
âĢ¦ ,
Ġfais ceaux
Ġfer as
Ġsent eurs
Ġsent ries
ches tre
min ster
Ġcap acity
Ġport Ã¨rent
Ġport eurs
Ġport era
Ġcl ass
Ġcl ock
Ġcl ums
Ġmont ent
Ġmont ante
Ġmont rÃ¨rent
Ã©l ancÃ¨rent
Ã©l oquence
Ġpers ist
Ġeff l
Ġeff usion
Ġsec re
Ġsec our
Ġvis ita
Ġvis ibles
th ree
Ġtu ait
Ġco ch
Ġco teaux
âĢĶ âĢĶ
Ġad ministration
Ġcol onnade
Ġcri e
Ġpe ace
Ġpe inte
Ġpe intes
Ġfl ag
Ġcor all
Ġprof itable
Ġaff reuses
ĠdÃ©p ass
ĠdÃ©p ouille
Ġsort irait
aur ont
Ġit inÃ©raire
Ġcher chÃ©e
Ġbl ind
Ġbl ondes
Ġbou euse
Ãī C
Ãī liza
Ġten ions
ĠrÃ©s um
ĠrÃ©s umÃ©
Ã©m ouvoir
Ġcontre dire
Ġsal les
Ġsour des
Ġemp ereur
Ġtomb ante
Ġass emblÃ©e
Ġsol iditÃ©
Ġag rand
Ġcompr irent
Ġconv iendra
Ġrev iendrez
Ġver be
ĠPar bleu
orm itÃ©
Ġsp y
Ġsp ont
Ġsp ies
Ġshe et
Ġshe wn
Ġsh r
Ġsh awl
aill is
Ġgl a
Ġgl ouss
Ġmis er
Ġor b
Ġor ifice
Ġconf l
Ġconf iant
Ġind esc
Ġind ub
oign ons
ĠprÃ© au
Ġins ister
Ġfou tre
Ġfou ettait
Ġliv ed
Ġoff erte
Ġcontinu ons
Ġcontinu elles
Ġph are
Ġph aÃ©t
appr ouver
Ġrend Ã®t
Ġcal otte
Ġcal omn
Ġsil ences
Ġdesc ends
Ġvrai es
Ġren ouer
ourd el
Ġimp udence
Ġord onne
Ġjou a
Ġvou x
ĠPr ussiens
ĠÃ©ch arp
Ġexc us
Ġdo ctor
Ġk itch
Ġaut om
Ġhum bles
Ġhum iditÃ©
Ġcompl iquÃ©e
Ġcompl Ã©tement
Ġlo quet
Ġgard ai
Ġgard Ã©s
Ġgard erait
ĠÃ©l ancÃ©
ĠÃ©l Ã©phant
ĠÃ©l oge
ĠÃ©l oges
arc ade
Ġgu ett
Ġcontr Ã´
ĠMar se
ĠMar owsko
ige a
uc ted
Ġup set
ĠÃī videmment
Ġpol is
Ġbar s
Ġextr aire
ĠdÃ©v is
Ġretourn aient
Ġro of
gr is
gr aph
Ġrel ative
Ġrel atives
Ġgal ante
tÃ© rer
Ġfe inte
Ġfe indre
Ġfe ignant
Ġinf lexible
Ġinf ruct
Ġsign Ã©e
Ġac ted
Ġmanqu ais
Ġmanqu Ã¢t
ind sor
Ġsuff icient
ĠEn t
Ġhabit aient
Ġdisc ern
Ġtrem per
eff orc
eff aÃ§a
Ġappar u
iend rai
Ġtri fle
hab itu
hab iletÃ©
Ġadm ira
ĠreÃ§ ois
Ġbat elier
Ġbat teries
Ġoubl iÃ©es
lin dre
Ġdr ink
Ġbri Ã¨vement
Ġanim ale
Ġsau c
Ch ose
ĠCe ylan
Ġcab iai
Ġsitu Ã©es
Ġcamp an
ĠmÃª lant
ack son
Ġrecomm end
Ġrecomm ande
Ġbatt ants
Ġgreat er
Ġtent ures
Ġpre l
Ġform uler
Ġracont ant
Ġaband onnait
Ġbris aient
Ġempl it
ĠprÃ©cip itÃ©e
Ġfront iÃ¨re
Ġobserv Ã©e
Ġmod Ã©ration
ĠdÃ©m Ãª
Ġprison ers
Ġremont ai
Ġdorm it
Ġstr ug
Ġstr uct
ick ed
Ġcuis iniere
Ġpasse relle
Ġapport aient
Ġsav our
Ġsav eur
Ġgrav Ã©e
Ġgrav ier
aperÃ§ urent
Ġcav ernes
ĠmÃ©t aux
old s
ĠdÃ©r ais
ĠhÃ©r itÃ©
Ġimagin aire
Est outeville
Ġeng agÃ©s
Ġrelev aient
Ġatte ignait
ĠÃ©tonn ait
ĠprÃ©v ision
ĠprÃ©v oyait
[...]
