{"<s>":0,"<pad>":1,"</s>":2,"<unk>":3,"!":4,"\"":5,"#":6,"$":7,"%":8,"&":9,"'":10,"(":11,")":12,"*":13,"+":14,",":15,"-":16,".":17,"/":18,"0":19,"1":20,"2":21,"3":22,"4":23,"5":24,"6":25,"7":26,"8":27,"9":28,":":29,";":30,"<":31,"=":32,">":33,"?":34,"@":35,"A":36,"B":37,"C":38,"D":39,"E":40,"F":41,"G":42,"H":43,"I":44,"J":45,"K":46,"L":47,"M":48,"N":49,"O":50,"P":51,"Q":52,"R":53,"S":54,"T":55,"U":56,"V":57,"W":58,"X":59,"Y":60,"Z":61,"[":62,"\\":63,"]":64,"^":65,"_":66,"`":67,"a":68,"b":69,"c":70,"d":71,"e":72,"f":73,"g":74,"h":75,"i":76,"j":77,"k":78,"l":79,"m":80,"n":81,"o":82,"p":83,"q":84,"r":85,"s":86,"t":87,"u":88,"v":89,"w":90,"x":91,"y":92,"z":93,"{":94,"|":95,"}":96,"~":97,"¡":98,"¢":99,"£":100,"¤":101,"¥":102,"¦":103,"§":104,"¨":105,"©":106,"ª":107,"«":108,"¬":109,"®":110,"¯":111,"°":112,"±":113,"²":114,"³":115,"´":116,"µ":117,"¶":118,"·":119,"¸":120,"¹":121,"º":122,"»":123,"¼":124,"½":125,"¾":126,"¿":127,"À":128,"Á":129,"Â":130,"Ã":131,"Ä":132,"Å":133,"Æ":134,"Ç":135,"È":136,"É":137,"Ê":138,"Ë":139,"Ì":140,"Í":141,"Î":142,"Ï":143,"Ð":144,"Ñ":145,"Ò":146,"Ó":147,"Ô":148,"Õ":149,"Ö":150,"×":151,"Ø":152,"Ù":153,"Ú":154,"Û":155,"Ü":156,"Ý":157,"Þ":158,"ß":159,"à":160,"á":161,"â":162,"ã":163,"ä":164,"å":165,"æ":166,"ç":167,"è":168,"é":169,"ê":170,"ë":171,"ì":172,"í":173,"î":174,"ï":175,"ð":176,"ñ":177,"ò":178,"ó":179,"ô":180,"õ":181,"ö":182,"÷":183,"ø":184,"ù":185,"ú":186,"û":187,"ü":188,"ý":189,"þ":190,"ÿ":191,"Ā":192,"ā":193,"Ă":194,"ă":195,"Ą":196,"ą":197,"Ć":198,"ć":199,"Ĉ":200,"ĉ":201,"Ċ":202,"ċ":203,"Č":204,"č":205,"Ď":206,"ď":207,"Đ":208,"đ":209,"Ē":210,"ē":211,"Ĕ":212,"ĕ":213,"Ė":214,"ė":215,"Ę":216,"ę":217,"Ě":218,"ě":219,"Ĝ":220,"ĝ":221,"Ğ":222,"ğ":223,"Ġ":224,"ġ":225,"Ģ":226,"ģ":227,"Ĥ":228,"ĥ":229,"Ħ":230,"ħ":231,"Ĩ":232,"ĩ":233,"Ī":234,"ī":235,"Ĭ":236,"ĭ":237,"Į":238,"į":239,"İ":240,"ı":241,"Ĳ":242,"ĳ":243,"Ĵ":244,"ĵ":245,"Ķ":246,"ķ":247,"ĸ":248,"Ĺ":249,"ĺ":250,"Ļ":251,"ļ":252,"Ľ":253,"ľ":254,"Ŀ":255,"ŀ":256,"Ł":257,"ł":258,"Ń":259,"Ġd":260,"Ġl":261,"en":262,"ai":263,"es":264,"Ã©":265,"Ġp":266,"Ġs":267,"ou":268,"on":269,"Ġc":270,"re":271,"Ġa":272,"qu":273,"an":274,"Ġm":275,"Ġde":276,"er":277,"Ġt":278,"Ġqu":279,"et":280,"ent":281,"ait":282,"in":283,"le":284,"Ġf":285,"il":286,"ar":287,"is":288,"it":289,"Ġn":290,"Ġv":291,"eu":292,"un":293,"âĢ":294,"Ġla":295,"Ġet":296,"Ġb":297,"el":298,"Ġj":299,"or":300,"âĢĻ":301,"Ġle":302,"Ãł":303,"te":304,"ais":305,"om":306,"as":307,"Ġr":308,"Ġun":309,"our":310,"ous":311,"ant":312,"ĠÃł":313,"Ġh":314,"us":315,"Ã©t":316,"Ġque":317,"ur":318,"Ġen":319,"ir":320,"me":321,"at":322,"he":323,"Ġles":324,"Ã¨":325,"au":326,"Ġav":327,"em":328,"Ġg":329,"Ġre":330,"ans":331,"Ġpr":332,"al":333,"eur":334,"ce":335,"ion":336,"ch":337,"Ġil":338,"tre":339,"Ġpar":340,"Ġau":341,"elle":342,"Ġpas":343,"Ġje":344,"est":345,"Ġse":346,"ri":347,"Ġne":348,"av":349,"Ġdes":350,"oi":351,"Ãª":352,"Ġqui":353,"ui":354,"ĠÃ©t":355,"ag":356,"Ġpl":357,"Ġo":358,"ien":359,"se":360,"Ġtr":361,"end":362,"out":363,"Ġune":364,"ain":365,"and":366,"Ġcom":367,"Ġch":368,"Ġdans":369,"--":370,"aient":371,"Ġdu":372,"ouv":373,"Ġpour":374,"ment":375,"ont":376,"ab":377,"Ġin":378,"Ġthe":379,"Ã©e":380,"Ġw":381,"os":382,"ie":383,"onn":384,"res":385,"Ġce":386,"Ġvous":387,"Ã©s":388,"ons":389,"ol":390,"am":391,"ĠM":392,"Ġsur":393,"ort":394,"ec":395,"Ġme":396,"ut":397,"ap":398,"ois":399,"que":400,"Ġson":401,"de":402,"Ġlui":403,"Ã©c":404,"ff":405,"Ã©p":406,"Ġplus":407,"ers":408,"Ġe":409,"im":410,"pr":411,"oir":412,"Ġsa":413,"les":414,"ig":415,"ing":416,"ac":417,"ĠC":418,"Il":419,"Ġan":420,"eux":421,"Ã¨re":422,"ette":423,"Ġtout":424,"uis":425,"ĠÃ©tait":426,"ot":427,"ne":428,"Ġnous":429,"Ġavait":430,"ement":431,"Ġy":432,"Ġavec":433,"ond":434,"si":435,"Ġgr":436,"Ġmais":437,"Ġsi":438,"Ġto":439,"ard":440,"ad":441,"Ġdit":442,"Ġmon":443,"oin":444,"Ġelle":445,"ic":446,"ier":447,"Â«":448,"aire":449,"iv":450,"ille":451,"Je":452,"ĠP":453,"Ã©r":454,"Ġth":455,"Ġal":456,"Ġof":457,"Ã¢":458,"Ġbien":459,"Ã§":460,"Ġon":461,"ure":462,"Ġcette":463,"Ã®":464,"Â»":465,"Ġses":466,"Ġcomme":467,"Ã¨s":468,"ul":469,"ue":470,"oy":471,"Ġma":472,"id":473,"ation":474,"une":475,"age":476,"ux":477,"ess":478,"ire":479,"ge":480,"ill":481,"ĠS":482,"ĠL":483,"ĠdÃ©":484,"Ġent":485,"Ġdis":486,"mes":487,"Ã´":488,"Ġpro":489,"Ġcon":490,"Ã©tait":491,"Ġest":492,"eau":493,"Ġcr":494,"able":495,"ez":496,"Ġfr":497,"Ġ!":498,"Ġbr":499,"ors":500,"Ġquel":501,"emp":502,"lle":503,"ord":504,"Ġpeu":505,"ĠÃ©":506,"uit":507,"Ġex":508,"Ġar":509,"Ġleur":510,"Ġou":511,"oul":512,"Ã»":513,"ore":514,"ter":515,"oup":516,"ĠA":517,"âĢĵ":518,"Ġser":519,"oute":520,"ine":521,"bl":522,"ert":523,"Ãªtre":524,"Ġdev":525,"ĠrÃ©p":526,"aut":527,"Ġas":528,"ens":529,"ble":530,"itÃ©":531,"Ġap":532,"ions":533,"Ġat":534,"iss":535,"Ġdeux":536,"Ġdem":537,"Ġfor":538,"Ġsu":539,"ours":540,"ay":541,"..":542,"Ġmar":543,"Ġsans":544,"otre":545,"che":546,"ĠB":547,"Ãªme":548,"Ġces":549,"Ġand":550,"omme":551,"op":552,"Ã´t":553,"ĠD":554,"tr":555,"oit":556,"Ġgrand":557,"Ã©es":558,"Ġall":559,"Ġmoi":560,"ieu":561,"ang":562,"ĠE":563,"ĠF":564,"endre":565,"agn":566,"Ġfait":567,"aiss":568,"ence":569,"Ġcar":570,"Ġhe":571,"Ġwh":572,"Ġche":573,"Ġam":574,"ed":575,"ance":576,"Ġ;":577,"Le":578,"Ġpass":579,"ĠJ":580,"Ġmain":581,"ante":582,"app":583,"Ġpart":584,"ong":585,"ques":586,"cc":587,"all":588,"pl":589,"onc":590,"Ã¹":591,"iÃ¨re":592,"ĠN":593,"Ġreg":594,"endant":595,"Ġfaire":596,"Ġ?":597,"omb":598,"Ãªt":599,"ieur":600,"st":601,"ve":602,"Ġim":603,"ass":604,"ĠR":605,"Ã»t":606,"ver":607,"Ġenc":608,"Ġfut":609,"ĠÂ»":610,"Ġcel":611,"um":612,"ĠG":613,"eure":614,"ite":615,"air":616,"Ġtrouv":617,"if":618,"Ġcont":619,"orte":620,"Qu":621,"ĠoÃ¹":622,"anc":623,"ĠrÃ©":624,"Ġthat":625,"Ġencore":626,"Ã©n":627,"Ġpouv":628,"ĠrÃ©pond":629,"Ġaux":630,"ci":631,"Ġjus":632,"ign":633,"art":634,"aine":635,"ace":636,"ils":637,"Ġmes":638,"Ġhis":639,"rent":640,"Ġpuis":641,"Mais":642,"Ġven":643,"ct":644,"ĠI":645,"oint":646,"Ġman":647,"ĠV":648,"ith":649,"Ġper":650,"Ġseu":651,"Ġregard":652,"ĠÃ©tÃ©":653,"cher":654,"ĠH":655,"Ġter":656,"enc":657,"Ġaus":658,"avait":659,"Ġtemp":660,"Ġwas":661,"ĠmÃªme":662,"Ġpet":663,"Ġrem":664,"ĠT":665,"aux":666,"ieux":667,"Ġcour":668,"Ġils":669,"pos":670,"Ġdonn":671,"ĠÃ©c":672,"ail":673,"Ġdont":674,"Ġdemand":675,"ose":676,"Ġmal":677,"ra":678,"int":679,"ourn":680,"esp":681,"Ġlong":682,"Ãªte":683,"Ġbe":684,"Ġdire":685,"up":686,"Ġpoint":687,"La":688,"Ġfem":689,"Ġcons":690,"rem":691,"Ã©d":692,"ique":693,"Ġdonc":694,"tres":695,"lement":696,"Ġjeu":697,"avais":698,"ten":699,"elles":700,"Ġenf":701,"Ġcomm":702,"Et":703,"Ã¨rent":704,"prÃ¨s":705,"onne":706,"Ġquelque":707,"Ġrien":708,"Ġquand":709,"od":710,"Ġtou":711,"Ġcomp":712,"Ġapp":713,"Ġtemps":714,"ĠJe":715,"Ã©g":716,"ise":717,"ow":718,"Ġdi":719,"Ã©ri":720,"vous":721,"Ġcoup":722,"Ġsem":723,"Ġjam":724,"Elle":725,"Ġ:":726,"Ġaussi":727,"Ġhomme":728,"Ġab":729,"Ġsous":730,"Ġeu":731,"Ġtous":732,"onsieur":733,"ĠdÃ©s":734,"oire":735,"ich":736,"bre":737,"Ġrec":738,"ants":739,"eurs":740,"rait":741,"gn":742,"ist":743,"ole":744,"Ġatt":745,"ven":746,"auv":747,"Ġtoute":748,"li":749,"ĠÃ©p":750,"Ġhad":751,"ĠdÃ©c":752,"Ġca":753,"rÃ©":754,"riv":755,"Ġret":756,"Ġentre":757,"Ġfort":758,"Ġcela":759,"Ġmom":760,"Ġvotre":761,"Ġmoment":762,"Ġai":763,"oins":764,"Ġfois":765,"aÃ®":766,"ett":767,"Ġhim":768,"ĠO":769,"ĠÃªtre":770,"ave":771,"ĠÂ«":772,"Ġvoy":773,"Ġsou":774,"Ġvie":775,"Ġpos":776,"ro":777,"âĢ¦":778,"Ġjamais":779,"Ġpens":780,"Ce":781,"Ġfais":782,"Ġparl":783,"Ġfer":784,"ĠrÃ©pondit":785,"Ġsent":786,"use":787,"ect":788,"ĠlÃł":789,"Ġyeux":790,"je":791,"Ġrepr":792,"ob":793,"ex":794,"Ġtrois":795,"Ġfemme":796,"ches":797,"Ġvoi":798,"min":799,"are":800,"Ġcap":801,"ile":802,"Ġbeau":803,"iÃ¨":804,"En":805,"Ġport":806,"Ġjour":807,"Ġvoir":808,"Ġcl":809,"Ġmont":810,"Ġpeut":811,"omp":812,"att":813,"Ġvers":814,"ĠÃ©taient":815,"Ã©l":816,"Ġtrav":817,"Ġjusqu":818,"iers":819,"Ġpers":820,"Ġprem":821,"ale":822,"rt":823,"jours":824,"Ġwith":825,"ins":826,"ate":827,"asse":828,"Ġeff":829,"Ġsec":830,"Ġquelques":831,"Ġfit":832,"Ġsuis":833,"ly":834,"Ġvis":835,"Ġrest":836,"uiv":837,"Ġtoujours":838,"oc":839,"arg":840,"Ġvoul":841,"Ġder":842,"ient":843,"th":844,"Ġtu":845,"arr":846,"sez":847,"Ã¢t":848,"Ġni":849,"Les":850,"Ġlaiss":851,"Ġacc":852,"Ġyou":853,"Ġpetit":854,"ĠaprÃ¨s":855,"Ġco":856,"Ġob":857,"dre":858,"ainsi":859,"itu":860,"âĢĶ":861,"og":862,"Ġad":863,"Ġheur":864,"Ġdou":865,"Ġleurs":866,"Ġjeune":867,"ps":868,"Ġavoir":869,"ied":870,"Ġmonsieur":871,"ettre":872,"ide":873,"Ġainsi":874,"Ġmoins":875,"ress":876,"urs":877,"Ġcol":878,"ame":879,"Ġcri":880,"Ġporte":881,"Ġpe":882,"Ġfl":883,"ommes":884,"illes":885,"Ġbon":886,"ell":887,"rai":888,"Ġtoutes":889,"pt":890,"Ġcor":891,"Ġnouv":892,"Ġnot":893,"Ġcou":894,"roit":895,"autre":896,"Ġheures":897,"Ġsont":898,"ulien":899,"Ġwhich":900,"Ġprof":901,"Ġcham":902,"port":903,"Ġher":904,"Ġautre":905,"Ġaff":906,"Ġfin":907,"Ġalors":908,"aille":909,"ies":910,"ente":911,"On":912,"Ġint":913,"Ġis":914,"nes":915,"Art":916,"ice":917,"ĠdÃ©p":918,"agnan":919,"Ġchose":920,"Ġnotre":921,"Artagnan":922,".Â»":923,"Ġsembl":924,"Ġsort":925,"Ġmer":926,"ĠtÃªte":927,"aur":928,"ret":929,"ents":930,"Ġit":931,"ĠtrÃ¨s":932,"puis":933,"Ġst":934,"Ġcher":935,"Ġconn":936,"Ã©cri":937,"ht":938,"Ġarriv":939,"Ġcet":940,"Ġmin":941,"Ã©tais":942,"Ġbl":943,"Ġbou":944,"iqu":945,"Ġmot":946,"Ġdevant":947,"Ãī":948,"Ġten":949,"Ġviv":950,"Ġpouvait":951,"Ġmat":952,"ĠrÃ©s":953,"Ġavaient":954,"Ġmy":955,"Ã©m":956,"Ġsuiv":957,"och":958,"Ġchar":959,"Ġpris":960,"Ġaur":961,"ĠIl":962,"Ġso":963,"ere":964,"Ġsup":965,"Ġpied":966,"emb":967,"ages":968,"ud":969,"Un":970,"Ġheure":971,"tenant":972,"ets":973,"Ġterre":974,"Ġnon":975,"...":976,"Ġcontre":977,"Ġlors":978,"Ã§a":979,"Ġenv":980,"ues":981,"Ġavant":982,"avoir":983,"abri":984,"erv":985,"ath":986,"ĠdÃ©j":987,"ĠmaÃ®":988,"Ġpendant":989,"oil":990,"uite":991,"Ġcontin":992,"Ġple":993,"Ġsal":994,"ature":995,"Ġpu":996,"ould":997,"iez":998,"Ġchez":999,"io":1000,"Ġsour":1001,"Ġtrop":1002,"Ġinst":1003,"ĠCh":1004,"Ġcapit":1005,"tant":1006,"aque":1007,"Ġemp":1008,"Ġsoir":1009,"ĠprÃ©s":1010,"rit":1011,"Ġchev":1012,"iment":1013,"ran":1014,"Ġfaut":1015,"atre":1016,"Ġnuit":1017,"Ġserv":1018,"Ġtomb":1019,"sible":1020,"Ġass":1021,"pendant":1022,"Ġgrande":1023,"Ġvoix":1024,"Ã§on":1025,"Ġsol":1026,"fin":1027,"Ġcert":1028,"irent":1029,"ĠcÃ´t":1030,"Ġcond":1031,"ations":1032,"Ġag":1033,"Ġcompr":1034,"ĠJulien":1035,"Ġconv":1036,"ouss":1037,"ĠdÃ©t":1038,"Ġmonde":1039,"itt":1040,"ĠeÃ»t":1041,"Ġrev":1042,"tement":1043,"Ġsais":1044,"Ġnom":1045,"Ãªtes":1046,"iÃ©":1047,"Ġver":1048,"ĠPar":1049,"ition":1050,"orm":1051,"Ġhave":1052,"act":1053,"Ġassez":1054,"este":1055,"Ġsp":1056,"Ġdepuis":1057,"ke":1058,"Ġshe":1059,"Ġgar":1060,"Ġjours":1061,"ienne":1062,"urent":1063,"Ġcapitaine":1064,"Ġtant":1065,"Ã©ch":1066,"Ġpres":1067,"Ġouv":1068,"eus":1069,"Ġinc":1070,"ici":1071,"ner":1072,"The":1073,"Ġjet":1074,"uer":1075,"Ġsh":1076,"heure":1077,"lev":1078,"tem":1079,"ĠprÃ¨s":1080,"aill":1081,"oug":1082,"Ġvol":1083,"ables":1084,"Ġauc":1085,"'s":1086,"inc":1087,"ÃĢ":1088,"Ġhab":1089,"mer":1090,"Ġmort":1091,"anger":1092,"ive":1093,"Ã©cria":1094,"Ġmaison":1095,"Ġthis":1096,"Ġdern":1097,"imp":1098,"aud":1099,"Ġautres":1100,"Ġby":1101,"Ġcin":1102,"uss":1103,"Ġgl":1104,"zio":1105,"ĠMr":1106,"Ġsouv":1107,"ade":1108,"abrizio":1109,"Ġchambre":1110,"aid":1111,"ĠEt":1112,"Ġmis":1113,"Ġpay":1114,"ures":1115,"ombre":1116,"ib":1117,"Ġor":1118,"Ġconf":1119,"Ġserait":1120,"Ġseul":1121,"Ġquatre":1122,"Ġind":1123,"oign":1124,"Åĵ":1125,"Nous":1126,"Ġhaut":1127,"ĠprÃ©":1128,"Ġbout":1129,"iens":1130,"ix":1131,"cle":1132,"Ġfaisait":1133,"rer":1134,"gl":1135,"Ġfille":1136,"ĠMais":1137,"Ġentend":1138,"fois":1139,"Ġmaintenant":1140,"ĠâĢĵ":1141,"Ġquoi":1142,"Ġcent":1143,"Ġrais":1144,"mÃªme":1145,"quel":1146,"Ġins":1147,"ip":1148,"Ġcan":1149,"Ġ--":1150,"Ġfeu":1151,"Ġtravers":1152,"par":1153,"Ġprom":1154,"Ġes":1155,"Ġfond":1156,"Ġbras":1157,"ĠprÃ©c":1158,"ĠcÃ´tÃ©":1159,"tes":1160,"Ġdoute":1161,"aires":1162,"ĠMme":1163,"Ġno":1164,"Ġeut":1165,"Ġdemanda":1166,"Ġfou":1167,".\"":1168,"Ġpeine":1169,"Ġliv":1170,"Ġreconn":1171,"Ġmil":1172,"yr":1173,"Ġavez":1174,"Ġmatin":1175,"ze":1176,"Ġrapp":1177,"ah":1178,"Ġoff":1179,"avez":1180,"Ġcontinu":1181,"Ġsc":1182,"Ġappr":1183,"Ġparler":1184,"ingt":1185,"Ġmille":1186,"omm":1187,"elf":1188,"Ġmur":1189,"Ġmari":1190,"Ġgo":1191,"Vous":1192,"Al":1193,"Ġph":1194,"Ġplace":1195,"issait":1196,"ach":1197,"lez":1198,"enait":1199,"Ġpetite":1200,"Ġlieu":1201,"Ġprendre":1202,"Ġpauv":1203,"lÃł":1204,"Ġfall":1205,"Ġhommes":1206,"appr":1207,"Ġ_":1208,"Ġvit":1209,"Une":1210,"ardin":1211,"ĠLa":1212,"Ġsouff":1213,"Ã©ment":1214,"Ġbut":1215,",\"":1216,"Ġrend":1217,"nd":1218,"Ġcal":1219,"acc":1220,"coup":1221,"Ġsil":1222,"ouver":1223,"Ġref":1224,"Ġcertain":1225,"Au":1226,"Ã®le":1227,"arb":1228,"Ġdesc":1229,"aise":1230,"oilÃł":1231,"riÃ¨re":1232,"Ġbas":1233,"Ġgros":1234,"Ġnos":1235,"oses":1236,"ĠDieu":1237,"ĠÃ©v":1238,"Ġ\"":1239,"ĠmaÃ®tre":1240,"Ġmains":1241,"Ġvrai":1242,"dess":1243,"Ġbonne":1244,"encro":1245,"Ġpersonne":1246,"encroff":1247,"ĠW":1248,"oid":1249,"Ġfrom":1250,"Ġmieux":1251,"Ġdevait":1252,"ĠQu":1253,"Ġperd":1254,"Ġmilieu":1255,"ma":1256,"Ġren":1257,"ourd":1258,"aÃ®tre":1259,"Ġfig":1260,"ĠFabrizio":1261,"Ġdiff":1262,"rez":1263,"ĠdÃ©jÃł":1264,"Ġtour":1265,"Ġlev":1266,"Ġans":1267,"Ġenfin":1268,"ug":1269,"Ġte":1270,"Ġbes":1271,"Ġdisait":1272,"Ġcrois":1273,"Ġnature":1274,"prit":1275,"ult":1276,"Ġreprit":1277,"Ġesp":1278,"Ġfam":1279,"erait":1280,"ust":1281,"yrus":1282,"onse":1283,"Ġvenait":1284,"ces":1285,"Ġimp":1286,"enir":1287,"ĠOui":1288,"Ils":1289,"Ġpieds":1290,"Ġcompagn":1291,"ements":1292,"eth":1293,"homme":1294,"Ġcelui":1295,"fait":1296,"Ġmad":1297,"Ġocc":1298,"Ġplais":1299,"igne":1300,"Ġbeaucoup":1301,"Ġord":1302,"Ġseulement":1303,"ince":1304,"Ġdist":1305,"Ġvu":1306,"Ġhas":1307,"itude":1308,"Ġnouveau":1309,"Ġtourn":1310,"aint":1311,"esse":1312,"iel":1313,"Ġchaque":1314,"Ġeffet":1315,"Ġjou":1316,"Ġwho":1317,"uch":1318,"Ġvou":1319,"quoi":1320,"antes":1321,"onde":1322,"ĠVous":1323,"Ġallait":1324,"Ġchemin":1325,"ĠvÃ©r":1326,"Ġfus":1327,"thos":1328,"temps":1329,"Puis":1330,"ĠfÃ»t":1331,"Ã©taient":1332,"Ġchoses":1333,"Ġair":1334,"Ġcomment":1335,"ĠÃ©cl":1336,"Ġrep":1337,"Ġloin":1338,"ight":1339,"!Â»":1340,"Ġlar":1341,"Ġfa":1342,"Ġpo":1343,"De":1344,"Ġinstant":1345,"iste":1346,"chÃ©":1347,"Ġdonner":1348,"ientÃ´t":1349,"Ġsoit":1350,"ines":1351,"Ġgens":1352,"rir":1353,"Ġcam":1354,"jet":1355,"Ġobs":1356,"Ġeux":1357,"Ġimm":1358,"Ġreven":1359,"Ġcinq":1360,"moi":1361,"Ġcas":1362,"ĠSm":1363,"Ġsoup":1364,"avant":1365,"erÃ§":1366,"ĠPr":1367,"idÃ©e":1368,"ense":1369,"rais":1370,"Ġvent":1371,"ime":1372,"ĠPencroff":1373,"Ġsemblait":1374,"Ã©v":1375,"ĠÃ©ch":1376,"Ġdix":1377,"quet":1378,"Ġroute":1379,"ĠpÃ¨re":1380,"ĠdÃ©b":1381,"euse":1382,"ĠÃªtes":1383,"ĠSmith":1384,"Ġexc":1385,"oie":1386,"uy":1387,"Ġdo":1388,"Ġvingt":1389,"Ġami":1390,"Ġk":1391,"abord":1392,"arqu":1393,"fl":1394,"essa":1395,"Ġpouss":1396,"Ġquest":1397,"Ġpauvre":1398,"Ġici":1399,"Ġdroit":1400,"iter":1401,"Ġbois":1402,"Ġaut":1403,"iÃ¨res":1404,"cev":1405,"ady":1406,"Ġprop":1407,"Ġhum":1408,"Ġbruit":1409,"ĠGr":1410,"Ġbord":1411,"ange":1412,"Ġseule":1413,"ane":1414,"Ġrou":1415,"Ġpresque":1416,"Ġpremier":1417,"Ġsaid":1418,"ĠdÃ©f":1419,"iques":1420,"onte":1421,"heur":1422,"anqu":1423,"Ġroi":1424,"Ġcompl":1425,"ĠmÃ¨re":1426,"Ã§ait":1427,"Ġoncle":1428,"Ġaurait":1429,"Ã¨v":1430,"Ġcoeur":1431,"Ġelles":1432,"jout":1433,"Ġvois":1434,"Ġexp":1435,"Ġann":1436,"ĠLe":1437,"Ġpartie":1438,"Ġsix":1439,"Ġmois":1440,"Cette":1441,"ances":1442,"ction":1443,"Ġvi":1444,"Ġgen":1445,"Ġlo":1446,"dessus":1447,"Ġreste":1448,"Ġinter":1449,"Ġtable":1450,"ention":1451,"Ġgard":1452,"ĠÃ©l":1453,"arc":1454,"Ġlaqu":1455,"Ġpasser":1456,"Ġtrouver":1457,"ande":1458,"Ġcelle":1459,"Ġgu":1460,"Ġdemi":1461,"endait":1462,"anch":1463,"ĠprÃ©sent":1464,"Ġont":1465,"Ġ1":1466,"Ġpays":1467,"Ã¢mes":1468,"Ġlettre":1469,"Ã¨res":1470,"ots":1471,"Ġgre":1472,"aisse":1473,"Ġsang":1474,"ost":1475,"ĠAr":1476,"Ġens":1477,"aissait":1478,"self":1479,"one":1480,"enn":1481,"Ġsorte":1482,"Ġmit":1483,"Ġvos":1484,"Ġcontr":1485,"Alors":1486,"Ġlorsque":1487,"ellement":1488,"irait":1489,"andis":1490,"Ġrenc":1491,"Ġface":1492,"ĠCyrus":1493,"irer":1494,"ailleurs":1495,"ĠParis":1496,"enf":1497,"ĠbientÃ´t":1498,"ĠMar":1499,"Tout":1500,"Ġemb":1501,"erie":1502,"Ġwould":1503,"Ġone":1504,"ige":1505,"Ġrent":1506,"Si":1507,"uc":1508,"ument":1509,"ĠpremiÃ¨re":1510,"Ġnoir":1511,"ats":1512,"Ġfigure":1513,"Ġta":1514,"eut":1515,"Quand":1516,"Ġprofond":1517,"Ġup":1518,"leur":1519,"oles":1520,"ĠÃī":1521,"Ġpol":1522,"Ġop":1523,"Ġretr":1524,"Ġmen":1525,"Ġprit":1526,"Ġsurpr":1527,"ĠrÃ©c":1528,"Ġabs":1529,"Ġfen":1530,"Ġrap":1531,"ict":1532,"Que":1533,"Ġli":1534,"Pour":1535,"Ġriv":1536,"Ã©qu":1537,"ela":1538,"Ġresp":1539,"Ġbar":1540,"ted":1541,"Ġaller":1542,"ĠMil":1543,"Ġfurent":1544,"Ġwill":1545,"Ġperm":1546,"Ġdom":1547,"Ġextr":1548,"Ġlongtemps":1549,"Ġcommen":1550,"ok":1551,"Ġajout":1552,"ĠÃ©g":1553,"veill":1554,"Ġtard":1555,"chait":1556,"Ġraison":1557,"Ġvue":1558,"di":1559,"Ġbelle":1560,"Ġcroy":1561,"ĠdÃ©l":1562,"Ġmoy":1563,"Ġvieux":1564,"Ġfallait":1565,"Ġmor":1566,"oll":1567,"Ġautour":1568,"mÃ©":1569,"liz":1570,"ome":1571,"ĠdÃ©v":1572,"Ġtranqu":1573,"ĠAthos":1574,"Ġsilence":1575,"ĠChar":1576,"ible":1577,"ras":1578,"Ġretourn":1579,"aff":1580,"Ġbesoin":1581,"ĠÃ¢":1582,"ume":1583,"ieurs":1584,"ancs":1585,"Ġton":1586,"Ġbal":1587,"agne":1588,"anche":1589,"chant":1590,"Ã´te":1591,"Ġvoit":1592,"Ġaucun":1593,"Ġro":1594,"....":1595,"gr":1596,"rÃ©e":1597,"ule":1598,"emain":1599,"Ãªn":1600,"Ġsera":1601,"Ġcependant":1602,"Ġarr":1603,"Ġrel":1604,"ira":1605,"ĠgÃ©n":1606,"Ã©par":1607,"iz":1608,"rible":1609,"orth":1610,"Ġjourn":1611,"abeth":1612,"Cependant":1613,"Th":1614,"Ġput":1615,"Ġgal":1616,"Ġress":1617,"Ġcomb":1618,"Ġwere":1619,"Ġgrands":1620,"tÃ©":1621,"Ġfe":1622,"ĠEh":1623,"Ġlit":1624,"Ġinf":1625,"Ġquestion":1626,"Ġsimp":1627,"reux":1628,"Ġhor":1629,"Ġprod":1630,"cl":1631,"Ġram":1632,"ains":1633,"Ġceux":1634,"lizabeth":1635,"tu":1636,"Ġend":1637,"Ġcur":1638,"Ġsign":1639,"ident":1640,"Ġbeen":1641,"Ġlaquelle":1642,"Ġout":1643,"Ġinv":1644,"arbert":1645,"Ġmadame":1646,"Ġva":1647,"Ġenfant":1648,"Ġpossible":1649,"Ġforce":1650,"ĠFr":1651,"grÃ©":1652,"Ġac":1653,"ience":1654,"ilus":1655,"oth":1656,"ouse":1657,"onner":1658,"ache":1659,"Ġamis":1660,"Ġfai":1661,"Ġfac":1662,"oss":1663,"autilus":1664,"ger":1665,"Ġnav":1666,"Ġfroid":1667,"Ġtrou":1668,"Ġtandis":1669,"cept":1670,"Ġmanqu":1671,"bres":1672,"ind":1673,"pe":1674,"Ġtrans":1675,"abl":1676,"ĠvoilÃł":1677,"ĠDuch":1678,"Ġcheval":1679,"Ġsavoir":1680,"Ġsub":1681,"ĠNon":1682,"ĠDuchessa":1683,"aqu":1684,"mait":1685,"Ġcorps":1686,"Ġsuff":1687,"itÃ´t":1688,"Ġgent":1689,"utes":1690,"king":1691,"Ġlorsqu":1692,"Ġvenir":1693,"Ġtrouvait":1694,"Ġsole":1695,"itÃ©s":1696,"Ġchercher":1697,"Ġquelle":1698,"Ġred":1699,"Ġsee":1700,"Ġdispar":1701,"ast":1702,"ĠlÃ©g":1703,"ĠsÃ»":1704,"Ġconsid":1705,"ĠEn":1706,"Ġlum":1707,"Ġmettre":1708,"Ġbour":1709,"Ġsouvent":1710,"Ġcardin":1711,"endemain":1712,"ablement":1713,"Ġaucune":1714,"aign":1715,"oux":1716,"Ġfat":1717,"ĠpÃ¢":1718,"Ġhabit":1719,"aute":1720,"Ã©nieur":1721,"idi":1722,"Ġcaus":1723,"Ġthey":1724,"ĠRÃªn":1725,"Ġcardinal":1726,"ĠRÃªnal":1727,"Ġhimself":1728,"aurais":1729,"ph":1730,"Ġcouv":1731,"ierre":1732,"argent":1733,"esc":1734,"Ġay":1735,"Ã©tÃ©":1736,"Ġfrapp":1737,"ogg":1738,"Ġdisc":1739,"iere":1740,"els":1741,"ĠfaÃ§on":1742,"ris":1743,"Ġexpl":1744,"Ġplusieurs":1745,"Nautilus":1746,"Ġvisage":1747,"Ġlendemain":1748,"ingÃ©nieur":1749,"Ġplaisir":1750,"Ġfamille":1751,"ĠTh":1752,"Åĵur":1753,"Ġlaisser":1754,"bles":1755,"ern":1756,"ends":1757,"Ġfemmes":1758,"ĠpensÃ©e":1759,"alement":1760,"la":1761,"Ġmauv":1762,"Ġtrem":1763,"avaient":1764,"Ġquitt":1765,"enez":1766,"Ġjeunes":1767,"Ġenfants":1768,"ather":1769,"oh":1770,"erc":1771,"ester":1772,"resse":1773,"ĠSaint":1774,"rant":1775,"Ġparce":1776,"autres":1777,"Ġlitt":1778,"Ġpourtant":1779,"Ġminutes":1780,"eff":1781,"ss":1782,"arde":1783,"ĠgarÃ§on":1784,"Ġappar":1785,"Ġvoyait":1786,"Ġmots":1787,"Ġsoleil":1788,"uire":1789,"iend":1790,"Ġimpos":1791,"Ġdess":1792,"ĠderriÃ¨re":1793,"porter":1794,"ĠAl":1795,"Ġrac":1796,"Ã©rieur":1797,"He":1798,"Ġvoulait":1799,"ov":1800,"Ġve":1801,"Ġever":1802,"Ġpropos":1803,"Ġlet":1804,"Ã©on":1805,"Ġpat":1806,"Ġsens":1807,"Ġtri":1808,"Mon":1809,"Ġrendre":1810,"ĠBon":1811,"Ġprov":1812,"orthos":1813,"ieuse":1814,"Ġviol":1815,"hab":1816,"Ġpen":1817,"ener":1818,"Ġciel":1819,"Ġveux":1820,"Ġadm":1821,"Ġdiffic":1822,"iant":1823,"raient":1824,"uv":1825,"Ġoccup":1826,"RE":1827,"agin":1828,"ĠAh":1829,"ression":1830,"Ġquit":1831,"Ġsat":1832,"Ġthem":1833,"Ġtrait":1834,"Ah":1835,"Ġess":1836,"Ġmoyen":1837,"Ġmous":1838,"occ":1839,"Ġfils":1840,"Ġfix":1841,"oix":1842,"ĠÃ§a":1843,"Ġhuit":1844,"Ġpourquoi":1845,"II":1846,"ĠpassÃ©":1847,"amis":1848,"qui":1849,"ettes":1850,"Ġsentiment":1851,"approch":1852,"Ġir":1853,"Ġsommes":1854,"Ġru":1855,"Ġwe":1856,"tout":1857,"Ġmeme":1858,"Ġdir":1859,"oyer":1860,"Ġsalle":1861,"eÃ»t":1862,"Ġday":1863,"ura":1864,"Ġpap":1865,"Ã®n":1866,"Ġsuite":1867,"endu":1868,"endit":1869,"onneur":1870,"arrÃªt":1871,"Ġlivres":1872,"ĠMilady":1873,"Ġvint":1874,"Ġconvers":1875,"ĠreÃ§":1876,"icul":1877,"cteur":1878,"Ġremarqu":1879,"Ġdernier":1880,"Ġcontinua":1881,"Dans":1882,"Ġbat":1883,"Ġpersonn":1884,"Ġpeur":1885,"Ġpare":1886,"aines":1887,"Ġcir":1888,"Ġmour":1889,"Ġmouv":1890,"issant":1891,"Ġcourt":1892,"ouill":1893,"Ã©cess":1894,"ott":1895,"ards":1896,"Ġsauv":1897,"ales":1898,"Ġdispos":1899,"Ġoubl":1900,"Ġnouvelle":1901,"oqu":1902,"Ġ(":1903,"ĠFogg":1904,"ĠdÃ©sir":1905,"lin":1906,"Ġsomme":1907,"Ġparoles":1908,"Ġwhen":1909,"Ã¨ne":1910,"Ġpouvais":1911,"Ġtranquille":1912,"Ġdr":1913,"aie":1914,"era":1915,"Ġarri":1916,"ĠrÃ©sol":1917,"Ġval":1918,"ĠNem":1919,"Quel":1920,"ĠdÃ©couv":1921,"Ġus":1922,"Ġtoi":1923,"Ã¢ce":1924,"ĠdonnÃ©":1925,"ĠdÃ©cid":1926,"ades":1927,"Ġpartir":1928,"Ġesprit":1929,"ĠNemo":1930,"Ġthere":1931,"mÃ©e":1932,"enant":1933,"ĠnÃ©cess":1934,"urer":1935,"Ġregardait":1936,"ĠPrince":1937,"ĠpÃ©n":1938,"ilett":1939,"less":1940,"Ã¢te":1941,"eter":1942,"euf":1943,"ĠJane":1944,"inaire":1945,"Ġville":1946,"Ġrue":1947,"aÃ®t":1948,"ton":1949,"vent":1950,"Ġsing":1951,"Ġcents":1952,"alitÃ©":1953,"ĠRoch":1954,"Ġtw":1955,"Ġbri":1956,"Ã¨se":1957,"ĠMonsieur":1958,"Ġajouta":1959,"ham":1960,"cha":1961,"ĠHarbert":1962,"Ġdemander":1963,"Ġvoyage":1964,"arguer":1965,"ber":1966,"iles":1967,"Ġanim":1968,"Ġlequel":1969,"Ġentra":1970,"ĠfrÃ¨re":1971,"Ġautant":1972,"ĠOh":1973,"Ġbonheur":1974,"off":1975,"iÃ¨me":1976,"Ġsau":1977,"ars":1978,"omment":1979,"ngl":1980,"Ġare":1981,"Ġplut":1982,"Ġsurtout":1983,"ignor":1984,"arguerite":1985,"ĠPh":1986,"Ġany":1987,"Ġconnaiss":1988,"Ġdiv":1989,"Ġproc":1990,"Ġcru":1991,"range":1992,"Ġsucc":1993,"Ġvas":1994,"orme":1995,"Ch":1996,"Ã¯":1997,"inter":1998,"Ġparfait":1999,"Ġchap":2000,"emment":2001,"Ġgagn":2002,"ĠConte":2003,"ĠmaÃ®tres":2004,"ley":2005,"Ġjoie":2006,"Oui":2007,"usement":2008,"ĠPorthos":2009,"Ġpetits":2010,"ĠCe":2011,"Eh":2012,"Ġparut":2013,"Ġcab":2014,"red":2015,"emble":2016,"ĠCharles":2017,"Ġcirc":2018,"ia":2019,"Ġmurm":2020,"ĠcÃ´te":2021,"Ġayant":2022,"part":2023,"Ġpal":2024,"onnÃ©":2025,"ete":2026,"orge":2027,"ĠrÃª":2028,"ateau":2029,"Ġrapid":2030,"be":2031,"Ġnombre":2032,"Ġsitu":2033,"Ġtenait":2034,"Ġenvir":2035,"Pendant":2036,"ses":2037,"Ġtromp":2038,"Ġtrouva":2039,"tienne":2040,"Ġparole":2041,"Ġcrain":2042,"ĠrÃ©g":2043,"Ġcoups":2044,"rÃ¨s":2045,"Ġcause":2046,"ompagn":2047,"Ġcroire":2048,"mi":2049,"Ġobl":2050,"Ġmarin":2051,"ĠvÃ©ritÃ©":2052,"Ġavons":2053,"Ġyour":2054,"Ġfrancs":2055,"ĠmaniÃ¨re":2056,"Ġcompagnons":2057,"sitÃ´t":2058,"Ġvais":2059,"ĠaussitÃ´t":2060,"Ġconversation":2061,"Ġcompte":2062,"Ġafin":2063,"ussi":2064,"ĠLond":2065,"asser":2066,"Ġsecond":2067,"onge":2068,"ution":2069,"Enfin":2070,"ilitÃ©":2071,"Ġsac":2072,"ity":2073,"ĠSp":2074,"Ġentendu":2075,"ville":2076,"Ġsavait":2077,"Ġmore":2078,"ĠmÃ©d":2079,"Ġvieille":2080,"onseil":2081,"hor":2082,"Ġdoi":2083,"env":2084,"oindre":2085,"Ġfortune":2086,"ĠbÃ¢t":2087,"Ġcamp":2088,"Ã¨vres":2089,"Ġpress":2090,"Ġplac":2091,"Ã®ner":2092,"hui":2093,"vre":2094,"rim":2095,"Ġentendre":2096,"arcy":2097,"Ġtelle":2098,"etre":2099,"amour":2100,"Ġmarqu":2101,"own":2102,"Ġvert":2103,"Ġimpossible":2104,"Ġdur":2105,"anÃ§":2106,"embl":2107,"iÃ¨rement":2108,"Ġcommenc":2109,"olie":2110,"Ġjust":2111,"ĠplutÃ´t":2112,"Ġmanger":2113,"Ġrire":2114,"amb":2115,"ĠgÃ©nÃ©r":2116,"ak":2117,"eaux":2118,"ish":2119,"fter":2120,"Ġfour":2121,"Ġeaux":2122,"bes":2123,"Ġvoiture":2124,"ĠconsidÃ©r":2125,"ĠmÃª":2126,"ĠfenÃªtre":2127,"ack":2128,"aller":2129,"ĠLondres":2130,"Ã®mes":2131,"Ġlib":2132,"ises":2133,"ĠÃ©tions":2134,"Ġplein":2135,"Ġoui":2136,"ĠlumiÃ¨re":2137,"Ġterrible":2138,"Ġrecomm":2139,"Ġgarde":2140,"Ġbatt":2141,"Ġgreat":2142,"ĠidÃ©e":2143,"Ġcre":2144,"Ġlittle":2145,"ute":2146,"Ġlongue":2147,"Par":2148,"Ġsoul":2149,"ĠprÃªt":2150,"issement":2151,"Ġpouvoir":2152,"Ġmalheure":2153,"Ġsatis":2154,"az":2155,"ĠMarguerite":2156,"Ġvoulu":2157,"Ġtent":2158,"Ġpuiss":2159,"ĠmalgrÃ©":2160,"Ġrefus":2161,"Ġpre":2162,"asion":2163,"opp":2164,"Ġcolons":2165,"iait":2166,"Ġlut":2167,"lice":2168,"Ġlarge":2169,"ĠsÃ©ri":2170,"ĠcÅĵur":2171,"cevoir":2172,"Sa":2173,"pect":2174,"ese":2175,"Ġform":2176,"Ã©an":2177,"ĠSir":2178,"Ġappel":2179,"ĠRochester":2180,"rouv":2181,"ĠpiÃ¨":2182,"Ġfav":2183,"ager":2184,"ĠSpilett":2185,"Non":2186,"Ġchac":2187,"ĠdÃ©g":2188,"Ġconven":2189,"ough":2190,"Ġrencont":2191,"ary":2192,"Ã©rÃ¨se":2193,"Ġcoll":2194,"Ġprofess":2195,"action":2196,"jourd":2197,"Ġcalme":2198,"ĠvÃ©rit":2199,"Ġrouge":2200,"rÃ©s":2201,"Ġsome":2202,"Ġquin":2203,"ĠdÃ©sesp":2204,"Ġsouvenir":2205,"Ġracont":2206,"der":2207,"Ġact":2208,"iller":2209,"Ġsavez":2210,"Ġrempl":2211,"Ġtenir":2212,"aheu":2213,"Ġmontre":2214,"Ġregarda":2215,"ry":2216,"Ġnu":2217,"Ġsonge":2218,"tenir":2219,"Ġevery":2220,"bÃ©":2221,"Ġtir":2222,"acieux":2223,"Ġpassion":2224,"Ġretour":2225,"Ġvoulez":2226,"Comme":2227,"ĠdÃ¨s":2228,"Ġhors":2229,"Ġpourrait":2230,"amin":2231,"otte":2232,"Ġaffaire":2233,"Ġcharm":2234,"ĠÃ©tr":2235,"Ġinto":2236,"Son":2237,"nous":2238,"Ġdemeur":2239,"aime":2240,"etÃ©":2241,"Ġfil":2242,"Ġlarmes":2243,"ĠAramis":2244,"?\"":2245,"ĠElle":2246,"Ġvenu":2247,"Ġhasard":2248,"ĠX":2249,"Ġthan":2250,"ĠrÃ©v":2251,"ĠjournÃ©e":2252,"Ġif":2253,"ĠlÃ¨vres":2254,"auche":2255,"ĠaperÃ§":2256,"lus":2257,"Ġvite":2258,"alier":2259,"Ġaband":2260,"?Â»":2261,"AprÃ¨s":2262,"Ġbris":2263,"esprit":2264,"entes":2265,"Ġrob":2266,"Ġpassa":2267,"ettait":2268,"Ġempl":2269,"ĠgrÃ¢ce":2270,"ĠÃ©pau":2271,"ian":2272,"erai":2273,"Ġcommun":2274,"Ã©gl":2275,"Ġeffr":2276,"ys":2277,"Ġdame":2278,"ĠElizabeth":2279,"Ġsalon":2280,"ĠprÃ©cip":2281,"Ġrapport":2282,"Ġquitter":2283,"uge":2284,"ontre":2285,"Ġperdu":2286,"Ġvoud":2287,"Ġmilles":2288,"Ġcharg":2289,"sieurs":2290,"Ġfront":2291,"ĠRe":2292,"Ġtravail":2293,"ĠÃ©clat":2294,"Ġobserv":2295,"Ġble":2296,"Ġmarch":2297,"usqu":2298,"ely":2299,"Ġwhat":2300,"Ġheureux":2301,"Ġfatig":2302,"ĠdÃ®ner":2303,"Ġsept":2304,"ings":2305,"des":2306,"ought":2307,"partout":2308,"Julien":2309,"Ġfaite":2310,"Ġcria":2311,"Ces":2312,"Ġpain":2313,"ĠConseil":2314,"assepartout":2315,"Ġcould":2316,"uits":2317,"arris":2318,"lex":2319,"Ġvag":2320,"Ġrestait":2321,"avantage":2322,"Ã¨te":2323,"Ġbouche":2324,"itions":2325,"igneur":2326,"ock":2327,"Ġmod":2328,"org":2329,"Ġmade":2330,"ĠrÃ©pondre":2331,"Ġshall":2332,"bout":2333,"oche":2334,"Ã¨le":2335,"oyez":2336,"Ġsourire":2337,"Oh":2338,"oupe":2339,"Wh":2340,"ded":2341,"Ġdeven":2342,"Ġsortir":2343,"Ġdos":2344,"amment":2345,"ĠMa":2346,"Ġbless":2347,"ĠdÃ©m":2348,"Ġbrill":2349,"ĠtrouvÃ©":2350,"Ġprison":2351,"fr":2352,"Ġtel":2353,"Ġroug":2354,"outer":2355,"ĠcrÃ©":2356,"Ġjuste":2357,"Ġsimple":2358,"Ġremont":2359,"ection":2360,"ĠÃ©trange":2361,"Ġpuisque":2362,"Ġvivre":2363,"ĠÃ¢me":2364,"Ġbo":2365,"ĠHen":2366,"ĠdÃ©cl":2367,"oun":2368,"anches":2369,"Ġrester":2370,"Ġfoule":2371,"ĠNab":2372,"Ġsold":2373,"eusement":2374,"Ġnavire":2375,"her":2376,"Ġfilles":2377,"Ġesc":2378,"entement":2379,"Ġparmi":2380,"Ġdomest":2381,"IT":2382,"Ġdorm":2383,"Ġquart":2384,"ides":2385,"Ġpassage":2386,"exp":2387,"Ġsecret":2388,"Ġcinqu":2389,"entend":2390,"lem":2391,"Ã¨ve":2392,"rier":2393,"Ã´le":2394,"Ġsus":2395,"arm":2396,"uses":2397,"ĠNous":2398,"It":2399,"way":2400,"Ġstr":2401,"ouff":2402,"Ġtend":2403,"ick":2404,"Ġparti":2405,"Ġregarder":2406,"Ġfri":2407,"arch":2408,"istence":2409,"Ġrespect":2410,"Ġsingul":2411,"eil":2412,"Ġdoit":2413,"Ã©rer":2414,"Ġjug":2415,"Ġprin":2416,"ĠderniÃ¨re":2417,"Ġpropre":2418,"Ġmousquet":2419,"Av":2420,"ym":2421,"ister":2422,"Ġmeille":2423,"ication":2424,"Ã´tel":2425,"Ġparticul":2426,"Ġhist":2427,"Ġleva":2428,"face":2429,"ree":2430,"Ġeven":2431,"acle":2432,"iver":2433,"Quant":2434,"Ġposs":2435,"ood":2436,"Ġquar":2437,"Ã®t":2438,"Des":2439,"Ġsait":2440,"Ġenn":2441,"Ġensemble":2442,"Ġfle":2443,"Ġgouver":2444,"ĠNed":2445,"Ġlang":2446,"Ġtort":2447,"Ġdoig":2448,"ck":2449,"aig":2450,"Ġcuis":2451,"ann":2452,"Ġtres":2453,"Ġcamar":2454,"Ġdest":2455,"Ġpois":2456,"Ġafter":2457,"itation":2458,"Ġdites":2459,"Ġsoci":2460,"udence":2461,"Ġdoigt":2462,"ĠÃĢ":2463,"Ġpou":2464,"Ġhand":2465,"Ġhaute":2466,"osse":2467,"Ġvolont":2468,"Ã§ons":2469,"Ġmouvement":2470,"ueur":2471,"Ġbasse":2472,"andide":2473,"ĠÃ©m":2474,"ler":2475,"lnes":2476,"ĠtraÃ®":2477,"Ġkn":2478,"Ġlam":2479,"oyÃ©":2480,"Ġconse":2481,"ĠrÃ©f":2482,"ĠprÃ©sence":2483,"ĠMrs":2484,"Ġrappel":2485,"Ġtrembl":2486,"occup":2487,"ĠK":2488,"oubl":2489,"urait":2490,"onna":2491,"Ġcourant":2492,"Ġpus":2493,"erte":2494,"rie":2495,"ĠMaheu":2496,"!\"":2497,"cur":2498,"oque":2499,"Ġfis":2500,"Ġparlait":2501,"Ġfur":2502,"ĠrÃ©pÃ©t":2503,"Ã©dÃ©on":2504,"entre":2505,"Ġpours":2506,"ments":2507,"ĠMlle":2508,"ĠÂ»,":2509,"Ġabsol":2510,"dire":2511,"mma":2512,"Ġpasse":2513,"Ġey":2514,"ĠsiÃ¨":2515,"Ġgrandes":2516,"Ġfaisant":2517,"Ġdouc":2518,"hors":2519,"Ġduc":2520,"ailles":2521,"arer":2522,"Ġetre":2523,"Ġquelqu":2524,"atherine":2525,"Ġessay":2526,"Ġhal":2527,"Ġchant":2528,"issaient":2529,"ope":2530,"ĠdÃ©part":2531,"Ġenviron":2532,"CH":2533,"ves":2534,"assi":2535,"Ġsud":2536,"Ġamour":2537,"Ġapport":2538,"obs":2539,"Ġtomber":2540,"Ġsav":2541,"aissez":2542,"Ġris":2543,"Ġray":2544,"igh":2545,"Ġgrav":2546,"ords":2547,"Ġimport":2548,"inte":2549,"Ġpard":2550,"Ġtrente":2551,"aperÃ§":2552,"Ġanc":2553,"ĠthÃ©":2554,"eaulnes":2555,"expl":2556,"Ġcav":2557,"Ġgauche":2558,"iche":2559,"oncer":2560,"Ġensuite":2561,"Ġprob":2562,"Ġvoyant":2563,"ĠÃ©clair":2564,"Ġmauvais":2565,"ty":2566,"vers":2567,"Ġsigne":2568,"ites":2569,"Ġfaites":2570,"Ġdonnait":2571,"Ġmariage":2572,"flÃ©ch":2573,"Ġoblig":2574,"Ġtheir":2575,"Ġthese":2576,"Ġdemande":2577,"ĠpÃ¢le":2578,"fs":2579,"Ġlis":2580,"ĠsÃ©":2581,"Ġcoul":2582,"ilde":2583,"onst":2584,"Ġrencontre":2585,"Ġchacun":2586,"Ġsavais":2587,"ĠmÃ©t":2588,"Ġperdre":2589,"Ġdistance":2590,"Ġupon":2591,"Ġarriver":2592,"Ġgouvern":2593,"In":2594,"af":2595,"eng":2596,"ĠTrÃ©":2597,"ohn":2598,"reur":2599,"Ġaujourd":2600,"ife":2601,"athilde":2602,"ron":2603,"Ġdavantage":2604,"Ġreporter":2605,"ices":2606,"Ġattend":2607,"ĠsÃ»r":2608,"eterre":2609,"Ġsurface":2610,"Ã©rieure":2611,"ĠdiffÃ©r":2612,"ĠextrÃªme":2613,"Ġsombre":2614,"old":2615,"ĠÃ©n":2616,"Ġvivement":2617,"ode":2618,"Ġjardin":2619,"Ġonly":2620,"Ġregret":2621,"Ġsentait":2622,"Ġdisting":2623,"ngleterre":2624,"ĠdÃ©r":2625,"ĠdÃ©ch":2626,"Ġarriva":2627,"Ġdebout":2628,"led":2629,"Ġfum":2630,"itiÃ©":2631,"Ġchien":2632,"Ġsurprise":2633,"gÃ©":2634,"jets":2635,"Ġtap":2636,"insi":2637,"ĠhÃ©r":2638,"Ġparaissait":2639,"illage":2640,"Ġforme":2641,"Ġpassait":2642,"aleur":2643,"oud":2644,"Â»,":2645,"ĠrÃ©ponse":2646,"Ġcontent":2647,"AP":2648,"Ġpron":2649,"Ġimagin":2650,"ences":2651,"Est":2652,"ĠY":2653,"erver":2654,"ita":2655,"Ġvoulut":2656,"ĠBonacieux":2657,"Ġmus":2658,"Ġcommand":2659,"aurait":2660,"ng":2661,"romp":2662,"reuse":2663,"Ġnour":2664,"Ġinqui":2665,"ĠbrÃ»":2666,"Ġsuivant":2667,"Ġpromen":2668,"rons":2669,"Ġtriste":2670,"ordre":2671,"Ġeffort":2672,"Ġcheveux":2673,"Ġrevenir":2674,"yrt":2675,"uie":2676,"ĠMole":2677,"Ġsujet":2678,"Ġouvert":2679,"ĠmaÃ®tresse":2680,"yrton":2681,"Ġsuivre":2682,"fore":2683,"ple":2684,"son":2685,"Ġbonn":2686,"Ġtrain":2687,"ĠDarcy":2688,"Ġvery":2689,"Ã©b":2690,"Ġtime":2691,"Ġavais":2692,"Ġresta":2693,"Ġ2":2694,"Ãªtres":2695,"ĠcolÃ¨re":2696,"Ġpubl":2697,"Ġchevaux":2698,"uir":2699,"utile":2700,"ĠSi":2701,"Ġvoici":2702,"Ġservice":2703,"Cela":2704,"Ġmiss":2705,"Ġeng":2706,"ĠrÃ©flÃ©ch":2707,"Ġvraiment":2708,"Ġrelev":2709,"ĠarrÃªt":2710,"Ġcombien":2711,"Ġmagn":2712,"hed":2713,"ingley":2714,"Ġatte":2715,"Ġsemble":2716,"Ġveille":2717,"Ġquant":2718,"Ġavions":2719,"Ġsay":2720,"ivement":2721,"Ġmarche":2722,"ally":2723,"Ġmessieurs":2724,"ĠarrivÃ©":2725,"Ġcomprendre":2726,"ĠThÃ©rÃ¨se":2727,"Qui":2728,"Ġjoy":2729,"Ã¨tres":2730,"ames":2731,"oiselle":2732,"ĠLand":2733,"Ġcaract":2734,"Ġregardant":2735,"Or":2736,"ning":2737,"Ġrepos":2738,"ĠGran":2739,"Ġcourage":2740,"euses":2741,"Ġtwo":2742,"Ġtaille":2743,"ingoire":2744,"tru":2745,"Ġposition":2746,"Ġshould":2747,"Ġsituation":2748,"ĠTrÃ©ville":2749,"Lors":2750,"wn":2751,"Ġcontraire":2752,"Ġmoit":2753,"ĠÃ©tonn":2754,"ĠLaur":2755,"ĠMarches":2756,"Ġcinquante":2757,"Ġseconde":2758,"Ġjeta":2759,"ĠGranite":2760,"Ġfaisaient":2761,"ennet":2762,"_,":2763,"ld":2764,"uve":2765,"Ġalla":2766,"Ġpouvaient":2767,"Ġattention":2768,"Ġcanot":2769,"Ġdroite":2770,"Ġquinze":2771,"Ġchang":2772,"Ġforc":2773,"ĠprÃ©v":2774,"Ġpierre":2775,"ates":2776,"Ġimmob":2777,"ĠsÃ©par":2778,"Ġvin":2779,"Ġlat":2780,"Ã¢ch":2781,"ails":2782,"Ġmyst":2783,"ĠdÃ»":2784,"Ġpense":2785,"itait":2786,"ĠSt":2787,"Ġarg":2788,"Ġdevin":2789,"ĠdÃ©jeu":2790,"Ġdescend":2791,"Ġretrouv":2792,"Ġprofesseur":2793,"honneur":2794,"lles":2795,"Ġdehors":2796,"Ġdevoir":2797,"Ġdonna":2798,"ĠmisÃ©r":2799,"Ġcad":2800,"anÃ§a":2801,"Ġparc":2802,"Ġdiable":2803,"Ġpenser":2804,"Ġemport":2805,"Ġendroit":2806,"Ġlog":2807,"Ġore":2808,"aprÃ¨s":2809,"Ġdanger":2810,"unes":2811,"here":2812,"Ġconst":2813,"Ġcompt":2814,"hum":2815,"lam":2816,"nÃ©":2817,"erm":2818,"Ġchair":2819,"ifique":2820,"liqu":2821,"Ġgenoux":2822,"arrÃªta":2823,"Ġmourir":2824,"Ã¢teau":2825,"CHAP":2826,"lait":2827,"inst":2828,"Ã©cl":2829,"ĠCatherine":2830,"Ġarm":2831,"assÃ©":2832,"Ġportait":2833,"Ġsuppl":2834,"House":2835,"rine":2836,"Ġid":2837,"ĠprÃ©par":2838,"Ġimpr":2839,"Ġmalheur":2840,"ĠJean":2841,"Ġpleine":2842,"yp":2843,"Ã©tu":2844,"Ġconc":2845,"Ġmou":2846,"Ġfir":2847,"Ġreine":2848,"imes":2849,"acre":2850,"ĠPour":2851,"Ġregards":2852,"attend":2853,"Ġlettres":2854,"ĠmoitiÃ©":2855,"ĠLaurent":2856,"ness":2857,"Ġpoit":2858,"Ġmet":2859,"ĠtÃ©m":2860,"urÃ©":2861,"Ġthought":2862,"Ġarbres":2863,"auss":2864,"Ġsin":2865,"indre":2866,"ĠFrance":2867,"Ġcirconst":2868,"ĠÃ©trang":2869,"Ses":2870,"ked":2871,"rois":2872,"oureux":2873,"Ġcoin":2874,"Ġmoindre":2875,"Ġvain":2876,"Ġroul":2877,"ĠGÃ©dÃ©on":2878,"sement":2879,"Ġplan":2880,"ĠCan":2881,"ĠAlice":2882,"ellig":2883,"Tu":2884,"ouis":2885,"Ã¢tre":2886,"Ġdemeure":2887,"lia":2888,"quels":2889,"ĠÃītienne":2890,"ĠAlors":2891,"ĠÃ©paules":2892,"erent":2893,"Ġfol":2894,"ĠÃ©tant":2895,"ĠPassepartout":2896,"ĠdÃ©pl":2897,"Ġmorce":2898,"Ġcouvert":2899,"ĠdÃ©clar":2900,"00":2901,"Ġneuf":2902,"ĠMeaulnes":2903,"ĠrÃ©pondis":2904,"Ġcertainement":2905,"Ġsatisf":2906,"LÃł":2907,"Ġveut":2908,"elopp":2909,"otion":2910,"ĠNe":2911,"ious":2912,"jest":2913,"Ġsoin":2914,"Ġache":2915,"Ġdel":2916,"Ġnord":2917,"Ġhabitu":2918,"ĠÃ©chapp":2919,"ght":2920,"ordinaire":2921,"Ġpouvez":2922,"Ġfar":2923,"Ġjuge":2924,"Ġtravaill":2925,"iquer":2926,"Ġspect":2927,"Ġpoursuiv":2928,"Ġaig":2929,"Ġlaissa":2930,"Ġnouvelles":2931,"ĠprÃ©f":2932,"Ġquarante":2933,"Ġcours":2934,"Ġrang":2935,"rif":2936,"Ġtermin":2937,"Ġabout":2938,"ĠlaissÃ©":2939,"Ġrevint":2940,"Ġeyes":2941,"Ġcous":2942,"Ġvient":2943,"elton":2944,"aintenant":2945,"ĠHarris":2946,"Ġdemandai":2947,"Ġpensa":2948,"Ġlibre":2949,"Ġparfaitement":2950,"iff":2951,"Ġentrer":2952,"Ġheureuse":2953,"ĠdÃ©lic":2954,"Ġdemain":2955,"Ġem":2956,"ateur":2957,"ĠÃ©cout":2958,"Ġlivre":2959,"Ġreconnaiss":2960,"ĠannÃ©es":2961,"lelia":2962,"ileas":2963,"iance":2964,"ĠUn":2965,"Ġnoire":2966,"Ġover":2967,"Ġappart":2968,"Ġstup":2969,"Ã©glise":2970,"Ã¢che":2971,"ĠÃ©lev":2972,"Ġserais":2973,"Ġcach":2974,"ĠOn":2975,"Ġsecou":2976,"Ġrapidement":2977,"VoilÃł":2978,"Ġos":2979,"Ġoth":2980,"oires":2981,"ueil":2982,"Ġcris":2983,"Ġbefore":2984,"Ġpremiers":2985,"ĠvÃ©ritable":2986,"Ġmost":2987,"Ġhers":2988,"agÃ©":2989,"asses":2990,"Ġvoyez":2991,"usquement":2992,"Ġpont":2993,"Ġtirer":2994,"meme":2995,"ĠÃ©tat":2996,"ĠMathilde":2997,"ĠagrÃ©":2998,"Ġlook":2999,"Ġfacile":3000,"Ġpoitrine":3001,"Ġbec":3002,"Ġnever":3003,"ote":3004,"Ġfranch":3005,"Ġaim":3006,"Ġdown":3007,"ĠmÃ©p":3008,"Ġtete":3009,"onnait":3010,"Ã¢me":3011,"izon":3012,"Ġprinci":3013,"eorge":3014,"lons":3015,"Ġour":3016,"Ġsout":3017,"ompl":3018,"ĠprÃ©t":3019,"ĠPl":3020,"ated":3021,"Ġfini":3022,"con":3023,"Ġbel":3024,"ĠDe":3025,"ĠJim":3026,"ĠVotre":3027,"Ġlongues":3028,"Ġsuffis":3029,"Ġlibert":3030,"Ġthen":3031,"Ġallez":3032,"Ġadmir":3033,"Ġdestin":3034,"Ġknow":3035,"anim":3036,"olmes":3037,"ĠCandide":3038,"Ġyoung":3039,"ussent":3040,"At":3041,"Mme":3042,"ĠQue":3043,"Ġlentement":3044,"Ġsoi":3045,"Ã©rÃªt":3046,"Ġdonne":3047,"Sur":3048,"Ġdents":3049,"Ġlife":3050,"ision":3051,"Ġbateau":3052,"Ã©tr":3053,"ĠauprÃ¨s":3054,"ĠrÃ©veill":3055,"Ġattendre":3056,"Ġassis":3057,"Ġspe":3058,"ĠespÃ¨":3059,"ĠdÃ©jeuner":3060,"Ar":3061,"Ġdress":3062,"Ġprenait":3063,"amp":3064,"ives":3065,"ĠLy":3066,"ayant":3067,"Ġtrouve":3068,"Ġmonter":3069,"Ã©loign":3070,"Ġblanc":3071,"Ġgentlem":3072,"Ġcampagne":3073,"Tous":3074,"hÃ´tel":3075,"land":3076,"Ġmust":3077,"erne":3078,"Ġbais":3079,"aude":3080,"cep":3081,"ĠreconnaÃ®tre":3082,"Ġfaud":3083,"amille":3084,"ĠMont":3085,"emple":3086,"Ġagain":3087,"Ã©chapp":3088,"Ġdifficile":3089,"Fabrizio":3090,"ful":3091,"Ġlarg":3092,"Ġhur":3093,"Ġgout":3094,"Ġapres":3095,"Ã©di":3096,"Ġphras":3097,"........":3098,"Ġmurmura":3099,"Ġpav":3100,"Ãªter":3101,"ĠLes":3102,"Ġard":3103,"ĠÃ©crit":3104,"Ġdirection":3105,"Ġhauteur":3106,"Ġquoique":3107,"Ġhistoire":3108,"Ġfirst":3109,"Ġdim":3110,"Ġvaisse":3111,"ĠBingley":3112,"Ġterr":3113,"ITRE":3114,"CHAPITRE":3115,"Comment":3116,"Ġmons":3117,"Ãªcher":3118,"ifs":3119,"ĠÃ©prouv":3120,"Ġcompris":3121,"Ġpolit":3122,"Aussi":3123,"fort":3124,"ral":3125,"Ġnul":3126,"Ġrej":3127,"rice":3128,"Ã©rÃ©":3129,"appel":3130,"Ġsortit":3131,"Ne":3132,"dain":3133,"lant":3134,"lot":3135,"Ġait":3136,"ĠprÃªtre":3137,"Ġart":3138,"Ġaffaires":3139,"cin":3140,"Ġcord":3141,"arriv":3142,"Ã§ant":3143,"Ġtrouvai":3144,"Ġfaim":3145,"ĠnÃ©cessaire":3146,"ĠpÃ»t":3147,"Ġgui":3148,"Ġmake":3149,"eusse":3150,"Ġfont":3151,"Ã»mes":3152,"Ġdevaient":3153,"ieusement":3154,"Ġquelquefois":3155,"Ġpere":3156,"Ġressembl":3157,"Ġmill":3158,"ires":3159,"Ġway":3160,"ĠCl":3161,"ned":3162,"odo":3163,"Ġjambes":3164,"ogne":3165,"let":3166,"oÃ¹":3167,"oeil":3168,"Ġbaiss":3169,"Ġprot":3170,"amais":3171,"Ġflam":3172,"Ġtroubl":3173,"Elizabeth":3174,"ges":3175,"Ġdid":3176,"onie":3177,"Ġbet":3178,"orn":3179,"Ġcharge":3180,"Ġz":3181,"Ġhapp":3182,"ession":3183,"Ġcontem":3184,"ĠforÃªt":3185,"Ġvisite":3186,"Ġmerve":3187,"iquement":3188,"Ġcompagnie":3189,"Ġexcell":3190,"escalier":3191,"Ġdifficult":3192,"Ġrobe":3193,"Toute":3194,"Ġligne":3195,"Ġpist":3196,"eries":3197,"ĠhÃ©s":3198,"Ġinstants":3199,"ĠpiÃ¨ce":3200,"ocher":3201,"aces":3202,"Ġbrusquement":3203,"Ġpetites":3204,"ield":3205,"This":3206,"Du":3207,"isc":3208,"Ġvoil":3209,"ueill":3210,"Ġmange":3211,"Ġdouleur":3212,"Ġcoucher":3213,"uait":3214,"Ġfoi":3215,"Ġbre":3216,"Ġchaud":3217,"Ġvenue":3218,"ĠconsÃ©qu":3219,"Ġlaissait":3220,"Ġgood":3221,"ouverte":3222,"Ġsurpris":3223,"Ainsi":3224,"Ġdout":3225,"ouer":3226,"Ġtal":3227,"lever":3228,"Ġmalade":3229,"Ġclair":3230,"ĠParma":3231,"Ġrivage":3232,"ĠcommenÃ§ait":3233,"Ġprincip":3234,"But":3235,"hing":3236,"Ġavent":3237,"ĠFran":3238,"ĠrÃ©un":3239,"Ġferm":3240,"thing":3241,"Ġsuppos":3242,"Ġnaturelle":3243,"enfant":3244,"Ġpapier":3245,"ĠreÃ§u":3246,"Ġchapeau":3247,"Ġmarquis":3248,"Ġsusp":3249,"bas":3250,"Ġach":3251,"antÃ©":3252,"iennes":3253,"ĠrÃ©pliqu":3254,"Ġferme":3255,"Ġcrainte":3256,"ĠrÃ©flex":3257,"Ġpan":3258,"Ġtor":3259,"Ġeuss":3260,"ĠconnaÃ®tre":3261,"Ġoffic":3262,"Pourquoi":3263,"Ma":3264,"ercev":3265,"Ġber":3266,"Ġwor":3267,"Ġallons":3268,"ĠpensÃ©es":3269,"Ġcamarades":3270,"Ã©tude":3271,"ĠmÃ©l":3272,"oman":3273,"Ġentr":3274,"retÃ©":3275,"Ġvaste":3276,"lect":3277,"Ġlad":3278,"Ġjolie":3279,"Ġchaise":3280,"Ġprojet":3281,"Ġgrosse":3282,"Ġsaut":3283,"ĠMon":3284,"trait":3285,"Ġsemaine":3286,"Ġpensait":3287,"Ġdoux":3288,"importe":3289,"ĠcaractÃ¨re":3290,"Ġrass":3291,"ĠchÃ¢teau":3292,"ĠComment":3293,"Ġangl":3294,"esses":3295,"illon":3296,"exc":3297,"Ġgliss":3298,"Ġretrouver":3299,"ĠmÃ©dec":3300,"ĠsociÃ©tÃ©":3301,"Ġother":3302,"cul":3303,"Ġmach":3304,"Ġcraign":3305,"Ġexistence":3306,"Ġblanche":3307,"ĠbÃ¢timent":3308,"Ġnow":3309,"Ġveu":3310,"abbÃ©":3311,"ositÃ©":3312,"Ġceci":3313,"Ġmay":3314,"ĠGringoire":3315,"Ġachev":3316,"Sans":3317,"ĠmÃ©r":3318,"Ġfourn":3319,"its":3320,"Ġpluie":3321,"Ġwell":3322,"oph":3323,"appar":3324,"Ġcondition":3325,"Ġabsolument":3326,"nent":3327,"Ġvap":3328,"Ġlac":3329,"Ġgeste":3330,"Ġvenaient":3331,"ĠHolmes":3332,"Ġappe":3333,"Ġservir":3334,"ĠespÃ©r":3335,"affaire":3336,"Ġmauvaise":3337,"asim":3338,"Ġchass":3339,"onnu":3340,"Ġferait":3341,"Ġporter":3342,"Ġgentil":3343,"Ġja":3344,"Ġmere":3345,"Ġthr":3346,"ĠparlÃ©":3347,"Ġorg":3348,"Depuis":3349,"ĠlÃ©gÃ¨re":3350,"ÂĴ":3351,"Ġres":3352,"adame":3353,"Ġprofonde":3354,"Ġdocteur":3355,"ĠtraÃ®n":3356,"ilement":3357,"Ġdois":3358,"ili":3359,"ointe":3360,"Ġmoments":3361,"Ġchamp":3362,"Åĵil":3363,"asimodo":3364,"Ã©f":3365,"Ġriche":3366,"oln":3367,"ĠClelia":3368,"Ġdisant":3369,"ĠDE":3370,"incoln":3371,"ĠgoÃ»t":3372,"ft":3373,"Ġfant":3374,"Ġcome":3375,"Ġexamin":3376,"Ġcelles":3377,"ĠreprÃ©s":3378,"Ġembarr":3379,"Ġlike":3380,"Ġsentiments":3381,"Ġjustice":3382,"Ġmalheureux":3383,"Ġdomestique":3384,"jestÃ©":3385,"can":3386,"hait":3387,"ari":3388,"arn":3389,"iser":3390,"uns":3391,"ĠCamille":3392,"Ġang":3393,"Ġjusque":3394,"Ġretomb":3395,"Ġbeaux":3396,"Ġjeter":3397,"Ġimmense":3398,"ĠcommenÃ§":3399,"Ġmeur":3400,"Ġbons":3401,"Ġprend":3402,"riers":3403,"ĠÃ©troit":3404,"Ġmalad":3405,"Ġdouce":3406,"Ġtomba":3407,"Ġlieues":3408,"ĠpÃ©nÃ©t":3409,"bus":3410,"Ġmu":3411,"inct":3412,"Ġvillage":3413,"emoiselle":3414,"Ġrepl":3415,"Ġthree":3416,"Ġmesure":3417,"Ġbeg":3418,"istes":3419,"ered":3420,"curitÃ©":3421,"ĠidÃ©es":3422,"bon":3423,"Ġpourrais":3424,"idemment":3425,"Ġheart":3426,"Ġtuer":3427,"Ġcrime":3428,"paravant":3429,"Ġfound":3430,"Ġoccasion":3431,"ĠCanad":3432,"Ġcle":3433,"Ġcess":3434,"Ġmag":3435,"ĠmÃ¨tres":3436,"Ġhow":3437,"Ġpoche":3438,"Ġlove":3439,"ĠcommenÃ§a":3440,"horizon":3441,"cÃ©an":3442,"uÃ©":3443,"umes":3444,"Ġke":3445,"inion":3446,"Ġguer":3447,"ands":3448,"Ġbrave":3449,"Ġallaient":3450,"Ġcertaine":3451,"Ġdescendre":3452,"Ġplaisant":3453,"Ġgenre":3454,"Ġrelig":3455,"Athos":3456,"Maintenant":3457,"Ġlire":3458,"usion":3459,"ĠtantÃ´t":3460,"lÃ©":3461,"tion":3462,"ric":3463,"endue":3464,"ĠCont":3465,"Ġfriss":3466,"ĠBennet":3467,"Ġsouhait":3468,"extr":3469,"Ġflots":3470,"hist":3471,"ject":3472,"Ġlune":3473,"Ã©ress":3474,"Ġpes":3475,"Ġrav":3476,"Ġgai":3477,"Ġrecevoir":3478,"Ġprix":3479,"ĠarrivÃ©e":3480,"ĠPhileas":3481,"Ġconnaissance":3482,"aÃ¯":3483,"form":3484,"erci":3485,"Ġrich":3486,"Ġparle":3487,"riere":3488,"Ġgrave":3489,"Ġforte":3490,"ĠFelton":3491,"Ġdoucement":3492,"cre":3493,"ove":3494,"Ġtellement":3495,"Ġhonn":3496,"aving":3497,"Ġchange":3498,"Ã©ration":3499,"idence":3500,"Ġwithout":3501,"Ġsupp":3502,"ON":3503,"ĠmÃ©n":3504,"elon":3505,"Ġnez":3506,"ĠVer":3507,"Ġcame":3508,"Ġcroyait":3509,"Ġtransport":3510,"Ġsommeil":3511,"Ġmidi":3512,"Ġfoll":3513,"Ġchois":3514,"Ġaccompagn":3515,"ĠdÃ©ja":3516,"Ġdirige":3517,"Ġbleu":3518,"Ġherself":3519,"ĠmÃ©pris":3520,"ĠCanadien":3521,"pent":3522,"Ġsoix":3523,"entendre":3524,"Ġbelles":3525,"Ġchance":3526,"Ġconcl":3527,"Ġvoyag":3528,"ĠbeautÃ©":3529,"Ġvoulais":3530,"Ġaura":3531,"ĠimmÃ©di":3532,"Ġsimplement":3533,"Ġpeau":3534,"Ġwent":3535,"Ã©cut":3536,"ĠÃ©qu":3537,"Ġsentit":3538,"Ġsembla":3539,"ĠÃ©loign":3540,"ĠguÃ¨re":3541,"Ġeffray":3542,"ep":3543,"rup":3544,"Ġdames":3545,"olog":3546,"ignes":3547,"venir":3548,"dessous":3549,"oeu":3550,"Ġvict":3551,"ission":3552,"Ġverre":3553,"Ġraisonn":3554,"rage":3555,"ĠÃ®le":3556,"istre":3557,"rid":3558,"riÃ¨res":3559,"aval":3560,"Ġplant":3561,"atement":3562,"Ġdouze":3563,"Ġautrefois":3564,"Ġgoing":3565,"ĠriviÃ¨re":3566,"Ġdisparu":3567,"ickham":3568,"Ġimmobile":3569,"Ġspectacle":3570,"rÃ©t":3571,"Ġjol":3572,"orÃ©":3573,"Ã©tat":3574,"Ġconsol":3575,"Ġdouble":3576,"Ġtake":3577,"Ġvoudrais":3578,"Ġplateau":3579,"Ġois":3580,"aband":3581,"Ã©rence":3582,"Ġallum":3583,"ĠFix":3584,"ĠfenÃªtres":3585,"Ġdoigts":3586,"ks":3587,"ĠtÃ´t":3588,"Ġbi":3589,"med":3590,"Ã¨g":3591,"Ã¨me":3592,"ĠLord":3593,"ombres":3594,"ĠrÃ©d":3595,"Ġcoqu":3596,"Ġprisonn":3597,"Ġconduis":3598,"Ġentendit":3599,"Ġnoble":3600,"Ġcompagnon":3601,"Ġretourner":3602,"Ġgagner":3603,"Ġauquel":3604,"ĠAv":3605,"ared":3606,"Ġarrivait":3607,"Ġpolice":3608,"Ġfavor":3609,"Ġfollow":3610,"Ġsoixante":3611,"Ġpoign":3612,"anou":3613,"Ġmight":3614,"Ġvig":3615,"iennent":3616,"Ġchaleur":3617,"geois":3618,"Ġfaits":3619,"Ġflot":3620,"ĠdÃ©tails":3621,"Ġordre":3622,"anchet":3623,"ĠlibertÃ©":3624,"Ġgentilhomme":3625,"ub":3626,"ĠparaÃ®t":3627,"avons":3628,"Ġinn":3629,"ĠCr":3630,"Ġpersu":3631,"ĠsoirÃ©e":3632,"Cyrus":3633,"You":3634,"Ġmorte":3635,"Ġrecher":3636,"Ġprise":3637,"intÃ©rieur":3638,"Ġconduite":3639,"ĠÃ©vÃ©n":3640,"approcha":3641,"Quelques":3642,"Ġlourd":3643,"Ġpointe":3644,"Ġmine":3645,"ĠGeorge":3646,"ancer":3647,"As":3648,"ias":3649,"Ġfaute":3650,"Ġbill":3651,"orc":3652,"adm":3653,"empl":3654,"Ġadress":3655,"Ġcouleur":3656,"erez":3657,"Ġfallut":3658,"Ġbonnes":3659,"ĠrÃ©pliqua":3660,"Ġpier":3661,"ĠpitiÃ©":3662,"Ġsm":3663,"Ġfirent":3664,"Ġvide":3665,"rire":3666,"Ġsaw":3667,"Ġcesse":3668,"Ġrecul":3669,"Ġintellig":3670,"Ġconvict":3671,"aim":3672,"ina":3673,"alais":3674,"Ġmarcher":3675,"Ġconnais":3676,"Åĵbus":3677,"Ġgardes":3678,"Ġroom":3679,"Ġdessus":3680,"Ġvaisseau":3681,"Ã©lev":3682,"quelles":3683,"Ġlever":3684,"Ġappuy":3685,"idiacre":3686,"ene":3687,"enaient":3688,"aide":3689,"ouille":3690,"itre":3691,"Ġhon":3692,"embre":3693,"Ġpassant":3694,"ĠIn":3695,"Ġportes":3696,"ĠrÃ©serv":3697,"ĠrÃ©sult":3698,"ovary":3699,"Ġmontrer":3700,"And":3701,"Ġfussent":3702,"Ġarra":3703,"Ġindiqu":3704,"ĠquittÃ©":3705,"Ġpareille":3706,"Lorsque":3707,"ĠespÃ¨ce":3708,"),":3709,"EN":3710,"ypt":3711,"Ġpir":3712,"Ġsym":3713,"Ġrid":3714,"Ġhard":3715,"Ġsaur":3716,"ĠSans":3717,"Ġdisp":3718,"ĠfrÃ©qu":3719,"Ġcourse":3720,"Ġsoeur":3721,"Ġconvain":3722,"ĠgÃ©nÃ©ral":3723,"entendis":3724,"Ġgentleman":3725,"ĠreprÃ©sent":3726,"ER":3727,"Ġignor":3728,"inet":3729,"arp":3730,"Ġbarb":3731,"ainte":3732,"Ġye":3733,"ĠarriÃ¨re":3734,"Ġmanque":3735,"Ġrepris":3736,"Ġboutique":3737,"cepter":3738,"Ġeussent":3739,"Ġguerre":3740,"Deux":3741,"but":3742,"Ġmise":3743,"Ġfid":3744,"riez":3745,"oncÃ©":3746,"Ġsoudain":3747,"Ġ18":3748,"Ġbourgeois":3749,"Ġdivers":3750,"ĠmisÃ©rable":3751,"Ġmerveille":3752,"Am":3753,"ogn":3754,"Ġsable":3755,"Ġpeuple":3756,"Ġserai":3757,"Ġcorral":3758,"Ġsuper":3759,"Ġextra":3760,"eneral":3761,"Ġcontempl":3762,"histoire":3763,"cles":3764,"Ġfine":3765,"aison":3766,"auff":3767,"chÃ©e":3768,"ĠdÃ©n":3769,"Ġproch":3770,"Ġaime":3771,"Ġfind":3772,"Ġordinaire":3773,"Ġhorrible":3774,"Ġrecommand":3775,"Angleterre":3776,"Plus":3777,"per":3778,"phe":3779,"Ġment":3780,"arre":3781,"ateurs":3782,"oici":3783,"Ġchasse":3784,"imagin":3785,"oirs":3786,"Ġthin":3787,"Ġdiss":3788,"ertes":3789,"Ġdevint":3790,"Ġregarde":3791,"Ġdemandait":3792,"Ã©las":3793,"Ġnothing":3794,"Ġouverte":3795,"Ġvitesse":3796,"ĠcheminÃ©e":3797,"ĠMajestÃ©":3798,"iÃ©e":3799,"sons":3800,"Ġhun":3801,"Ġgive":3802,"Ġmaisons":3803,"Ġcrut":3804,"Ġentendait":3805,"Ġpersonnes":3806,"Ġtranquillement":3807,"cinq":3808,"field":3809,"zaine":3810,"Ġpai":3811,"Ġmers":3812,"Ġmett":3813,"Ġtur":3814,"ĠbÃªte":3815,"Ġcomte":3816,"--Â«":3817,"Ġinutile":3818,"onnÃ©e":3819,"Ġgris":3820,"Ġtook":3821,"ĠfranÃ§":3822,"Ġsuch":3823,"assin":3824,"Ġbeing":3825,"Ġglac":3826,"uments":3827,"Ġroches":3828,"Ġcuri":3829,"ĠrÃ©vol":3830,"What":3831,"ound":3832,"Ġmemb":3833,"ĠvÃªte":3834,"Ġjal":3835,"adis":3836,"ĠAyrton":3837,"ĠBovary":3838,"Ġsentir":3839,"Ġvoile":3840,"Ġquestions":3841,"Ġsignal":3842,"Ġargent":3843,"ever":3844,"mar":3845,"Ġmettait":3846,"Ġtim":3847,"Ġboute":3848,"omie":3849,"Ġuns":3850,"airement":3851,"ivers":3852,"ĠentiÃ¨rement":3853,"Ġsouper":3854,"Ġfaible":3855,"Ġpublic":3856,"ta":3857,"Ġpil":3858,"ĠpÃª":3859,"Ġmurs":3860,"Ġtante":3861,"ares":3862,"arri":3863,"Ġride":3864,"ourg":3865,"ouvrit":3866,"Ġwhere":3867,"ĠBr":3868,"Ġsonn":3869,"Ã¨tre":3870,"Ġprenant":3871,"Ġconsc":3872,"ĠtroisiÃ¨me":3873,"Ġcondam":3874,"flu":3875,"Ġanimaux":3876,"ĠdÃ©sespoir":3877,"Ġparcour":3878,"ĠagrÃ©able":3879,"ĠUne":3880,"quer":3881,"Ġromp":3882,"rimer":3883,"Ġinfin":3884,"ĠÃ©pouv":3885,"minence":3886,"Ġpauvres":3887,"Ġnaturel":3888,"ĠaperÃ§ut":3889,"ĠcrÃ©ature":3890,"ĠÃ©norme":3891,"Ġer":3892,"Ġback":3893,"Ġavis":3894,"Ġpriv":3895,"Ġparfois":3896,"Ġauparavant":3897,"Ġsonger":3898,"Ġtoo":3899,"oyait":3900,"Ġbrav":3901,"ĠdÃ©sire":3902,"Ġsecours":3903,"Ġsuivi":3904,"ĠjetÃ©":3905,"Ġsouffr":3906,"Ġexpression":3907,"ĠprofondÃ©ment":3908,"archidiacre":3909,"Ġcuisine":3910,"Cet":3911,"Ġdigne":3912,"Ġrare":3913,"Ġpeuvent":3914,"ĠÃ©b":3915,"Ġpuisqu":3916,"ĠintÃ©rÃªt":3917,"Ãītienne":3918,"Ġimpat":3919,"Ġsoupir":3920,"Ġembr":3921,"Ġrapide":3922,"beau":3923,"hommes":3924,"Ġut":3925,"Ġcit":3926,"rement":3927,"Ġrues":3928,"osph":3929,"ĠLouis":3930,"espÃ©r":3931,"Ġattach":3932,"Ã©criai":3933,"ĠprÃ©cis":3934,"Ġmuraille":3935,"Ġnoirs":3936,"ĠoubliÃ©":3937,"Ġennem":3938,"Ġais":3939,"ensible":3940,"ĠcÃ©d":3941,"Ġquite":3942,"agr":3943,"aph":3944,"Ġant":3945,"ĠfraÃ®":3946,"ĠGeneral":3947,"Ġpuisse":3948,"Ġaffir":3949,"Ġconnaissait":3950,"Ġmousquetaires":3951,"Jamais":3952,"Ġlueur":3953,"Ġfi":3954,"aps":3955,"Ġonce":3956,"Ġdiam":3957,"dia":3958,"oÃ»t":3959,"Ġliqu":3960,"Ġpot":3961,"reau":3962,"Ġmante":3963,"Ġbag":3964,"Ġbond":3965,"Ġleft":3966,"atte":3967,"Ġgiv":3968,"ĠÃ©tud":3969,"Ġdut":3970,"ĠSa":3971,"Ġext":3972,"Ġseraient":3973,"ĠEmma":3974,"Ġattendait":3975,"Ġretir":3976,"Ġsoulev":3977,"Ġreprendre":3978,"Ġsinc":3979,"Ġsomm":3980,"Ġlast":3981,"Ġjur":3982,"ason":3983,"oland":3984,"ĠLincoln":3985,"Ġdevenait":3986,"Ġcompter":3987,"Ġlaissant":3988,"ĠÃ©videmment":3989,"ether":3990,"Ġlampe":3991,"Ġpersuad":3992,"Ġselon":3993,"arie":3994,"ulg":3995,"Ġarmes":3996,"ĠJohn":3997,"iÃ¨vre":3998,"Ġrevoir":3999,"ĠWickham":4000,"Ġpoussa":4001,"III":4002,"Ġoreilles":4003,"Ġaigu":4004,"ize":4005,"erve":4006,"Ġfier":4007,"agement":4008,"ĠSignor":4009,"Ġpartout":4010,"espÃ¨re":4011,"Ġcaf":4012,"Ġterreur":4013,"Ġmena":4014,"habitude":4015,"ua":4016,"Ġmeu":4017,"Ġetc":4018,"user":4019,"atique":4020,"rib":4021,"endroit":4022,"allais":4023,"Ġcourir":4024,"Ġlongs":4025,"istance":4026,"ĠÃ©poque":4027,"Ġfinit":4028,"Ġauraient":4029,"Ġobserver":4030,"Ġmanquait":4031,"Ġtriomp":4032,"Ġlangue":4033,"OU":4034,"Rien":4035,"sp":4036,"Ġconsent":4037,"Ġobst":4038,"Ġenvie":4039,"Ġmademoiselle":4040,"Ã¨vre":4041,"Ġvoisin":4042,"ĠrÃ©cit":4043,"Mr":4044,"She":4045,"rite":4046,"Ġcul":4047,"Ġmasse":4048,"usse":4049,"Ġparv":4050,"Ã©rir":4051,"Ġcapable":4052,"Ġstill":4053,"Ġsourd":4054,"Ġtourna":4055,"Ġrepas":4056,"iendrait":4057,"Ġviolence":4058,"Ġtraits":4059,"ĠmÃ©decin":4060,"han":4061,"ial":4062,"pres":4063,"ĠmÃ©m":4064,"ercevoir":4065,"auc":4066,"ĠSe":4067,"Ġportrait":4068,"Ġappris":4069,"Ġpareil":4070,"ĠPhÅĵbus":4071,"ĠpossÃ©d":4072,"_.":4073,"Ġrive":4074,"aume":4075,"Ġsame":4076,"ĠAu":4077,"Ġhere":4078,"Ġsemblaient":4079,"Ġconfiance":4080,"ĠprÃ©cÃ©d":4081,"Ġcontinuait":4082,"Ġphil":4083,"ules":4084,"we":4085,"Ġste":4086,"isme":4087,"Ġbu":4088,"ĠbÃ©n":4089,"ureur":4090,"ĠrÃ©pand":4091,"agnes":4092,"Ġcarri":4093,"Ġremettre":4094,"Ġinstr":4095,"Ġordres":4096,"Ġgalop":4097,"aquin":4098,"Ġsauver":4099,"Ġsacrif":4100,"ĠmÃªmes":4101,"Ġpromenade":4102,"instant":4103,"Ġmorceau":4104,"ĠVerriÃ¨res":4105,"Emma":4106,"LE":4107,"ĠmÃ©c":4108,"Ġfo":4109,"Ġboire":4110,"Ã¨che":4111,"Ã©pau":4112,"Ġtouts":4113,"Ġforces":4114,"ĠEst":4115,"ific":4116,"Ġattendant":4117,"Ġsuivit":4118,"Ġseuls":4119,"Ġfusil":4120,"Ġventre":4121,"ĠdÃ©cidÃ©":4122,"obscuritÃ©":4123,"'t":4124,"oÃ¯":4125,"Ġlande":4126,"Ġaway":4127,"Ġband":4128,"agit":4129,"emport":4130,"ĠVal":4131,"Ġterres":4132,"oids":4133,"Ġcombat":4134,"Ġevening":4135,"If":4136,"Peut":4137,"ĠâĢ¦":4138,"Ġlaisse":4139,"Ġpa":4140,"ĠsÃ©v":4141,"Ġmir":4142,"Ġdet":4143,"entrÃ©e":4144,"ished":4145,"ontÃ©":4146,"Ġsiff":4147,"Ġexac":4148,"ople":4149,"ieuses":4150,"Ġtrouvaient":4151,"Ġcolon":4152,"ipage":4153,"Ġapproch":4154,"other":4155,"Ġlutte":4156,"ĠMaheude":4157,"Ġthrough":4158,"ĠimmÃ©diatement":4159,"jour":4160,"ouest":4161,"ase":4162,"Ã¨tement":4163,"rique":4164,"adress":4165,"ĠPuis":4166,"Ġattent":4167,"Ġparlant":4168,"Ã©lic":4169,"Ġminute":4170,"erville":4171,"Ġconduire":4172,"Ġoppos":4173,"Ġcroyez":4174,"Ġretourna":4175,"ĠÃ¢ge":4176,"Ġfew":4177,"occasion":4178,"Ġbattre":4179,"ĠdÃ©couvrir":4180,"Ġfleurs":4181,"ĠPlanchet":4182,"OcÃ©an":4183,"Ġpur":4184,"elt":4185,"aufr":4186,"ionn":4187,"Ġcompos":4188,"Ġthose":4189,"Ġrepouss":4190,"Ġgarder":4191,"Ġlady":4192,"Mes":4193,"ax":4194,"anit":4195,"Ġtendre":4196,"Ġname":4197,"Ġnaufr":4198,"eulement":4199,"ĠCela":4200,"oreille":4201,"ĠRou":4202,"ĠRaquin":4203,"ĠrestÃ©":4204,"Ġmind":4205,"Ġtournant":4206,"ucking":4207,"uckingham":4208,"Elles":4209,"mÃª":4210,"Ã«":4211,"onÃ§a":4212,"iteur":4213,"tez":4214,"Ġgrim":4215,"Ġprol":4216,"oide":4217,"agissait":4218,"allÃ©e":4219,"Ġsemaines":4220,"Ġaffect":4221,"Ġrenvers":4222,"Ġdomin":4223,"ĠÃ©galement":4224,"ollins":4225,"Ġpierres":4226,"gie":4227,"Ġpoids":4228,"inqui":4229,"ĠfÃ¢":4230,"Ġfosse":4231,"Ġviens":4232,"oral":4233,"Ġrapproch":4234,"Ġonze":4235,"Ġamie":4236,"ĠNotre":4237,"Quoi":4238,"ĠTop":4239,"Ġderriere":4240,"embr":4241,"riture":4242,"ibles":4243,"Ġinterromp":4244,"Ġcroyais":4245,"Ġtrouble":4246,"Ġanimal":4247,"Ġvague":4248,"Ġefforts":4249,"Ġanglais":4250,"!...":4251,"OÃ¹":4252,"sou":4253,"Ġsoyez":4254,"ouÃ©":4255,"anitÃ©":4256,"Ġfabri":4257,"ĠvÃªt":4258,"Ġparents":4259,"avent":4260,"Ġplain":4261,"endredi":4262,"ĠtempÃ©r":4263,"etty":4264,"Ġcherchait":4265,"Ġderniers":4266,"ĠQuasimodo":4267,"ĠrÃ©gul":4268,"Ġdevenu":4269,"Ġcirconstances":4270,"Dame":4271,"hiver":4272,"pir":4273,"Ġsab":4274,"Ġmang":4275,"Ġruis":4276,"ĠentiÃ¨re":4277,"Ġexcept":4278,"Ġmarchait":4279,"Ġhead":4280,"assa":4281,"cieux":4282,"ĠTout":4283,"Ġsentais":4284,"Ã©mitÃ©":4285,"Ġpayer":4286,"ĠWinter":4287,"ĠvolontÃ©":4288,"Ġcadav":4289,"Ġsuppose":4290,"Ou":4291,"Ġvaut":4292,"Ġhonte":4293,"Ã©tabl":4294,"Ġplate":4295,"ĠrÃ©pÃ©tait":4296,"ĠÃ©cras":4297,"Ãīt":4298,"Ġjouer":4299,"ĠentraÃ®n":4300,"Ġfolle":4301,"pit":4302,"Ġeur":4303,"Ġsir":4304,"Ġroy":4305,"Ġlesquels":4306,"Ġplong":4307,"ĠMin":4308,"Ã©parer":4309,"Ġtoil":4310,"oyons":4311,"iditÃ©":4312,"Ġdevenir":4313,"ĠDu":4314,"ifice":4315,"Quelle":4316,"Ġmontait":4317,"Ġvive":4318,"Ġservi":4319,"onseigneur":4320,"Ġgalerie":4321,"AN":4322,"til":4323,"zo":4324,"ĠsantÃ©":4325,"oure":4326,"ouche":4327,"onÃ§ait":4328,"anÃ§ait":4329,"ĠmÃ©ch":4330,"ĠgÃ©":4331,"Ġgorge":4332,"Ġprie":4333,"avenir":4334,"seign":4335,"Ġwhom":4336,"venu":4337,"Ġtoutefois":4338,"ĠscÃ¨ne":4339,"Ġhumaine":4340,"ĠdÃ©liv":4341,"ĠLydia":4342,"Ġmembres":4343,"Ġconscience":4344,"Ġphilos":4345,"John":4346,"aimer":4347,"Ãªque":4348,"Ġold":4349,"ĠÃ©te":4350,"ctions":4351,"Ġvoyais":4352,"Ġparla":4353,"Ġmontagne":4354,"ĠtuÃ©":4355,"Ġaccompl":4356,"Ġfauteu":4357,"ĠÃīminence":4358,"Ġcauser":4359,"Ġcraindre":4360,"ĠrÃ©pÃ©ta":4361,"fluence":4362,"ĠmÃ©moire":4363,"gment":4364,"uill":4365,"leurs":4366,"omais":4367,"Ġfrais":4368,"Ġfroide":4369,"ĠrÃ©uss":4370,"ĠÃ©criv":4371,"Ġrecouv":4372,"ĠaimÃ©":4373,"Ġaffection":4374,"Ġconnu":4375,"Ġouvrit":4376,"ĠprÃ©caut":4377,"Ġphys":4378,"Ġrenf":4379,"Ġproduis":4380,"Ġfaibles":4381,"Ġsatisfaction":4382,"An":4383,"den":4384,"Ġpous":4385,"iness":4386,"urant":4387,"ĠÃ©touff":4388,"Ġwoman":4389,"iger":4390,"siÃ¨re":4391,"sive":4392,"Ġentour":4393,"Ġexemple":4394,"Ġasked":4395,"Ġfera":4396,"aret":4397,"ĠpremiÃ¨res":4398,"Ġconditions":4399,"Ġrentrer":4400,"ĠHenry":4401,"ĠvÃªtements":4402,"lo":4403,"ĠÃ§":4404,"ĠlÃ¢":4405,"Ġaveu":4406,"Ã©cout":4407,"ĠÃ©d":4408,"Ġretur":4409,"Ġsemblable":4410,"Ġfacilement":4411,"Ġpuits":4412,"ĠÃ©tonnÃ©":4413,"Ġpla":4414,"iece":4415,"ĠPierre":4416,"Ġjustement":4417,"Ã©ric":4418,"Ġcacher":4419,"ĠobÃ©":4420,"Ġdays":4421,"ĠtÃ©moign":4422,"Ġmanteau":4423,"Ġphysion":4424,"istr":4425,"elier":4426,"ater":4427,"ĠCompagn":4428,"aissaient":4429,"Ġconserv":4430,"Ġcertains":4431,"Ġpropri":4432,"Ġprofondeur":4433,"Ġmalheureuse":4434,"Ġrouges":4435,"ĠMarchesa":4436,"ES":4437,"moins":4438,"Ġsure":4439,"Ġmas":4440,"Ġquat":4441,"isÃ©":4442,"ĠparaÃ®tre":4443,"Ġserez":4444,"ĠMonseigneur":4445,"ĠSon":4446,"ĠAn":4447,"ĠNap":4448,"Ġperf":4449,"Ġposte":4450,"âĢ¦.":4451,"Ġcharbon":4452,"ĠIls":4453,"Ġindiff":4454,"Ġrendez":4455,"arcation":4456,"aperÃ§us":4457,"Monsieur":4458,"Pas":4459,"mosph":4460,"rist":4461,"vant":4462,"Ġdoul":4463,"Ġpiqu":4464,"Ġcat":4465,"quis":4466,"ĠDans":4467,"Ġamen":4468,"Ġcell":4469,"Ġremar":4470,"There":4471,"Ġhorse":4472,"Ġaccept":4473,"Ġdessin":4474,"Ã©anmoins":4475,"Ġsoldats":4476,"ĠsiÃ¨cle":4477,"ĠcafÃ©":4478,"Ġcolonel":4479,"men":4480,"ru":4481,"Â°":4482,"oue":4483,"ĠhÃ¢te":4484,"Ã¨de":4485,"Ġinj":4486,"Ġword":4487,"ĠRod":4488,"Ġcourut":4489,"Ġcorde":4490,"Ġpromis":4491,"Ġscience":4492,"Ġcalcul":4493,"Ġperdue":4494,"ĠlÃ©ger":4495,"Ġmeilleur":4496,"Ġrayons":4497,"Ġrencontrer":4498,"ĠcuriositÃ©":4499,"Gr":4500,"Ġdon":4501,"Ġsoign":4502,"Ã©tant":4503,"Ġreten":4504,"Ġown":4505,"ettez":4506,"ĠBuckingham":4507,"ĠdemandÃ©":4508,"Ġvieill":4509,"Ġmontagnes":4510,"Ġreconnut":4511,"Ġsouffle":4512,"Ġbesogne":4513,"Vers":4514,"ĠÃ®":4515,"Ġtab":4516,"Ġtold":4517,"Ġlect":4518,"Ġhaine":4519,"Ġrepar":4520,"Ġnev":4521,"Ġtress":4522,"ĠChe":4523,"sib":4524,"Ġgranit":4525,"Ġtoit":4526,"illons":4527,"Ġvenez":4528,"Ġmontra":4529,"Ġcried":4530,"Ġenvers":4531,"Ġcomprit":4532,"Ġglob":4533,"Ġlaquais":4534,"Ġbataille":4535,"Ġpoissons":4536,"ĠfumÃ©e":4537,"ĠMontsou":4538,"ĠFranÃ§":4539,"ĠfranÃ§ais":4540,"AR":4541,"Harbert":4542,"nÃ©e":4543,"vingt":4544,"Ġcout":4545,"Ġtre":4546,"itÃ©e":4547,"Ġban":4548,"treet":4549,"Ġneige":4550,"seau":4551,"Ġtrah":4552,"issent":4553,"ĠrÃ©ellement":4554,"Ã©rique":4555,"Ġtenant":4556,"ĠcÃ´tÃ©s":4557,"Ġrappelle":4558,"Allons":4559,"Ġpharm":4560,"Ġgrosses":4561,"ĠÃ©vident":4562,"ĠcomplÃ¨tement":4563,"nglais":4564,"Ġsatisfait":4565,"Ġprobable":4566,"ĠquantitÃ©":4567,"Ġmouch":4568,"Ġpharmac":4569,"Pencroff":4570,"dans":4571,"most":4572,"Ġdange":4573,"Ġpun":4574,"Ġsim":4575,"rel":4576,"Ġtira":4577,"isions":4578,"Ġvole":4579,"Ã¨ge":4580,"osc":4581,"ull":4582,"Ġoutre":4583,"Ġattr":4584,"iments":4585,"ĠdÃ©tr":4586,"Ġlevant":4587,"Ġrevenait":4588,"Ġreconnaissance":4589,"ĠhonnÃªte":4590,"Ġpaix":4591,"ĠÃ§Ãł":4592,"ĠCompagnie":4593,"vue":4594,"Ã©h":4595,"Ġtell":4596,"Ġaud":4597,"ĠÃ©tabl":4598,"ained":4599,"Ġchagr":4600,"artin":4601,"Ġremit":4602,"Ġouvriers":4603,"Ġcurieux":4604,"ount":4605,"Ã©paule":4606,"!âĢ¦":4607,"Dieu":4608,"ront":4609,"Ġfolie":4610,"Ġrage":4611,"ĠhÃ¢t":4612,"irai":4613,"rig":4614,"acÃ©":4615,"assait":4616,"ancÃ©":4617,"Ġcommiss":4618,"Ġaimait":4619,"Ġmonth":4620,"Ġcherch":4621,"Ġassise":4622,"accord":4623,"Ġtourner":4624,"ohÃ©m":4625,"Ġvertu":4626,"ĠmystÃ©ri":4627,"Ġfaudrait":4628,"ermin":4629,"Ġfelt":4630,"Ġhier":4631,"ĠAd":4632,"opul":4633,"Ġamus":4634,"Ġretard":4635,"aleine":4636,"ogue":4637,"Ġvolcan":4638,"Ġglace":4639,"Ġcentre":4640,"Ġjoues":4641,"Ġmoyens":4642,"Ġfaveur":4643,"Ġcharmante":4644,"ĠchargÃ©":4645,"Ġfatigue":4646,"Ġfriend":4647,"ĠMarchese":4648,"Bien":4649,"huit":4650,"vaque":4651,"Ġide":4652,"Ġpeux":4653,"Ġsaint":4654,"oureuse":4655,"Ġmaig":4656,"Ġdegr":4657,"Ġhaving":4658,"ĠchÃ¨re":4659,"ĠfrÃ©m":4660,"Ġchef":4661,"ĠIt":4662,"Ġretent":4663,"attendait":4664,"Ġmyself":4665,"ĠpÃ©nible":4666,"ways":4667,"Ġpoudre":4668,"Ġphrase":4669,"Ġclef":4670,",Â»":4671,"Mil":4672,"ken":4673,"Ġfre":4674,"Ġenr":4675,"Ġprouv":4676,"ĠÃ©tern":4677,"agrÃ©":4678,"Ġwind":4679,"onnant":4680,"Ã©rait":4681,"ĠÃ©lect":4682,"Ġappl":4683,"Ġchem":4684,"ĠrÃ©pondait":4685,"Ġclasse":4686,"drez":4687,"Ġpeople":4688,"ĠprÃ©occup":4689,"Ġdescendit":4690,"Ġdisposition":4691,"Ġsouvenirs":4692,"Ġmagnifique":4693,"Ġlignes":4694,"Ġcer":4695,"isse":4696,"Ġrecev":4697,"Ġprudence":4698,"Ġdistr":4699,"empÃªcher":4700,"Ġpartit":4701,"Ġsoum":4702,"Ġautrement":4703,"Ġsemblables":4704,"Ġcontinuer":4705,"Ġsouffrir":4706,"Ġtoile":4707,"Ġcabinet":4708,"ĠsÃ©rieux":4709,"Ġsinon":4710,"Ġconvainc":4711,"ey":4712,"toi":4713,"Ãĩ":4714,"Ġ3":4715,"Ġlu":4716,"Ġling":4717,"Ġpend":4718,"Ġqueu":4719,"inrent":4720,"orb":4721,"Ġgaz":4722,"Ġod":4723,"Ġchanger":4724,"Ã©ritÃ©":4725,"ĠdÃ©d":4726,"ĠAngleterre":4727,"trod":4728,"istait":4729,"Ġpost":4730,"Ġvoie":4731,"Ġrendu":4732,"Ġpropres":4733,"Ġprodig":4734,"ĠcurÃ©":4735,"ĠHenne":4736,"ĠPourquoi":4737,"Moi":4738,"oches":4739,"oke":4740,"Ġlun":4741,"Ġcost":4742,"Ġbande":4743,"ĠMerc":4744,"Ġdemie":4745,"Ġwhole":4746,"ailli":4747,"Ġtourment":4748,"iendra":4749,"Ġpuissance":4750,"ĠdegrÃ©s":4751,"ĠHennebeau":4752,"die":4753,"mand":4754,"wards":4755,"Ġlim":4756,"Ġdeath":4757,"Ġvont":4758,"Ġvif":4759,"ores":4760,"tex":4761,"Ġrose":4762,"urope":4763,"ative":4764,"aul":4765,"Ġpromp":4766,"illÃ©":4767,"orer":4768,"Ġtombait":4769,"Ġsilenc":4770,"ĠdÃ©velopp":4771,"Ġimagination":4772,"Ġvapeur":4773,"Ġphysionomie":4774,"ĠQui":4775,"quÃ©":4776,"Ġtaill":4777,"inv":4778,"itant":4779,"ĠbontÃ©":4780,"ash":4781,"Ġgib":4782,"Ġwords":4783,"ĠallÃ©":4784,"Ġmonta":4785,"Ġsortait":4786,"Ġbouill":4787,"Ġrendit":4788,"Ġespoir":4789,"Ġsangl":4790,"ĠClaude":4791,"Ġvoyageurs":4792,"IS":4793,"rÃ©es":4794,"Ġpure":4795,"erais":4796,"Ġball":4797,"omin":4798,"usc":4799,"Ġchoc":4800,"Ġchute":4801,"Ã©cole":4802,"acer":4803,"ĠPro":4804,"oya":4805,"Ġentier":4806,"Ġbrouill":4807,"Ġarch":4808,"bli":4809,"Ġdevais":4810,"issements":4811,"plend":4812,"ĠRob":4813,"Laurent":4814,"Ġpensais":4815,"Ġtravaux":4816,"Ġcouche":4817,"Ġvivant":4818,"Ġsuivait":4819,"Ġraisons":4820,"Ġdoor":4821,"Ġretrait":4822,"Ġpersonnage":4823,"Ġnuages":4824,"ĠblessÃ©":4825,"Ġfauteuil":4826,"Milady":4827,"Ġcoute":4828,"Ġtas":4829,"Ġnerv":4830,"ĠrÃ´le":4831,"alitÃ©s":4832,"ĠÃ©tais":4833,"eci":4834,"imm":4835,"sier":4836,"ico":4837,"Ġprojets":4838,"oupes":4839,"autant":4840,"angers":4841,"Ġabond":4842,"attendre":4843,"Ġouvrir":4844,"Ġrendait":4845,"Ġrefer":4846,"Ġrevenu":4847,"Ġhumeur":4848,"Ġopinion":4849,"Ġpensez":4850,"Ġdomestiques":4851,"Ġtoilette":4852,".--":4853,"Ġmuch":4854,"Ġfoyer":4855,"ilom":4856,"Ġprince":4857,"Ġdesse":4858,"Ġanx":4859,"Ġparties":4860,"Ġmanoeu":4861,"Ġregardai":4862,"ĠJehan":4863,"Ġpensai":4864,"Ġadd":4865,"Ġchamps":4866,"Ġsupporter":4867,"ĠnÃ©cessitÃ©":4868,"Ġaimable":4869,"Ġaventure":4870,"Ayrton":4871,"Darcy":4872,"Voici":4873,"Ġpopul":4874,"Ġsl":4875,"asp":4876,"Ġrade":4877,"Ġprud":4878,"alors":4879,"essie":4880,"ĠÃ©crire":4881,"inture":4882,"Ġdirec":4883,"ĠÃ©pous":4884,"Ġmontrait":4885,"Ġcoun":4886,"Ġmerc":4887,"Ġassur":4888,"ĠspÃ©c":4889,"ĠQuel":4890,"ĠdÃ©barqu":4891,"Ġseemed":4892,"Ġdrap":4893,"ĠmÃ©lanc":4894,"Ġveuve":4895,"onfl":4896,"Ġtours":4897,"ĠbohÃ©m":4898,"Ġjadis":4899,"orable":4900,"Ġill":4901,"----":4902,"neau":4903,"ophe":4904,"ĠHomais":4905,"Ġsoon":4906,"ĠdÃ©tourn":4907,"Ġgarn":4908,"Ġcomplet":4909,"ĠLevaque":4910,"Ġrentra":4911,"Ġmanquer":4912,"Ġredout":4913,"effr":4914,"ĠrÃªve":4915,"Ġcomptait":4916,"Ġpistol":4917,"Ad":4918,"IV":4919,"Ġmouill":4920,"Ġfather":4921,"ormes":4922,"Ġhigh":4923,"Ġgave":4924,"olphe":4925,"Ã»te":4926,"Ġpartis":4927,"Ġaccus":4928,"ĠintÃ©ress":4929,"ĠdÃ©pos":4930,"ĠsupÃ©rieure":4931,"Ġhabits":4932,"Ġarrive":4933,"ĠrÃ©solution":4934,"ĠsuccÃ¨s":4935,"ĠrÃ©vÃ©l":4936,"Toutefois":4937,"ĠprÃ©cisÃ©ment":4938,"Ġsommet":4939,"DÃ¨s":4940,"Ġpais":4941,"reg":4942,"ery":4943,"ĠfiÃ¨vre":4944,"ild":4945,"Ġbanc":4946,"ouvrir":4947,"Ġextre":4948,"Ġentrepr":4949,"asseoir":4950,"Ġsalut":4951,"ĠdÃ©barr":4952,"ĠdÃ©faut":4953,"ĠannÃ©e":4954,"iana":4955,"ĠrÃ©flexions":4956,"Ġextraordinaire":4957,"Ġglobe":4958,"Ġqueue":4959,"Pr":4960,"Ã©te":4961,"Ġtels":4962,"ĠvÃ©c":4963,"elui":4964,"ory":4965,"ĠplaÃ®t":4966,"Ġchat":4967,"Ġgrond":4968,"ĠdÃ©sert":4969,"existence":4970,"Ġfinir":4971,"Ġsortes":4972,"Ġtombe":4973,"ĠdÃ©termin":4974,"Ġpoor":4975,"Toutes":4976,"Ġoublier":4977,"ĠrÃªv":4978,"ĠpiÃ¨ces":4979,"yptienne":4980,"mÃªmes":4981,"ĠMercy":4982,"haps":4983,"ĠpÃ©r":4984,"Ġsince":4985,"once":4986,"reaux":4987,"Ġmam":4988,"Ġnat":4989,"oration":4990,"Ġroc":4991,"usque":4992,"Ġrequ":4993,"Ġretenir":4994,"avance":4995,"Ġchauss":4996,"utation":4997,"ape":4998,"Ã©cile":4999,"Ã©rÃ©e":5000,"ĠSauv":5001,"outez":5002,"ayer":5003,"Ġvenge":5004,"Ġterri":5005,"Ġremords":5006,"espoir":5007,"Ġadv":5008,"ĠdÃ©pens":5009,"ĠsupÃ©rieur":5010,"inconnu":5011,"ĠQuand":5012,"Ġrepent":5013,"Ġkne":5014,"Ġpoussait":5015,"ĠdÃ©couvert":5016,"ĠsÃ©rieusement":5017,"Ġraconter":5018,"Ġjuger":5019,"Ġneveu":5020,"Ġwindow":5021,",--":5022,"IN":5023,"acher":5024,"ĠZ":5025,"ĠâĢĶ":5026,"Ġtonn":5027,"Ġfoss":5028,"urst":5029,"Ġenlev":5030,"iration":5031,"ĠÃ©tiez":5032,"imul":5033,"ageait":5034,"ĠVoilÃł":5035,"Ġcompar":5036,"ĠportÃ©e":5037,"arrÃªter":5038,"Ġblanch":5039,"Ġboulev":5040,"ĠsoupÃ§":5041,"Ġsubit":5042,"Ġexpliqu":5043,"Ġletter":5044,"Ġsongeait":5045,"rions":5046,"Ġdra":5047,"itaire":5048,"Ġbure":5049,"Ġriant":5050,"alt":5051,"Ġplomb":5052,"ĠchÃ¨vre":5053,"ical":5054,"ĠPas":5055,"Ġbranches":5056,"ongo":5057,"Ġobjets":5058,"aurai":5059,"ĠenvoyÃ©":5060,"Ġsignif":5061,"ĠsÃ»re":5062,"Ġquitta":5063,"Ġmarchand":5064,"Ġdormir":5065,"ĠmÃ©tier":5066,"ĠdÃ©chir":5067,"ĠpavÃ©":5068,"Ġinnoc":5069,"Mal":5070,"fax":5071,"uement":5072,"ĠtÃªtes":5073,"Ġlab":5074,"Ã¨nes":5075,"Ġplat":5076,"ĠMort":5077,"ĠgrÃ¨ve":5078,"Ġalways":5079,"Ã®te":5080,"Ġapercev":5081,"ĠJac":5082,"Ġcourait":5083,"Ġretirer":5084,"Ġferai":5085,"Ġvouloir":5086,"Ġaccord":5087,"dred":5088,"Ġorder":5089,"Ġinterv":5090,"enfer":5091,"That":5092,"Ġfeet":5093,"Ġvalet":5094,"Ġdurant":5095,"Ġsouliers":5096,"conque":5097,"midi":5098,"pes":5099,"uÃ©e":5100,"xc":5101,"Ġsoins":5102,"Ġaction":5103,"Ġmienne":5104,"oritÃ©":5105,"Ġtrace":5106,"ĠMadame":5107,"imer":5108,"blement":5109,"ĠFair":5110,"Ġamoureux":5111,"Ġcriait":5112,"Ġvivait":5113,"Ġcomprends":5114,"Ġcanal":5115,"Ġansw":5116,"Ġfusse":5117,"Ġparticulier":5118,"Ġpardon":5119,"ĠobligÃ©":5120,"ĠarrÃªtÃ©":5121,"ĠrÃ©sultat":5122,"Ġyears":5123,"Ġexactement":5124,"Ġeurent":5125,"ĠFairfax":5126,"XX":5127,"ll":5128,"aies":5129,"ouch":5130,"uste":5131,"Ġrejet":5132,"ceiv":5133,"Ġtrist":5134,"Ġsurveill":5135,"neaux":5136,"ĠSire":5137,"ĠLuc":5138,"ĠAm":5139,"ĠBel":5140,"Ġamb":5141,"ĠRoland":5142,"Ġenfer":5143,"Ġtoucher":5144,"Ġportant":5145,"Ġflott":5146,"Ġinstinct":5147,"ĠdÃ©tach":5148,"Ġhautes":5149,"ĠprÃ©tex":5150,"Ġfeuilles":5151,"Ġcommencement":5152,"ĠconsidÃ©rable":5153,"Avec":5154,"ouda":5155,"Ġcirconstance":5156,"Ġlarges":5157,"Ġhundred":5158,"sibilitÃ©":5159,"ĠsÃ©d":5160,"Ġsienne":5161,"Ġmout":5162,"ĠqualitÃ©":5163,"Ġfuir":5164,"Ġnight":5165,"Ġhonneur":5166,"Ġhauss":5167,"Ġnew":5168,"Ġchand":5169,"import":5170,"nez":5171,"icule":5172,"Ã§aient":5173,"ĠDongo":5174,"Ġseuil":5175,"ĠdÃ©couverte":5176,"rock":5177,"Ġsourc":5178,"Ġsouriant":5179,"Ġround":5180,"Ġdisparut":5181,"Ġirr":5182,"Ġspeak":5183,"Ġflamme":5184,"Ġgiven":5185,"ĠsÃ©vÃ¨re":5186,"lÃ©e":5187,"Ġloint":5188,"Ġpic":5189,"ĠtÃ©n":5190,"Ġjure":5191,"alles":5192,"ript":5193,"Ġbruy":5194,"Ġexpos":5195,"Ġamant":5196,"Ġremerc":5197,"rale":5198,"Ġpoints":5199,"Ġcrier":5200,"Ġmatel":5201,"ochers":5202,"Ġmorts":5203,"Ġapprendre":5204,"Ġimpression":5205,"Ġopen":5206,"Ġproduit":5207,"Ġmouvements":5208,"Ġvalait":5209,"Ġterrain":5210,"Ġcadavre":5211,"Ġcommissaire":5212,"Ãĩa":5213,"ysi":5214,"erons":5215,"ĠtÃ¢":5216,"entour":5217,"ĠhÃ´t":5218,"Ġhouse":5219,"Ġdesp":5220,"oisse":5221,"icier":5222,"ĠPac":5223,"ĠBas":5224,"ĠJup":5225,"Ġcoron":5226,"Ġchambres":5227,"Ġpleas":5228,"ĠChaval":5229,"Ġinclin":5230,"gram":5231,"Ġfeel":5232,"Ġdiscours":5233,"ĠÃ©tonnement":5234,"Ġoiseaux":5235,"arriver":5236,"Ġcitad":5237,"hous":5238,"mment":5239,"ying":5240,"Ġloi":5241,"Ġsom":5242,"Ġner":5243,"Ġvaleur":5244,"Ġdure":5245,"Ġgroupe":5246,"Ġbrise":5247,"ined":5248,"Ġregagn":5249,"Ġvisiter":5250,"Ġreconnu":5251,"Ġnouveaux":5252,"Ġtaken":5253,"Ġbaron":5254,"Ġnavig":5255,"Ġsauvage":5256,"Ġpoison":5257,"ĠdÃ©clara":5258,"Ġexcellent":5259,"Ġjaune":5260,"Ġmaladie":5261,"Ġbibli":5262,",âĢĶ":5263,"BientÃ´t":5264,"vu":5265,"Ġdoc":5266,"Ġpant":5267,"Ġtelles":5268,"Ġbiz":5269,"Ġrom":5270,"Ġgest":5271,"riff":5272,"aven":5273,"onnement":5274,"Ġdisais":5275,"examin":5276,"Ġsaisit":5277,"Ġverd":5278,"ĠderniÃ¨res":5279,"Ġjeunesse":5280,"effet":5281,"ishop":5282,"Ġeverything":5283,"Ġmousquetaire":5284,"Ġfleuve":5285,"Ġnaturellement":5286,"housias":5287,"vement":5288,"Ġvac":5289,"urg":5290,"Ġparlez":5291,"oyable":5292,"ĠcongÃ©":5293,"Ġassi":5294,"angl":5295,"Ġperhaps":5296,"olemment":5297,"Ġcontinue":5298,"Ġfamil":5299,"Ġviolent":5300,"Ġdemeura":5301,"expression":5302,"ĠÃ©motion":5303,"Ġatteint":5304,"Ġpaquet":5305,"Aut":5306,"Re":5307,"ĠU":5308,"Ġpret":5309,"ara":5310,"itect":5311,"unÃ©g":5312,"Ġaugment":5313,"ries":5314,"ĠMoi":5315,"idement":5316,"ertain":5317,"angle":5318,"ĠRassi":5319,"ignait":5320,"ignore":5321,"ency":5322,"ĠTu":5323,"Ġconstr":5324,"Ġsortie":5325,"Ġcomprom":5326,"Ġpresent":5327,"Ġincident":5328,"Ġnov":5329,"Ġvoisine":5330,"Ġvolontiers":5331,"Ġdouceur":5332,"Ġcommandant":5333,"Ġmorceaux":5334,"Ġthink":5335,"kerville":5336,"quette":5337,"inÃ©":5338,"Ġfan":5339,"Ġenchant":5340,"irard":5341,"atures":5342,"Ġread":5343,"Ġoeil":5344,"ĠMosc":5345,"Ã©coul":5346,"Jean":5347,"illait":5348,"ĠexÃ©cut":5349,"Ġremis":5350,"Ġlongueur":5351,"Ġfaisais":5352,"Ġcouches":5353,"Ġconnaissez":5354,"Ġinconn":5355,"Ġfrapper":5356,"Ġcreus":5357,"ĠReed":5358,"Avant":5359,"ĠNew":5360,"Ġfaudra":5361,"Ġworld":5362,"mosphÃ¨re":5363,"Ġchagrin":5364,"Ġidea":5365,"unÃ©gonde":5366,"by":5367,"man":5368,"Â£":5369,"ĠmÃ¢t":5370,"Ġnob":5371,"Ġavert":5372,"endorm":5373,"Ġchal":5374,"ired":5375,"illa":5376,"ĠÃ©ner":5377,"Ġserons":5378,"...Â»":5379,"ignation":5380,"Ġappare":5381,"Ġcorrid":5382,"Ã©chelle":5383,"Ġviolemment":5384,"ĠArch":5385,"atson":5386,"Ġmorning":5387,"ĠgÃ©nÃ©":5388,"Ġsingulier":5389,"Ġgouvernante":5390,"Ġphrases":5391,"Ġconvicts":5392,"Ġretraite":5393,"Votre":5394,"Ġel":5395,"Ġdent":5396,"ĠpÃ©ri":5397,"Ġcath":5398,"ĠdegrÃ©":5399,"Ġnum":5400,"Ġright":5401,"Ġunder":5402,"Ġuntil":5403,"Ġhyp":5404,"atif":5405,"Ġprat":5406,"oiff":5407,"Ġsachant":5408,"ottes":5409,"Ġalmost":5410,"tern":5411,"ĠFer":5412,"Ġaccour":5413,"Ġjetant":5414,"aillit":5415,"Ġabsence":5416,"interromp":5417,"ĠrapiditÃ©":5418,"Ġformid":5419,"aperÃ§ut":5420,"Ġprobablement":5421,"ĠextrÃªmement":5422,"ĠconsÃ©quent":5423,"Ġdissimul":5424,"Ġbouteille":5425,"path":5426,"sent":5427,"Ġombre":5428,"Ġcage":5429,"quatre":5430,"entrer":5431,"ĠfÃ©lic":5432,"armes":5433,"Ġlas":5434,"Ġbuv":5435,"Ġreb":5436,"olÃ©":5437,"Ġthing":5438,"ĠLong":5439,"allai":5440,"ĠInd":5441,"ĠVendredi":5442,"ĠtempÃªte":5443,"Ġjetait":5444,"Ġrepart":5445,"ĠPrinc":5446,"ĠÃ©lÃ©g":5447,"Ġjournal":5448,"Ġsauvages":5449,"azzo":5450,"Ġvagues":5451,"Ġcamarade":5452,"Ġnourriture":5453,"Ġguide":5454,"ĠdifficultÃ©":5455,"Ġmachine":5456,"Ġreligion":5457,"ĠÃ©vÃ©nements":5458,"ĠÃ©pouvant":5459,"fe":5460,"forme":5461,"iÃ©s":5462,"jou":5463,"encieux":5464,"Ġmaud":5465,"Ġdedans":5466,"enty":5467,"orde":5468,"Ġhour":5469,"Ġseen":5470,"ouvre":5471,"Ġpourra":5472,"ersonne":5473,"ieres":5474,"Ã©ra":5475,"Ġthir":5476,"Ã¢tres":5477,"oyant":5478,"Ġseront":5479,"ĠmarchÃ©":5480,"Ġpassaient":5481,"appuy":5482,"artÃ©":5483,"ĠÃ©pÃ©e":5484,"Ġobtenir":5485,"ogr":5486,"Ġrenv":5487,"ĠPrudence":5488,"Ġnoires":5489,"ĠSignora":5490,"ĠMinister":5491,"Ġdessein":5492,"Ġtristesse":5493,"iaient":5494,"Ġpip":5495,"Ġsage":5496,"ĠtÃ¢che":5497,"Ġfell":5498,"isait":5499,"Ġaviez":5500,"Ġprenez":5501,"outum":5502,"otes":5503,"ĠEs":5504,"ancÃ©e":5505,"Ġsentis":5506,"Ġvisit":5507,"Ġsourit":5508,"They":5509,"Ġtournait":5510,"Ġpatron":5511,"Ġrude":5512,"berge":5513,"ongeait":5514,"Ġpreuve":5515,"ĠsiÃ¨ge":5516,"Ġrayon":5517,"Ġtapis":5518,"Ã©clair":5519,"Ġbaiser":5520,"ĠrÃ©flexion":5521,"Ġmeurt":5522,"ĠsincÃ¨re":5523,"Ġcouteau":5524,"ĠBaskerville":5525,"Lui":5526,"Ġiv":5527,"Ġcerv":5528,"Ġmi":5529,"Ġmult":5530,"eral":5531,"Ġfive":5532,"ĠnÃ©gl":5533,"Ġaurez":5534,"avec":5535,"avanÃ§a":5536,"Ġtroupe":5537,"ĠMou":5538,"icable":5539,"ĠPier":5540,"ĠÃ©veill":5541,"ĠmarÃ©e":5542,"ĠBer":5543,"agnol":5544,"vern":5545,"Ġmanif":5546,"Ġperc":5547,"Ġblanches":5548,"Ġheureusement":5549,"Ġpousser":5550,"Ġpermis":5551,"ĠcommencÃ©":5552,"orgueil":5553,"annÃ©e":5554,"ĠrÃ©flÃ©chir":5555,"leton":5556,"Ġsympath":5557,"Ġjalous":5558,"Ġbureau":5559,"ceived":5560,"ĠMosca":5561,"QU":5562,"lui":5563,"Ġdouter":5564,"Ġciv":5565,"Ġcoiff":5566,"Ġmoqu":5567,"Ġfureur":5568,"ison":5569,"Ġrud":5570,"apleton":5571,"ulte":5572,"illÃ©e":5573,"Ġenter":5574,"ĠÃ©puis":5575,"Ã©lÃ©g":5576,"ĠcÃ´tes":5577,"ĠWatson":5578,"Ġpaysan":5579,"Ġnavires":5580,"Ġdiscut":5581,"Quelque":5582,"Ġbrig":5583,"Char":5584,"Ġpalazzo":5585,"rimaud":5586,"Ġsoldat":5587,"Ġvoila":5588,"ĠfidÃ¨le":5589,"Ġcitadel":5590,"Ġnerfs":5591,"eneur":5592,"Ġpi":5593,"Ġraf":5594,"agÃ©s":5595,"resp":5596,"ĠMartin":5597,"Ã©pÃ©e":5598,"erst":5599,"Ã®lot":5600,"ched":5601,"ĠBien":5602,"assent":5603,"ĠrÃ©pondu":5604,"Ġperson":5605,"Ġnoms":5606,"Ġpromener":5607,"Ġreconnus":5608,"Ġramen":5609,"effor":5610,"ĠAllons":5611,"ovico":5612,"ĠoccupÃ©":5613,"ĠremarquÃ©":5614,"Ġanything":5615,"ĠgagnÃ©":5616,"ĠrÃªver":5617,"Ġdevenue":5618,"ĠcommenÃ§ai":5619,"ĠmÃ©nage":5620,"Ġjoli":5621,"ĠPacifique":5622,"Ph":5623,"Souv":5624,"bot":5625,"mor":5626,"obl":5627,"ved":5628,"ĠpÃ©t":5629,"anes":5630,"Ġmess":5631,"Ġtes":5632,"ĠfÃ¢ch":5633,"arme":5634,"Ġnage":5635,"Ġbaie":5636,"agÃ©e":5637,"Ġplup":5638,"onnez":5639,"oly":5640,"Ã©prouv":5641,"ĠCar":5642,"Ġpouvons":5643,"rade":5644,"Ã©gyptienne":5645,"Ġattaqu":5646,"Ġpremiere":5647,"Ġsupport":5648,"Ġpleins":5649,"Ġservait":5650,"Ġsilencieux":5651,"Ġrenouv":5652,"ThÃ©rÃ¨se":5653,"ached":5654,"Ġredoubl":5655,"Ġjugement":5656,"Ġmeilleure":5657,"Lorsqu":5658,"Ġdeviner":5659,"attendais":5660,"animal":5661,"Ġmonstre":5662,"ĠContessa":5663,"Ġpaisible":5664,"Ġvengeance":5665,"Ġplupart":5666,"hÃ©r":5667,"iai":5668,"Ġpiece":5669,"ĠsÅĵur":5670,"ouc":5671,"Ġable":5672,"Ġfuite":5673,"ourde":5674,"Ġgig":5675,"alle":5676,"chÃ©s":5677,"ĠMes":5678,"Ã©pous":5679,"ĠCette":5680,"ignit":5681,"ĠfermÃ©e":5682,"Ġmineurs":5683,"Ġministre":5684,"Ġsaison":5685,"Ġphysi":5686,"Ġinterro":5687,"ĠrÃ©clam":5688,"Ġinform":5689,"Ġremonter":5690,"Ġtendresse":5691,"ĠsÃ©min":5692,"ength":5693,"ĠinquiÃ©tude":5694,"Ġrejoindre":5695,"ĠItal":5696,"car":5697,"Ġring":5698,"Ã¨que":5699,"Ġplaine":5700,"abilitÃ©":5701,"ĠComme":5702,"sif":5703,"ĠLÃ©on":5704,"ĠrÃ©pu":5705,"ĠrÃ©putation":5706,"ĠBessie":5707,"appelle":5708,"ifier":5709,"Ġmany":5710,"Ġdirecteur":5711,"Ġaille":5712,"ĠrestÃ©e":5713,"Ġaccent":5714,"ĠcouchÃ©":5715,"Ġintention":5716,"Ġstat":5717,"...,":5718,"Ġpleurer":5719,"glise":5720,"Ġobsc":5721,"ĠGrande":5722,"Ġtranquill":5723,"Ġendorm":5724,"Ġacqu":5725,"Ġaccepter":5726,"Ġfroidement":5727,"Ġfrappa":5728,"Ġprovisions":5729,"Ġrecommen":5730,"Ġbox":5731,"Ġhalf":5732,"truction":5733,"Ġmouchoir":5734,"vis":5735,"Ġlois":5736,"enod":5737,"Ġcuir":5738,"Ġmassi":5739,"Ġnette":5740,"Ġniv":5741,"ĠrÃ¨g":5742,"aug":5743,"Ġplume":5744,"ĠchaÃ®":5745,"olique":5746,"Ġeh":5747,"ĠCollins":5748,"ications":5749,"Ġthings":5750,"ĠentrÃ©e":5751,"Ġcroix":5752,"issante":5753,"ĠFa":5754,"ower":5755,"ext":5756,"Ġcriant":5757,"ĠarrivÃ©s":5758,"Ġtenaient":5759,"Ġcharme":5760,"ĠtombÃ©e":5761,"Ġloge":5762,"ĠdÃ©vor":5763,"Ġroad":5764,"Ġdiscuss":5765,"Ã®nt":5766,"Ġsucces":5767,"Ġconvenable":5768,"ĠaperÃ§u":5769,"ĠKetty":5770,"Ġchangement":5771,"ĠmystÃ¨re":5772,"Ġmillions":5773,"Ġprotest":5774,"ĠlÃ©gÃ¨rement":5775,"extrÃ©mitÃ©":5776,"ĠprÃ©texte":5777,"bishop":5778,"na":5779,"uÃ©s":5780,"quets":5781,"Ġmun":5782,"Ġmirent":5783,"entendait":5784,"Ġfasse":5785,"ĠbÃªtes":5786,"Ġharp":5787,"Ã¨bres":5788,"ĠCunÃ©gonde":5789,"onds":5790,"ĠPirard":5791,"irez":5792,"Ġaspect":5793,"appe":5794,"ĠRos":5795,"ĠÂ».":5796,"Ġdonnant":5797,"Ġcare":5798,"Ġaccident":5799,"Ġenvelopp":5800,"ormais":5801,"acharie":5802,"ĠprÃ©senter":5803,"Ã©quipage":5804,"ĠdÃ©vou":5805,"ĠfrappÃ©":5806,"ĠrencontrÃ©":5807,"ĠboÃ®te":5808,"Ġcaval":5809,"ĠforcÃ©":5810,"Ġbillet":5811,"ĠFranÃ§ais":5812,"Ġsimpl":5813,"Ġcorridor":5814,"Bon":5815,"Madame":5816,"Ġsoie":5817,"Ġcop":5818,"relle":5819,"ĠdelÃł":5820,"iniÃ¨re":5821,"Ġfau":5822,"Ġleave":5823,"Ġras":5824,"Ã©ter":5825,"Ġenj":5826,"emm":5827,"Ġsaurait":5828,"ĠLE":5829,"assÃ©e":5830,"Ġvieilles":5831,"Ġmontrant":5832,"ĠQuoi":5833,"Ġhorreur":5834,"Ġcabaret":5835,"Ġdemeurait":5836,"................":5837,"ĠValenod":5838,"Ġchemise":5839,"Ġdirectement":5840,"ĠArchbishop":5841,"Ici":5842,"Notre":5843,"Passepartout":5844,"ek":5845,"gle":5846,"uin":5847,"Ġlent":5848,"Ã©j":5849,"iron":5850,"Ġrede":5851,"Ġparu":5852,"sivement":5853,"uls":5854,"Ã´tre":5855,"Ġapercevoir":5856,"asseneur":5857,"ĠrÃ©gl":5858,"Ã©rid":5859,"Ġcoff":5860,"ĠtombÃ©":5861,"Ġdescendait":5862,"Ġcroiss":5863,"Ġpermettre":5864,"ĠrÃ©solu":5865,"Ġplacer":5866,"Ġconseil":5867,"Ġjoyeux":5868,"Ġdimanche":5869,"Ġriches":5870,"ĠpropriÃ©t":5871,"Cl":5872,"Harris":5873,"iam":5874,"row":5875,"Ġpor":5876,"anÃ§on":5877,"Ġmoin":5878,"unt":5879,"Ġpros":5880,"Ã®tre":5881,"Ġcrus":5882,"Ġcrains":5883,"llez":5884,"Ġheard":5885,"Ġcourte":5886,"Ġportion":5887,"attention":5888,"Ġmince":5889,"Ġspir":5890,"Ġtraverser":5891,"accompagn":5892,"ĠMilan":5893,"Ġhabitants":5894,"Ġremarquer":5895,"ĠdrÃ´le":5896,"Ġparfaite":5897,"ĠprÃ©cipit":5898,"Ġdistinguer":5899,"Ġtravailler":5900,"Ġempr":5901,"Ġnullement":5902,"Ġressemblait":5903,"Ġlecture":5904,"Ġlinge":5905,"ĠPrincess":5906,"da":5907,"lotte":5908,"oci":5909,"uff":5910,"aimait":5911,"Ġpoul":5912,"Ġsy":5913,"Ġsombres":5914,"Ġmol":5915,"Ġmoul":5916,"Ġmode":5917,"Ġfact":5918,"omÃ¨tre":5919,"Ġget":5920,"agon":5921,"apercev":5922,"Ġanother":5923,"ĠSur":5924,"Ġbrut":5925,"orel":5926,"Ġdevez":5927,"Ġformer":5928,"Ġformait":5929,"Ġpassag":5930,"ĠÃ©couter":5931,"intention":5932,"ĠcachÃ©":5933,"Ġretira":5934,"ĠportÃ©":5935,"ĠrÃ©serve":5936,"Ġassure":5937,"inclin":5938,"Ġpromesse":5939,"Ġcertaines":5940,"Ġrenseign":5941,"Ã©vÃªque":5942,"Ġappeler":5943,"Ġcharmant":5944,"ĠÃ©tranger":5945,"Ġennuy":5946,"ĠÃ©chapper":5947,"Ġcousin":5948,"arrivÃ©e":5949,"Ġofficier":5950,"Ġbegan":5951,"ĠpoussiÃ¨re":5952,"Ġpharmacien":5953,"Ġknew":5954,"aques":5955,"Ġloc":5956,"enu":5957,"Ġpente":5958,"Ġmut":5959,"Ġmord":5960,"Ġtiens":5961,"Ġtimes":5962,"eler":5963,"Ġrochers":5964,"ĠÃ©tal":5965,"Ġwish":5966,"Ġceinture":5967,"Ġthough":5968,"ĠLA":5969,"Ġexact":5970,"ĠAnglais":5971,"Ġmarier":5972,"eureusement":5973,"Ġtermes":5974,"ĠTr":5975,"intes":5976,"Ġsentier":5977,"Ġobten":5978,"Ġobject":5979,"Ġits":5980,"Ġinconnu":5981,"Ġsuffit":5982,"Ġessaya":5983,"ĠbrÃ»l":5984,"ĠchangÃ©":5985,"Ġlooked":5986,"Ġadmirable":5987,"Ġdimin":5988,"Ġpolitique":5989,"Ġtorrent":5990,"Ġfaiblesse":5991,"Ġboulevers":5992,"Ġsubitement":5993,"Ġniveau":5994,"Jane":5995,"Ã©veill":5996,"Ġpau":5997,"Ġmend":5998,"Ġvel":5999,"Ġund":6000,"ousse":6001,"Ġplaf":6002,"Ġintrod":6003,"acÃ©s":6004,"Ã©rable":6005,"Ġprote":6006,"Ġarbre":6007,"Ġregardaient":6008,"Ġconsul":6009,"odovico":6010,"ĠdÃ©sirait":6011,"ichel":6012,"Ġrecueill":6013,"ĠpensÃ©":6014,"Ġcomprend":6015,"Ġjoue":6016,"Ġkilom":6017,"anchement":6018,"ĠFranc":6019,"othÃ¨que":6020,"Ġirrit":6021,"Chaque":6022,"Ġcircul":6023,"ĠabandonnÃ©":6024,"ĠsÃ©jour":6025,"Ġmusique":6026,"Ġcousine":6027,"Ġsoient":6028,"ĠmÃ©rite":6029,"ĠfÃ¢chÃ©":6030,"ĠexceptÃ©":6031,"Ġcellule":6032,"ĠÃ®les":6033,"Charles":6034,".,":6035,"Pierre":6036,"hÃ´te":6037,"ril":6038,"Ġutile":6039,"Ã©ant":6040,"Ġmaire":6041,"Ġmass":6042,"Ġtord":6043,"entra":6044,"ural":6045,"Ã©poque":6046,"acles":6047,"Ġtown":6048,"Ġ!âĢ¦":6049,"Ġquelles":6050,"Ġallant":6051,"ifiques":6052,"ĠmaniÃ¨res":6053,"lements":6054,"Ġcoupable":6055,"minÃ©es":6056,"Ġsolide":6057,"Ġsolitude":6058,"ardiner":6059,"Ġsoufflait":6060,"ĠGrand":6061,"Ġviande":6062,"Ġsubst":6063,"Ġbourse":6064,"Ġcausait":6065,"ĠtirÃ©":6066,"Ġfriends":6067,"Ġmetres":6068,"ĠHarrison":6069,"Ġhappiness":6070,"Ġpistoles":6071,"Ġcostume":6072,"**":6073,"?...":6074,"rat":6075,"so":6076,"ueux":6077,"wh":6078,"Ġdirait":6079,"Ġlant":6080,"Ġlaissez":6081,"Ġset":6082,"Ġsois":6083,"ĠcÃ©l":6084,"Ġah":6085,"Ġtum":6086,"ety":6087,"Ġfaux":6088,"Ġlesquelles":6089,"Ġreason":6090,"Ġseigneur":6091,"ĠÃ©tinc":6092,"sept":6093,"Ġchauff":6094,"abs":6095,"Ã©cur":6096,"acitÃ©":6097,"uez":6098,"agea":6099,"Ġsubl":6100,"ĠBes":6101,"opin":6102,"ĠpassÃ©e":6103,"Ã©rience":6104,"ĠdÃ©sagrÃ©":6105,"ĠÃ©paisse":6106,"Ġaimer":6107,"room":6108,"Ġfermer":6109,"Ġaccro":6110,"ĠempÃª":6111,"Ġservante":6112,"Ġincap":6113,"Ġconfond":6114,"ĠmatinÃ©e":6115,"ĠpoussÃ©":6116,"Ã¨ves":6117,"ĠÃ©gard":6118,"ĠgÃ©nie":6119,"Ġressent":6120,"ĠrÃ©solus":6121,"Ġtwenty":6122,"Ġbrick":6123,"Ġsauter":6124,"ĠsuccÃ©d":6125,"Ġrappelait":6126,"observ":6127,"Ġsauta":6128,"ĠgaietÃ©":6129,"Ġintelligence":6130,"ĠtempÃ©rature":6131,"ĠprÃ©caution":6132,"ĠvÃ©cu":6133,"Leur":6134,"ture":6135,"quin":6136,"ĠmÃ¢ch":6137,"Ġvid":6138,"Ġgir":6139,"cheur":6140,"Ġseize":6141,"Ġchasser":6142,"ama":6143,"ĠSorel":6144,"Ġexces":6145,"Ġallow":6146,"ĠHe":6147,"Ġaccueill":6148,"Ġadroit":6149,"Ġadvers":6150,"Ġsortis":6151,"Ġbouge":6152,"Ġcomprenait":6153,"Ġvoisins":6154,"ĠMarie":6155,"Ġpermission":6156,"Ġdirai":6157,"Ġprocure":6158,"ĠdÃ©mar":6159,"Ġancien":6160,"ĠÃ©levÃ©":6161,"ornfield":6162,"ĠpÃ©nÃ©trer":6163,"AmÃ©rique":6164,"Ġrideaux":6165,"Ġsacrifice":6166,"Ġcercle":6167,"Ġconvaincu":6168,"ĠbibliothÃ¨que":6169,"Esp":6170,"ioc":6171,"lande":6172,"ĠcÃ©r":6173,"Ġga":6174,"alis":6175,"Ġtraces":6176,"Ġduquel":6177,"Ġing":6178,"onnÃ©s":6179,"acte":6180,"ierge":6181,"oreux":6182,"Ġserpent":6183,"ension":6184,"assit":6185,"Ġperte":6186,"ĠHigh":6187,"Entre":6188,"Ã©lanÃ§a":6189,"Ġsecr":6190,"Ġobt":6191,"Ġflamb":6192,"Ãīc":6193,"Ġtenez":6194,"ĠrÃ©sister":6195,"Ġrappela":6196,"ĠpÃ¢l":6197,"ĠsauvÃ©":6198,"Ġnombreux":6199,"Ġrecommenc":6200,"Ġinquiet":6201,"Ġatteindre":6202,"Ġberl":6203,"Ġennemis":6204,"Ġradeau":6205,"itecture":6206,"Celui":6207,"Seulement":6208,"ling":6209,"yre":6210,"Ġdone":6211,"Ġcaisse":6212,"Ġtient":6213,"ĠvÃ©g":6214,"Ġvulg":6215,"Ġbor":6216,"Ġprier":6217,"avions":6218,"abatt":6219,"Ã©pouv":6220,"Ġdissi":6221,"Ã´ne":6222,"ĠVoreux":6223,"Ġdonnaient":6224,"ĠdÃ©sormais":6225,"attes":6226,"ĠarrivÃ¨rent":6227,"Ġlevait":6228,"Ġarrang":6229,"ĠsÃ»retÃ©":6230,"Ġpatience":6231,"ĠrÃ©solut":6232,"Ġenvirons":6233,"horreur":6234,"Ġemploy":6235,"Ġcommunication":6236,"When":6237,"Ġdormait":6238,"Ġlatitude":6239,"ĠÃ©coutait":6240,"Ġpolitesse":6241,"Ġappear":6242,"Ġprochaine":6243,"Ġprolong":6244,"Ġpaup":6245,"No":6246,"hon":6247,"obre":6248,"Ġdor":6249,"ench":6250,"Ġtint":6251,"ĠfÃªte":6252,"asin":6253,"Ġhel":6254,"olier":6255,"ĠgrÃ©":6256,"Ġmaking":6257,"illiam":6258,"Ã´me":6259,"apport":6260,"Ġimb":6261,"Ġlonger":6262,"Ġabomin":6263,"ĠÃ©pais":6264,"Ġaide":6265,"Ġsouci":6266,"Ġsorti":6267,"Ġcherche":6268,"Ġminuit":6269,"Ġblancs":6270,"embarr":6271,"heureux":6272,"Ġquoiqu":6273,"Ġfallu":6274,"ĠprÃ©senta":6275,"Ġbalbut":6276,"Ġtransform":6277,"ĠThornfield":6278,"Ġprovoqu":6279,"Ġremarqua":6280,"venture":6281,"Ġtenter":6282,"Ġlangage":6283,"Ġcaverne":6284,"Ġvictime":6285,"Ġruisseau":6286,"Ġjalousie":6287,"ĠBesanÃ§on":6288,"Is":6289,"Ġlou":6290,"reinte":6291,"ĠmÃ©rid":6292,"Ġtut":6293,"etres":6294,"ĠfÃ»mes":6295,"aises":6296,"Ġrig":6297,"Ġreceived":6298,"ĠprÃªte":6299,"ĠchÃ¢t":6300,"Ġinfluence":6301,"oise":6302,"Ġmoney":6303,"icaire":6304,"ulf":6305,"ĠSainte":6306,"Ġentrait":6307,"Ġatro":6308,"ĠallÃ©e":6309,"Ġpassions":6310,"Ġcommis":6311,"Ġrestaient":6312,"Ġcrimin":6313,"Ġincess":6314,"impat":6315,"ustin":6316,"iction":6317,"ĠmanquÃ©":6318,"Ġlittoral":6319,"Ġraconta":6320,"Ġbriser":6321,"Ġblessure":6322,"ĠStapleton":6323,"ĠmisÃ©rables":6324,"Ġlogis":6325,"Ġoreille":6326,"Ġgoutte":6327,"Ġofficiers":6328,"Ġmachin":6329,"Ġorgan":6330,"Ġfantais":6331,"ĠAdÃ¨le":6332,"angloss":6333,"respond":6334,"ajout":6335,"deux":6336,"jor":6337,"ox":6338,"yle":6339,"zy":6340,"Ġsensible":6341,"Ġmien":6342,"Ġtendit":6343,"Ġnation":6344,"Ġvest":6345,"aspect":6346,"Ġunique":6347,"Ġillus":6348,"avis":6349,"Ġchiff":6350,"Ã©cution":6351,"sibles":6352,"adresse":6353,"Ġcrat":6354,"ĠÃ©mer":6355,"Ġwhile":6356,"ĠHans":6357,"Ġremerci":6358,"ĠOÃ¹":6359,"Ġmerci":6360,"Ġcondu":6361,"Ġconduit":6362,"tements":6363,"Ġsaisir":6364,"Ġtears":6365,"Ġhumain":6366,"ĠprÃ©sentait":6367,"Ġgreve":6368,"Ġpermet":6369,"ĠCharlotte":6370,"astique":6371,"ĠdÃ©cida":6372,"ĠnÃ©cessaires":6373,"ĠCependant":6374,"Ġbattait":6375,"ĠÃ©paule":6376,"Ġbelie":6377,"Ġkeep":6378,"Ġprochain":6379,"Ġsouffrance":6380,"Ġrenfer":6381,"Ġvieillard":6382,"Ġcoutume":6383,"ouchure":6384,"ause":6385,"day":6386,"liv":6387,"nÃ©s":6388,"Ġ'":6389,"Ġpaque":6390,"ently":6391,"Ġfeux":6392,"Ġvari":6393,"Ġrout":6394,"Ġless":6395,"igin":6396,"Ã¢ge":6397,"ĠÃ©bl":6398,"Ġforg":6399,"Ġcaress":6400,"ombr":6401,"Ġtrouvais":6402,"ĠrÃ©alitÃ©":6403,"Ġcommune":6404,"Ġabatt":6405,"ista":6406,"Ġposa":6407,"ĠclartÃ©":6408,"Ġvisible":6409,"Ġcorrespond":6410,"Ġaffreux":6411,"rets":6412,"ĠconnaÃ®t":6413,"Åĵuv":6414,"Ġperdus":6415,"Ġobscur":6416,"Ġcast":6417,"ennui":6418,"Ġprofondeurs":6419,"Ġdomaine":6420,"Ġviolente":6421,"ĠdÃ©cider":6422,"officier":6423,"ĠXI":6424,"ĠsinguliÃ¨re":6425,"Ġrappeler":6426,"Ġfurieux":6427,"Ġchanter":6428,"Ġreleva":6429,"ĠÃ©vÃ©nement":6430,"Ġridicule":6431,"ĠfrÃ©quent":6432,"ĠCheminÃ©es":6433,"ĠZacharie":6434,"ĠJacques":6435,"Ġbizarre":6436,"Ġchaloupe":6437,"Ġgigantes":6438,"Europe":6439,"Peu":6440,"Personne":6441,"bt":6442,"iante":6443,"Ġond":6444,"Ġaise":6445,"Ġsap":6446,"Ġcli":6447,"Ġcuiv":6448,"aring":6449,"Ġboul":6450,"Ġjud":6451,"teau":6452,"attr":6453,"ately":6454,"Ġgrac":6455,"Ġtowards":6456,"Ġconsult":6457,"Ã©goire":6458,"Ġeus":6459,"ĠdÃ©serte":6460,"etta":6461,"Ġcouleurs":6462,"ĠprÃ©venir":6463,"ĠphÃ©n":6464,"accompl":6465,"ucation":6466,"ressed":6467,"ĠtrompÃ©":6468,"Ġpression":6469,"froid":6470,"Ġimportant":6471,"Ġprononcer":6472,"Ġlatin":6473,"ĠJeanlin":6474,"aimais":6475,"ĠIngram":6476,"ĠMortimer":6477,"Ġchandelle":6478,"Ġplafond":6479,"'_":6480,"Voyons":6481,"We":6482,"oÃ»te":6483,"Ã©li":6484,"Ġpomp":6485,"Ġsplend":6486,"Ġmid":6487,"erce":6488,"entions":6489,"Ġfoul":6490,"arne":6491,"arriÃ¨re":6492,"Ġviennent":6493,"elÃ©":6494,"usage":6495,"Ġparven":6496,"ardes":6497,"Ã¢le":6498,"ged":6499,"illy":6500,"Ġmarbre":6501,"ĠmarÃ©ch":6502,"try":6503,"ĠRasseneur":6504,"ĠGalais":6505,"ctobre":6506,"Ġcloche":6507,"Ġaffl":6508,"Ġstation":6509,"Ġassassin":6510,"Ġincr":6511,"aider":6512,"Ġconfus":6513,"Ġcanon":6514,"Ġcanons":6515,"ĠGrÃ©goire":6516,"onnerre":6517,"Ġproposition":6518,"Ġactu":6519,"appelait":6520,"Ġglisser":6521,"Ġappeared":6522,"Ġprisonniers":6523,"Ġfollowed":6524,"Ġpirogue":6525,"Ġmonths":6526,"Ġnobles":6527,"Nab":6528,"iable":6529,"Ġlourde":6530,"enne":6531,"arÃ©":6532,"aritÃ©":6533,"Ġhid":6534,"Ġgaill":6535,"Ġgonfl":6536,"Ġproie":6537,"ced":6538,"Ã©cart":6539,"Ġquelconque":6540,"ensitÃ©":6541,"Ġmars":6542,"Ġmarchant":6543,"ĠBarr":6544,"ĠRien":6545,"intellig":6546,"intÃ©ress":6547,"Ġbeh":6548,"Ġappelle":6549,"Ġattendu":6550,"Ġaid":6551,"Ġpension":6552,"Ġreprenait":6553,"Ġclose":6554,"Ġaccabl":6555,"Ġcontinent":6556,"Ġcertes":6557,"Ġhabitude":6558,"ussitÃ´t":6559,"ahi":6560,"Auc":6561,"Ġhumide":6562,"Ġayez":6563,"Ġprovince":6564,"Ġmurmure":6565,"ĠplacÃ©":6566,"Ġprisoner":6567,"ĠemportÃ©":6568,"000":6569,"ĠdestinÃ©e":6570,"Ġmuette":6571,"ĠaisÃ©ment":6572,"aucun":6573,"Ġfoot":6574,"Ġformidable":6575,"Ġincapable":6576,"Bennet":6577,"eorg":6578,"pp":6579,"rure":6580,"xt":6581,"ĠaÃ®n":6582,"Ġtire":6583,"inaires":6584,"Ġfous":6585,"Ġnaiss":6586,"Ġboy":6587,"Ã©tend":6588,"Ġenough":6589,"Ãªle":6590,"amen":6591,"Ġsurv":6592,"ĠCor":6593,"six":6594,"Ġgrotte":6595,"adventure":6596,"icitÃ©":6597,"Ã©ro":6598,"essay":6599,"Ġcraqu":6600,"Ġquels":6601,"Ã»ter":6602,"ĠAussi":6603,"Ġallong":6604,"Ġchere":6605,"ĠpassÃ¨rent":6606,"Ġvenus":6607,"Ġperp":6608,"Ġjeudi":6609,"ĠtouchÃ©":6610,"Ġabord":6611,"Ġclerc":6612,"Ġnotice":6613,"Ġcoude":6614,"Ġtenu":6615,"Ġvolup":6616,"Ġderniere":6617,"Ġscul":6618,"ommod":6619,"Ġbase":6620,"Ġcase":6621,"ĠArmand":6622,"uck":6623,"Ġredesc":6624,"Ġprovision":6625,"ĠreÃ§ut":6626,"ĠmÃ©dioc":6627,"Ġcommencer":6628,"ĠdÃ©goÃ»t":6629,"Ġconvenu":6630,"Ġpossession":6631,"oublier":6632,"Ġpassed":6633,"ĠlisiÃ¨re":6634,"Ġraisonnable":6635,"Ġphilosoph":6636,"Ġmaigre":6637,"ĠrÃ©pugn":6638,"Ġpassagers":6639,"ĠHighness":6640,"Candide":6641,"Ceci":6642,"aking":6643,"bourn":6644,"honn":6645,"Ġlux":6646,"Ã©fait":6647,"Ġpian":6648,"Ġsages":6649,"ĠcÃ¢":6650,"ĠqualitÃ©s":6651,"ĠnÃ©anmoins":6652,"eul":6653,"elÃ©e":6654,"mem":6655,"Ġgend":6656,"estrade":6657,"Ġplair":6658,"endez":6659,"Ġcoming":6660,"olont":6661,"olÃ©e":6662,"ĠfrÃ©g":6663,"Ġbrod":6664,"Ġfortement":6665,"opinion":6666,"Ġcartes":6667,"ĠrÃ©gn":6668,"Ġauxquels":6669,"Ġtouch":6670,"Ġcherchant":6671,"Ġbloc":6672,"oiles":6673,"Ġagir":6674,"Ġinsp":6675,"ĠfaÃ§ons":6676,"ĠÃ©chelle":6677,"Ġ17":6678,"Ġabsur":6679,"ception":6680,"ĠdisparaÃ®tre":6681,"Ġapparut":6682,"ĠBonadventure":6683,"Ġrub":6684,"Ġcruel":6685,"Ġappelait":6686,"ĠrÃ©fug":6687,"ĠforÃªts":6688,"ĠcratÃ¨re":6689,"Ġsculpt":6690,"Alice":6691,"DÃ©j":6692,"Heureusement":6693,"VI":6694,"dle":6695,"ford":6696,"hier":6697,"rut":6698,"Ġlait":6699,"ĠlÃ¢che":6700,"Ġvil":6701,"Ġlaug":6702,"Ġjoign":6703,"astr":6704,"ĠprÃ©parer":6705,"Ġtru":6706,"Ġchans":6707,"Ġchanc":6708,"oler":6709,"Ġeau":6710,"Ã§ai":6711,"ĠSc":6712,"ĠBl":6713,"ĠpassÃ©es":6714,"Ġregardais":6715,"ĠÃ©cart":6716,"Ġcompan":6717,"Ġreprises":6718,"Ġintrig":6719,"Ġboue":6720,"Ġsource":6721,"Ġcomprenez":6722,"approcher":6723,"Ġvraie":6724,"Ġjouait":6725,"Ġpoing":6726,"Ġlumin":6727,"Ġtrib":6728,"Ġdoivent":6729,"ĠgÃ©nÃ©rale":6730,"Ġimportance":6731,"Ġmonstru":6732,"ĠLongbourn":6733,"ĠvÃ©gÃ©t":6734,"ĠphÃ©nom":6735,"Car":6736,"ament":6737,"rÃ¨rent":6738,"Ġpurent":6739,"Ġsonner":6740,"Ġcy":6741,"anv":6742,"entends":6743,"inf":6744,"inci":6745,"Ġferez":6746,"ĠvanitÃ©":6747,"Ġbanqu":6748,"Ġhaie":6749,"Ġprai":6750,"Ġnear":6751,"Ġplans":6752,"Ġtranch":6753,"accepter":6754,"side":6755,"ican":6756,"ĠdÃ©fin":6757,"Ġsuc":6758,"ĠDes":6759,"Ġencour":6760,"Ġtrouvant":6761,"ĠdÃ©sirer":6762,"ĠdÃ©cembre":6763,"ĠmontÃ©":6764,"Ġeffect":6765,"Ġenvoy":6766,"ĠdÃ©tail":6767,"Ġsouffert":6768,"ĠQuelle":6769,"Ġjouiss":6770,"ĠdÃ©but":6771,"Ġ16":6772,"izzy":6773,"Ġapparence":6774,"Ġconnaissais":6775,"Ġtromper":6776,"anÃ§ant":6777,"Ġprintemps":6778,"Ġagainst":6779,"Ġvapeurs":6780,"Ġdirigea":6781,"abandonner":6782,"Ġsaurais":6783,"Ġimpatience":6784,"ĠfraÃ®che":6785,"aventure":6786,"ĠmangÃ©":6787,"Ġdangereux":6788,"ĠProv":6789,"housiasme":6790,"ĠcÃ©rÃ©m":6791,"HÃ©las":6792,"sel":6793,"Ġdam":6794,"Ġmob":6795,"arret":6796,"Ġvendre":6797,"Ġhope":6798,"Ã©tud":6799,"Ġprirent":6800,"Ġparois":6801,"Ġoh":6802,"ami":6803,"Ġsurn":6804,"Ġyours":6805,"Ġbrusque":6806,"ĠAinsi":6807,"tra":6808,"ĠEyre":6809,"ĠcarrÃ©":6810,"tress":6811,"Ã©rie":6812,"Ġobjet":6813,"Ġarrivant":6814,"ĠrevÃªt":6815,"Ġinsol":6816,"ĠmariÃ©e":6817,"Ġcalled":6818,"accus":6819,"ĠÃ©viter":6820,"Ġfigures":6821,"ugu":6822,"Ġsensation":6823,"ĠdÃ©sirs":6824,"Ġpalais":6825,"ambo":6826,"Ġchacune":6827,"ĠvÃ©ritablement":6828,"Ġnuage":6829,"Ġtirant":6830,"Ġrisque":6831,"Ã©clat":6832,"Ġpoursuivit":6833,"appartement":6834,"Ġmenton":6835,"Ġimpatient":6836,"Ġgestes":6837,"Ġailleurs":6838,"His":6839,"Se":6840,"So":6841,"lor":6842,"Ġ6":6843,"Ġlaid":6844,"enois":6845,"Ġpattes":6846,"Ġcass":6847,"ĠnoyÃ©":6848,"ung":6849,"Ġetes":6850,"Ġrum":6851,"Ġrares":6852,"Ġhours":6853,"atmosphÃ¨re":6854,"Ġprenaient":6855,"avoue":6856,"Ġchoix":6857,"Ġpourrai":6858,"osait":6859,"Ġgrat":6860,"ivid":6861,"Ġalt":6862,"idents":6863,"uites":6864,"Ġmarins":6865,"Ġremuer":6866,"ĠTrÃ¨s":6867,"intÃ©rÃªt":6868,"tened":6869,"Ġvoulant":6870,"Ġvoulaient":6871,"Ġdoubl":6872,"Ġdoubt":6873,"Ġhero":6874,"Ġnuits":6875,"Ġindis":6876,"Ġapprit":6877,"apprendre":6878,"Ġrefl":6879,"ĠespÃ©rer":6880,"Ġrepe":6881,"ĠexpÃ©d":6882,"ĠÃ©lÃ©ment":6883,"Ġ15":6884,"Ġpermettait":6885,"Ġballe":6886,"Ġoutils":6887,"Ġdirig":6888,"Ġsauf":6889,"ĠprocÃ©d":6890,"Ġpuissant":6891,"ĠprÃ©cipita":6892,"ymore":6893,"Ġgouvernement":6894,"Ġsupposer":6895,"Ġrecherche":6896,"ĠRodolphe":6897,"Ġfrere":6898,"Ġnatural":6899,"Ġdraw":6900,"ĠtÃ©nÃ¨bres":6901,"ĠcathÃ©d":6902,"Souvent":6903,"Ġsublime":6904,"anvier":6905,":--Â«":6906,"EU":6907,"bourg":6908,"hÃ©s":6909,"iale":6910,"xel":6911,"Ġ...":6912,"enier":6913,"Ġsott":6914,"erse":6915,"entr":6916,"Ġfich":6917,"arra":6918,"Ġbest":6919,"orze":6920,"Ġgall":6921,"agine":6922,"Ġtroup":6923,"endus":6924,"Ġinut":6925,"Ġinde":6926,"ĠCes":6927,"ĠentrÃ©":6928,"ĠcrÃ¢":6929,"obÃ©":6930,"Ġcoque":6931,"Ġcocher":6932,"Ġnouvel":6933,"Ġmatter":6934,"Ġenvoyer":6935,"Ġperdait":6936,"Ġfameux":6937,"Ġsoupe":6938,"Ã©vanou":6939,"ĠpoussÃ©e":6940,"Ġbords":6941,"ĠEnfin":6942,"ĠprocÃ¨s":6943,"Ġhands":6944,"Ġconseils":6945,"Ġanciens":6946,"ĠthÃ©Ã¢tre":6947,"ĠÃ©trangers":6948,"ĠdÃ©licat":6949,"Aramis":6950,"ĠFrank":6951,"Ġreplied":6952,"ĠConti":6953,"Ġdiverses":6954,"Ġcarriage":6955,"Ġtabac":6956,"Ġmanoeuv":6957,"ĠbohÃ©mienne":6958,"Ġmaman":6959,"Ġterribles":6960,"Ab":6961,"du":6962,"Ġ5":6963,"enais":6964,"Ġsavant":6965,"Ġmoll":6966,"eraient":6967,"Ġjup":6968,"Ġleast":6969,"ably":6970,"ĠMad":6971,"ĠPeut":6972,"ĠPangloss":6973,"Ã®me":6974,"enses":6975,"Ġformes":6976,"ĠNord":6977,"Ġvenais":6978,"Ġposer":6979,"objet":6980,"chesse":6981,"Ġaccoutum":6982,"Ġadresse":6983,"ĠdÃ©pit":6984,"Ã©crire":6985,"ĠrÃ©sistance":6986,"Ġoffrir":6987,"Ġscand":6988,"Ġbruits":6989,"ĠAronna":6990,"ĠMilord":6991,"Ġressour":6992,"Ġinvent":6993,"Ġbourg":6994,"Ġtremp":6995,"Ġpersonnages":6996,"Ġused":6997,"ĠrÃ©pÃ©ter":6998,"Ġrisquer":6999,"ĠdiffÃ©rence":7000,"ĠstupÃ©fait":7001,"ĠtroublÃ©":7002,"Ġfrisson":7003,"Ġconduisait":7004,"Ġsmall":7005,"Ġliquide":7006,"ĠdÃ©daign":7007,"Ġpipe":7008,"Ġmanifest":7009,"ĠtranquillitÃ©":7010,"Ġvelours":7011,"ĠAronnax":7012,"Apres":7013,"Pl":7014,"Tant":7015,"fum":7016,"mon":7017,"of":7018,"Ġluc":7019,"enz":7020,"ened":7021,"oulez":7022,"ony":7023,"ready":7024,"Ġfun":7025,"Ġlames":7026,"Ġran":7027,"chon":7028,"Ġplay":7029,"Ġchiens":7030,"ĠchrÃ©t":7031,"ief":7032,"Ã©ph":7033,"ĠeÃ»mes":7034,"acambo":7035,"allum":7036,"ĠGl":7037,"ĠGod":7038,"ĠGrimaud":7039,"ilson":7040,"Ġcouraient":7041,"ĠÃ©coul":7042,"Ġcouper":7043,"Ġsentence":7044,"Ġsuivis":7045,"Ġserviteur":7046,"Ġsolenn":7047,"ĠdÃ©tresse":7048,"ĠgarÃ§ons":7049,"ĠtraversÃ©e":7050,"Ġnote":7051,"ustice":7052,"ĠtournÃ©":7053,"ĠdÃ©bord":7054,"Ġexcurs":7055,"Ġdoes":7056,"Ġembarcation":7057,"ĠÃ©gal":7058,"ĠarrÃªter":7059,"Ġpressent":7060,"ĠbrisÃ©":7061,"ĠapportÃ©":7062,"ĠterminÃ©":7063,"Ġsuffisait":7064,"Ġbetter":7065,"Ġvigoureux":7066,"ween":7067,"Ã©tablir":7068,"ault":7069,"Ġsanglots":7070,"Ġprudent":7071,"MalgrÃ©":7072,"Ġdocument":7073,"Ġgirl":7074,"livier":7075,"ĠÃ©blou":7076,"One":7077,"oor":7078,"Ġsw":7079,"Ġcult":7080,"Ġmov":7081,"ĠtÃ©":7082,"aites":7083,"Ġfonc":7084,"Ġfleur":7085,"eule":7086,"Ġlap":7087,"ork":7088,"orce":7089,"asc":7090,"Ġgol":7091,"aves":7092,"agg":7093,"ouvrait":7094,"Ġpourraient":7095,"abli":7096,"Ġinqu":7097,"resc":7098,"Ġev":7099,"ĠCrois":7100,"Ġgrille":7101,"Ġside":7102,"Ġalready":7103,"Ġbrought":7104,"Ġmarches":7105,"ĠFar":7106,"Ġpouvant":7107,"ĠÃ©per":7108,"Ġintim":7109,"puiss":7110,"ĠblÃ©":7111,"Ġmother":7112,"Ġinstall":7113,"ĠprÃ©sente":7114,"ĠParce":7115,"Ġfonds":7116,"Ġvitre":7117,"Ġvoudrez":7118,"raisembl":7119,"ĠdÃ©fendre":7120,"Ġgardait":7121,"Ġsanglot":7122,"ĠÃīc":7123,"Ġfear":7124,"Ġdessous":7125,"Chap":7126,"Ġcabine":7127,"ongea":7128,"ĠÃ©clata":7129,"Ġbrillait":7130,"Ġancienne":7131,"ypte":7132,"Ġbaisers":7133,"ĠÃ©prouvait":7134,"Ġnulle":7135,"ENT":7136,"Ġreturn":7137,"ĠamenÃ©":7138,"Ġnettement":7139,"Ġroutes":7140,"ĠfrÃ©gate":7141,"AussitÃ´t":7142,"NE":7143,"hter":7144,"lock":7145,"mont":7146,"ĠÅĵil":7147,"Ġombres":7148,"Ġdign":7149,"Ġpel":7150,"Ġpire":7151,"Ġcig":7152,"Ġmai":7153,"itution":7154,"ĠvallÃ©e":7155,"Ġrace":7156,"Ġparfum":7157,"riques":7158,"ĠÃ©tage":7159,"ĠÃ©tendu":7160,"Ġplantes":7161,"Ġplanches":7162,"ieme":7163,"ected":7164,"Ġalso":7165,"ĠSan":7166,"ĠLouvre":7167,"Ġdisaient":7168,"Ġproport":7169,"ĠcrÃ©p":7170,"Ġsueur":7171,"ĠExc":7172,"ombien":7173,"Ġvenant":7174,"Ġcommerce":7175,"ĠfermÃ©":7176,"Ġlaissaient":7177,"Ġaurions":7178,"ĠempÃªcher":7179,"Ġspoke":7180,"Ġouvrage":7181,"ĠprÃ©cieux":7182,"arbres":7183,"Ġembarqu":7184,"Ġmener":7185,"ĠrÃ©col":7186,"Ġredress":7187,"Ġexpliquer":7188,"uves":7189,"Ġquitte":7190,"berg":7191,"ĠsituÃ©e":7192,"Ġrefuser":7193,"Ġlutter":7194,"Ġformaient":7195,"Ġobservation":7196,"Ġescape":7197,"ĠparticuliÃ¨rement":7198,"Ġmission":7199,"ĠprÃ©vÃ´t":7200,"Ġbetween":7201,"Ġcraignait":7202,"ĠachevÃ©":7203,"Ġinfiniment":7204,"ĠmÃ©can":7205,"ĠindiffÃ©r":7206,"ĠSauvages":7207,"ĠnÃ©glig":7208,"Ġdiscussion":7209,"OR":7210,"dres":7211,"ool":7212,"rante":7213,"ÃĬ":7214,"Ġsien":7215,"ones":7216,"Ġtig":7217,"Ġtonnerre":7218,"ily":7219,"Ġvus":7220,"asions":7221,"Ġunif":7222,"Ġhouille":7223,"atifs":7224,"Ã¨ches":7225,"Ġremem":7226,"Ãªne":7227,"outh":7228,"Ġgrain":7229,"Ġgroupes":7230,"ĠPort":7231,"Ã©rup":7232,"ĠLizzy":7233,"Ġentrant":7234,"aisses":7235,"allait":7236,"Ġcontenait":7237,"Ġcommence":7238,"ĠdÃ©sign":7239,"Ġporta":7240,"Ġadded":7241,"embouchure":7242,"Ġempress":7243,"Ġspec":7244,"impression":7245,"Ġscrup":7246,"approche":7247,"accro":7248,"ĠlevÃ©":7249,"ĠcomplÃ¨te":7250,"Ġtransporter":7251,"Ġtrompe":7252,"ĠabandonnÃ©e":7253,"Ġrisqu":7254,"ĠhÃ©ros":7255,"Ġbecause":7256,"Ġrideau":7257,"Ġmeubles":7258,"Gringoire":7259,"vingts":7260,"Ġpaquebot":7261,").":7262,"tait":7263,"Ġdangers":7264,"Ġlett":7265,"Ġpaille":7266,"Ġfuy":7267,"ĠnÃ©g":7268,"Ġjanvier":7269,"tered":7270,"Ġraid":7271,"Ã©touff":7272,"ury":7273,"atri":7274,"ĠgÃªn":7275,"alc":7276,"agan":7277,"Ġtrous":7278,"Ġtrag":7279,"Ġtronc":7280,"Ġinexpl":7281,"amer":7282,"Ġeach":7283,"ivitÃ©":7284,"autÃ©":7285,"Ġcarr":7286,"Ġpassai":7287,"ĠRoi":7288,"Ã©die":7289,"Ã©grel":7290,"istÃ©":7291,"Ġferais":7292,"instr":7293,"Ġcolle":7294,"autrefois":7295,"Ġsuivante":7296,"ĠnommÃ©":7297,"Ġverrons":7298,"ipp":7299,"Ġgovern":7300,"All":7301,"ĠpoÃ¨te":7302,"Ã©vrier":7303,"Ġmorale":7304,"Ġrelations":7305,"Ġproduire":7306,"Ġcharming":7307,"ĠdÃ©roul":7308,"Ġsuffisamment":7309,"Ġaventures":7310,"Ġfollowing":7311,"Ġhonour":7312,"Ġmettant":7313,"ĠpÃªche":7314,"Ġplaindre":7315,"Ġcountry":7316,"ĠsÃ©minaire":7317,"aj":7318,"iais":7319,"nait":7320,"ueuse":7321,"enard":7322,"ĠpÃ¢t":7323,"ĠpÃ´le":7324,"ĠsÃ©parer":7325,"ouquÃ©":7326,"Ġcouverte":7327,"ernes":7328,"Ġquai":7329,"itable":7330,"Ġlament":7331,"Ġgare":7332,"champ":7333,"abor":7334,"illages":7335,"empÃª":7336,"Ġserg":7337,"Ġgrandeur":7338,"ĠTemple":7339,"Ġconstruction":7340,"ĠposÃ©":7341,"Ġferma":7342,"Ġclim":7343,"attach":7344,"Ã©lan":7345,"Ġperspect":7346,"Ġaccr":7347,"ĠintÃ©rieure":7348,"Ġauriez":7349,"ĠjetÃ©e":7350,"Ġexpri":7351,"Ġprofondes":7352,"Ġrespirer":7353,"ĠjournÃ©es":7354,"clock":7355,"ĠinvitÃ©s":7356,"Ġruine":7357,"arrÃªtait":7358,"iletti":7359,"Ġsecondes":7360,"ĠprÃªts":7361,"Ġescalier":7362,"Ġquartier":7363,"Ġtremblante":7364,"Ġouverts":7365,"Ġvinrent":7366,"ĠÃ©levÃ©e":7367,"Ã©loigna":7368,"Ġpavillon":7369,"ĠprotÃ©g":7370,"ĠÃ©troite":7371,"Ġhowever":7372,"Ġsuperbe":7373,"Ġtriomph":7374,"Ġattentivement":7375,"ĠÃ©teint":7376,"ĠÃ©lectrique":7377,"Ġrepentir":7378,"Ġapercevait":7379,"ertainement":7380,"Ġcuivre":7381,"ĠCroisenois":7382,"After":7383,"Ned":7384,"lent":7385,"ĠÃ´t":7386,"Ġuse":7387,"Ġdict":7388,"Ġporc":7389,"ref":7390,"entendit":7391,"ĠfÃ®t":7392,"argn":7393,"elop":7394,"astre":7395,"Ġrun":7396,"ustr":7397,"irons":7398,"Ġrever":7399,"Ġreport":7400,"Ġsever":7401,"Ġpourrez":7402,"onnaient":7403,"ĠMÃ©d":7404,"Ġcong":7405,"Ġestim":7406,"Ġexag":7407,"Ġexerc":7408,"ĠAouda":7409,"aye":7410,"anges":7411,"ĠdÃ©sapp":7412,"Ġcade":7413,"Ã©motion":7414,"ĠpayÃ©":7415,"Ġcentaines":7416,"Ġmurailles":7417,"Ġvitres":7418,"ĠWilson":7419,"Ġrenoncer":7420,"ĠÃ©change":7421,"Ġpermit":7422,"affection":7423,"Ġramener":7424,"Ġchevalier":7425,"Ġexplication":7426,"ĠfixÃ©":7427,"interro":7428,"envoyer":7429,"Ġcrev":7430,"ĠappelÃ©":7431,"ĠReine":7432,"ĠdÃ©mon":7433,"ounded":7434,"architecture":7435,"Ġappartenait":7436,"Ã©chapper":7437,"Ġchampion":7438,"Ġconviction":7439,"ĠmÃ©cont":7440,"Ġsilencieuse":7441,"ĠBelcher":7442,"Ġcerveau":7443,"Ã©pouser":7444,"ĠBarrymore":7445,"Ġnaissance":7446,"Ġpiano":7447,"Ġgolfe":7448,"?âĢ¦":7449,"Donc":7450,"My":7451,"iÃ©tÃ©":7452,"Ġloup":7453,"Ġlaine":7454,"enb":7455,"Ġpages":7456,"Ġlaves":7457,"Ġbale":7458,"elait":7459,"Ġled":7460,"auberge":7461,"Ġaval":7462,"Ġavouer":7463,"ĠgÃ©m":7464,"Ġgone":7465,"alda":7466,"agir":7467,"ĠtrÃ©s":7468,"Ġchir":7469,"ĠPi":7470,"ĠLoth":7471,"ĠÃ©glise":7472,"Ġserious":7473,"Ġsupr":7474,"Ġailes":7475,"Ġclaire":7476,"ĠmontrÃ©":7477,"Ã©lÃ¨ne":7478,"Ġchercha":7479,"Ġarrivaient":7480,"Ġcharp":7481,"Ġsoeurs":7482,"Ġchevel":7483,"Ġtraversa":7484,"Ġgross":7485,"ĠWest":7486,"Ġteint":7487,"Ġgenou":7488,"ĠÃ©lÃ¨ves":7489,"Ġtaking":7490,"Ġcroyant":7491,"Ġgalant":7492,"Ġbriques":7493,"ĠlibÃ©r":7494,"Ġcolline":7495,"ĠHenri":7496,"herbe":7497,"herlock":7498,"Ġapporter":7499,"Ġdistinguait":7500,"Ġjoyeuse":7501,"Ġsecoua":7502,"Ġwork":7503,"Ġorgueil":7504,"Ġtriomphe":7505,"Ġparvint":7506,"Ġproduisit":7507,"Ġmassif":7508,"Ġobtenu":7509,"ĠpaupiÃ¨res":7510,"ĠdÃ©finit":7511,"ĠcathÃ©drale":7512,".)":7513,"Fogg":7514,"del":7515,"laient":7516,"Ġ7":7517,"Ã©ge":7518,"Ġcant":7519,"Ġmand":7520,"Ġdear":7521,"Ġfore":7522,"ilis":7523,"ĠnaÃ¯":7524,"Ġvides":7525,"ĠbÃ©g":7526,"ĠjÃ©s":7527,"avers":7528,"Ġtrad":7529,"Ġmeans":7530,"apt":7531,"ĠLodovico":7532,"Ġmarque":7533,"Ġamong":7534,"ĠJack":7535,"ancien":7536,"Ġdonnai":7537,"Ġvoice":7538,"Ġportaient":7539,"ĠcoÃ»t":7540,"Ġadop":7541,"Ġstyle":7542,"ĠrÃ©sign":7543,"Ġavantage":7544,"Ġsaisi":7545,"meralda":7546,"Ġrefr":7547,"Ġtourb":7548,"Ġlevai":7549,"Ġoccasions":7550,"Ġorders":7551,"Ġbarque":7552,"Ġballes":7553,"Ġfixement":7554,"ĠrÃ©giment":7555,"ĠpressÃ©":7556,"Ġactions":7557,"ĠÃ©mu":7558,"Ġgouverneur":7559,"Ġbonnet":7560,"Ġimprud":7561,"Ġsinistre":7562,"Ġvoiles":7563,"Ġcraignais":7564,"Ġmagasin":7565,"ĠpoignÃ©e":7566,"ĠSansever":7567,"Ġrarement":7568,"Ġperfect":7569,"Ġsoigneusement":7570,"ĠdÃ©vouement":7571,"ĠpropriÃ©taire":7572,"ĠLothian":7573,"ĠSanseverina":7574,"Tenez":7575,"Trois":7576,"dou":7577,"garde":7578,"hire":7579,"ium":7580,"rouver":7581,"tÃ©s":7582,"Ġ4":7583,"Ġpendre":7584,"Ġsonna":7585,"onom":7586,"Ġmens":7587,"Ġmention":7588,"ĠfÃ©vrier":7589,"Ġnar":7590,"Ġvins":7591,"ĠvoÃ»te":7592,"ĠbÃ©":7593,"Ġbav":7594,"ĠbÃ¢":7595,"Ġbourd":7596,"Ġroses":7597,"Ġronde":7598,"ĠhÃ´te":7599,"usques":7600,"Ġprouver":7601,"Ġparis":7602,"Ġnext":7603,"ĠÃ©tendue":7604,"Ġchaude":7605,"Ġchild":7606,"abe":7607,"Ġwal":7608,"impos":7609,"ĠCol":7610,"Ġyet":7611,"Ã®ch":7612,"Ġproche":7613,"Ġcroit":7614,"Ġcarte":7615,"Ġpouvions":7616,"raÃ®ch":7617,"Ġconserver":7618,"Ã©dit":7619,"ows":7620,"Ġabove":7621,"Ġattir":7622,"Ġvoyons":7623,"obst":7624,"Ġcouch":7625,"rette":7626,"Ġaurais":7627,"embarcation":7628,"ousses":7629,"aillir":7630,"Ġconfort":7631,"ĠdÃ©bris":7632,"Ġroues":7633,"Ġrocher":7634,"Ġbourreau":7635,"Ġcouvent":7636,"ĠfixÃ©s":7637,"Ġusage":7638,"Ġesprits":7639,"Ġplaces":7640,"Ġrapporter":7641,"Ġgravement":7642,"Ġlisait":7643,"ĠÃ©tonnÃ©e":7644,"Ġemm":7645,"Ġsoutenir":7646,"Ã©loigner":7647,"lantique":7648,"ĠconsÃ©quence":7649,"ĠcessÃ©":7650,"ologie":7651,"Ġbarbe":7652,"Ġbouteilles":7653,"Ġbraves":7654,"Ġdiamants":7655,"Ġobstacle":7656,"ĠSeine":7657,"Ġinstruments":7658,"adressant":7659,"Ãītait":7660,"Ġpromptement":7661,"ĠLucas":7662,"ription":7663,"Ġnovembre":7664,"Ġphysique":7665,"Chapitre":7666,"Tiens":7667,"oeur":7668,"pens":7669,"suite":7670,"voir":7671,"Ġtue":7672,"Ġquad":7673,"Ġnus":7674,"Ġlater":7675,"Ġlass":7676,"aisait":7677,"omac":7678,"emort":7679,"sed":7680,"Ġchances":7681,"onnemort":7682,"Ġalone":7683,"ĠLow":7684,"Ġbrand":7685,"ĠAt":7686,"ertin":7687,"Ġdevrait":7688,"Ġwhose":7689,"Ġmainten":7690,"Ġ?âĢ¦":7691,"Ġimpl":7692,"Ġvenger":7693,"ĠregardÃ©":7694,"ĠTabor":7695,"Ġdonnez":7696,"ĠdÃ©sordre":7697,"auvre":7698,"ĠdÃ©coup":7699,"Ġvieil":7700,"that":7701,"Ġadieu":7702,"ressions":7703,"Ġsortant":7704,"auraient":7705,"Ã§ade":7706,"Ġverrez":7707,"Ġvoler":7708,"Ġvolume":7709,"Ġconfess":7710,"Ġrefuge":7711,"ĠcheminÃ©es":7712,"ĠfaÃ§ade":7713,"Pourtant":7714,"ĠoccupÃ©e":7715,"Ġruin":7716,"ĠdÃ©sirais":7717,"ĠdÃ©sespÃ©rÃ©":7718,"ĠsiÃ¨cles":7719,"Ġessayer":7720,"Ġgraves":7721,"ĠhÃ©riss":7722,"Ġcontenta":7723,"Ġmagnifiques":7724,"Ġfranchir":7725,"Ġadmiration":7726,"Ġacheter":7727,"Ġchasseur":7728,"Ġmuet":7729,"ĠÃ©quip":7730,"admiration":7731,"Ġsouffrances":7732,"oureusement":7733,"Ġivre":7734,"Ġyourself":7735,"GE":7736,"TI":7737,"Venez":7738,"cs":7739,"cour":7740,"gles":7741,"voix":7742,"ĠdÃ®n":7743,"Ġlieux":7744,"Ġpower":7745,"onf":7746,"Ġcasser":7747,"reign":7748,"entrai":7749,"itz":7750,"Ġvir":7751,"ories":7752,"Ġhang":7753,"Ġsein":7754,"Ġpourp":7755,"icien":7756,"ĠPalais":7757,"ĠLid":7758,"Ġcrav":7759,"Ġcrise":7760,"Ġought":7761,"Ġserra":7762,"ensÃ©":7763,"issue":7764,"Ġmarri":7765,"ĠamÃ©ric":7766,"ĠdonnÃ©e":7767,"odes":7768,"ĠcoupÃ©":7769,"ĠÃ©poux":7770,"ĠdÃ©cour":7771,"Ġentreten":7772,"Ġclairement":7773,"assez":7774,"Ġvisites":7775,"Ġherbes":7776,"Ġservit":7777,"Ġconvient":7778,"Ġrevinrent":7779,"Ġcann":7780,"Ġpromenait":7781,"Ġchemins":7782,"Ġfusils":7783,"Ġpoches":7784,"Ġguet":7785,"Ġtaches":7786,"Ġhistoires":7787,"Ġhalet":7788,"Ġhabitudes":7789,"landais":7790,"Ġcordes":7791,"Ġanglaise":7792,"Ġembarras":7793,"Ġmeurtre":7794,"Ġrecherches":7795,"Ã©levait":7796,"Ġphilosophe":7797,"Ġquatorze":7798,"Ġballon":7799,"Ġsympathie":7800,"Ġobscure":7801,"Ġdissip":7802,"ĠProvidence":7803,"AS":7804,"To":7805,"oques":7806,"rance":7807,"uant":7808,"Ġdre":7809,"Ġpis":7810,"Ġsend":7811,"Ġsours":7812,"Ġsci":7813,"Ġstreet":7814,"Ġcim":7815,"Ġcave":7816,"Ġcaill":7817,"Ġaw":7818,"Ġtaire":7819,"Ġtirait":7820,"ark":7821,"Ġvan":7822,"Ġriait":7823,"ĠhaÃ¯":7824,"urch":7825,"Ġenem":7826,"Ã¨bre":7827,"Ġavou":7828,"Ġpast":7829,"Ġseem":7830,"ĠÃ©tourd":7831,"Ġplaire":7832,"abb":7833,"onnes":7834,"ĠsongÃ©":7835,"ĠCresc":7836,"ardins":7837,"uere":7838,"illaient":7839,"Ġdisent":7840,"Ġfray":7841,"Ġfranchement":7842,"ĠrÃ©pÃ¨te":7843,"Ġpassport":7844,"assÃ©s":7845,"Ġcouple":7846,"Ġsentant":7847,"Ġcapt":7848,"iquait":7849,"Ġsourde":7850,"Ġreviend":7851,"Ġinspir":7852,"Ġoffici":7853,"iterran":7854,"Ġ14":7855,"Ġfatal":7856,"Ġpaliss":7857,"ĠbÃ¢ton":7858,"ĠprÃªtres":7859,"entendais":7860,"Ġtapiss":7861,"ĠYour":7862,"Ġmagnific":7863,"tructions":7864,"Ġdevoirs":7865,"appeler":7866,"Ġexcellente":7867,"Ġconsolation":7868,"Ġdisput":7869,"Ġordinairement":7870,"espÃ©rance":7871,"ĠvÃªtu":7872,"loge":7873,"ĠmystÃ©rieux":7874,"Ġgibier":7875,"Ġanswered":7876,"ĠEsmeralda":7877,"ĠExcell":7878,"Ġperspective":7879,"enbrock":7880,"ĠLidenbrock":7881,"Aux":7882,"Certes":7883,"How":7884,"aw":7885,"gg":7886,"Ġdil":7887,"Ġluis":7888,"Ġlight":7889,"enouill":7890,"Ġty":7891,"Ġtitre":7892,"ination":7893,"Ġnoy":7894,"Ġlecteur":7895,"ceau":7896,"Ġparent":7897,"Ġparal":7898,"Ġpourvu":7899,"Ġeight":7900,"prop":7901,"acter":7902,"ĠCacambo":7903,"ardon":7904,"Ġcraint":7905,"Ġserions":7906,"appes":7907,"Ġparts":7908,"ĠGriff":7909,"Quasimodo":7910,"ĠÃ©crite":7911,"Ġattitude":7912,"Ġfortes":7913,"Ġreproche":7914,"Ġcolonie":7915,"Ġprofound":7916,"Ġaffreuse":7917,"ĠintÃ©rieur":7918,"Ġconnue":7919,"Ġsouffrait":7920,"ĠÃ©vanou":7921,"Ġexcuse":7922,"Ġtranquilles":7923,"Ġroche":7924,"ĠFrench":7925,"Ġquittait":7926,"Ġapparaissait":7927,"habit":7928,"Ġpapiers":7929,"Ġpuissante":7930,"ĠdÃ©guis":7931,"Ġrencontra":7932,"Ġobservations":7933,"Ġpoisson":7934,"Ġimportante":7935,"ĠobligÃ©e":7936,"ĠÃ©normes":7937,"ĠhÃ©rit":7938,"ĠforcÃ©e":7939,"ĠarmÃ©s":7940,"Ġdemeurer":7941,"ĠprÃ©tend":7942,"ĠespÃ¨ces":7943,"Ġgentlemen":7944,"Ġgouttes":7945,"Ġflammes":7946,"ĠrÃ©unis":7947,"ogna":7948,"Ġennemi":7949,"ĠcÃ©der":7950,"ĠaiguÃ«":7951,"Ġvoisinage":7952,"ĠSeigneur":7953,"ĠpossÃ©dait":7954,"Ġaveugle":7955,"Ġdouloureuse":7956,"Ġmercier":7957,"Ġfosses":7958,"Ġpleasure":7959,"ĠrafraÃ®ch":7960,"ividu":7961,"Ġtroupeau":7962,"Ġcarrosse":7963,"George":7964,"Hans":7965,"over":7966,"rop":7967,"Ġ-":7968,"ĠÃªtres":7969,"Ġdura":7970,"ĠlanÃ§a":7971,"Ġsiens":7972,"Ġsight":7973,"Ġcend":7974,"Ġcand":7975,"Ġcessa":7976,"Ġtot":7977,"Ġviend":7978,"Ġbete":7979,"Ġhoch":7980,"Ġquerelle":7981,"uraient":7982,"attre":7983,"Ã¨ce":7984,"ĠpriÃ¨re":7985,"ouvert":7986,"oiselles":7987,"Ã©colier":7988,"Ġsale":7989,"Ġbrun":7990,"Ġserrait":7991,"ither":7992,"odeur":7993,"ichaud":7994,"ĠÃ©pargn":7995,"Ġvoyaient":7996,"Ġclaqu":7997,"Ġaccount":7998,"Ġsouriait":7999,"Ġsolitaire":8000,"Ġrevient":8001,"Ġcontinuellement":8002,"ĠapprÃ©c":8003,"ething":8004,"Ġplaisait":8005,"ĠÃ©clats":8006,"Ġrevenant":8007,"igeait":8008,"Ġrentrait":8009,"Ġretournant":8010,"Ġressort":8011,"ĠinfÃ©rieure":8012,"Ġseeing":8013,"Ġconsider":8014,"Ġpape":8015,"Ġpareilles":8016,"ĠdisposÃ©":8017,"Ġnombreuses":8018,"Ġbattu":8019,"azin":8020,"ĠparticuliÃ¨re":8021,"ĠessayÃ©":8022,"ĠstupÃ©f":8023,"ĠembarrassÃ©":8024,"Ġoiseau":8025,"Ġyear":8026,"Ġfool":8027,"Ġbrouillard":8028,"ograph":8029,"Ġunderst":8030,"Ġlucarne":8031,"'ll":8032,"Maheu":8033,"Pres":8034,"Porthos":8035,"Sir":8036,"ds":8037,"dit":8038,"ipl":8039,"uil":8040,"onÃ§ant":8041,"influence":8042,"armÃ©e":8043,"Ġnet":8044,"Ġlav":8045,"Ġreally":8046,"alie":8047,"apon":8048,"ney":8049,"Ġgrise":8050,"ĠconÃ§":8051,"ĠAxel":8052,"Ġsum":8053,"Ġsucre":8054,"ĠEdie":8055,"ĠamitiÃ©":8056,"ĠGiletti":8057,"Ġtrouvez":8058,"upport":8059,"ĠlaissÃ©e":8060,"Ġdouzaine":8061,"Ġsalua":8062,"Ġservices":8063,"ĠmisÃ¨re":8064,"ĠsoupÃ§ons":8065,"ĠÃ©chant":8066,"Ġexclam":8067,"Ã¨vement":8068,"Ġvoitures":8069,"Ġinfort":8070,"cepteur":8071,"ĠplacÃ©e":8072,"Ġrobes":8073,"Ġpusse":8074,"Ġeye":8075,"expliquer":8076,"ĠÃ©clairÃ©e":8077,"Inde":8078,"Ġlogement":8079,"humanitÃ©":8080,"Ġlooking":8081,"Ġprincipal":8082,"Ġmagistr":8083,"ĠÃ©loignÃ©":8084,"Ġmisere":8085,"ĠÃ©bran":8086,"espÃ©rais":8087,"Ġaffirm":8088,"oÃ¯s":8089,"Ã«l":8090,"Ġcatastr":8091,"Ġvoleur":8092,"ĠhÃ¢ta":8093,"importance":8094,"aughter":8095,"Ġmoulin":8096,"eloppe":8097,"Ġseveral":8098,"Conseil":8099,"Jusqu":8100,"lis":8101,"tif":8102,"Ġpale":8103,"Ġsot":8104,"onville":8105,"Ġaf":8106,"ani":8107,"Ġtables":8108,"Ġfas":8109,"issez":8110,"Ġneu":8111,"ĠvÃ©n":8112,"tect":8113,"Ġroman":8114,"Ġunes":8115,"Ġuniquement":8116,"ating":8117,"Ã¨tes":8118,"ĠÃ©toiles":8119,"Ġplaign":8120,"Ġtrot":8121,"ĠPo":8122,"ulÃ©":8123,"illant":8124,"ĠSeure":8125,"ĠStreet":8126,"ĠBourg":8127,"ĠNouv":8128,"Ġmalaise":8129,"Ã©rieurs":8130,"Ġsouc":8131,"Ġavantages":8132,"Ġsoll":8133,"Ġverr":8134,"Ġshew":8135,"Ġconfir":8136,"ommage":8137,"ustri":8138,"Ġairs":8139,"ĠGrÃ¢ce":8140,"ĠgardÃ©":8141,"Ġpaysans":8142,"ennem":8143,"ĠrÃ©comp":8144,"clÃ©s":8145,"Ġgentils":8146,"ĠconsidÃ©rer":8147,"ĠpÃ¢les":8148,"Ġpareils":8149,"Ġvastes":8150,"ĠrÃªves":8151,"envie":8152,"Ġgreatly":8153,"ĠvÃ©ritables":8154,"Ġracontait":8155,"Ġrempli":8156,"Ġsongea":8157,"ĠemployÃ©":8158,"ĠsinguliÃ¨rement":8159,"Ġlampes":8160,"Ġcavalier":8161,"Ġreconnaissant":8162,"Ġfranchi":8163,"Ġlargement":8164,"ĠbÃ¢timents":8165,"Ġkept":8166,"Ġvoyageur":8167,"ĠÃ©quipage":8168,"oeuvre":8169,"Ġturned":8170,"Ġterrestre":8171,"uillaume":8172,"Ġextreme":8173,"Ġdespair":8174,"ĠdÃ©marche":8175,"ĠingÃ©n":8176,"Ġfantaisie":8177,"ĠcrÃ¢ne":8178,"ĠFranklin":8179,"enzi":8180,"Ġchirurg":8181,"ĠCrescenzi":8182,"ĠSeurel":8183,"Felton":8184,"Me":8185,"Mathilde":8186,"iot":8187,"iÃ©es":8188,"oad":8189,"ook":8190,"ross":8191,"Ġdaughter":8192,"Ġpit":8193,"Ġpaire":8194,"Ġstre":8195,"ĠsÃ©p":8196,"ĠsÃ¨che":8197,"Ġcole":8198,"Ġtone":8199,"ini":8200,"inqu":8201,"arine":8202,"ĠvÃ®mes":8203,"Ġbottes":8204,"Ġjardins":8205,"omen":8206,"Ġros":8207,"ĠrÃ´":8208,"ousquet":8209,"Ġharm":8210,"Ã©tique":8211,"urb":8212,"irais":8213,"aught":8214,"Ġguere":8215,"Ġprends":8216,"ionale":8217,"Ġparaissaient":8218,"Ġseiz":8219,"ĠÃ©tabli":8220,"Ġtrue":8221,"Ġcomble":8222,"Ġwrit":8223,"apl":8224,"ĠCom":8225,"nebres":8226,"Ġmonot":8227,"Ġcroir":8228,"Ġcramp":8229,"Ġexh":8230,"Ġmarteau":8231,"ĠBonnemort":8232,"Ġamener":8233,"ĠrÃ©ussi":8234,"Ġvisages":8235,"Ġcharb":8236,"Ġrevins":8237,"eussent":8238,"Ġconfier":8239,"glout":8240,"Ġdescendant":8241,"Ġdescente":8242,"Ġpoussant":8243,"Ġtableau":8244,"Then":8245,"Ġcraintes":8246,"Ġprofession":8247,"Ġvaguement":8248,"Ġrougit":8249,"Ġendroits":8250,"ĠtÃ©moin":8251,"ĠÃ©tranges":8252,"ĠcachÃ©e":8253,"Ġrejoign":8254,"Ġretomba":8255,"Ġbegin":8256,"Ġpesant":8257,"Ġvictoire":8258,"Ġplantation":8259,"Ġprisonnier":8260,"Ġfavorable":8261,"Ġpirates":8262,"ĠrÃ©volte":8263,"Ġrompre":8264,"ĠattachÃ©":8265,"aucune":8266,"Ġcarried":8267,"ĠRouen":8268,"Ġfabriquer":8269,"immense":8270,"Ġextrem":8271,"Ġmatelots":8272,"Ġsomething":8273,"Ġnumber":8274,"ĠdÃ©sagrÃ©able":8275,"impatience":8276,"Ġchanson":8277,"ĠtÃ©nebres":8278,"Ġcolere":8279,"TE":8280,"aus":8281,"yant":8282,"Ġdate":8283,"Ġsulf":8284,"Ġcoins":8285,"Ġfif":8286,"isÃ©e":8287,"ĠvÃ´tre":8288,"Ġbad":8289,"Ġjuin":8290,"ĠleÃ§ons":8291,"Ġri":8292,"Ġrican":8293,"Ã©tendait":8294,"Ã¨ner":8295,"riche":8296,"oile":8297,"iendrez":8298,"ĠchÃ©rie":8299,"Ġwait":8300,"Ġwood":8301,"ĠMal":8302,"impr":8303,"uisit":8304,"Ġbienveill":8305,"Ġarb":8306,"Ġsugg":8307,"ĠGeorg":8308,"ĠÃ©che":8309,"espace":8310,"Ġpensant":8311,"Ġferons":8312,"Ġsecousse":8313,"oces":8314,"Ġintime":8315,"ĠjetÃ©s":8316,"Ġorigin":8317,"Ġhauts":8318,"Ġinsupport":8319,"Ġfeuille":8320,"Ġdistrib":8321,"Ġhumble":8322,"Ġcomplais":8323,"Ġexprimer":8324,"ĠMarch":8325,"Ġrespons":8326,"Ġsimples":8327,"Ġinvolont":8328,"Ġremarquable":8329,"eufs":8330,"ĠrÃ©gion":8331,"ĠgÃ©nÃ©ralement":8332,"Ġrefusa":8333,"Ġfilet":8334,"ĠcrÃ©atures":8335,"Ġtremblait":8336,"ĠdiffÃ©rentes":8337,"arrivai":8338,"ĠdifficultÃ©s":8339,"Ġpanier":8340,"Ġberge":8341,"Ġentrailles":8342,"Ġnaufrage":8343,"uscule":8344,"Ġpantal":8345,"ĠenchantÃ©":8346,"Ġelse":8347,"Ġsubstance":8348,"Ġtumulte":8349,"intelligence":8350,"Ġletters":8351,"ĠsuprÃªme":8352,"Ġchevelure":8353,"For":8354,"ting":8355,"Ġdig":8356,"Ġpoil":8357,"Ġsuit":8358,"Ġsavaient":8359,"ĠcÃ©t":8360,"ank":8361,"Ġtache":8362,"Ġnue":8363,"Ġbed":8364,"Ġhont":8365,"Ġhache":8366,"ativement":8367,"atives":8368,"head":8369,"Ġgil":8370,"Ġpria":8371,"Ġplumes":8372,"Ġchaises":8373,"Ġwall":8374,"ĠCiel":8375,"Ġfruits":8376,"Ġexist":8377,"Ġserrant":8378,"Ġdevons":8379,"enser":8380,"ĠNether":8381,"ombe":8382,"Ġfuture":8383,"Ġauxquelles":8384,"Ġmanoir":8385,"ĠThe":8386,"Ġcourants":8387,"Ġtouff":8388,"Ġattendit":8389,"Ġeffets":8390,"Ġcrimes":8391,"ellent":8392,"raiment":8393,"ĠdÃ©pense":8394,"aura":8395,"embarqu":8396,"ĠdÃ©ton":8397,"Ġcanne":8398,"Ġescl":8399,"usta":8400,"ĠcontrÃ©e":8401,"Ġrentre":8402,"Ġmenace":8403,"ĠbarriÃ¨re":8404,"Ġtraiter":8405,"ĠreÃ§us":8406,"Ġremarquai":8407,"Chac":8408,"Ġrapides":8409,"ĠrÃ©gions":8410,"vreuse":8411,"ĠsÃ©rieuse":8412,"Ġhorses":8413,"ĠXX":8414,"ĠchargÃ©s":8415,"Ġobserva":8416,"Ġbleus":8417,"Ġbrillant":8418,"outerr":8419,"Ġsudden":8420,"ĠmÃ©th":8421,"Ġreposer":8422,"ĠosÃ©":8423,"Ġconduisit":8424,"Ġarracher":8425,"ĠretirÃ©":8426,"Ġreturned":8427,"Ġnerveux":8428,"Ġappareil":8429,"ĠsecrÃ¨te":8430,"Ġgaillard":8431,"Aucun":8432,"Ġextremely":8433,"ĠNetherfield":8434,"GÃ©dÃ©on":8435,"Mlle":8436,"Marguerite":8437,"cot":8438,"kes":8439,"ĠÃ´":8440,"ĠÃ©rup":8441,"Ġlength":8442,"Ġsut":8443,"reat":8444,"Ġmo":8445,"Ġtamb":8446,"Ġbaleine":8447,"teen":8448,"aste":8449,"Ġrois":8450,"Ġrente":8451,"Ġgri":8452,"Ġgoth":8453,"ageux":8454,"ague":8455,"Ġdanse":8456,"Ġwrite":8457,"Ġsurs":8458,"aper":8459,"apercevoir":8460,"Ã©puis":8461,"ondes":8462,"aged":8463,"Ġarme":8464,"ĠBri":8465,"ĠBomb":8466,"enceinte":8467,"ĠJamais":8468,"Ġmaint":8469,"ĠrÃ©jou":8470,"ctor":8471,"Ġperles":8472,"Ġremise":8473,"ĠTor":8474,"Ġcourb":8475,"Ġdiables":8476,"Ġsoud":8477,"iÃ¨te":8478,"Ġrestai":8479,"ocat":8480,"ĠaccÃ¨s":8481,"Ġflanc":8482,"Ġflancs":8483,"ellis":8484,"Ġcorn":8485,"Ġprises":8486,"Ġaurons":8487,"Ġgloire":8488,"ĠWh":8489,"uyer":8490,"ĠinfÃ©rieur":8491,"Ġproduits":8492,"Ġinvis":8493,"Ġpenchant":8494,"Ġfixe":8495,"Ġdispositions":8496,"Ġprocurer":8497,"Ġchapelle":8498,"Ġgagnait":8499,"Ġmodif":8500,"Ġcouloir":8501,"ĠdiffÃ©rent":8502,"Ġprononc":8503,"humeur":8504,"Ġbecome":8505,"ĠtraÃ®nait":8506,"Ġplaisanterie":8507,"Ġdiamant":8508,"atteindre":8509,"ĠprÃ©cautions":8510,"ĠNaples":8511,"Ġodeur":8512,"regellis":8513,"Ġsourcils":8514,"Ġremercie":8515,"ĠrÃªverie":8516,"Åĵuvre":8517,"Ġgovernor":8518,"ĠMÃ©diterran":8519,"Ġsollic":8520,"ĠMÃ©diterranÃ©e":8521,"Collins":8522,"Kong":8523,"OI":8524,"core":8525,"echer":8526,"gs":8527,"mons":8528,"night":8529,"rages":8530,"uction":8531,"Ġirait":8532,"Ġsqu":8533,"Ġsaign":8534,"Ġsouterr":8535,"reuve":8536,"Ġdead":8537,"Ġfire":8538,"arned":8539,"Ġnid":8540,"Ġnett":8541,"Ġvilles":8542,"Ġvirent":8543,"Ġbig":8544,"Ġbaign":8545,"orage":8546,"ustement":8547,"irrit":8548,"atter":8549,"ĠgÃ¢t":8550,"Ġgorg":8551,"Ġprim":8552,"als":8553,"alent":8554,"Ġparvenir":8555,"avouer":8556,"Ġoeu":8557,"Ġtristes":8558,"Ġpourrions":8559,"Ġwater":8560,"amise":8561,"igine":8562,"ĠCour":8563,"Ġange":8564,"ĠPal":8565,"Ã¢ter":8566,"Ġexiste":8567,"ĠformÃ©":8568,"ĠBeau":8569,"ĠDun":8570,"ĠFouquÃ©":8571,"ĠNÃ©grel":8572,"assaient":8573,"ĠtrouvÃ©e":8574,"ĠtrouvÃ¨rent":8575,"ĠVir":8576,"ĠHong":8577,"ĠTregellis":8578,"raham":8579,"rivet":8580,"ettant":8581,"Ġparlaient":8582,"Ġsenti":8583,"itudes":8584,"Ġcolonne":8585,"Ġprofit":8586,"Ġstood":8587,"ĠminÃ©r":8588,"Ġboug":8589,"Ġmotif":8590,"ĠChÃ©lan":8591,"Ġspend":8592,"Ġfouet":8593,"ĠQuant":8594,"othicaire":8595,"ernelle":8596,"Ġoccupait":8597,"Ġiron":8598,"ĠrefusÃ©":8599,"ĠdÃ©sespÃ©r":8600,"Ġremplir":8601,"Ġcharger":8602,"Ġsecrets":8603,"Avez":8604,"Ġcouler":8605,"ĠdÃ©rob":8606,"Ġpublique":8607,"ĠsÃ©parait":8608,"ĠprÃ©paratifs":8609,"ĠrÃ©veiller":8610,"Ã©chappait":8611,"Ġbaissa":8612,"ĠappuyÃ©":8613,"imagination":8614,"Ġerreur":8615,"inquiÃ©tude":8616,"Ġroyaume":8617,"Ã©coutait":8618,"ĠhÃ´tes":8619,"ĠchaÃ®ne":8620,"Ġmoindres":8621,"ĠFrancis":8622,"Ġlanterne":8623,"Ġadversaire":8624,"Ġondul":8625,"Ġdrawing":8626,"Ġindeed":8627,"ousqueton":8628,"ĠBombay":8629,".'":8630,"Lys":8631,"ME":8632,"Va":8633,"bber":8634,"gne":8635,"ÃĪ":8636,"Ġign":8637,"ĠlÃ¢ch":8638,"Ġsk":8639,"ouette":8640,"ouci":8641,"Ġcut":8642,"ĠcitÃ©":8643,"Ġfull":8644,"arbre":8645,"elet":8646,"ĠjurÃ©":8647,"ori":8648,"Ġlead":8649,"urÃ©e":8650,"Ġge":8651,"Ġrelever":8652,"Ġpratique":8653,"aviez":8654,"Ġoctobre":8655,"Ġtrott":8656,"andes":8657,"Ġpourriez":8658,"Ġthous":8659,"Ġmajor":8660,"ĠdÃ©dain":8661,"Ġconj":8662,"Ġbrune":8663,"Ġbrume":8664,"ĠAs":8665,"Ġseriez":8666,"Ġdemoiselle":8667,"ĠDeux":8668,"appart":8669,"Ġpartage":8670,"Ġconten":8671,"Ġcontente":8672,"ancre":8673,"ĠVoici":8674,"ĠHÃ©las":8675,"ĠTamise":8676,"Ġdemandant":8677,"ĠappÃ©t":8678,"ĠdÃ©cision":8679,"Ġvision":8680,"Ġprofiter":8681,"ĠmatÃ©ri":8682,"Ġcapitale":8683,"Ġcertitude":8684,"Ġrevol":8685,"ibule":8686,"ĠWilliam":8687,"Ġoccur":8688,"Ġpaysage":8689,"ĠMary":8690,"grat":8691,"ĠcausÃ©":8692,"Ġplaisirs":8693,"Ġappartement":8694,"Ġsoulagement":8695,"ĠsÃ©rie":8696,"Ġemployer":8697,"Ġmeilleurs":8698,"ĠgravitÃ©":8699,"Ġimmobiles":8700,"ĠdevinÃ©":8701,"ĠÃ©chappÃ©":8702,"Ġsoif":8703,"Ġardente":8704,"Ġvaisseaux":8705,"Ġachet":8706,"ĠcommenÃ§aient":8707,"Ġextraord":8708,"Ouest":8709,"ĠÃ©crivit":8710,"ĠmystÃ©rieuse":8711,"ĠRobin":8712,"Ġslight":8713,"ĠmÃ©lancolique":8714,"Autriche":8715,"ĠÃ©nerg":8716,"Phileas":8717,"ĠrecommenÃ§a":8718,"Ġrenseignements":8719,"ĠphÃ©nomÃ¨ne":8720,"ĠcÃ©rÃ©monie":8721,"ĠcrÃ©puscule":8722,"Ġcendres":8723,"Ġgentilshommes":8724,"IL":8725,"OM":8726,"Sous":8727,"aÃ§ait":8728,"heurs":8729,"jection":8730,"vel":8731,"Ġ8":8732,"Ġec":8733,"ĠlancÃ©":8734,"Ġlugu":8735,"Ġpage":8736,"oule":8737,"rebber":8738,"itations":8739,"ĠnÃ©":8740,"Ġbir":8741,"Ġboss":8742,"Ġbasses":8743,"Ġjette":8744,"Ġhaleine":8745,"Ġgam":8746,"riÃ¨me":8747,"ospit":8748,"onniers":8749,"amitiÃ©":8750,"ĠMons":8751,"ĠMason":8752,"acÃ©e":8753,"ĠPri":8754,"Ġsert":8755,"ensions":8756,"ayait":8757,"Ġhear":8758,"Ġpartait":8759,"ĠRich":8760,"Ġappela":8761,"ĠabbÃ©":8762,"Ġreproches":8763,"Ġportail":8764,"Ġflatt":8765,"Ġcorp":8766,"Ġblood":8767,"Ã©milly":8768,"Ġsuivaient":8769,"Ġenvah":8770,"itty":8771,"Ġshill":8772,"ĠtraversÃ©":8773,"Ġoffre":8774,"Ġpoings":8775,"Ġdroits":8776,"Ġannoncer":8777,"Ġajouter":8778,"Ġmorne":8779,"Ġarrond":8780,"Ġacte":8781,"Ġtremblement":8782,"ĠirrÃ©s":8783,"Ġdiriger":8784,"Ġanyone":8785,"Ġsoulier":8786,"Ġtentative":8787,"Ġquinzaine":8788,"Ġremonta":8789,"Ġremontait":8790,"entrepr":8791,"Ġpardonner":8792,"Ġobliged":8793,"Ġnourrice":8794,"Ġtravaillait":8795,"Ġpoursuivre":8796,"ĠespÃ©rait":8797,"Ġchasseurs":8798,"Plusieurs":8799,"Ġturn":8800,"Ġsamedi":8801,"ĠquatriÃ¨me":8802,"ĠindiffÃ©rence":8803,"Ġtressaillit":8804,"Ġdistraire":8805,"Ġlueurs":8806,"effroi":8807,"Ġinconnue":8808,"ĠÃ©nergie":8809,"Ġmultipl":8810,"QUE":8811,"Ġempris":8812,"entraÃ®n":8813,"Ġplaira":8814,"ĠLowood":8815,"Meaulnes":8816,"ziÃ¨me":8817,"Ġdog":8818,"oudre":8819,"Ġcot":8820,"Ġmem":8821,"Ġmasses":8822,"Ġfal":8823,"ĠfiÃ©":8824,"Ġbur":8825,"omn":8826,"Ġranc":8827,"Ġrires":8828,"ĠhÃ´tel":8829,"Ġhiver":8830,"Ã©trange":8831,"Ġparall":8832,"avag":8833,"Ġwished":8834,"ambre":8835,"ĠMaintenant":8836,"ĠMichaud":8837,"uth":8838,"apothicaire":8839,"Ġtoits":8840,"Ġalong":8841,"ĠSud":8842,"ĠdÃ©li":8843,"Ġexasp":8844,"ĠAnd":8845,"ĠDiana":8846,"Ġallure":8847,"Ġtrouverait":8848,"Ġcontenir":8849,"ortez":8850,"ancÃ©s":8851,"Ġdemandais":8852,"Ġcoupe":8853,"Ġsentin":8854,"Ġreproch":8855,"Ġmontant":8856,"ĠcherchÃ©":8857,"Ġbouff":8858,"Ġbougie":8859,"Ġvives":8860,"ereur":8861,"Ġpleurait":8862,"Ġverres":8863,"Ġspent":8864,"Ġindisc":8865,"ington":8866,"ĠGrÃ¨ve":8867,"Ġinterest":8868,"ĠextrÃ©mitÃ©":8869,"Ġjournaux":8870,"Ġsignes":8871,"Ġmousta":8872,"ĠdÃ©cidÃ©ment":8873,"anÃ§aient":8874,"Ġconvenait":8875,"Ġabandon":8876,"Ġcoulait":8877,"Ġretrouva":8878,"ĠretrouvÃ©":8879,"Att":8880,"ĠrÃ©veilla":8881,"Ġlargeur":8882,"Ġmilliers":8883,"Ġglissa":8884,"Ġfournir":8885,"ophy":8886,"Ġjaunes":8887,"ĠeffrayÃ©":8888,"rÃ©tion":8889,"ĠallumÃ©":8890,"Ġadresser":8891,"Mrs":8892,"Ġbandes":8893,"ĠnaufragÃ©s":8894,"ĠdÃ©livrance":8895,"Ġremarque":8896,"Ġapplaud":8897,"Adieu":8898,"Ġremercier":8899,"Ã©lÃ©gr":8900,"Quelquefois":8901,"ĠMessieurs":8902,"ĠItaly":8903,"Ã©curie":8904,"Ã©pouvante":8905,"ĠmarÃ©chale":8906,"delÃł":8907,"Ġchirurgien":8908,"Ġthousand":8909,"Ġmoustaches":8910,"Bingley":8911,"With":8912,"oÃ®tre":8913,"uel":8914,"Ġland":8915,"Ġpin":8916,"Ġpendu":8917,"Ġsorc":8918,"Ġcache":8919,"quÃ©rir":8920,"Ġmel":8921,"Ġtart":8922,"Ġtente":8923,"Ġtendait":8924,"inq":8925,"isant":8926,"Ġbus":8927,"Ã©tÃ©s":8928,"memes":8929,"alous":8930,"Ġpars":8931,"Ġparoi":8932,"Ġparurent":8933,"Ġchim":8934,"olue":8935,"olÃ©on":8936,"ĠCoqu":8937,"otid":8938,"illement":8939,"ĠPet":8940,"ĠLheureux":8941,"ored":8942,"opÃ©":8943,"trois":8944,"ĠEm":8945,"ĠFleur":8946,"ĠJock":8947,"ĠNo":8948,"ĠGardiner":8949,"Ġlongitude":8950,"Ġjambe":8951,"Ġaider":8952,"ocation":8953,"Ġvoulus":8954,"ĠblÃ¢":8955,"Ġagent":8956,"Ġagitation":8957,"ĠdÃ©test":8958,"ĠvolÃ©":8959,"Ġconfusion":8960,"Ġoffrit":8961,"Ġlieutenant":8962,"Ġrendis":8963,"Ġbesoins":8964,"ĠsoupÃ§on":8965,"Ġautor":8966,"Ġlover":8967,"andises":8968,"Ġrival":8969,"Ġressemble":8970,"Ġvalets":8971,"Ġprocureur":8972,"Ġfavour":8973,"Ġremplacer":8974,"Ġabandonner":8975,"Ġmodeste":8976,"Ġbrillants":8977,"aigu":8978,"Ġsaying":8979,"Ġrangs":8980,"Ã©tranger":8981,"Ġspeaking":8982,"ĠespÃ©rance":8983,"overeign":8984,"ĠfrÃ©quemment":8985,"Ġpersuader":8986,"Ġinterrompit":8987,"Ġdouloureux":8988,"Ġsilencieusement":8989,"ĠBerks":8990,"Ġstatue":8991,"absence":8992,"ĠimbÃ©cile":8993,"ĠdignitÃ©":8994,"Ġcadeau":8995,"ĠExcellency":8996,"ĠCoquenard":8997,"AU":8998,"Do":8999,"Dites":9000,"Tandis":9001,"dge":9002,"dix":9003,"gypte":9004,"haut":9005,"hip":9006,"lÃ©s":9007,"pool":9008,"uaient":9009,"yg":9010,"Ġdaign":9011,"Ã©lice":9012,"oujours":9013,"Ġcors":9014,"Ġmets":9015,"ĠtÃ©lÃ©gr":9016,"entret":9017,"arter":9018,"Ġvar":9019,"ompr":9020,"Ġench":9021,"atoire":9022,"ĠpriÃ¨res":9023,"chaient":9024,"cheurs":9025,"avou":9026,"avanÃ§ait":9027,"Ãªche":9028,"seaux":9029,"ende":9030,"ositÃ©s":9031,"onnai":9032,"ĠMousqueton":9033,"Ã©couter":9034,"acement":9035,"ĠCitÃ©":9036,"illez":9037,"Ã©raire":9038,"illÃ©s":9039,"ĠSherlock":9040,"ĠfrÃ¨res":9041,"Ġbranche":9042,"ĠarmÃ©":9043,"Ġserrer":9044,"Ġask":9045,"Ġasse":9046,"Ġatter":9047,"ĠBol":9048,"ĠBrock":9049,"ĠBazin":9050,"Ġcaresses":9051,"appare":9052,"veil":9053,"ĠrÃ©ch":9054,"ĠHis":9055,"Ġdirect":9056,"owed":9057,"istible":9058,"ĠrestÃ¨rent":9059,"Ġdouleurs":9060,"Ġvivante":9061,"Ġsuivirent":9062,"Ġchariot":9063,"Ġservant":9064,"Ġouvrait":9065,"ĠvolÃ©e":9066,"Ġlivrer":9067,"Ġcalm":9068,"ĠobscuritÃ©":9069,"Ġexcl":9070,"Ġvingtaine":9071,"ĠGrant":9072,"Ġcompliment":9073,"ĠÃ©lÃ¨ve":9074,"Ġgrec":9075,"Ġrespiration":9076,"ollo":9077,"Ġgaleries":9078,"Ġfatale":9079,"Ġproposa":9080,"Ġmoyenne":9081,"Ġpaper":9082,"Ġmarchandises":9083,"ĠfatiguÃ©":9084,"ĠfatiguÃ©e":9085,"occuper":9086,"Ġsavants":9087,"ĠYork":9088,"ĠrÃ©flÃ©chi":9089,"ĠprÃ©parÃ©":9090,"Ġfarouche":9091,"Ġardent":9092,"Ġmonstres":9093,"Ġhappy":9094,"Ġmerveilles":9095,"Ġmangeait":9096,"Ġchoisi":9097,"Ġconclusion":9098,"ĠAvon":9099,"Ġrecula":9100,"Ġmerveilleux":9101,"ĠrÃ©volution":9102,"arrive":9103,"Ġinstrument":9104,"ĠRouge":9105,"Ġgrimp":9106,"Ġgrimace":9107,"ristan":9108,"Ġpistolets":9109,"ĠdÃ©barrasser":9110,"ĠgÃ©nÃ©reux":9111,"Ġhypoc":9112,"Ġdissimuler":9113,"ĠMouquette":9114,"Ġexcursion":9115,"ennemi":9116,"Ag":9117,"Im":9118,"Now":9119,"Roland":9120,"Voyez":9121,"dr":9122,"hÃ©m":9123,"hurst":9124,"ray":9125,"Ġden":9126,"Ġlancer":9127,"Ġpitt":9128,"Ġsain":9129,"ĠfÃ®mes":9130,"Ġfash":9131,"ilair":9132,"Ġvet":9133,"Ġvents":9134,"Ġveste":9135,"Ġviendra":9136,"Ġvraisembl":9137,"Ġbuis":9138,"Ġjoint":9139,"assible":9140,"Ã©tal":9141,"Ã©troit":9142,"Ġgot":9143,"Ġreached":9144,"rices":9145,"Ġneed":9146,"avancer":9147,"Ġdanser":9148,"ouvrage":9149,"Ġwat":9150,"Ġwomen":9151,"amus":9152,"ecte":9153,"apres":9154,"Ġsache":9155,"illart":9156,"ĠSovereign":9157,"ĠLiver":9158,"Ġbrul":9159,"Ġforger":9160,"Ġmaintenir":9161,"ĠNautilus":9162,"assur":9163,"Ġenflam":9164,"Ġentret":9165,"ettaient":9166,"ĠOr":9167,"ĠOlivier":9168,"Ġreprocher":9169,"Ensuite":9170,"Ġwithin":9171,"Ġcorre":9172,"Ġstand":9173,"iquÃ©":9174,"ĠagitÃ©":9175,"inctement":9176,"Åĵu":9177,"Ġcontinuai":9178,"acheter":9179,"accommod":9180,"ĠlevÃ©e":9181,"Ġjouir":9182,"Ġkind":9183,"ĠrentrÃ©":9184,"Ġbarre":9185,"ĠFrilair":9186,"Ġfroids":9187,"Ġsubs":9188,"Ġdisparaissait":9189,"ĠpÃ¢leur":9190,"Ġcouvrait":9191,"Ġfrappait":9192,"Ġveines":9193,"Ġsuccess":9194,"ĠmÃªlÃ©":9195,"ĠbrisÃ©e":9196,"exprimer":9197,"Ġ20":9198,"Ġroulait":9199,"Atlantique":9200,"ĠÃ©prouvÃ©":9201,"Ġpanneaux":9202,"pentier":9203,"ĠrÃ©duit":9204,"ĠAvez":9205,"Ġbillets":9206,"Ġsmile":9207,"ĠÃ©tudes":9208,"emporter":9209,"ĠentraÃ®nÃ©":9210,"Ġmanoeuvre":9211,"hÃ©rit":9212,"Ġsuccessivement":9213,"Ġredev":9214,"Ġprocureuse":9215,"Ġhelp":9216,"embarras":9217,"Ġgendarmes":9218,"Ġsucce":9219,"Abraham":9220,"Ġmarriage":9221,"propre":9222,"Ġpittores":9223,"LA":9224,"TER":9225,"elez":9226,"Ġlord":9227,"aibl":9228,"ĠpÃ©ch":9229,"Ġsie":9230,"Ġdec":9231,"Ġfest":9232,"ility":9233,"elhurst":9234,"omes":9235,"asmin":9236,"Ġhav":9237,"Ġhold":9238,"urne":9239,"athe":9240,"atrice":9241,"Ã¨les":9242,"Ġprinc":9243,"Ġparages":9244,"Ã©cras":9245,"igr":9246,"acier":9247,"sives":9248,"airer":9249,"Ġoften":9250,"ider":9251,"Ġfrag":9252,"ĠAllez":9253,"Ġapais":9254,"Ġattem":9255,"Ã´tres":9256,"assurer":9257,"ĠRivers":9258,"ĠGuillaume":9259,"ignant":9260,"igneurs":9261,"Ġterrif":9262,"encour":9263,"Ġlonguement":9264,"Ġclou":9265,"Ġcler":9266,"attente":9267,"Ġprofil":9268,"Ġfinissait":9269,"ĠmatiÃ¨re":9270,"Ġassurer":9271,"Ġpresence":9272,"Ġsouviens":9273,"Ġindividu":9274,"Ġrappelez":9275,"Ġoffrait":9276,"ĠapprÃ©h":9277,"Ġperdit":9278,"ĠjouÃ©":9279,"Ġabsorb":9280,"grÃ¨s":9281,"Ġinvitation":9282,"ĠFrollo":9283,"Ġfacult":9284,"Ġmanquaient":9285,"Ġtranspar":9286,"Ġpatient":9287,"Ġpensif":9288,"Ġprocession":9289,"Parfois":9290,"Ġcollines":9291,"aimez":9292,"Ġeffroyable":9293,"Ġvoudrait":9294,"ĠbrÃ»lait":9295,"Ã©bran":9296,"Ġemporter":9297,"Ġcomptoir":9298,"Ġvainement":9299,"Ġsecouant":9300,"Arriv":9301,"fully":9302,"fortun":9303,"ĠnÃ©cessairement":9304,"Ġacheva":9305,"ĠespÃ©rances":9306,"ercice":9307,"Ġchangea":9308,"Ġtransports":9309,"ĠaccompagnÃ©":9310,"ĠprisonniÃ¨re":9311,"ĠAvec":9312,"Ġpoignard":9313,"Ã©leva":9314,"Ġregardez":9315,"Ġsouleva":9316,"ĠpersuadÃ©":9317,"ĠmenaÃ§ait":9318,"Ġdominait":9319,"Ġsabots":9320,"ĠmÃ©chant":9321,"ĠplaÃ§a":9322,"Ġtreize":9323,"Ġflottait":9324,"Ġmoutons":9325,"interrompit":9326,"Ġrecommencer":9327,"Ġnoticed":9328,"Ġluxe":9329,"Ġindispens":9330,"Ġrefroid":9331,"clÃ©si":9332,"Ġinsupportable":9333,"ĠBrockelhurst":9334,"ĠLiverpool":9335,"Ni":9336,"Nos":9337,"aÃ§a":9338,"happ":9339,"neuf":9340,"the":9341,"vet":9342,"vres":9343,"Ġloy":9344,"Ġpommes":9345,"Ġsaill":9346,"etes":9347,"inÃ©e":9348,"arres":9349,"ised":9350,"agent":9351,"Ġworth":9352,"osion":9353,"onses":9354,"uise":9355,"oine":9356,"ĠprogrÃ¨s":9357,"Ġcrist":9358,"Ġfrac":9359,"Ġexig":9360,"ĠAb":9361,"ĠAprÃ¨s":9362,"Ġdevient":9363,"ĠrÃ©ponses":9364,"issais":9365,"ĠBert":9366,"ĠFlor":9367,"assant":9368,"assassin":9369,"ĠRÃ©qu":9370,"ĠregardÃ¨rent":9371,"ĠHoll":9372,"Ġdemandez":9373,"Ġcommode":9374,"Ġcommission":9375,"ody":9376,"Ġtouchait":9377,"Ġrecl":9378,"Ġcachait":9379,"ĠaimÃ©e":9380,"obtenir":9381,"ministr":9382,"Ġcaprice":9383,"ocÃ©an":9384,"Ġstud":9385,"Ãīv":9386,"Ġagi":9387,"Ġincon":9388,"Ġindig":9389,"Ġfilled":9390,"Ġinsensible":9391,"tesse":9392,"Ġapprocher":9393,"appris":9394,"Ġrevenaient":9395,"Ġcontract":9396,"Ġrentrant":9397,"ĠopÃ©ration":9398,"Ġsurprendre":9399,"Ġabsor":9400,"Ġfroideur":9401,"Ġsensations":9402,"Ġweek":9403,"Ġdisposer":9404,"Ġdrag":9405,"ĠdÃ©couvrit":9406,"Ġconnaissances":9407,"horloge":9408,"Ġjustif":9409,"Ġcrever":9410,"Ġtremblant":9411,"ĠÃ©clairait":9412,"ĠbrÃ»ler":9413,"Ġouvertes":9414,"Ġouverture":9415,"Ġemmen":9416,"ĠmÃ©pr":9417,"Ġbaissant":9418,"Ġveulent":9419,"Ġjaun":9420,"ilibre":9421,"ĠfantÃ´me":9422,"Ġangle":9423,"Ġplaisanteries":9424,"Ġsouhaiter":9425,"Ġchoisir":9426,"ĠÃ©loignÃ©e":9427,"Ġjaloux":9428,"ĠextÃ©rieur":9429,"Ġmiracle":9430,"ĠrÃ©ussir":9431,"ĠdÃ©truire":9432,"ĠRobert":9433,"Ġreferma":9434,"Ġsourcil":9435,"Ġthirty":9436,"Ġgallop":9437,"Ġempressement":9438,"Ġaccroup":9439,"Ġbavard":9440,"ĠBologna":9441,"Ġfashion":9442,"ĠRÃ©quillart":9443,"Catherine":9444,"Em":9445,"NÃ©anmoins":9446,"ior":9447,"van":9448,"ward":9449,"Ġdus":9450,"Ġdark":9451,"Ġcu":9452,"Ġcreux":9453,"erley":9454,"Ġtiers":9455,"inform":9456,"arl":9457,"Ġvaud":9458,"Ġviendrait":9459,"Ġleaving":9460,"Ġunhapp":9461,"Ġhar":9462,"Ġhuss":9463,"atic":9464,"Ġgriff":9465,"chons":9466,"agu":9467,"ended":9468,"Ġduel":9469,"Ġinten":9470,"onnier":9471,"resh":9472,"ĠMery":9473,"ortue":9474,"apit":9475,"erson":9476,"ĠCÃ©cile":9477,"ĠPemb":9478,"ĠLib":9479,"ĠdÃ©fait":9480,"Ġestime":9481,"ĠcrÃ©dit":9482,"ĠarmÃ©e":9483,"ertume":9484,"Ġdemoiselles":9485,"Ġmarcha":9486,"opÃ©ration":9487,"ĠDrebber":9488,"ĠEsp":9489,"Ġparty":9490,"Ġtrouverez":9491,"arty":9492,"Ġmalades":9493,"espÃ¨ce":9494,"Ġenfance":9495,"ĠdÃ©shab":9496,"ĠdÃ©cidÃ©e":9497,"Ġretint":9498,"Ġposit":9499,"Ġpossibles":9500,"rote":9501,"Ġfermait":9502,"ĠsecrÃ©t":9503,"Ġdouces":9504,"raid":9505,"Ġsortirent":9506,"Ġstopp":9507,"Ġblack":9508,"Ġbound":9509,"ĠprÃ©sident":9510,"ĠassurÃ©":9511,"Ġentendue":9512,"Ġoffert":9513,"Ġoffice":9514,"ĠWardes":9515,"Ġfamilles":9516,"ĠimpÃ©ri":9517,"Ġ10":9518,"ennent":9519,"Ġajoutait":9520,"Ġadmit":9521,"Ġthemsel":9522,"aimed":9523,"ĠXIII":9524,"Ġvoudra":9525,"Ġdestru":9526,"Ġtrembler":9527,"Ġsavons":9528,"ĠprononcÃ©":9529,"ĠprÃ©vu":9530,"Ġconstamment":9531,"Ġsupplice":9532,"ĠterminÃ©e":9533,"Ġdressait":9534,"ĠClopin":9535,"Ġtroubler":9536,"Ġtalent":9537,"Ġhorriblement":9538,"imaginer":9539,"Ġcombattre":9540,"Ġsabre":9541,"ĠobÃ©ir":9542,"Ġsatisfaite":9543,"ĠmÃ©lancolie":9544,"Ġregagner":9545,"ĠFausta":9546,"accompagner":9547,"Ġsyst":9548,"Ġberline":9549,"Ġgratitude":9550,"Ġsottise":9551,"Ġcharpente":9552,"ĠMeryton":9553,"ĠPemberley":9554,"Ġthemselves":9555,"St":9556,"VII":9557,"cro":9558,"oz":9559,"ueusement":9560,"Ã¼":9561,"Ġswe":9562,"ouches":9563,"reuses":9564,"Ġtest":9565,"Ġtendu":9566,"inÃ©es":9567,"arÃ©e":9568,"Ġbancs":9569,"ased":9570,"ascon":9571,"ouris":9572,"Ġhus":9573,"Ġhiss":9574,"ĠhÃ©las":9575,"Ã©tonne":9576,"Ġenseign":9577,"chÃ©es":9578,"ĠÃ©toff":9579,"abaiss":9580,"Ġwrote":9581,"ardi":9582,"ĠPont":9583,"Ġmax":9584,"Ġentered":9585,"Ġfrott":9586,"Ġbron":9587,"Ġaston":9588,"Ġallusion":9589,"ĠFerv":9590,"Ġchefs":9591,"ĠRavers":9592,"Ġencl":9593,"cious":9594,"arth":9595,"ĠIs":9596,"Ġaustr":9597,"Ġdonnent":9598,"ĠÃ©cus":9599,"osed":9600,"venue":9601,"ettent":9602,"ĠpossibilitÃ©":9603,"exÃ©cution":9604,"Ġclos":9605,"attaqu":9606,"inspect":9607,"ĠrestÃ©s":9608,"Ġbonhomme":9609,"eller":9610,"Ġnotes":9611,"Ġnotaire":9612,"Ġaffair":9613,"ĠdÃ©pouill":9614,"Ãīgypte":9615,"Ġtenue":9616,"Ġvivres":9617,"Ġcharacter":9618,"Ġpleines":9619,"Ġtombaient":9620,"ĠdÃ©tour":9621,"Ġshort":9622,"Ġinstructions":9623,"ĠgoÃ»ter":9624,"Ġfamous":9625,"ĠdÃ©batt":9626,"Ġroue":9627,"Ġcomplete":9628,"ĠexpÃ©rience":9629,"Ġgeneral":9630,"Ġgueule":9631,"Ġpoli":9632,"ĠCharm":9633,"Ġcombatt":9634,"achement":9635,"ablonn":9636,"Ġsuffi":9637,"ierement":9638,"RES":9639,"Ġmarquise":9640,"ishment":9641,"Ġbleue":9642,"Ġsoldiers":9643,"Ġmeilleures":9644,"ĠKing":9645,"Ġmauvaises":9646,"ĠdiffÃ©rente":9647,"Ġimaginer":9648,"Ġvainc":9649,"Ġcouverts":9650,"Ġachever":9651,"Ġprincipes":9652,"Ġpesait":9653,"Ġcontempler":9654,"ĠglacÃ©e":9655,"ĠbÃ©nÃ©f":9656,"Ġdettes":9657,"Ġapprochait":9658,"ionnaire":9659,"ĠrÃ©guliÃ¨rement":9660,"Ġaccompli":9661,"Ġreparut":9662,"Ġrecevait":9663,"Ġnerveuse":9664,"Ġanswer":9665,"ĠirritÃ©":9666,"ĠFerrier":9667,"ĠIndes":9668,"morency":9669,"morrow":9670,"ĠFausse":9671,"ĠRosÃ©milly":9672,"Ġcoffre":9673,"Ġabominable":9674,"Ġatroce":9675,"Ġmachinalement":9676,"Ġgigantesque":9677,"Ġmiddle":9678,"ĠvoluptÃ©":9679,"Ġlumineux":9680,"ĠÃ©lÃ©ments":9681,"Ġscrupule":9682,"ĠjÃ©suite":9683,"Ġcimet":9684,"Ġcatastrophe":9685,"Ġafraid":9686,"Ġpantalon":9687,"Chacun":9688,"ĠVirg":9689,"ĠFervaques":9690,"ĠRaversi":9691,"Allez":9692,"Clelia":9693,"Laissez":9694,"Voulez":9695,"bour":9696,"bat":9697,"hyp":9698,"iants":9699,"tÃªte":9700,"Ġlost":9701,"Ġpige":9702,"Ġsen":9703,"Ġage":9704,"ĠmÃ©f":9705,"ĠtÃ¢t":9706,"ĠfÃ©":9707,"ilier":9708,"arly":9709,"istement":9710,"Ġnomme":9711,"Ġvic":9712,"Ġlame":9713,"Ġboit":9714,"ĠleÃ§on":9715,"Ġavirons":9716,"Ġgants":9717,"Ġpriai":9718,"rich":9719,"Ġplis":9720,"Ġchoqu":9721,"abio":9722,"abÃ®me":9723,"Ġinexp":9724,"ĠMill":9725,"Ġmeet":9726,"oises":9727,"Ã©paiss":9728,"Ġgrogn":9729,"Ġmonte":9730,"illed":9731,"idÃ©":9732,"Ġdistrait":9733,"Ġcrit":9734,"Ġcrach":9735,"orster":9736,"Ġexistait":9737,"Ġarrange":9738,"issable":9739,"Ġmarine":9740,"ĠBar":9741,"ĠDerville":9742,"ĠET":9743,"ĠEurope":9744,"Ġcarg":9745,"Ġcarn":9746,"Ġcart":9747,"Ġcarreau":9748,"ĠpassÃ©s":9749,"Ġpartager":9750,"assins":9751,"Ġencomb":9752,"cide":9753,"ignon":9754,"Ġmanche":9755,"Ġmanieres":9756,"ĠVille":9757,"Ġmalheurs":9758,"Ġcompagne":9759,"owing":9760,"venait":9761,"Ġfinie":9762,"Ġstri":9763,"Ġblonde":9764,"ĠChap":9765,"ĠdÃ©troit":9766,"Ġverra":9767,"Ġverrait":9768,"Ġconfidence":9769,"Ġcentaine":9770,"Ġapprouv":9771,"Ġdistinct":9772,"uyait":9773,"ĠdÃ©fense":9774,"ĠannonÃ§ait":9775,"Ġbaronn":9776,"oken":9777,"Ġretournai":9778,"affir":9779,"aston":9780,"ĠsÃ»rement":9781,"Ġfrappant":9782,"Ġveine":9783,"Ġveiller":9784,"Ġquittant":9785,"ĠtraitÃ©":9786,"Ġcruelle":9787,"Ġvase":9788,"ongeant":9789,"ĠplacÃ©s":9790,"Ġduring":9791,"Ġlibres":9792,"Parmi":9793,"ĠtentÃ©":9794,"ĠchargÃ©e":9795,"Ġmarchaient":9796,"ĠtraÃ®ner":9797,"Ġpardonne":9798,"Ġnourrir":9799,"Ġretrouvait":9800,"humiditÃ©":9801,"ermain":9802,"Ġarms":9803,"ĠdÃ©clarÃ©":9804,"Ġlibrement":9805,"ĠLydie":9806,"ĠhÃ©siter":9807,"Ġcraignant":9808,"Ġexaminer":9809,"Ġmaladroit":9810,"ricitÃ©":9811,"ĠeffrayÃ©e":9812,"phew":9813,"ĠcondamnÃ©":9814,"OUR":9815,"ĠplongÃ©":9816,"ĠpropriÃ©tÃ©":9817,"ĠNapolÃ©on":9818,"ĠÃ©ternelle":9819,"Ġgibet":9820,"Ġexpliqua":9821,"Ġnavigation":9822,"Ġdiscuter":9823,"Ġloisir":9824,"ĠmÃ¢choire":9825,"Ġbehind":9826,"Ġremember":9827,"Ġinexplicable":9828,"ĠAtt":9829,"tective":9830,"ĠNouvelle":9831,"Ġtambour":9832,"Ġgothique":9833,"'re":9834,"Anglais":9835,"Br":9836,"Cr":9837,"Ceux":9838,"Fix":9839,"Top":9840,"VIII":9841,"band":9842,"ual":9843,"ude":9844,"Ġlus":9845,"eneu":9846,"Ġcall":9847,"Ġtar":9848,"Ġquotid":9849,"ĠvÃ®nt":9850,"unique":9851,"orÃ©e":9852,"orie":9853,"orifice":9854,"Ġrong":9855,"Ġrug":9856,"Ġrather":9857,"Ġenl":9858,"atiques":9859,"Ġgif":9860,"Ġreal":9861,"eurre":9862,"Ġauth":9863,"oies":9864,"Ġplats":9865,"seigneur":9866,"Ġchuch":9867,"Ġinond":9868,"amar":9869,"apÃ©":9870,"dered":9871,"devant":9872,"ffels":9873,"acÃ©es":9874,"acide":9875,"neffels":9876,"Ġmonseigneur":9877,"Ã©rations":9878,"Ġmajest":9879,"Ġentendant":9880,"Ġenthousiasme":9881,"ĠcrÃªte":9882,"ĠserrÃ©":9883,"ĠForster":9884,"Ġamours":9885,"Ġamants":9886,"edy":9887,"assement":9888,"ĠGaut":9889,"Ġcontact":9890,"ĠrÃ©ponds":9891,"Ġmesures":9892,"ĠIV":9893,"Ġdonnerait":9894,"Ġconsac":9895,"remment":9896,"Ġtoucha":9897,"Ã©gard":9898,"Ã©rioritÃ©":9899,"ĠcoupÃ©e":9900,"Ġsound":9901,"Ġcloches":9902,"Ġlaissai":9903,"Ġintentions":9904,"Ġconnus":9905,"ĠarrivÃ¢mes":9906,"Ġtenais":9907,"Ġempois":9908,"Ġtombai":9909,"ĠtombÃ¨rent":9910,"Ġconvuls":9911,"oussole":9912,"tembre":9913,"Ġinsc":9914,"Ġpromont":9915,"Ġdescendu":9916,"Ġdistinctement":9917,"ĠÃ©chelles":9918,"ĠdÃ©fil":9919,"ĠannonÃ§a":9920,"ĠrentrÃ©e":9921,"Ġfenetre":9922,"Hein":9923,"Ġadmettre":9924,"Ġcruellement":9925,"Ġvertes":9926,"ĠmÃªlÃ©e":9927,"ĠcollÃ¨ge":9928,"Ġsongeant":9929,"Ġfatigues":9930,"Ġseptentr":9931,"Ġapportait":9932,"Ã©bert":9933,"ĠcaractÃ¨res":9934,"Ã©cluse":9935,"Ġcouverture":9936,"Ġfranchise":9937,"Ġhappened":9938,"Ġraisonnement":9939,"Ġconsoler":9940,"Ġcoquin":9941,"Ġreculer":9942,"iversitÃ©":9943,"Ġutter":9944,"ĠfraÃ®cheur":9945,"Ġfiacre":9946,"Ġbuff":9947,"Ġcomposait":9948,"ĠentourÃ©":9949,"Ġmaster":9950,"Ġperfection":9951,"Ġvoleurs":9952,"Ġinnocent":9953,"Ġverdure":9954,"ĠPierr":9955,"ĠPierron":9956,"***":9957,"Ġtruands":9958,"Ġscandale":9959,"ĠGriffon":9960,"Ġunderstand":9961,"Ġrecluse":9962,"ĠChapelier":9963,"Combien":9964,"Lincoln":9965,"RO":9966,"TrÃ¨s":9967,"Tortue":9968,"ake":9969,"feu":9970,"iest":9971,"ptembre":9972,"sh":9973,"ster":9974,"to":9975,"uz":9976,"vert":9977,"ÃĶ":9978,"Ġdin":9979,"Ġpussent":9980,"ĠmÃ»":9981,"Ġmug":9982,"inj":9983,"ĠnaÃ®tre":9984,"Ġvienne":9985,"Ġbott":9986,"Ġbeurre":9987,"teaux":9988,"Ġrad":9989,"Ġhu":9990,"Ã©tonnement":9991,"aujourd":9992,"Ġgrie":9993,"Ġseigneurs":9994,"Ġnephew":9995,"Ġtruth":9996,"Ġpourrons":9997,"ontin":9998,"Ġwant":9999,"ieces":10000,"amm":10001,"ecter":10002,"Ã©pend":10003,"Ġeas":10004,"imitÃ©":10005,"Ġsad":10006,"Ġsach":10007,"Ġground":10008,"Ġtog":10009,"ĠPol":10010,"idÃ©es":10011,"ĠSneffels":10012,"Ġdisci":10013,"Ã´mes":10014,"Ġfrot":10015,"Ġpeupl":10016,"Ġexam":10017,"Ġapl":10018,"Ġcarreaux":10019,"assis":10020,"ĠVol":10021,"ĠTour":10022,"Ã©diction":10023,"ĠcompÃ¨re":10024,"ĠÃ©prouver":10025,"ĠdÃ©crire":10026,"ĠOu":10027,"ellerie":10028,"Ġcorne":10029,"Ġsemblant":10030,"Ġvivaient":10031,"ĠmatiÃ¨res":10032,"Ġconvul":10033,"Ġgarant":10034,"Ġouvrier":10035,"ĠprÃ©cepteur":10036,"Ġreconnais":10037,"ĠpauvretÃ©":10038,"Ġsilh":10039,"ĠgrossiÃ¨re":10040,"Ġimporte":10041,"Ġkill":10042,"Ġcontrar":10043,"enfants":10044,"Ġhorizon":10045,"Ġfixer":10046,"ĠRochelle":10047,"ĠtrompÃ©e":10048,"ĠcommencÃ¨rent":10049,"Ġdevenus":10050,"Ġdevenaient":10051,"Ġbrillaient":10052,"Ġstrange":10053,"Ġknown":10054,"Ġfurieuse":10055,"Ġhalte":10056,"Ġmuscles":10057,"ĠarrÃªtÃ©e":10058,"Ġappartenant":10059,"Ġsuffisante":10060,"Ġdoutes":10061,"Ġdoutait":10062,"Ġsuspendu":10063,"Ġresplend":10064,"ruption":10065,"Ġflottant":10066,"ĠintÃ©rÃªts":10067,"Ġaffirmer":10068,"ĠÃ©difice":10069,"ĠÃ©ducation":10070,"orbert":10071,"Ġtaillis":10072,"ĠÃ©pouser":10073,"ĠspÃ©ci":10074,"Ġpistolet":10075,"ĠenlevÃ©":10076,"Ġintervalles":10077,"ĠpÃ©riode":10078,"Ġhypoth":10079,"ichelieu":10080,"ĠcÃ©lÃ¨bre":10081,"Espagne":10082,"Ġincessamment":10083,"Ġsagesse":10084,"ĠindiffÃ©rent":10085,"Ġcailloux":10086,"ouverture":10087,"ĠÃ©chantillons":10088,"Ġsursaut":10089,"Ġlugubre":10090,"Ġattempt":10091,"clÃ©siastique":10092,"Ġunhappy":10093,"ĠsecrÃ©taire":10094,"Ġdestruction":10095,"eneulin":10096,"._":10097,"Ass":10098,"Fr":10099,"IX":10100,"Pauvre":10101,"aussi":10102,"cess":10103,"frique":10104,"por":10105,"ror":10106,"tique":10107,"Ġ9":10108,"Ġdirent":10109,"Ġlouis":10110,"Ġpair":10111,"Ġpieux":10112,"Ġpentes":10113,"Ġcuv":10114,"Ġmount":10115,"Ġdeal":10116,"Ġdeuil":10117,"Ġtendant":10118,"Ġtabl":10119,"ino":10120,"ilence":10121,"isation":10122,"Ġvib":10123,"Ġralent":10124,"Ġunivers":10125,"antz":10126,"Ġenlever":10127,"Ġenglout":10128,"Ġavenir":10129,"Ġavril":10130,"ceaux":10131,"estime":10132,"avert":10133,"Ġoss":10134,"Ġtristement":10135,"onnÃ©es":10136,"oiseaux":10137,"Ã©cr":10138,"Ã©cis":10139,"siers":10140,"icale":10141,"Ġdevrais":10142,"Ġasc":10143,"ayez":10144,"Ġmarm":10145,"Ġmarques":10146,"ĠBrÃ©s":10147,"ĠFabio":10148,"Ġcontrib":10149,"Ġmesse":10150,"Ġmesurait":10151,"Ġcouru":10152,"poser":10153,"ĠdonnÃ©s":10154,"rah":10155,"Ġconsentement":10156,"Ġenfonc":10157,"Ġbeauty":10158,"iÃ¨ce":10159,"Ġclam":10160,"Ġclocher":10161,"Ġtraverse":10162,"ĠcouchÃ©e":10163,"ĠintÃ©":10164,"Ã©criait":10165,"Ġboucher":10166,"iqua":10167,"ĠrÃ©soudre":10168,"Ġcapital":10169,"Ġtombant":10170,"Ġincidents":10171,"Ġjetai":10172,"ĠhabitÃ©":10173,"Ġorn":10174,"Ġconfid":10175,"Ġfromage":10176,"Devant":10177,"ĠdÃ©bou":10178,"ĠguÃ©r":10179,"Ġbalcon":10180,"ĠFrantz":10181,"Ġacross":10182,"astille":10183,"ĠhabitÃ©e":10184,"ĠfrappÃ©e":10185,"Ġapparition":10186,"Ġraconte":10187,"approchait":10188,"chauss":10189,"Ġbattant":10190,"Parce":10191,"Ġremplie":10192,"Ġbrillante":10193,"Ġstrength":10194,"ĠÃ©mue":10195,"Ġattendaient":10196,"Ġrelevant":10197,"ĠsÃ©paration":10198,"ĠÃ©trangÃ¨re":10199,"ĠrÃ©veillÃ©":10200,"Ġbreak":10201,"ĠconsÃ©quences":10202,"ĠrÃ©union":10203,"ĠfermÃ©s":10204,"ĠachetÃ©":10205,"Ġprendrait":10206,"overed":10207,"Ġjolies":10208,"ĠCrom":10209,"Ġlourds":10210,"ĠarrachÃ©":10211,"Ġignorait":10212,"arreter":10213,"marin":10214,"Ġbagages":10215,"Ġgiving":10216,"ĠjurÃ©s":10217,"ĠÃ©tablir":10218,"Ġillum":10219,"ĠenfermÃ©":10220,"Ġrudement":10221,"ĠpiÃ©t":10222,"olyte":10223,"Ġendormi":10224,"Ġprotection":10225,"ĠrÃ©gnait":10226,"arreta":10227,"Ġmollusques":10228,"Ġinvisible":10229,"ĠirrÃ©sistible":10230,"Ġrancune":10231,"Ġintense":10232,"Ġhusband":10233,"ĠCharmolue":10234,"Ġcargaison":10235,"Ġbaronnet":10236,"Ġtogether":10237,"ĠBrÃ©sil":10238,"\"'":10239,"AL":10240,"Dis":10241,"MaÃ®tre":10242,"Rod":10243,"eded":10244,"mille":10245,"oon":10246,"ren":10247,"rirent":10248,"zire":10249,"Ġira":10250,"Ġissue":10251,"Ġdommage":10252,"Ġlouer":10253,"Ã©lever":10254,"Ġsch":10255,"ĠcÃ´ne":10256,"isaient":10257,"itaient":10258,"itut":10259,"Ġvend":10260,"Ġlearned":10261,"anta":10262,"ali":10263,"Ġparadis":10264,"Ġseptembre":10265,"rive":10266,"agues":10267,"Ġwagon":10268,"osais":10269,"amener":10270,"Ġmean":10271,"imagine":10272,"Ġgrains":10273,"icle":10274,"Ġallem":10275,"Ġbiens":10276,"Ġongles":10277,"ĠStr":10278,"ĠLap":10279,"ĠLestrade":10280,"Ġcrosse":10281,"Ġbring":10282,"bly":10283,"bleu":10284,"isses":10285,"aya":10286,"ĠBour":10287,"ĠBastille":10288,"ĠDel":10289,"Ġpartirent":10290,"alla":10291,"ancienne":10292,"ĠVierge":10293,"ĠHume":10294,"Ġconsomm":10295,"Ġrecond":10296,"Ġrecogn":10297,"Ġforts":10298,"Ġflotte":10299,"Ġfloor":10300,"ĠdÃ©pe":10301,"Ġminces":10302,"ĠvivacitÃ©":10303,"Ġsuivie":10304,"UniversitÃ©":10305,"Ġenvoya":10306,"Ġpleuv":10307,"ĠagitÃ©e":10308,"Ġnommer":10309,"Ġincons":10310,"Ġtraversait":10311,"ĠlivrÃ©e":10312,"Ġcalmer":10313,"Ġimpertin":10314,"Ġoccident":10315,"ĠfaÃ§":10316,"enfoncer":10317,"Ġopp":10318,"Ġbarreaux":10319,"ĠdÃ©lire":10320,"Ġcurieuse":10321,"Ġhabitation":10322,"Ġcausaient":10323,"Ġpencha":10324,"Ġoccupation":10325,"Ġruines":10326,"Ġverts":10327,"ochefort":10328,"Why":10329,"Ġsoldier":10330,"Ġquarts":10331,"Ġpouces":10332,"ĠdÃ©ranger":10333,"ĠengagÃ©":10334,"Ġsatisfaire":10335,"Ġbecame":10336,"ĠhÃ©sita":10337,"Ġprincipale":10338,"ĠespÃ©rant":10339,"Ġangles":10340,"Ġrichesses":10341,"ĠrecommandÃ©":10342,"Ġbague":10343,"Ġobstacles":10344,"emporta":10345,"embrasser":10346,"uillet":10347,"Ant":10348,"Ġaveugl":10349,"Ġretenu":10350,"Ġlimites":10351,"ĠanxiÃ©tÃ©":10352,"Ġaddress":10353,"Ġconstruire":10354,"Ġbuvait":10355,"Ġmaudit":10356,"Ġfellow":10357,"Ġharpon":10358,"Ġkilometres":10359,"ĠÃ©tincel":10360,"Ġvulgaire":10361,"Ġeusse":10362,"Ġprairie":10363,"Ġsurnature":10364,"ĠrÃ©colte":10365,"ĠdÃ©sappoin":10366,"Ġcannot":10367,"ĠMarchiennes":10368,"Aouda":10369,"SE":10370,"dy":10371,"fer":10372,"gues":10373,"oach":10374,"sait":10375,"Ġdalles":10376,"enons":10377,"Ġpag":10378,"Ġpud":10379,"ĠpÃ©rir":10380,"Ġspr":10381,"Ġcis":10382,"Ġaj":10383,"quÃªte":10384,"Ġtasse":10385,"Ġfile":10386,"Ġnor":10387,"Ġboussole":10388,"orait":10389,"ĠrÃ´t":10390,"antaine":10391,"alog":10392,"chose":10393,"Ġjealous":10394,"Ġsex":10395,"rimÃ©":10396,"Ġchurch":10397,"abond":10398,"Ġwife":10399,"amme":10400,"Ġsurr":10401,"Ã©criv":10402,"uisait":10403,"Ġyards":10404,"ardeur":10405,"adÃ©m":10406,"ĠPorte":10407,"ulaire":10408,"oyaient":10409,"ĠSouv":10410,"ĠSuez":10411,"ĠdÃ©gr":10412,"Ġdise":10413,"ĠDU":10414,"trai":10415,"Ġallions":10416,"ĠcarrÃ©s":10417,"ĠNorbert":10418,"ĠRoy":10419,"ĠGaston":10420,"Ġconter":10421,"Ã©ner":10422,"Ġseules":10423,"ĠHÃ©":10424,"ĠHouse":10425,"Ġremor":10426,"ĠTous":10427,"Ġcommettre":10428,"oleon":10429,"Ġferrets":10430,"Ġsentaient":10431,"jeant":10432,"Ġreprend":10433,"Ġmontaient":10434,"Ġaffam":10435,"ĠdÃ©pend":10436,".Â»--":10437,"Ġboucles":10438,"udarde":10439,"ĠpleurÃ©":10440,"Ġemporte":10441,"itting":10442,"Ġglor":10443,"Ġglissait":10444,"Ġorient":10445,"Ġpromit":10446,"Ġdescription":10447,"Ġespace":10448,"Ã©viter":10449,"Ġhumili":10450,"Ġcompliments":10451,"Ġloved":10452,"ĠdÃ©vers":10453,"aquette":10454,"Ġsuffoqu":10455,"Ġexplications":10456,"Ġtremble":10457,"Ġconversations":10458,"ĠsauvÃ©e":10459,"Ġdivine":10460,"ĠsituÃ©":10461,"anÃ§ai":10462,"Ġgreatest":10463,"Ġmalheureusement":10464,"Ġconvenir":10465,"ĠracontÃ©":10466,"Ġdemeurai":10467,"ĠprÃ©cipiter":10468,"Ġescort":10469,"Ġstruck":10470,"Ġtendres":10471,"Ġjuges":10472,"Ġconcert":10473,"Ġhabituelle":10474,"Ġpoursuivait":10475,"Ġstupeur":10476,"Ġarticul":10477,"Ġtalons":10478,"ĠmÃ©lange":10479,"Ġkeen":10480,"Ġgaiement":10481,"Ġdirigeait":10482,"ĠrÃ©servoirs":10483,"Ġdentelle":10484,"Ġmessage":10485,"inclina":10486,"Ġconsulter":10487,"what":10488,"Ġberlines":10489,"Ġsapins":10490,"ahiette":10491,"ĠmÃ©diocre":10492,"honnÃªte":10493,"DÃ©jÃł":10494,"Ġcompanion":10495,"ĠexpÃ©dition":10496,"Ġfonction":10497,"ÃĬtes":10498,"Ġbaleines":10499,"ĠPiet":10500,"ĠdÃ©finitivement":10501,"ĠabsorbÃ©":10502,"ĠsystÃ¨me":10503,"inspecteur":10504,"'ve":10505,",'":10506,"Germain":10507,"Hen":10508,"aches":10509,"gÃ©e":10510,"joux":10511,"nel":10512,"olement":10513,"ĠÃ¢mes":10514,"enfl":10515,"Ġsor":10516,"Ġsainte":10517,"Ġmonn":10518,"leep":10519,"ĠfÃ©r":10520,"itter":10521,"ĠniÃ¨ce":10522,"Ġlay":10523,"ĠbiÃ¨re":10524,"Ġrattr":10525,"usez":10526,"Ã¨des":10527,"Ġreins":10528,"ĠprÃ©d":10529,"Ġpari":10530,"agenouill":10531,"ĠchÃ¨vres":10532,"abes":10533,"Ġwr":10534,"ĠCertainement":10535,"ueille":10536,"Ġentire":10537,"Ġdisgr":10538,"emporte":10539,"Ġserjeant":10540,"Ġdevions":10541,"ĠrÃ©parer":10542,"Ġsujets":10543,"ĠBarb":10544,"angoisse":10545,"Ġwhether":10546,"appl":10547,"Ġimage":10548,"very":10549,"ĠGrivet":10550,"ĠGascon":10551,"ĠrÃ©el":10552,"ĠVen":10553,"Ġremained":10554,"ĠÃ©conom":10555,"Ġtouche":10556,"ĠdÃ©sastre":10557,"ĠposÃ©e":10558,"ĠportiÃ¨re":10559,"Ġclois":10560,"ĠclÃ´t":10561,"Ġobjection":10562,"Ġpeint":10563,"Ġfines":10564,"Ġsouris":10565,"Ġsaisie":10566,"Ġspite":10567,"Ġpresby":10568,"Ġincre":10569,"Ġmistress":10570,"Ġcontinuaient":10571,"ĠLake":10572,"Ġrendue":10573,"Ġfamili":10574,"Ġimpassible":10575,"Ġtournaient":10576,"Ġlarme":10577,"ĠGrace":10578,"Ġannoun":10579,"Ġgarda":10580,"ĠÃ©lan":10581,"enfuir":10582,"liza":10583,"aquets":10584,"Ġessouff":10585,"approchai":10586,"Ġmourant":10587,"Ã¢teaux":10588,"Ġsauve":10589,"Ġsuccession":10590,"ĠmaÃ®tresses":10591,"ĠconsidÃ©ration":10592,"Ġbattaient":10593,"ĠpossÃ¨de":10594,"Ġquarter":10595,"aignez":10596,"ĠdiffÃ©rents":10597,"Ġregrette":10598,"Ġregretter":10599,"ĠrÃ©flÃ©chit":10600,"Ġdescendaient":10601,"Ġbaisser":10602,"Ġmuets":10603,"Ġcesser":10604,"ĠprivÃ©":10605,"ĠsincÃ©ritÃ©":10606,"ĠfiertÃ©":10607,"ĠmenaÃ§ant":10608,"ifications":10609,"Ġdetails":10610,"ĠvÃªtue":10611,"Ġroyale":10612,"aimerais":10613,"Ġpendule":10614,"ĠpÃ©ril":10615,"Ġtonneaux":10616,"Ġblancheur":10617,"Ġambition":10618,"oblige":10619,"ĠrÃ©clamer":10620,"ĠkilomÃ¨tres":10621,"ĠrÃ©pugnance":10622,"ĠGeorgiana":10623,"ĠPalace":10624,"appareil":10625,"Ġforgeron":10626,"ĠCromarty":10627,"ĠLapin":10628,"Gardiner":10629,"HÃ´tel":10630,"Leurs":10631,"Well":10632,"ben":10633,"uellement":10634,"Ġdurent":10635,"enole":10636,"Ġpans":10637,"Ġpup":10638,"Ġpath":10639,"Ġpaid":10640,"Ġpomm":10641,"Ġpaquets":10642,"Ġcire":10643,"Ġcaught":10644,"relles":10645,"reintes":10646,"eron":10647,"Ġtit":10648,"iner":10649,"inary":10650,"Ġfailli":10651,"arque":10652,"arge":10653,"isph":10654,"Ġbassin":10655,"eline":10656,"elaine":10657,"omne":10658,"Ġunion":10659,"ourir":10660,"Ġhall":10661,"urn":10662,"urÃ©ment":10663,"Ġense":10664,"Ġaven":10665,"Ġreve":10666,"Ġparvenu":10667,"aveu":10668,"Ġoeufs":10669,"ĠcomÃ©die":10670,"Ġchron":10671,"Ġdurer":10672,"Ġduty":10673,"Ġinfl":10674,"osa":10675,"eche":10676,"otions":10677,"ured":10678,"Ġfrat":10679,"Ġbrother":10680,"empire":10681,"Ġmarais":10682,"angÃ©":10683,"Ġcarry":10684,"Ġcaracte":10685,"Ġwhite":10686,"vey":10687,"Ġimpuiss":10688,"ĠRome":10689,"orted":10690,"ancÃ¨rent":10691,"Ġmanches":10692,"ĠHÃ©lÃ¨ne":10693,"ĠTom":10694,"Ġcourus":10695,"Ġeue":10696,"Ġvoyages":10697,"Ġposait":10698,"excl":10699,"ĠcloÃ®tre":10700,"Ġcoeurs":10701,"Ġcriaient":10702,"Ġcouchant":10703,"Ġisol":10704,"ĠdÃ©pour":10705,"ĠdÃ©pÃ´t":10706,"Ġpleurant":10707,"Ġsolidement":10708,"Ġverte":10709,"Ġouvrant":10710,"Ġsouver":10711,"ĠprÃ©venu":10712,"accent":10713,"ĠÃ©vent":10714,"ustom":10715,"Ġtournure":10716,"Ã©vÃ©n":10717,"ĠdÃ©fendu":10718,"Ġ13":10719,"Ġfaces":10720,"Ġtransm":10721,"Ġexploit":10722,"ernel":10723,"Ġpatrie":10724,"Ġoccuper":10725,"ĠdÃ©couvris":10726,"offrir":10727,"oppenole":10728,"ĠappelÃ©e":10729,"Ġemploi":10730,"ĠprÃ©cipitÃ©":10731,"Ġrapports":10732,"Ġescal":10733,"expÃ©rience":10734,"Ġtender":10735,"annÃ©es":10736,"Ġconseiller":10737,"ĠKitty":10738,"Ġpoursuite":10739,"Ġforcer":10740,"Ġdescendirent":10741,"ĠÃ©trangement":10742,"Ġfolies":10743,"Ġspectateurs":10744,"Ġdresser":10745,"cepte":10746,"ĠhÃ©sitation":10747,"Ġbref":10748,"Ġdoutais":10749,"apparence":10750,"Ġretomber":10751,"Ġindiquait":10752,"Ġconvaincre":10753,"Ġtimide":10754,"ĠÃ©tudier":10755,"Ġexacte":10756,"ĠÃ©crivait":10757,"angerson":10758,"Ġlointain":10759,"ĠÃ©pouvantable":10760,"ĠsincÃ¨rement":10761,"Ġharponneur":10762,"ĠsimplicitÃ©":10763,"Ġconducteur":10764,"ĠaÃ®nÃ©":10765,"Ġloups":10766,"Ġpalissade":10767,"Ġdilig":10768,"Ġbeginning":10769,"Ġcontenance":10770,"Ġoccurred":10771,"Ġexclaimed":10772,"ĠdÃ©sappointement":10773,"Ġcaractere":10774,"DE":10775,"DI":10776,"Lord":10777,"Op":10778,"aÃ©r":10779,"gate":10780,"pied":10781,"ritÃ©":10782,"rum":10783,"ts":10784,"Ġours":10785,"Ġdort":10786,"Ġlente":10787,"Ġsave":10788,"anÃ©ment":10789,"Ġdef":10790,"ering":10791,"introd":10792,"arted":10793,"istres":10794,"Ġnier":10795,"Ġvice":10796,"Ġlake":10797,"Ġbous":10798,"Ġbare":10799,"Ġbate":10800,"Ġbisc":10801,"Ġjuillet":10802,"omot":10803,"Ġroid":10804,"ouragan":10805,"Ġharn":10806,"usions":10807,"urais":10808,"Ġgagne":10809,"Ġnecess":10810,"ĠÃ©tages":10811,"andais":10812,"ĠchÃªne":10813,"Ġdanseuse":10814,"amie":10815,"ĠMiss":10816,"Ġsonore":10817,"ĠLors":10818,"empecher":10819,"Ġserrure":10820,"auteur":10821,"Ġapart":10822,"ĠBal":10823,"ĠDites":10824,"Ġfaith":10825,"Ġheaven":10826,"appliqu":10827,"ifÃ¨res":10828,"Ġcontenu":10829,"ĠrÃ©elle":10830,"ĠVand":10831,"ĠHall":10832,"Ġcouronne":10833,"Ġmalle":10834,"espere":10835,"Ã©gul":10836,"Ġaboi":10837,"Ġfaisons":10838,"Ġreprod":10839,"obt":10840,"Ġcochon":10841,"Ġflung":10842,"Ġarrived":10843,"ĠcharitÃ©":10844,"ĠsoirÃ©es":10845,"ranera":10846,"Ġsolides":10847,"Ġshut":10848,"Ġbouts":10849,"Ġcentim":10850,"Ġ--,":10851,"Ġfeuillage":10852,"Ġpromenant":10853,"Ġrefuse":10854,"Ġfauss":10855,"ĠpoÃªle":10856,"Ġexcuses":10857,"ĠÃīt":10858,"Ġrivages":10859,"okoh":10860,"ĠÃ©gale":10861,"Ġmoral":10862,"These":10863,"Ġhoriz":10864,"Ġsubir":10865,"Ġtried":10866,"ĠdisposÃ©e":10867,"Ġtwel":10868,"environ":10869,"Ġactes":10870,"Ġescap":10871,"Ġsuspect":10872,"occupait":10873,"ighted":10874,"Ġcontenter":10875,"Ġdescendis":10876,"Ġimprudence":10877,"Ġrouler":10878,"Ġplancher":10879,"ĠhabituÃ©":10880,"ĠdÃ©licate":10881,"Ġhersch":10882,"Ġspee":10883,"Ġterrains":10884,"Ġguid":10885,"Ġpanneau":10886,"Ġladies":10887,"Ġrassembl":10888,"Ġignorance":10889,"Ġmerveilleuse":10890,"Ġmettaient":10891,"ĠfranÃ§aise":10892,"ĠopposÃ©":10893,"ĠtempÃ©rament":10894,"Ġdangereuse":10895,"Ġdistraction":10896,"Ġ30":10897,"Ġpopulaire":10898,"AdÃ¨le":10899,"Ġentreprise":10900,"examiner":10901,"Ġfanal":10902,"ĠÃ©lÃ©gante":10903,"Ġpercer":10904,"Ġramena":10905,"ĠrÃ¨gne":10906,"Ġtribun":10907,"arracher":10908,"Ġinutiles":10909,"Ġressource":10910,"Ġproportion":10911,"ippolyte":10912,"ĠtrÃ©sor":10913,"Ġmensonge":10914,"ĠstupÃ©faction":10915,"ĠLiberal":10916,"ĠcimetiÃ¨re":10917,"ĠPierronne":10918,"Ġsilhouette":10919,"okohama":10920,"Faites":10921,"hue":10922,"nuss":10923,"tam":10924,"Ġaient":10925,"Ġlion":10926,"Ġlive":10927,"Ġlaide":10928,"Ġpaie":10929,"Ġselle":10930,"ĠsÃ©r":10931,"Ġsill":10932,"reen":10933,"anque":10934,"Ġmenait":10935,"Ġtach":10936,"ink":10937,"ĠfiÃ¨re":10938,"ĠvÃ©h":10939,"ĠrÃ©t":10940,"Ġrond":10941,"Ġrange":10942,"Ġraide":10943,"Ã©tonnait":10944,"urai":10945,"ata":10946,"Ġrech":10947,"Ġreach":10948,"Ġaupres":10949,"Ġplage":10950,"Ġtra":10951,"Ġtroupes":10952,"Ġwret":10953,"Ġwild":10954,"Ã©sie":10955,"amant":10956,"Ġsurg":10957,"ĠCH":10958,"sile":10959,"Ġgren":10960,"Ġgrenier":10961,"Ġsieur":10962,"oyed":10963,"ageant":10964,"ĠSam":10965,"Ġbrute":10966,"Ġexige":10967,"Ġserment":10968,"ĠforÃ§":10969,"ĠBoul":10970,"ĠFri":10971,"ĠFland":10972,"Ġamies":10973,"assad":10974,"assÃ©es":10975,"ification":10976,"ĠVraiment":10977,"ĠHar":10978,"ĠHum":10979,"Ġterm":10980,"ĠTristan":10981,"possible":10982,"ĠdÃ©sol":10983,"Ġretire":10984,"Ġcapric":10985,"attends":10986,"Ġniais":10987,"Ġcohue":10988,"Ġflac":10989,"Ġfinally":10990,"Ġstart":10991,"Ġbouquet":10992,"Ġbouquets":10993,"Ġsoirs":10994,"Ġvolet":10995,"Ġhauteurs":10996,"ĠmariÃ©s":10997,"ĠgoÃ©l":10998,"Aug":10999,"Ġespagnol":11000,"Ġordinaires":11001,"Ġrevenue":11002,"ĠannoncÃ©":11003,"Ġgener":11004,"enfuit":11005,"Ġabsent":11006,"Ġpermettez":11007,"Ġextravag":11008,"Ġretournait":11009,"Ġlits":11010,"Ġprodu":11011,"achev":11012,"risie":11013,"Ġtricot":11014,"Ġmoust":11015,"Ġcourtis":11016,"Ġdraps":11017,"offrait":11018,"office":11019,"envelopp":11020,"aknuss":11021,"ĠconsidÃ©rait":11022,"ĠconsidÃ©rables":11023,"Ġrefusait":11024,"Ġrencontrait":11025,"Ġeveryone":11026,"ĠÃ©clater":11027,"ĠÃ©clatant":11028,"ĠobservÃ©":11029,"Ġblessures":11030,"ĠdÃ©mont":11031,"Ġsociety":11032,"Ġlamb":11033,"Ġchantait":11034,"Ġapporta":11035,"ĠmÃ©tal":11036,"engagea":11037,"ĠYokohama":11038,"ĠrelevÃ©":11039,"ĠtÃ©moins":11040,"Ġvaincre":11041,"ĠdÃ©plais":11042,"ĠÃ©coutÃ©":11043,"Ġcachot":11044,"Ġchaudes":11045,"Ġangoisse":11046,"ĠcommenÃ§ais":11047,"Ġconclure":11048,"Ġcoquille":11049,"ĠdÃ©nou":11050,"Ġpilote":11051,"Ġsonnaient":11052,"Ġparcouru":11053,"Ġprivil":11054,"Ġliqueur":11055,"ĠpersuadÃ©e":11056,"inquiÃ©ter":11057,"Ãītat":11058,"ĠÃ©lectriques":11059,"Ġgazon":11060,"Ġredoutable":11061,"ĠrÃ©vÃ©ler":11062,"regson":11063,"Ġrocs":11064,"Ġsignifie":11065,"Ġinconnus":11066,"Ġappareils":11067,"ĠÃ©puisÃ©":11068,"ĠchaÃ®nes":11069,"ĠRosings":11070,"ĠrÃ©gler":11071,"Ġcroissante":11072,"Ġprosp":11073,"Ġmassac":11074,"Ġallowed":11075,"Ġbelieve":11076,"Ġcastle":11077,"Ġgigantesques":11078,"Ġpompe":11079,"ĠcÃ¢ble":11080,"Ġjouissance":11081,"Ġsergents":11082,"ĠcantiniÃ¨re":11083,"Ġhangar":11084,"ĠDuncan":11085,"Ġentretien":11086,"Ġfracas":11087,"Rodolphe":11088,"ĠPietranera":11089,"Ġbateaux":11090,"Ġtwelve":11091,"Cinq":11092,"Every":11093,"loc":11094,"ples":11095,"rlande":11096,"zz":11097,"Ġdira":11098,"Ġdignes":11099,"Ġpurs":11100,"Ġpots":11101,"ĠsÃ©cur":11102,"Ġaqu":11103,"inait":11104,"Ġfie":11105,"Ġfresh":11106,"ilitÃ©s":11107,"ited":11108,"Ġlave":11109,"Ġbene":11110,"Ġbailli":11111,"Ġjoindre":11112,"origine":11113,"Ġrag":11114,"Ġrabatt":11115,"Ġhy":11116,"uring":11117,"auve":11118,"aurez":11119,"auparavant":11120,"Ġgouff":11121,"Ġparquet":11122,"Ġdesquels":11123,"ĠchÃ¢le":11124,"Ġduchesse":11125,"ouvris":11126,"ĠMerci":11127,"fferson":11128,"accept":11129,"Ġtow":11130,"Ġmare":11131,"ĠSaknuss":11132,"ĠLES":11133,"ĠentiÃ¨res":11134,"Ġprobl":11135,"Ġbrouss":11136,"uitÃ©":11137,"terie":11138,"ĠserrÃ©es":11139,"erturb":11140,"Ġdeviend":11141,"Ġforge":11142,"Ġmart":11143,"ĠBetty":11144,"ĠBÃ©bert":11145,"ĠallÃ¨rent":11146,"ĠFitz":11147,"aissant":11148,"Ġwhy":11149,"ĠRichelieu":11150,"Ã©norme":11151,"ĠHope":11152,"Ġremonte":11153,"Ġdizaine":11154,"Ã©rif":11155,"ichambre":11156,"Ġferiez":11157,"Encore":11158,"Ġclasses":11159,"Ġmontraient":11160,"arrond":11161,"Ġpeindre":11162,"ĠflÃ©t":11163,"ĠflÃ¨ches":11164,"Ġsortaient":11165,"Ġboud":11166,"Ġvivants":11167,"Ġcontinents":11168,"Ġfautes":11169,"Ġconvives":11170,"actions":11171,"Ġouvrages":11172,"Ġpromettre":11173,"Ġvitr":11174,"Ġsouffre":11175,"Ġsouffler":11176,"ĠÃ©vÃªque":11177,"Ġteinte":11178,"Ġbeside":11179,"ĠcroisÃ©s":11180,"ondez":11181,"Ġrentrai":11182,"Ġopport":11183,"Ġliaison":11184,"Ġhabitait":11185,"ĠdiscrÃ©tion":11186,"Ġpenchait":11187,"Ġsatin":11188,"Ġfixes":11189,"ĠrÃ©solue":11190,"Ġsinge":11191,"offre":11192,"ĠgÃ©nÃ©rositÃ©":11193,"Ġcreek":11194,"ĠdÃ©sespÃ©rÃ©e":11195,"ĠXIV":11196,"ĠrÃ©vÃ©r":11197,"Ġmarchands":11198,"Ġdormi":11199,"Ġtendue":11200,"entretenir":11201,"observer":11202,"Ġsavent":11203,"Ġrelevait":11204,"Ġconstater":11205,"CHAPTER":11206,"ĠdÃ©licieux":11207,"ĠprÃ©tendait":11208,"ĠdestinÃ©":11209,"Ã©chappa":11210,"arrivait":11211,"ĠtroublÃ©e":11212,"Ġsuspendue":11213,"Ġtorches":11214,"excÃ¨s":11215,"extrÃªme":11216,"Ġintelligent":11217,"Ã©levaient":11218,"ĠappuyÃ©e":11219,"Ġ186":11220,"ĠglacÃ©":11221,"ĠcondamnÃ©e":11222,"ĠDuchesse":11223,"Ġrecouvert":11224,"ĠobÃ©it":11225,"ĠconservÃ©":11226,"ĠFranÃ§ois":11227,"Ġprouve":11228,"Ġprodigieuse":11229,"ĠtÃ¢cher":11230,"endormir":11231,"Ġporion":11232,"Ġspiritu":11233,"Ġexcessive":11234,"apporter":11235,"ĠchÃ¢timent":11236,"Ġvestibule":11237,"ĠdÃ©licatesse":11238,"ĠinquiÃ¨te":11239,"Ġspectre":11240,"Presque":11241,"ĠmÃ©thode":11242,"ophytes":11243,"Ġasseoir":11244,"Ġindispensable":11245,"Ġpromontoire":11246,"Ġbouscul":11247,"Ġmoustache":11248,".--Â«":11249,"Es":11250,"RA":11251,"Saint":11252,"gy":11253,"iation":11254,"mond":11255,"Ġsons":11256,"Ġsett":11257,"Ġcic":11258,"quement":11259,"Ġmors":11260,"Ġtins":11261,"etÃ©s":11262,"Ġfuss":11263,"isÃ©s":11264,"und":11265,"Ġbah":11266,"Ġborn":11267,"Ġjac":11268,"Ġjurer":11269,"Ġranim":11270,"medi":11271,"Ġavance":11272,"Ġgold":11273,"ĠprÃ©l":11274,"alm":11275,"Ġparap":11276,"Ġquick":11277,"Ġplante":11278,"ĠtrÃ©p":11279,"---":11280,"Ġinacc":11281,"ĠinÃ©v":11282,"Ġwon":11283,"oliers":11284,"ĠMai":11285,"oiseau":11286,"oisses":11287,"ĠCoppenole":11288,"Ġgras":11289,"Ġbienfait":11290,"ageaient":11291,"ĠSes":11292,"Ġcray":11293,"Ġfruit":11294,"empress":11295,"emparer":11296,"Ġasp":11297,"ĠBible":11298,"Ġwhist":11299,"Ġamoureuse":11300,"ĠJapon":11301,"ĠJasmin":11302,"veille":11303,"umul":11304,"encre":11305,"Ġremet":11306,"ĠÃ©coutez":11307,"osez":11308,"Ġcomptes":11309,"Ġattaque":11310,"auves":11311,"liers":11312,"Ġcacha":11313,"ĠOak":11314,"Ġcapables":11315,"Ġportier":11316,"Ġclai":11317,"Ġcloth":11318,"Ã©larg":11319,"Ġsecousses":11320,"Ġrestera":11321,"Ġcolonnes":11322,"Ġpeines":11323,"Ġflatter":11324,"Ġcoudes":11325,"Ġstay":11326,"Ġstate":11327,"Ġstone":11328,"Ġbouger":11329,"Ġcontrefort":11330,"Ġreviendra":11331,"Ġsaisissant":11332,"aillant":11333,"Ġhabile":11334,"ĠprÃ©ven":11335,"Ġentendez":11336,"Ġinsult":11337,"Ġmilitaire":11338,"Ġapproche":11339,"Ġmurder":11340,"Ġfight":11341,"Ġbesides":11342,"Ġdonnerai":11343,"Ġrevenus":11344,"Ġcasquette":11345,"Ġdoing":11346,"Ġpoussaient":11347,"Ġroule":11348,"Ġvoisines":11349,"enfonÃ§ait":11350,"Ġfigurer":11351,"ĠÃ©goÃ¯s":11352,"ĠdÃ©vorÃ©":11353,"umed":11354,"Ġcauses":11355,"Ġessuy":11356,"approchant":11357,"Ã®nmes":11358,"arrÃªtant":11359,"Ġconnaissaient":11360,"Ġchapeaux":11361,"Ġoblige":11362,"Ġfourm":11363,"ĠdÃ©gager":11364,"Ġfilets":11365,"Ġcommuniquer":11366,"Ġboat":11367,"ĠrÃ©pÃ©tant":11368,"Ġessayait":11369,"engager":11370,"Ġcadet":11371,"ĠprÃ©parait":11372,"ĠimprÃ©v":11373,"ghton":11374,"Ġstupide":11375,"Ġcrisp":11376,"Ġardeur":11377,"excell":11378,"ĠÃ©troites":11379,"Ġcessait":11380,"Ġrichesse":11381,"ĠtransportÃ©":11382,"Ġfavori":11383,"Ġvigoureusement":11384,"Ġhardi":11385,"Ġpiliers":11386,"Ġpilori":11387,"Ġparcourir":11388,"ĠdÃ©sirez":11389,"ĠaisÃ©":11390,"ĠfiancÃ©e":11391,"ĠextÃ©rieure":11392,"ĠnaufragÃ©":11393,"ĠRouault":11394,"ĠrÃ©ussit":11395,"Ġsoumis":11396,"Ġlundi":11397,"Regarde":11398,"Ġcompromettre":11399,"Ġlasse":11400,"Ġrepartit":11401,"Ã©prouvais":11402,"Ġcavaliers":11403,"Club":11404,"Ġfriendship":11405,"ĠmÃ©ridien":11406,"ĠmÃ©ridionale":11407,"Ġcriminel":11408,"essayai":11409,"ĠcÃ¢bles":11410,"DÃ©ja":11411,"Ġrumeur":11412,"Ġressources":11413,"Planchet":11414,"ĠinstallÃ©":11415,"Ġscient":11416,"Ġtapisserie":11417,"Ġmagnificent":11418,"Ġfascin":11419,"Ġbienveillance":11420,"ĠÃ©chev":11421,"Ġgilet":11422,"Ġcorporal":11423,"Ġshillings":11424,"Ġsentinelle":11425,"isphÃ¨re":11426,"ĠsÃ©curitÃ©":11427,"Der":11428,"Toujours":11429,"US":11430,"cade":11431,"cted":11432,"hus":11433,"ietta":11434,"journ":11435,"seulement":11436,"tÃ¨re":11437,"zaines":11438,"Ã¦":11439,"Ġom":11440,"Ã©bre":11441,"Ġsag":11442,"ĠcÃ©":11443,"Ġaunt":11444,"Ġmembre":11445,"Ġtun":11446,"ĠtÃ´le":11447,"Ġfair":11448,"Ġfins":11449,"Ġfug":11450,"Ġfield":11451,"ilip":11452,"arte":11453,"Ġnou":11454,"Ġbapt":11455,"Ġjeux":11456,"ĠrÃ¢":11457,"Ġronfl":11458,"Ġhom":11459,"Ġenorm":11460,"Ã¨mes":11461,"Ġger":11462,"Ġgaie":11463,"Ġguise":11464,"allez":11465,"Ġauberge":11466,"river":11467,"uif":11468,"ageuse":11469,"endie":11470,"Ġcomes":11471,"Ġchen":11472,"onstr":11473,"ĠMM":11474,"image":11475,"acy":11476,"ĠCast":11477,"ĠanÃ©ant":11478,"Ġgracieux":11479,"Â«--":11480,"Ã©rÃ©s":11481,"urez":11482,"oyÃ©e":11483,"ĠSer":11484,"ĠSablonn":11485,"ĠLis":11486,"Ġcross":11487,"Ġfranc":11488,"Ġbrumes":11489,"automne":11490,"Ġforment":11491,"chev":11492,"Ġcarref":11493,"ĠJustice":11494,"ĠRochefort":11495,"ĠrÃ©al":11496,"Ġvenues":11497,"Ġtemple":11498,"ĠremÃ¨de":11499,"ĠTur":11500,"raw":11501,"raÃ¼":11502,"ĠJefferson":11503,"Ġdipl":11504,"ĠcoupÃ©s":11505,"ĠOudarde":11506,"Ġview":11507,"ĠflÃ¨che":11508,"Ġcorbe":11509,"nese":11510,"Ġmines":11511,"Ġmineur":11512,"Ġmotifs":11513,"Ġauront":11514,"ĠsupÃ©rioritÃ©":11515,"ĠdÃ©tacher":11516,"Ġrevanche":11517,"Ġglissant":11518,"Ġinsouci":11519,"ipath":11520,"Ġplaced":11521,"approuv":11522,"Ġreferm":11523,"ourdi":11524,"faitement":11525,"Ġmoisson":11526,"ĠguÃ©rir":11527,"Ġ11":11528,"ĠMarietta":11529,"Ġrespir":11530,"Ġproduite":11531,"Ġsubite":11532,"Ġcausant":11533,"Ġcouvrir":11534,"effort":11535,"Ġfixa":11536,"ĠirrÃ©":11537,"ĠdisposÃ©es":11538,"Ġarriere":11539,"ĠpÃ©nÃ©tr":11540,"Ġbridge":11541,"Ġchapel":11542,"ĠmÃªler":11543,"Ġbattit":11544,"Ġprec":11545,"ĠpiÃ¨ge":11546,"Ġconvenablement":11547,"Ġtirai":11548,"Ġtiroir":11549,"Ġfrip":11550,"Ġproprement":11551,"Ġtortue":11552,"Ġpouce":11553,"Ġrappelai":11554,"Ġabsolue":11555,"ĠobligÃ©s":11556,"Ġattendez":11557,"ĠYonville":11558,"Ġcommander":11559,"Ġcommandement":11560,"ĠarrÃªtÃ©s":11561,"ĠStangerson":11562,"Ġarguments":11563,"Ġretrouve":11564,"Ġthoughts":11565,"ĠprÃ©fÃ©rence":11566,"ĠÃ©couta":11567,"Ġappartient":11568,"Ġothers":11569,"Ġponts":11570,"Ġknows":11571,"Ġzo":11572,"Ġachevait":11573,"Ġexamina":11574,"Ġbijoux":11575,"Ġinnombr":11576,"END":11577,"Ġrompu":11578,"Ġinfinie":11579,"Ġnaturels":11580,"ĠapprochÃ©":11581,"Ã©licitÃ©":11582,"Ġrepoussa":11583,"Ġtendrement":11584,"Ġplonger":11585,"ĠmÃ©chante":11586,"Ġproduisait":11587,"Ġretenait":11588,"Ġlunette":11589,"Ġlunettes":11590,"Ġprompt":11591,"Ġhaussa":11592,"Ġfeeling":11593,"Ġthird":11594,"Ġmessager":11595,"Ġmunitions":11596,"Ġfaubourg":11597,"apercevait":11598,"Ġbougeait":11599,"Ġgaoler":11600,"Ġconduct":11601,"Ġsplendide":11602,"Ġabsurde":11603,"Ġinutilement":11604,"ĠFarnese":11605,"Ġpelouse":11606,"Ġforet":11607,"Ġenemy":11608,"Ġfrayeur":11609,"lisa":11610,"ĠBrighton":11611,"ĠsorciÃ¨re":11612,"Ġvetements":11613,"assurance":11614,"ĠVirgin":11615,"Ġauthor":11616,"Ã©nergie":11617,"Ġfugit":11618,"Ġenormous":11619,"ĠSablonniÃ¨res":11620,"raÃ¼ben":11621,"AT":11622,"Che":11623,"Celle":11624,"Dix":11625,"UR":11626,"Very":11627,"bonne":11628,"cie":11629,"fre":11630,"fran":11631,"hÃ´t":11632,"iemment":11633,"ket":11634,"pour":11635,"Ġ***":11636,"Ġdie":11637,"ĠdorÃ©":11638,"Ġlimp":11639,"ennes":11640,"Ã©lect":11641,"Ġsport":11642,"onÃ§aient":11643,"reusement":11644,"ĠmÃ¨ne":11645,"Ġtais":11646,"ĠtiÃ¨":11647,"Ġfic":11648,"Ġful":11649,"itoire":11650,"Ġvant":11651,"Ġbiere":11652,"tead":11653,"Ġrau":11654,"Ġrup":11655,"Ġranger":11656,"Ġraccommod":11657,"uries":11658,"Ġgisait":11659,"Ġprennent":11660,"Ġparoisse":11661,"estim":11662,"oict":11663,"ĠÃ©tendit":11664,"agut":11665,"Ġcombl":11666,"Ġchats":11667,"olution":11668,"ĠMir":11669,"ĠMahiette":11670,"oter":11671,"Ġgraisse":11672,"adier":11673,"Ġdite":11674,"ĠPendant":11675,"Ã©rance":11676,"Ġ!...":11677,"Ġbriller":11678,"Ġexalt":11679,"ĠAug":11680,"ensiles":11681,"ĠBah":11682,"ĠEss":11683,"ĠFarr":11684,"Ġpassants":11685,"apperÃ§":11686,"Ġimag":11687,"verb":11688,"ĠGri":11689,"iforme":11690,"ifices":11691,"Quatre":11692,"ancement":11693,"ĠVenez":11694,"Ġterme":11695,"ĠÃ©coute":11696,"Ġcoupa":11697,"ĠÃ©pars":11698,"ĠÃ©paisses":11699,"Ġsought":11700,"Ġtravailleurs":11701,"assey":11702,"ĠflÃ¢":11703,"Ġcouchait":11704,"ĠdÃ©passÃ©":11705,"ĠdÃ©passait":11706,"ĠrÃ©signation":11707,"Ġcharpentier":11708,"Ġsources":11709,"Ġrevers":11710,"Ġnomm":11711,"Ġpresse":11712,"ĠconfiÃ©":11713,"Ġcentrale":11714,"Ġinsuff":11715,"Ġinsista":11716,"Ġfeuill":11717,"Ġpromettait":11718,"ĠprÃ©cieuse":11719,"Ġreconnaissait":11720,"accabl":11721,"ustensiles":11722,"Ġdonnera":11723,"ĠÃ©chouÃ©":11724,"Ġkilled":11725,"ĠguinÃ©es":11726,"ĠprÃ©sentÃ©":11727,"Ġgreff":11728,"Ġbalustr":11729,"Ġcombin":11730,"Ġoutside":11731,"ĠinvitÃ©":11732,"Ġacquis":11733,"Ġreding":11734,"ĠlÃ©gers":11735,"Ġprovinci":11736,"ĠoccupÃ©s":11737,"arrÃªtai":11738,"arrÃªtÃ¨rent":11739,"ĠdÃ©sirÃ©":11740,"Ġsinges":11741,"ĠentraÃ®ner":11742,"Ġdivert":11743,"ambition":11744,"ĠsÃ©rieuses":11745,"dedans":11746,"Ġrougissant":11747,"Ġsingular":11748,"Ġennui":11749,"Ġanciennes":11750,"ĠsÃ©cher":11751,"ĠprononÃ§a":11752,"ĠbrÃ»lÃ©":11753,"ĠStone":11754,"instinct":11755,"Ġcouvertures":11756,"Ġjugea":11757,"ĠrangÃ©es":11758,"ĠÃ©coutant":11759,"Ġfournit":11760,"ĠrÃ©servÃ©":11761,"Ġsymb":11762,"Ġtimidement":11763,"ĠpÃªcheurs":11764,"ĠpossÃ©der":11765,"Quoique":11766,"Ġcadavres":11767,"Ġaccomplir":11768,"ĠlÃ¢cher":11769,"ĠNapoleon":11770,"Ġaccepta":11771,"Ġpharmacie":11772,"ĠÃ©ternel":11773,"ĠÃ©pousÃ©":11774,"Ġhighly":11775,"Prenez":11776,"ĠenlevÃ©e":11777,"ĠirrÃ©gul":11778,"Ġlointains":11779,"ĠJupiter":11780,"Ġcontinued":11781,"ĠUNE":11782,"Ġpretty":11783,"Ġcivilis":11784,"Ã©lÃ©gance":11785,"Ġrenouveler":11786,"Ġpaisiblement":11787,"observation":11788,"Ġappearance":11789,"Ġheld":11790,"accomplir":11791,"ĠconfusÃ©ment":11792,"ĠrÃ©fugier":11793,"Ã©tudes":11794,"Ġrepeated":11795,"Ġlapin":11796,"Ġevident":11797,"ĠÃīcoutez":11798,"ĠJackson":11799,"Ġparisis":11800,"Ġconfortable":11801,"ĠComo":11802,"Ġsuddenly":11803,"Ã©paisseur":11804,"Ġmonnaie":11805,"Ġhorizont":11806,"locut":11807,"ĠSaknussemm":11808,"oictier":11809,"ĠFarragut":11810,"Her":11811,"Seul":11812,"Yes":11813,"aert":11814,"fou":11815,"for":11816,"jali":11817,"vÃ©n":11818,"Ġpul":11819,"Ġpendue":11820,"Ġpieces":11821,"ĠsitÃ´t":11822,"Ġsonneur":11823,"onzo":11824,"Ġcages":11825,"Ġcerc":11826,"anne":11827,"anine":11828,"Ġmiens":11829,"Ġmettez":11830,"enthousiasme":11831,"ities":11832,"Ġnac":11833,"ĠnÃ¨g":11834,"Ġvex":11835,"Ġvendu":11836,"Ġvifs":11837,"Ġlaver":11838,"ĠbÃ»":11839,"Ġbarr":11840,"Ġleagues":11841,"aisons":11842,"Ġrat":11843,"ĠhÃ¢ter":11844,"iral":11845,"aube":11846,"ĠavanÃ§ait":11847,"alter":11848,"Ġpartez":11849,"estomac":11850,"ribles":11851,"avocat":11852,"uies":11853,"Ġplaid":11854,"Ġtry":11855,"ĠMe":11856,"ĠCay":11857,"Ã§ois":11858,"ĠmajestÃ©":11859,"gea":11860,"ĠSuis":11861,"Ġexemp":11862,"Ġdevriez":11863,"opes":11864,"Ġamer":11865,"appui":11866,"ĠtrouvÃ¢mes":11867,"Ã©nÃ©tr":11868,"ignÃ©":11869,"Ġmanusc":11870,"Ġcourtes":11871,"ĠdonnÃ¨rent":11872,"ĠsemÃ©":11873,"Ġattirer":11874,"Ġentrev":11875,"rog":11876,"Ġsecs":11877,"Ġvouliez":11878,"Ġintol":11879,"ĠsemblÃ©":11880,"iquÃ©e":11881,"Ġenvoie":11882,"Ġpleura":11883,"ĠCham":11884,"Ġassoup":11885,"Ġcomprenant":11886,"Ġreviendrait":11887,"Ġnommait":11888,"ested":11889,"Ġjetaient":11890,"Ġvolumes":11891,"Ġpromise":11892,"Ġnoct":11893,"Ġfoudre":11894,"Ġapprend":11895,"Ġrendaient":11896,"Ġnaturelles":11897,"Ġfameuse":11898,"ĠdÃ©fiance":11899,"Ġcontraste":11900,"Ġlips":11901,"Ġrives":11902,"ĠÃ¢gÃ©":11903,"Ġaucunement":11904,"Ġarrest":11905,"Ġramp":11906,"Ġinvari":11907,"Ġredouter":11908,"Ġdisparition":11909,"ĠpenchÃ©":11910,"Ġessent":11911,"ĠreÃ§ue":11912,"offrit":11913,"Ġcircum":11914,"Ġmurmurait":11915,"Ġtrompait":11916,"Ġcreuser":11917,"ĠactivitÃ©":11918,"Ġsongez":11919,"ĠReform":11920,"Ġquartiers":11921,"Ġstrong":11922,"ĠcuisiniÃ¨re":11923,"Ġregrets":11924,"Ġregrett":11925,"ĠdistinguÃ©":11926,"ĠdÃ©charg":11927,"ĠhÃ©roÃ¯":11928,"Ġmettrait":11929,"Ã©trang":11930,"Ġgoutt":11931,"Ġtalents":11932,"ĠentrÃ¨rent":11933,"Ġangoisses":11934,"ologue":11935,"ĠCraven":11936,"Ġhardly":11937,"Ġrecommandation":11938,"Ġmeubl":11939,"Ġopposite":11940,"aventurer":11941,"Ġplaintes":11942,"oureuses":11943,"ĠAnne":11944,"ĠÃ®lot":11945,"Ġgarnie":11946,"Ã©teignit":11947,"Ġlabor":11948,"Ġinclination":11949,"ĠexÃ©cuter":11950,"ĠnumÃ©ro":11951,"ternation":11952,"ĠfÃ©licitÃ©":11953,"ĠpÃ©trif":11954,"Ġnageoires":11955,"Ġspirit":11956,"Ġmendiant":11957,"ĠmÃ¢choires":11958,"Ġbalbutia":11959,"ajouter":11960,"Ġillusion":11961,"Ġrenfermait":11962,"Ġabattu":11963,"Ġgracieuse":11964,"Ġabsurd":11965,"Ġrubans":11966,"Ġprairies":11967,"Ġmobile":11968,"Ã©phant":11969,"Ġclimb":11970,"Ġmagistrat":11971,"ĠsÃ©pare":11972,"Ġmonotone":11973,"ĠcÃ©tacÃ©":11974,"ĠÃ´ter":11975,"Ġprimit":11976,"ĠappÃ©tit":11977,"Ġgamins":11978,"ĠNoÃ«l":11979,"Ġvaudrait":11980,"Ġstopped":11981,"ĠGautier":11982,"Ġbuffet":11983,"From":11984,"Ġconfidences":11985,"ĠDelouche":11986,"tamira":11987,"ĠFriar":11988,"ilippe":11989,"vÃ©nient":11990,"Afrique":11991,"Be":11992,"Bart":11993,"Faut":11994,"Nul":11995,"TRE":11996,"cir":11997,"cal":11998,"hood":11999,"uai":12000,"uelle":12001,"william":12002,"yn":12003,"yez":12004,"ĠdÃ»t":12005,"Ġliste":12006,"enfin":12007,"Ġster":12008,"Ġsotte":12009,"oulement":12010,"Ġcauche":12011,"ana":12012,"Ġmaid":12013,"Ġdep":12014,"Ġqual":12015,"enter":12016,"Ġfail":12017,"itaires":12018,"Ġnine":12019,"Ġnarr":12020,"Ġniece":12021,"Ġvente":12022,"Ġvierge":12023,"ĠvÃ©rif":12024,"Ġbann":12025,"elant":12026,"elage":12027,"Ġjument":12028,"orient":12029,"omÃ©t":12030,"anth":12031,"auph":12032,"ĠgÃª":12033,"ĠgelÃ©e":12034,"chet":12035,"Ġparess":12036,"Ġparlement":12037,"ĠÃ©treinte":12038,"Ġog":12039,"Ġdue":12040,"ĠduretÃ©":12041,"ĠMong":12042,"utta":12043,"apais":12044,"Ġsong":12045,"otique":12046,"ivresse":12047,"Ã©rant":12048,"geait":12049,"ĠSh":12050,"ĠLÃł":12051,"Ġentiere":12052,"Ġenthus":12053,"Ġdism":12054,"Ġconce":12055,"Ġexamen":12056,"Ġarre":12057,"autel":12058,"ensemble":12059,"ĠatmosphÃ¨re":12060,"chement":12061,"ĠDeneulin":12062,"ĠFal":12063,"ĠJames":12064,"assura":12065,"Ġencad":12066,"ĠGates":12067,"ĠtrouvÃ©s":12068,"ĠrÃ©veil":12069,"ignons":12070,"arts":12071,"ĠVic":12072,"Ġremettait":12073,"ĠTiens":12074,"Ã©ducation":12075,"iquez":12076,"Ġcoupait":12077,"Ġabri":12078,"iches":12079,"Ġentrevue":12080,"Ġreprirent":12081,"Ġreprenant":12082,"exÃ©cut":12083,"ĠmontÃ©e":12084,"Ã©litÃ©":12085,"ĠpersÃ©cut":12086,"atever":12087,"lyc":12088,"ĠlaissÃ¨rent":12089,"resses":12090,"Ġcrique":12091,"Ġstory":12092,"Ġenvoyait":12093,"Ġempe":12094,"Ġservants":12095,"Ġglance":12096,"Ġconform":12097,"Åĵurs":12098,"Ġcentral":12099,"Ġtraversant":12100,"Ġlivide":12101,"aha":12102,"Ġoffer":12103,"Ġlieue":12104,"ĠLaqu":12105,"ĠQuatre":12106,"Ġimpressions":12107,"Ġsoupira":12108,"Ġcomplice":12109,"Ġexpress":12110,"Ġtableaux":12111,"Ġgrel":12112,"diff":12113,"ĠrelÃ¢che":12114,"ĠfacilitÃ©":12115,"Ġmanqua":12116,"ĠlumiÃ¨res":12117,"Ġlumiere":12118,"Ġbourb":12119,"escence":12120,"Ġdiscovered":12121,"Ġexploration":12122,"ernitÃ©":12123,"ĠapparaÃ®tre":12124,"Ġadmirer":12125,"Ġdifficiles":12126,"Ġmousse":12127,"Ġmourut":12128,"ouiller":12129,"Ġbride":12130,"ongeaient":12131,"Ġpuissants":12132,"ĠcollÃ¨g":12133,"Ġcommunic":12134,"Ġeffroi":12135,"ĠrapportÃ©":12136,"Ġobservait":12137,"Ġmodest":12138,"Ġremontant":12139,"ĠjugÃ©":12140,"Ġtorture":12141,"Ġrappelant":12142,"Ġfurie":12143,"Ġabsolu":12144,"ĠÃ©clairÃ©":12145,"ĠmÃ©tall":12146,"ĠdÃ©range":12147,"oudain":12148,"Ġnourr":12149,"Ġ21":12150,"Ġreposait":12151,"Ġemportait":12152,"Ġconstitu":12153,"Ġconstables":12154,"ĠidÃ©":12155,"iously":12156,"ĠprÃ©fÃ©rait":12157,"Ġterminer":12158,"ĠMontmorency":12159,"Ġressemblaient":12160,"Ġbetray":12161,"Ġclairs":12162,"ĠglissÃ©":12163,"ĠtraÃ®nant":12164,"ĠDES":12165,"Ġretombait":12166,"Ġreligieuse":12167,"Ġfavoris":12168,"Ġadressa":12169,"Ġrooms":12170,"Ġhonorable":12171,"Ġsympt":12172,"Ġsoulevait":12173,"Ġstep":12174,"Ġpause":12175,"embrassa":12176,"ĠgÃ©ant":12177,"Ġplaques":12178,"Ġretenue":12179,"Ġbank":12180,"Ġaudience":12181,"Ġretentit":12182,"Ġchocol":12183,"ĠdÃ©tourna":12184,"ĠintÃ©ressant":12185,"Ġadvice":12186,"Ġfamily":12187,"Ġaugmentait":12188,"ĠFerrante":12189,"ĠfÃ¢chÃ©e":12190,"Ġinterrog":12191,"Ġendormie":12192,"ĠenveloppÃ©":12193,"Ġlenteur":12194,"Ġlanternes":12195,"ĠpÃ¢lit":12196,"Islande":12197,"Ġafflig":12198,"Ġsurviv":12199,"ĠaccoutumÃ©":12200,"Ġuniforme":12201,"ĠnÃ©goci":12202,"Ġmandat":12203,"douard":12204,"Ġpourpoint":12205,"Ġcravate":12206,"Ġseems":12207,"Ġexclamation":12208,"tiful":12209,"ĠrÃ´d":12210,"Ġseized":12211,"Ġcharbonniers":12212,"Ġripos":12213,"ĠdÃ©tonation":12214,"Ġsoudaine":12215,"ĠrÃ©chauff":12216,"ĠmÃ©prise":12217,"ĠEspagnol":12218,"Ġdiscipl":12219,"Henri":12220,"Ã©vÃ©nement":12221,"Ġbarely":12222,"Ġnecessary":12223,"Ġgouffre":12224,"ĠVirginie":12225,"ĠGateshead":12226,"Fin":12227,"Jim":12228,"Justement":12229,"MÃªme":12230,"Marie":12231,"Martin":12232,"Nom":12233,"Neuf":12234,"Per":12235,"bs":12236,"comme":12237,"jug":12238,"lieu":12239,"naire":12240,"oe":12241,"oop":12242,"tions":12243,"vois":12244,"where":12245,"yl":12246,"Ġdieu":12247,"ĠlanÃ§ait":12248,"enar":12249,"Ã©fin":12250,"Ġpaill":12251,"Ġpyr":12252,"Ġsoyons":12253,"reurs":12254,"Ġaz":12255,"Ġmouss":12256,"Ġtiss":12257,"Ġfoug":12258,"Ġnues":12259,"Ġbab":12260,"Ġboth":12261,"Ġburst":12262,"tere":12263,"Ġrall":12264,"Ġrattach":12265,"antichambre":12266,"Ġhospit":12267,"Ã©th":12268,"irond":12269,"atin":12270,"Ġreli":12271,"Ġrept":12272,"Ġpressa":12273,"alth":12274,"Ġaug":12275,"Ġdesquelles":12276,"endues":12277,"ouvrier":12278,"ĠinÃ©g":12279,"olit":12280,"olia":12281,"Ã©cid":12282,"Ã©corce":12283,"Ã©panou":12284,"Ġeither":12285,"acule":12286,"Ġgrin":12287,"Ġtop":12288,"Ġmonument":12289,"ics":12290,"ĠPlus":12291,"Ã©rine":12292,"Ġtherm":12293,"essayer":12294,"illÃ©es":12295,"ĠSilence":12296,"ĠLapp":12297,"Ã´les":12298,"Ã´pit":12299,"Ġcrue":12300,"llem":12301,"ĠexprÃ¨s":12302,"Ġarret":12303,"ĠAuc":12304,"ĠserrÃ©e":12305,".....":12306,"ĠmariÃ©":12307,"ĠBanque":12308,"ĠDer":12309,"ĠDonc":12310,"ĠElles":12311,"Ġheight":12312,"ĠamÃ¨re":12313,"Ġpassais":12314,"ĠGu":12315,"Ġcontourn":12316,"Ã©nore":12317,"ĠIm":12318,"position":12319,"oseph":12320,"inth":12321,"Ġabus":12322,"ĠdÃ©solÃ©":12323,"Ġrecours":12324,"Ġentrevoir":12325,"Ġreprise":12326,"exercice":12327,"Ġvoies":12328,"Ġbeautiful":12329,"iÃ¨mes":12330,"attacher":12331,"Ġtravaille":12332,"though":12333,"Ġcogn":12334,"Ġintimes":12335,"Ġsemblent":12336,"Ġitself":12337,"Ġstair":12338,"Ġcharmes":12339,"Ġcharret":12340,"Ġenveloppe":12341,"oila":12342,"ranch":12343,"Ġsols":12344,"Ġincert":12345,"Ġglaces":12346,"Ġconfession":12347,"Ġfondre":12348,"Ġnoeu":12349,"Ġliving":12350,"Ġscene":12351,"ĠscÃ¨nes":12352,"Ġreflet":12353,"Ġbastion":12354,"Ġgrossier":12355,"Ġtourne":12356,"Ġimper":12357,"Ġfausse":12358,"ancholy":12359,"ostat":12360,"Ġcontrad":12361,"ĠÃ©gypt":12362,"affl":12363,"Ġhorror":12364,"Ġramasser":12365,"Ġsubject":12366,"oved":12367,"habiller":12368,"ĠruinÃ©":12369,"oquence":12370,"Ġsingle":12371,"ĠcruautÃ©":12372,"Ġpalpit":12373,"Ġtrompez":12374,"Ġpressait":12375,"Ġmarquait":12376,"ĠdurÃ©e":12377,"Ġpleinement":12378,"Ġtenta":12379,"Ġprevent":12380,"Ġcollier":12381,"Ġretourne":12382,"Ġfiler":12383,"Ġeffrayant":12384,"ĠmodÃ¨le":12385,"frÃ¨re":12386,"ĠdÃ©clare":12387,"Ġrespectable":12388,"ĠthÃ©orie":12389,"Ġgouvernail":12390,"ĠÃ©tonnant":12391,"ĠStates":12392,"ĠÃ©levÃ©s":12393,"animaux":12394,"Ġbaisa":12395,"Ġcordi":12396,"ĠzÃ¨le":12397,"Ġdifficulty":12398,"ĠfermetÃ©":12399,"Ġsupposition":12400,"Ġeussions":12401,"ĠmÃ©decine":12402,"Ġorgueille":12403,"ĠpÃ©nÃ©trant":12404,"Ġreply":12405,"Ġeffrayante":12406,"Ġjolis":12407,"ĠreprÃ©sentait":12408,"Ġcontemplation":12409,"ĠBrulÃ©":12410,"Ġsonnette":12411,"Ġinterrompu":12412,"ĠeuropÃ©":12413,"ĠÃ©teinte":12414,"ĠacceptÃ©":12415,"Ġdessiner":12416,"Ġcherchaient":12417,"ilomene":12418,"ĠmerciÃ¨re":12419,"ĠassurÃ©ment":12420,"ĠbohÃ©mien":12421,"Ã©teindre":12422,"ĠrÃªvait":12423,"Ġinnocente":12424,"Ġnews":12425,"Ġopened":12426,"Ã©coula":12427,"ĠcreusÃ©":12428,"ĠÃ©veillÃ©e":12429,"Ġcavalerie":12430,"Ġfauve":12431,"Ġobjections":12432,"Ġadroitement":12433,"Ã©pouvant":12434,"Ġvilain":12435,"ĠchrÃ©tien":12436,"ĠGlenar":12437,"instrument":12438,"Ġcollection":12439,"Ġsergent":12440,"Ġrunning":12441,"Ġpourpre":12442,"Ġparalys":12443,"ĠrÃ©compense":12444,"Ġinvolontairement":12445,"Ġhonteux":12446,"Ġbougies":12447,"Ġtrottoir":12448,"Ġextraordinaires":12449,"Ġmelancholy":12450,"hypoc":12451,"Croyez":12452,"Ġtablier":12453,"ĠVenise":12454,"ĠFitzwilliam":12455,"Ġopportun":12456,"ĠMaigrat":12457,"Ġrupture":12458,"Ġmanuscrit":12459,"Ġsterling":12460,"ĠMongolia":12461,"Ã©cidÃ©ment":12462,"Holmes":12463,"Tr":12464,"Wickham":12465,"Your":12466,"eks":12467,"iaire":12468,"jon":12469,"jud":12470,"oge":12471,"rures":12472,"ĠÃĩa":12473,"Ġdunes":12474,"Ġliens":12475,"Ġpac":12476,"Ġpose":12477,"Ġpio":12478,"onfort":12479,"Ġcabri":12480,"ĠcassÃ©":12481,"Ġtac":12482,"etimes":12483,"Ġfaillit":12484,"itime":12485,"Ġbomb":12486,"ĠborÃ©":12487,"eless":12488,"Ġjura":12489,"Ġrit":12490,"Ġrab":12491,"Ġraj":12492,"Ġho":12493,"Ġhaies":12494,"Ã©tonna":12495,"Ã¨ver":12496,"emmen":12497,"Ġrez":12498,"chage":12499,"estres":12500,"estig":12501,"Ġpluies":12502,"ĠocÃ©an":12503,"andre":12504,"ĠcomtÃ©":12505,"Ġchale":12506,"Ġintr":12507,"onnent":12508,"onsoir":12509,"olet":12510,"ammes":12511,"ĠMis":12512,"Ġele":12513,"ĠCalc":12514,"Ġanony":12515,"uissier":12516,"icules":12517,"Ã¢ces":12518,"illo":12519,"ĠdÃ©mes":12520,"Ġdisg":12521,"Ġserp":12522,"ĠBob":12523,"ĠBinet":12524,"ĠEN":12525,"ĠFlam":12526,"ĠcarriÃ¨re":12527,"Ġimmedi":12528,"verse":12529,"Ġcontient":12530,"ĠrÃ©pondant":12531,"Ġvenons":12532,"Ġperro":12533,"Ġterrit":12534,"Ġremous":12535,"intÃ©":12536,"inthe":12537,"Ġdirez":12538,"Ġenfou":12539,"ĠdÃ©shon":12540,"Ġrecette":12541,"Ġfortunes":12542,"Ġvoyager":12543,"Ġposant":12544,"Ġparlais":12545,"Ġtroisieme":12546,"attitude":12547,"Ġrestes":12548,"Ġcoat":12549,"drew":12550,"Ġpeinture":12551,"ellÃ©":12552,"Ġprofita":12553,"ĠisolÃ©":12554,"ĠisolÃ©e":12555,"ĠdÃ©port":12556,"Ġminut":12557,"ĠcharmÃ©":12558,"Union":12559,"Ġpresqu":12560,"Ġincomp":12561,"heureusement":12562,"Ġvolat":12563,"Ġvolets":12564,"Ġmortel":12565,"audace":12566,"ĠmisÃ©ric":12567,"Ġconfuse":12568,"ĠinsensÃ©":12569,"Ġpromets":12570,"Ġcontinuant":12571,"Ġphoques":12572,"apprÃ©c":12573,"Ġrendrait":12574,"acca":12575,"Aujourd":12576,"Ġpoils":12577,"Ġhumaines":12578,"Ġhumides":12579,"Ġinterm":12580,"Ġsurpren":12581,"ĠrÃ©confort":12582,"ĠdÃ©lices":12583,"Ġresser":12584,"Ġcombust":12585,"Ġinforme":12586,"ĠsignÃ©":12587,"Ġfroides":12588,"Ġdiscover":12589,"Ġviolents":12590,"Ġoccupied":12591,"Ġvaloir":12592,"Ġchapitre":12593,"Ġcabane":12594,"Ġcharmantes":12595,"Ġdossier":12596,"Ġrougir":12597,"Ġfright":12598,"Ġtremblaient":12599,"Ġsavions":12600,"explication":12601,"ĠbrÃ»le":12602,"ĠprÃ©voir":12603,"ĠsÃ©parÃ©":12604,"ĠsÃ©paraient":12605,"ĠemportÃ©e":12606,"Ġfarouches":12607,"ĠdÃ©licieuse":12608,"Ġsecouait":12609,"ĠagrÃ©ables":12610,"ĠÃ©prouva":12611,"appelai":12612,"Ġressemblance":12613,"ĠexaminÃ©":12614,"Ġreligieux":12615,"Ġvigueur":12616,"Ġbillard":12617,"Ġaimez":12618,"Ġthinking":12619,"ĠvÃªtement":12620,"Ġrompit":12621,"ĠÃ©pouvante":12622,"ĠÃ©pouvantÃ©":12623,"Ġbravement":12624,"Ġculbut":12625,"Ġsteps":12626,"ANS":12627,"ĠdÃ©livrer":12628,"look":12629,"ĠpiquÃ©":12630,"Ġremarked":12631,"ĠRoddy":12632,"ĠChevreuse":12633,"ĠdÃ©truit":12634,"Ġlimite":12635,"ĠdÃ©veloppement":12636,"Ġabondance":12637,"ĠdÃ©tourner":12638,"ĠdÃ©fauts":12639,"Ġwindows":12640,"Ġsignifiait":12641,"ĠenfermÃ©e":12642,"Ġhaussant":12643,"ĠexposÃ©":12644,"Ġvacarme":12645,"Ġassiette":12646,"Ġmultitude":12647,"Ġsimply":12648,"Ġgaze":12649,"Ġobtint":12650,"Ġbornes":12651,"Ġincroyable":12652,"Ġbanquise":12653,"Ġcultiv":12654,"ĠÃ©perd":12655,"Ġuniform":12656,"Ġparaly":12657,"ĠBourgh":12658,"Ġwritten":12659,"omprÃ©h":12660,"croft":12661,"ĠsensibilitÃ©":12662,"ĠSouvarine":12663,"Ġentirely":12664,"Ġdiligence":12665,"Ġbeneath":12666,"Ġtower":12667,"Ã©lectricitÃ©":12668,"Ġbalustrade":12669,"ĠCaylus":12670,"lycÃ©rine":12671,"ĠGlenarvan":12672,"ĠCalcutta":12673,",_":12674,"Beau":12675,"CE":12676,"Ex":12677,"LÃ©on":12678,"Pard":12679,"Part":12680,"Soudain":12681,"VE":12682,"Vingt":12683,"West":12684,"aremment":12685,"fle":12686,"fles":12687,"hy":12688,"oble":12689,"rn":12690,"Ã¶":12691,"Ġidi":12692,"Ġdot":12693,"enille":12694,"Ġpomme":12695,"Ġcime":12696,"Ġcaisses":12697,"ĠaoÃ»t":12698,"entin":12699,"Ġfers":12700,"Ġfonte":12701,"itablement":12702,"Ġnap":12703,"Ġnorm":12704,"Ġnoces":12705,"Ġvicaire":12706,"elÃ©s":12707,"Ġjoies":12708,"Ġrus":12709,"Ã©tendre":12710,"uration":12711,"aum":12712,"augment":12713,"Ġavancer":12714,"ĠavancÃ©e":12715,"Ġquiconque":12716,"Ġplanche":12717,"Ã©sus":12718,"Ġsurpl":12719,"Ġsurprit":12720,"utions":12721,"oiss":12722,"Ã©paisse":12723,"Ġsaura":12724,"ĠCet":12725,"ĠCelui":12726,"Ġanger":12727,"Ġgroup":12728,"icales":12729,"ierges":12730,"Â».":12731,"ulter":12732,"ĠStu":12733,"ĠSouris":12734,"Ġentraient":12735,"empara":12736,"ĠÃ©gl":12737,"ĠexÃ©cution":12738,"Ġatmosph":12739,"ĠDuv":12740,"ĠDiable":12741,"ĠallÃ©g":12742,"Ġpassent":12743,"Ġpartons":12744,"Ġimagine":12745,"Ġconta":12746,"Quels":12747,"Ġmanaged":12748,"ĠTant":12749,"Ġconspir":12750,"Ã©difice":12751,"Ġcommon":12752,"Ġtouchant":12753,"ĠcomptÃ©":12754,"ĠdÃ©criv":12755,"Ġcale":12756,"aÃ®nÃ©":12757,"Ġparlons":12758,"Ġmontai":12759,"ĠmontÃ¨rent":12760,"Ġresterait":12761,"Ġaccomp":12762,"Ġadieux":12763,"amed":12764,"Ġfinesse":12765,"Ġarrivent":12766,"Ġblouse":12767,"ĠrÃ©sist":12768,"Ġsuperst":12769,"Ġassaill":12770,"Ġassassins":12771,"Ġago":12772,"Ġrevue":12773,"Ġgars":12774,"Ġhabiter":12775,"ĠhabillÃ©e":12776,"Ġmises":12777,"Ġindignation":12778,"Ġindustri":12779,"Ġboutiques":12780,"ĠentendÃ®mes":12781,"Ġcentimes":12782,"ipel":12783,"Ġnoce":12784,"Ġfouiller":12785,"Ġdifferent":12786,"ĠtournÃ©e":12787,"Ġjouant":12788,"Ġimmenses":12789,"Ġkil":12790,"Ġhuman":12791,"ĠdÃ©fend":12792,"ĠLefran":12793,"Ġinterlocut":12794,"Ġgardien":12795,"ĠÃ©larg":12796,"Ġgueux":12797,"ĠguÃ©ri":12798,"Ġ12":12799,"ĠcontrÃ©es":12800,"ictions":12801,"Ã©quilibre":12802,"Ġrespirait":12803,"Ġinfern":12804,"Ġinvinci":12805,"ĠlÃ©gumes":12806,"ĠfatalitÃ©":12807,"elson":12808,"Ġexplor":12809,"Ġquittai":12810,"ĠAltamira":12811,"Ġoccupations":12812,"Ġoubliant":12813,"ignorais":12814,"interv":12815,"ĠbÃ¢tons":12816,"rimable":12817,"aken":12818,"Ġcreature":12819,"Ġrencontrai":12820,"ĠquinziÃ¨me":12821,"ĠXXX":12822,"Ġbrisa":12823,"Ġeffront":12824,"ĠblessÃ©s":12825,"Ġbrillantes":12826,"expÃ©d":12827,"Ġpossess":12828,"Ġconsequ":12829,"entreten":12830,"Ġjardinier":12831,"ĠdÃ©charge":12832,"ĠimaginÃ©":12833,"Ġ25":12834,"Ġparcours":12835,"Ġarmoire":12836,"Ġconcerne":12837,"attendis":12838,"Ġsatisfais":12839,"Ġtermina":12840,"Ġappartenaient":12841,"Ġcachet":12842,"Ġdressa":12843,"Ġhurlement":12844,"Ġhurlements":12845,"iscal":12846,"Ġmangea":12847,"Ġtalk":12848,"Ġexaminait":12849,"Ġravi":12850,"ĠhonnÃªtes":12851,"Ġraisonnements":12852,"Ġcoquins":12853,"ĠrÃ©sultats":12854,"Ġsaurai":12855,"Ġsaurons":12856,"Ġdispers":12857,"marine":12858,"ĠattachÃ©s":12859,"ĠfraÃ®ches":12860,"ĠmenaÃ§":12861,"Ġculotte":12862,"ĠprÃ©cÃ©dente":12863,"ĠrÃ©pandit":12864,"ĠrenversÃ©":12865,"ĠfÃ¢cher":12866,"Ġfabriqu":12867,"ĠlÃ¢cha":12868,"Ġmasque":12869,"Ġtrees":12870,"Ġtrahir":12871,"Ġcherchais":12872,"ĠprÃ©occupÃ©":12873,"Ġabondamment":12874,"ĠassurÃ©e":12875,"Ġmamm":12876,"ĠdÃ©chirÃ©":12877,"ĠNewgate":12878,"ĠsÃ©minar":12879,"apercevais":12880,"Ġlocomot":12881,"Ġborne":12882,"honorable":12883,"Ġprovoquer":12884,"Ġchiffre":12885,"Ġforget":12886,"Ġlaugh":12887,"Ġmonstrueux":12888,"Ġmonstrueuse":12889,"Ġnaturaliste":12890,"Ġfichu":12891,"Ġmoved":12892,"Ġredressa":12893,"Ġtroncs":12894,"Ġquadrup":12895,"Ġvanity":12896,"Ġtype":12897,"Ġinfortun":12898,"Ġharmon":12899,"ĠgeÃ´":12900,"Ġredevint":12901,"Ġchuchot":12902,"ĠVolt":12903,"chaussÃ©e":12904,"Ġoccidentale":12905,"ĠdÃ©versoir":12906,"Ġaboiements":12907,"Ġimagined":12908,"ĠStuart":12909,"ĠLefranÃ§ois":12910,"CI":12911,"Camille":12912,"Certainement":12913,"Durant":12914,"Grimaud":12915,"Here":12916,"Savez":12917,"Telle":12918,"brois":12919,"kor":12920,"las":12921,"matique":12922,"oted":12923,"wo":12924,"well":12925,"wick":12926,"you":12927,"Ġdors":12928,"Ġdressed":12929,"Ġlic":12930,"ĠlÃ¨vre":12931,"Ġpinc":12932,"Ġsn":12933,"ĠsÃ»t":12934,"ĠsÃ©ch":12935,"Ġsense":12936,"Ġsleep":12937,"ouge":12938,"onÃ§ai":12939,"rew":12940,"Ġari":12941,"ancher":12942,"Ġmardi":12943,"Ġdecl":12944,"Ġdepart":12945,"Ġtav":12946,"inction":12947,"Ġfure":12948,"Ġvues":12949,"Ġbaissait":12950,"Ġbored":12951,"omas":12952,"Ġrail":12953,"ĠhÃ©b":12954,"ĠprÃ©m":12955,"ÃªchÃ©":12956,"ĠÃ©toile":12957,"agitation":12958,"agitait":12959,"Ġplaie":12960,"Ġow":12961,"endes":12962,"Ġinhab":12963,"osant":12964,"onnante":12965,"onnerie":12966,"oli":12967,"olÃł":12968,"Ġsurmont":12969,"ims":12970,"iges":12971,"Ġgrasse":12972,"Ġgromm":12973,"Ġtoiles":12974,"ĠPap":12975,"Ġaltern":12976,"ueils":12977,"Ġmaj":12978,"Ġmakes":12979,"ĠSal":12980,"ĠLoir":12981,"ĠLÃ©nore":12982,"Ġconject":12983,"orscroft":12984,"issantes":12985,"ĠformÃ©e":12986,"ĠEx":12987,"ĠFaites":12988,"Ġcarab":12989,"ĠcarrÃ©e":12990,"ĠNelson":12991,"cided":12992,"ignif":12993,"aced":12994,"Ġmaniere":12995,"ĠVoyons":12996,"ĠperÃ§":12997,"Ġremb":12998,"ĠTer":12999,"Ġconstant":13000,"ĠdÃ©cor":13001,"Ġcah":13002,"aÃ®trait":13003,"ĠOl":13004,"Ġsoulever":13005,"obation":13006,"exag":13007,"Ġcaprices":13008,"Ġclous":13009,"insp":13010,"Ã¢telet":13011,"Ġcold":13012,"Ġcoule":13013,"Ġcoucha":13014,"Ġaffaiss":13015,"hton":13016,"Ġblond":13017,"Ġblaf":13018,"Ã©mitÃ©s":13019,"Ġpleure":13020,"ĠChrist":13021,"Ġtombeau":13022,"Ġassister":13023,"Ġmortelle":13024,"Ġconfr":13025,"Ġindigne":13026,"ĠcanapÃ©":13027,"Ġfoudr":13028,"Ġscie":13029,"apprit":13030,"Ġsouffla":13031,"Ġrendra":13032,"Ġlevres":13033,"Ġjoueurs":13034,"Ġsouple":13035,"ĠexcitÃ©":13036,"Ġexprim":13037,"Ġintermin":13038,"Ġtrouvera":13039,"ĠextrÃ©mitÃ©s":13040,"Ġajoutant":13041,"ĠÃ©garÃ©":13042,"Ġtarda":13043,"ĠdÃ©vouÃ©":13044,"ĠinfÃ¢me":13045,"Ġrampe":13046,"ceptible":13047,"Ġsuffire":13048,"Ġirons":13049,"Ġpapa":13050,"iculous":13051,"ĠdÃ©couvertes":13052,"Ġdemanderai":13053,"Ġpalp":13054,"huile":13055,"ĠmarquÃ©":13056,"Ġtentation":13057,"Ġpreuves":13058,"ĠfatiguÃ©s":13059,"Ġrougeur":13060,"ĠdÃ©clarer":13061,"Ġpasseport":13062,"Ġsaviez":13063,"ĠthÃ©ologie":13064,"exploration":13065,"Ġengage":13066,"ĠarrÃªta":13067,"ĠchangÃ©e":13068,"ĠforcÃ©s":13069,"ĠtravaillÃ©":13070,"Ġcourses":13071,"Ġsuffisant":13072,"Ġdestination":13073,"Ġmillion":13074,"ĠbaissÃ©":13075,"isco":13076,"Ġbread":13077,"Ġprincipalement":13078,"Ġberceau":13079,"excus":13080,"Ġresult":13081,"ĠtraÃ®nÃ©e":13082,"ilips":13083,"Ġaccompagner":13084,"ĠindiquÃ©":13085,"Ġcondamner":13086,"ĠdÃ©sireux":13087,"Ġutiles":13088,"Ġjurons":13089,"OUS":13090,"ĠrenversÃ©e":13091,"ĠdÃ©livrÃ©":13092,"ĠtÃ©moigner":13093,"Ġdessinait":13094,"Ġinjures":13095,"GrÃ¢ce":13096,"Ġprouvait":13097,"Ġpopulace":13098,"Ġcompletely":13099,"Ġentreprendre":13100,"ĠdÃ©penses":13101,"Ġcomparaison":13102,"Ġromans":13103,"appuyant":13104,"ĠramenÃ©":13105,"Ġattaquer":13106,"........................":13107,"ĠarrangÃ©":13108,"Ġbelieved":13109,"Ġforgot":13110,"Ġclient":13111,"Ġredescendre":13112,"ĠmÃ©content":13113,"Ġimprudent":13114,"ĠÃ©ruption":13115,"ĠTorre":13116,"Ġoeuvre":13117,"ĠÃ©nergique":13118,"ĠparallÃ¨le":13119,"Ġbusiness":13120,"aiguille":13121,"ministration":13122,"apitaine":13123,"Ġgrief":13124,"Ġpudeur":13125,"OpÃ©ra":13126,"ĠVandame":13127,"ĠgoÃ©lette":13128,"Ġbroussailles":13129,"ĠGrianta":13130,"Ġredingote":13131,"ĠDuval":13132,"broise":13133,"HÃ©lÃ¨ne":13134,"IE":13135,"MENT":13136,"Pouv":13137,"RIS":13138,"cation":13139,"four":13140,"mais":13141,"mouth":13142,"ubl":13143,"yth":13144,"ĠQU":13145,"Ġustensiles":13146,"Ġdurs":13147,"Ġlien":13148,"Ġlie":13149,"Ġlot":13150,"Ġlier":13151,"Ġpendait":13152,"Ġsanc":13153,"Ġciter":13154,"Ġcuire":13155,"quins":13156,"Ġmac":13157,"Ġdeep":13158,"Ġdecided":13159,"etier":13160,"Ġfill":13161,"ilt":13162,"iture":13163,"Ġnappe":13164,"Ġvom":13165,"Ġvocation":13166,"ĠvÃ´tres":13167,"Ġlaw":13168,"Ġlegs":13169,"Ġrh":13170,"Ġhant":13171,"Ġhoule":13172,"Ġence":13173,"ati":13174,"emand":13175,"Ġrect":13176,"Ġprun":13177,"ĠprÃ®t":13178,"alogue":13179,"Ġneigh":13180,"avy":13181,"avril":13182,"Ġdesire":13183,"oigne":13184,"agard":13185,"agements":13186,"Ġplainte":13187,"iences":13188,"ĠtraÃ®tre":13189,"ontest":13190,"Ġwounded":13191,"oline":13192,"ĠMas":13193,"ĠMorm":13194,"ĠMaÃ®tre":13195,"Ġevent":13196,"Ġsacc":13197,"acqu":13198,"ĠCal":13199,"ĠCarn":13200,"ĠCombien":13201,"sire":13202,"Ġgrises":13203,"ĠgrÃ¢ces":13204,"adÃ©":13205,"geant":13206,"ĠSE":13207,"ĠSeulement":13208,"ĠLaissez":13209,"ĠdÃ©tective":13210,"Ġproven":13211,"Ġconcevoir":13212,"Ġcraignez":13213,"Ġsermon":13214,"chemin":13215,"ĠDou":13216,"ĠDjali":13217,"Ġgrandi":13218,"ĠFiscal":13219,"Ġcarc":13220,"Ġcarton":13221,"Ġ?...":13222,"umÃ©":13223,"Ã©nitÃ©":13224,"ĠrÃ©pondirent":13225,"Ġmesurer":13226,"Ġmanner":13227,"ĠVern":13228,"Ġperche":13229,"Ġremain":13230,"ĠTrois":13231,"ĠÃ©cr":13232,"ĠÃ©coliers":13233,"Ġdemandaient":13234,"Ġmalice":13235,"Ġcompatri":13236,"Ġabaiss":13237,"ĠdÃ©solÃ©e":13238,"ĠÃ©pouse":13239,"Ġretirait":13240,"Ġfortress":13241,"Ġjourney":13242,"Ġrestaur":13243,"ĠcoÃ»ter":13244,"Ġadouc":13245,"Ġdouzaines":13246,"Ġcribl":13247,"Ġcharrette":13248,"Ġsalons":13249,"Ġsourires":13250,"Ġassourd":13251,"Ġassoci":13252,"Ġassumed":13253,"Ġcomprise":13254,"Ġconval":13255,"Ġrevu":13256,"Ġverrai":13257,"Ġverger":13258,"ĠincomprÃ©h":13259,"auds":13260,"ussac":13261,"Ġindiquer":13262,"ĠindÃ©fin":13263,"Ġhautain":13264,"Ġentendus":13265,"Ġphosph":13266,"ustrie":13267,"ĠimpÃ©nÃ©tr":13268,"Ġhastened":13269,"uchart":13270,"ĠpoussÃ©s":13271,"ĠexpÃ©ri":13272,"enfonÃ§a":13273,"ĠrÃ©cits":13274,"Ġtarder":13275,"ĠdÃ©lai":13276,"ĠdÃ©vorer":13277,"affaires":13278,"Ġarranger":13279,"Ġfeatures":13280,"Ġramassa":13281,"Ġtroubles":13282,"Ġcausa":13283,"Ġcouvraient":13284,"ĠquittÃ¨rent":13285,"esterday":13286,"Ġracines":13287,"ĠproposÃ©":13288,"Ġtraitait":13289,"Ġmousquets":13290,"ĠreÃ§oit":13291,"Ġcourtois":13292,"ĠdisposÃ©s":13293,"ĠdÃ©couvrait":13294,"ĠanimÃ©e":13295,"ĠPhilippe":13296,"Ġdivin":13297,"Ġsuccomb":13298,"Ġvases":13299,"Ġpalier":13300,"Ġcampagn":13301,"aker":13302,"Ġfourneau":13303,"Ġformant":13304,"Ġcharmants":13305,"ĠdemeurÃ©":13306,"ĠaperÃ§ue":13307,"ĠÃ©clatait":13308,"ocks":13309,"Ġmoderne":13310,"Ġboeuf":13311,"ounted":13312,"Ġlamp":13313,"Ġconseille":13314,"Ġrisk":13315,"Ġformed":13316,"Ġpromenades":13317,"Ġ23":13318,"Ġchangements":13319,"Ġdevinrent":13320,"Ġconcent":13321,"Ġconcern":13322,"Ġroulant":13323,"Ġdelighted":13324,"ĠprÃ©fÃ©rÃ©":13325,"Ġaimables":13326,"Ġsoutane":13327,"Ġardents":13328,"ĠÃ©criture":13329,"Ġterrasse":13330,"Ġsupposait":13331,"ĠtraÃ®naient":13332,"Ġclear":13333,"Ġsouhaite":13334,"ONS":13335,"ĠVergy":13336,"Ġaccompagnait":13337,"ĠCroix":13338,"ĠInch":13339,"ĠrÃ©servÃ©e":13340,"Ġridiculous":13341,"Ġhardies":13342,"ĠfidÃ¨les":13343,"ĠpÃªle":13344,"Ġsoupirant":13345,"ĠattachÃ©e":13346,"Ġbondit":13347,"Ġportraits":13348,"ĠEstelle":13349,"Ġmiroir":13350,"Ġanglaises":13351,"ĠentourÃ©e":13352,"ĠlÃ¢ches":13353,"ĠtÃ©moignait":13354,"ĠDansaert":13355,"Ġamena":13356,"ĠÃ©tablie":13357,"Ġsoumettre":13358,"Ġaddressed":13359,"ĠdÃ©barquement":13360,"ĠdÃ©barrassÃ©":13361,"ĠdÃ©terminÃ©":13362,"ĠSauvage":13363,"Ġadvance":13364,"ĠfossÃ©":13365,"ĠAmÃ©rique":13366,"Ġinstincts":13367,"Ġmatelot":13368,"entourait":13369,"Ġvacances":13370,"Ġcervelle":13371,"Ġredoublait":13372,"Ġprotestations":13373,"Ãīcoute":13374,"Ġcherchez":13375,"ĠÃ©merveill":13376,"Ġnoblesse":13377,"Ġphilosophie":13378,"Ġeffectivement":13379,"Ġtragique":13380,"ĠtrÃ©sors":13381,"ĠcoÃ»tÃ©":13382,"Ġnarines":13383,"Ġenemies":13384,"Ġfifty":13385,"ĠMonsignore":13386,"ĠRichmond":13387,"Ġstanding":13388,"ĠpÃ©chÃ©":13389,"ĠfacultÃ©s":13390,"Ġworthy":13391,"Ãīvidemment":13392,"Ġbronze":13393,"ĠintÃ©ret":13394,"Ġsexe":13395,"Ġsurrounded":13396,"Ġharnais":13397,"ĠÃītats":13398,"ĠrÃ©vÃ©rend":13399,"Ġzoophytes":13400,"ENDRE":13401,"Ġinsuffis":13402,"ĠgÃªner":13403,"rnest":13404,"ĠÃ©glises":13405,"AM":13406,"Cent":13407,"cote":13408,"fa":13409,"fais":13410,"pre":13411,"pÃ¨re":13412,"wal":13413,"Ġdat":13414,"enlev":13415,"Ġpill":13416,"Ġpock":13417,"Ġpick":13418,"ĠpÃªcher":13419,"Ġsun":13420,"ouÃ¯":13421,"Ġcouss":13422,"Ġcueill":13423,"Ġdeter":13424,"inn":13425,"indiff":13426,"Ġfert":13427,"iletÃ©":13428,"aris":13429,"artement":13430,"itÃ¨rent":13431,"ĠnÃ´tre":13432,"Ġboc":13433,"eliers":13434,"Ġjoin":13435,"oresc":13436,"Ġraille":13437,"Ġriaient":13438,"Ġhair":13439,"Ġhost":13440,"Ã©tiez":13441,"iraient":13442,"atig":13443,"ĠavancÃ©":13444,"ĠgÃªne":13445,"Ġprime":13446,"chal":13447,"aviron":13448,"Ġtrac":13449,"Ġcomique":13450,"Ġchope":13451,"olence":13452,"ecd":13453,"Ã©criture":13454,"Ã©preuve":13455,"ĠCoictier":13456,"Ġgrad":13457,"ival":13458,"Ġaliment":13459,"Ã¨ses":13460,"ĠLomb":13461,"Ġprog":13462,"empereur":13463,"ĠrÃ©pÃ©tÃ©":13464,"isseurs":13465,"ĠBat":13466,"Ġalliez":13467,"ĠallÃ¢mes":13468,"assion":13469,"ĠGregson":13470,"ĠGonzo":13471,"ignÃ©e":13472,"ĠII":13473,"ĠIII":13474,"Ġperron":13475,"cherie":13476,"ĠHorscroft":13477,"encontre":13478,"Ġtempes":13479,"ĠtempÃªtes":13480,"Ġremuait":13481,"ĠToute":13482,"Ġpointes":13483,"Ġcommod":13484,"Ġcompart":13485,"Ġapporte":13486,"ĠabÃ®me":13487,"Ġattached":13488,"road":13489,"obin":13490,"exasp":13491,"arement":13492,"omptu":13493,"Ã©lÃ¨ve":13494,"ĠcoÃ»te":13495,"Ġcorons":13496,"Ġstop":13497,"Ġstarted":13498,"ĠblÃ¢me":13499,"Ġbouches":13500,"iquette":13501,"Ġvivais":13502,"ochet":13503,"Ġcharn":13504,"Ġnone":13505,"Ġpleurs":13506,"Ġsales":13507,"Ġinstitut":13508,"ĠChÃ¢teau":13509,"Ġempreintes":13510,"ĠprÃ©sents":13511,"Ġservaient":13512,"Ġassomm":13513,"Ġreviens":13514,"Ġsaisis":13515,"ĠParvis":13516,"Ã©chal":13517,"Ġindulg":13518,"Ġcanots":13519,"Ġfondit":13520,"Ġscint":13521,"ommages":13522,"Ġcalma":13523,"Ġrefaire":13524,"ĠWar":13525,"ĠexcÃ¨s":13526,"Ġpropose":13527,"Ġinterpr":13528,"Ġpassera":13529,"Ġ100":13530,"Ġpoliment":13531,"ĠrÃ©crÃ©":13532,"Ġbarres":13533,"ĠretournÃ©":13534,"Ġbalay":13535,"Ã©pargn":13536,"Ġinfir":13537,"Ġramenait":13538,"Ġendur":13539,"ossÃ©":13540,"Ġsuffira":13541,"ĠlittÃ©r":13542,"Ġdessert":13543,"habitation":13544,"ĠtraitÃ©e":13545,"ĠsauvÃ©s":13546,"Ġoubliez":13547,"Ġpalm":13548,"horrible":13549,"envah":13550,"ĠconsidÃ©ra":13551,"Ġbattue":13552,"Ġcollet":13553,"Ġactive":13554,"ĠrÃ©vÃ©rence":13555,"Ġobserved":13556,"ocked":13557,"reek":13558,"Ġcuisses":13559,"ĠthÃ©ories":13560,"ĠÃ©clairs":13561,"Ġengourd":13562,"ĠprÃ©voy":13563,"ĠsÃ©parÃ©s":13564,"Ġdescendus":13565,"Ġroulaient":13566,"Ġjugeait":13567,"Ġhurla":13568,"fortune":13569,"Ġrejoint":13570,"Ġbetes":13571,"ĠhÃ©sitait":13572,"ĠrÃ©unir":13573,"ĠfermÃ©es":13574,"Ġsuspic":13575,"Ġtorp":13576,"ophie":13577,"Ġappelez":13578,"Ġfrissonnant":13579,"Ġsouhaitait":13580,"ĠmÃ©nager":13581,"ĠÃ©loignÃ©s":13582,"ridge":13583,"abandonnait":13584,"ĠallumÃ©e":13585,"Ġlourdement":13586,"ĠreprÃ©sentant":13587,"Ġignorant":13588,"Ġ181":13589,"Ġturning":13590,"ĠtimiditÃ©":13591,"Ġsoupirs":13592,"Ġembrasser":13593,"Ġobstin":13594,"ĠrÃ©pandre":13595,"Ġdette":13596,"Ġrepousser":13597,"mÃªle":13598,"ĠÃ©crasÃ©":13599,"Ġroyal":13600,"Ġrenferm":13601,"Ġcalculs":13602,"Ġpunir":13603,"Ġcherchai":13604,"ĠprÃ©occupation":13605,"Ġassurance":13606,"ĠrÃªvÃ©":13607,"ĠtÃ¢chait":13608,"Ġbizarres":13609,"ĠUN":13610,"Ġpresented":13611,"ĠgÃ©nÃ©reuse":13612,"Ġaccourut":13613,"Ġmaudite":13614,"ĠMouque":13615,"ĠÃ©veillÃ©":13616,"extÃ©rieur":13617,"Harrison":13618,"Ġsyll":13619,"Ġmolle":13620,"Ġrecueillir":13621,"Ġcirculaire":13622,"Ġadversaires":13623,"ĠrÃ©solutions":13624,"Ġprolonger":13625,"Ġsensiblement":13626,"Ġchiffres":13627,"ĠincrÃ©d":13628,"Ġsottises":13629,"Ġwalked":13630,"Ġmaintenait":13631,"Ġimplac":13632,"ĠÃ©tourdi":13633,"Ġhocha":13634,"Ġneuve":13635,"Ġstreets":13636,"Ġwaiting":13637,"ĠresponsabilitÃ©":13638,"Ġrevolver":13639,"ĠblÃ¢mer":13640,"Ġpittoresque":13641,"ĠHollandais":13642,"ĠdÃ©faite":13643,"ĠÃ©toffes":13644,"Ġmountains":13645,"ĠLorsque":13646,"Ġspeech":13647,"Ġtribunal":13648,"Ġtrajet":13649,"Ġwretched":13650,"Ġcrayon":13651,"Ġdiplom":13652,"ĠtiÃ¨de":13653,"ĠOliver":13654,".............................":13655,"ENDREDI":13656,"Demain":13657,"Not":13658,"PAR":13659,"Suiv":13660,"col":13661,"gong":13662,"lÃ©es":13663,"nement":13664,"enr":13665,"Ġpelle":13666,"Ġsui":13667,"Ġsister":13668,"ĠmÃ®mes":13669,"Ġmoque":13670,"Ġmordre":13671,"ĠmÃ¨che":13672,"Ġtact":13673,"Ġtiend":13674,"entine":13675,"inier":13676,"ĠfÃ©ro":13677,"Ġfauves":13678,"iliser":13679,"ism":13680,"itieux":13681,"Ġnappes":13682,"ĠvoÃ»t":13683,"Ġvendredi":13684,"Ġlate":13685,"elÃ©es":13686,"Ġraill":13687,"Ġraies":13688,"Ġrapprocher":13689,"Ã©tourd":13690,"Ã©tonner":13691,"urier":13692,"Ġenver":13693,"ĠprÃ©p":13694,"Ġprenais":13695,"alien":13696,"oient":13697,"Ġplum":13698,"Ġplaint":13699,"Ġplaines":13700,"ĠplantÃ©":13701,"Ġtrent":13702,"ĠtracÃ©":13703,"Ġdugong":13704,"Ġinattend":13705,"utely":13706,"aphe":13707,"imb":13708,"ĠCraw":13709,"ĠPaquette":13710,"oyen":13711,"ĠSoyez":13712,"ĠSacca":13713,"Ġdisons":13714,"Ġconte":13715,"ĠfrÃ´":13716,"Ġbranch":13717,"ĠAustri":13718,"Ġserre":13719,"Ġseras":13720,"outed":13721,"ĠrÃ©par":13722,"Ġastr":13723,"ensÃ©e":13724,"ĠdeuxiÃ¨me":13725,"Ġmarry":13726,"ĠBut":13727,"ĠDi":13728,"ĠDuc":13729,"Ġpasserait":13730,"ĠJustin":13731,"ĠJoseph":13732,"Ġpartant":13733,"allÃ©es":13734,"allongeait":13735,"ĠNorm":13736,"ĠNanine":13737,"vered":13738,"Ġfutur":13739,"Ġtrouvent":13740,"ĠrÃ©alis":13741,"cies":13742,"igner":13743,"ĠVa":13744,"Ġremua":13745,"ĠÃ©cole":13746,"Ġtoux":13747,"Ã©ger":13748,"Ġabrit":13749,"ĠÃ©pis":13750,"ĠÃ©preuve":13751,"ĠdÃ©cis":13752,"ĠdÃ©clin":13753,"Ġferaient":13754,"exemple":13755,"existait":13756,"Ġclub":13757,"Ġmontrai":13758,"Ã©lÃ©r":13759,"lys":13760,"Ġcoq":13761,"Ġcoquet":13762,"Ġflor":13763,"Ġcorner":13764,"auriez":13765,"Ãīglise":13766,"Ġmyster":13767,"Ġnonchal":13768,"ervaise":13769,"Ġempire":13770,"ĠtombÃ©s":13771,"Ġcomprenais":13772,"ĠdÃ©tours":13773,"Ġvern":13774,"Ġincl":13775,"icious":13776,"ĠjetÃ¨rent":13777,"Ġshouted":13778,"Ġvolt":13779,"Ġconfection":13780,"Ġinstead":13781,"Ġreconnue":13782,"Ġrapporte":13783,"Ġoffered":13784,"Ġscore":13785,"Ġscud":13786,"acht":13787,"Ġrendus":13788,"Ġrendirent":13789,"Ġcalmes":13790,"accrois":13791,"Ġimpit":13792,"Ġdonnerais":13793,"ĠPrenez":13794,"Ġhumains":13795,"Ġgardaient":13796,"Ġguard":13797,"Ġ19":13798,"Ġcontrari":13799,"ĠÃīlisa":13800,"Ġpolic":13801,"Ġfenetres":13802,"Ġriviere":13803,"Ġrelativement":13804,"Ġredou":13805,"Ġcouvre":13806,
[...]
